<pad>	0
<s>	0
</s>	0
<unk>	0
▁.	-2.56493
을	-3.57639
요	-3.61616
는	-3.87004
를	-4.06003
▁나는	-4.15109
의	-4.273
은	-4.30396
가	-4.40406
▁	-4.45785
▁?	-4.49564
▁그	-4.51512
에	-4.81256
습니다	-4.90951
고	-4.96555
▁,	-4.98382
▁수	-5.08572
이	-5.09926
▁내가	-5.10461
도	-5.11723
다	-5.22067
입니다	-5.39324
▁것	-5.44655
▁내	-5.45104
합니다	-5.48676
▁나	-5.49777
한	-5.54282
▁있어	-5.55356
▁당신이	-5.59935
▁그녀	-5.60486
▁당신은	-5.61208
로	-5.61892
▁너	-5.6343
서	-5.6783
게	-5.69697
으로	-5.72871
▁있습니다	-5.75207
지	-5.91544
▁당신	-6.05336
과	-6.0574
▁난	-6.07401
▁당신의	-6.08285
세요	-6.08919
와	-6.12652
에서	-6.13456
하고	-6.16233
▁있는	-6.16366
▁더	-6.17892
▁이	-6.18584
나	-6.20553
까	-6.21657
면	-6.22532
▁잘	-6.26619
▁거	-6.27215
▁때	-6.30051
▁우리	-6.30633
▁그리고	-6.30842
▁그들	-6.3109
▁해	-6.35094
▁네가	-6.36403
▁일	-6.36814
▁할	-6.37935
야	-6.39261
▁한	-6.41258
▁그것	-6.43056
할	-6.44634
해요	-6.46304
히	-6.46325
만	-6.46605
▁싶어	-6.497
▁안	-6.49973
▁것이	-6.51638
▁친구	-6.59793
▁지금	-6.59944
▁너무	-6.60737
▁많이	-6.6124
▁오늘	-6.61359
▁그래서	-6.61426
예	-6.63476
어요	-6.63717
▁다른	-6.64796
▁저	-6.65635
▁제	-6.67726
▁가장	-6.71419
▁내일	-6.71791
▁1	-6.73645
▁위해	-6.74108
▁것을	-6.75069
인	-6.7626
▁두	-6.77724
▁2	-6.78238
▁사람	-6.78973
▁다시	-6.79062
▁좋은	-6.81612
▁정말	-6.81632
▁다음	-6.81769
▁많은	-6.82055
▁함께	-6.84377
▁못	-6.84518
▁때문에	-6.84878
▁거야	-6.84913
▁주	-6.86079
이에	-6.86562
▁다	-6.89592
▁네	-6.89921
▁하고	-6.91565
▁3	-6.94256
▁않아	-6.94706
▁같아	-6.95051
▁없어	-6.95567
했습니다	-6.96179
▁하는	-6.96604
며	-6.99313
▁했어	-6.99338
▁나에게	-7.00305
니	-7.01078
▁게	-7.03474
▁말	-7.06579
일	-7.06857
으면	-7.08674
▁대해	-7.09743
월	-7.0981
하게	-7.09985
상	-7.10124
▁싶	-7.10279
에게	-7.11377
▁남자	-7.11439
기	-7.12143
▁당신에게	-7.12169
▁있나	-7.12351
길	-7.12984
지만	-7.13337
▁시간	-7.13688
▁없	-7.13791
▁중	-7.14246
▁줄	-7.14306
▁좀	-7.1436
▁보내	-7.15413
▁제품	-7.15767
▁여행	-7.1679
해서	-7.1683
년	-7.16884
운	-7.17543
▁갈	-7.17763
▁생각	-7.17872
▁영어	-7.18186
겠습니다	-7.2023
▁같이	-7.2026
▁대한	-7.21284
던	-7.21503
▁어떻게	-7.22081
▁사람이	-7.23191
▁여자	-7.23325
▁사진	-7.24413
▁어떤	-7.25764
니다	-7.26225
▁항	-7.26963
▁왜	-7.27518
▁보고	-7.27658
도록	-7.27714
▁알고	-7.29149
적인	-7.29759
▁매우	-7.30992
된	-7.31172
▁바랍니	-7.31702
▁영화	-7.32087
▁한국	-7.33611
▁있	-7.34014
▁나도	-7.3544
▁좋아하는	-7.3698
▁5	-7.3729
▁문제	-7.37359
▁않	-7.38722
▁좋아	-7.39078
▁생각해	-7.39316
▁가지고	-7.4079
▁그럼	-7.41249
▁주세	-7.41725
▁그러나	-7.42429
▁하나	-7.42868
▁집에	-7.43065
죠	-7.44093
▁전에	-7.46643
하여	-7.46695
▁또	-7.47401
▁한국에	-7.47778
▁날	-7.47824
▁있다	-7.48247
하지	-7.48296
▁있을	-7.48436
▁후	-7.48801
▁가지	-7.49919
하는	-7.50443
▁같아요	-7.50752
었습니다	-7.5081
▁모든	-7.51439
▁몇	-7.52042
들이	-7.526
라고	-7.53102
까지	-7.53718
▁같은	-7.54248
▁됩니	-7.548
▁공부	-7.54951
▁될	-7.55464
▁일이	-7.55786
▁10	-7.55996
▁얼마	-7.57075
▁아직	-7.57139
▁언제	-7.57183
▁좋겠어	-7.57744
▁건	-7.58341
▁전	-7.58788
▁꼭	-7.59561
▁음식	-7.60156
▁4	-7.60908
▁a	-7.61671
▁당신과	-7.61787
▁하지	-7.61967
보다	-7.62444
▁아니	-7.64055
부터	-7.6506
▁걸	-7.65141
다면	-7.65186
▁있었	-7.6527
▁동안	-7.65434
▁오	-7.65604
▁어제	-7.65889
▁큰	-7.66149
▁책	-7.66848
▁바라	-7.67323
▁이번	-7.69831
▁그렇게	-7.70943
▁시간이	-7.712
▁회사	-7.71317
▁번	-7.72078
▁그런데	-7.72579
▁했습니다	-7.73349
▁가	-7.75162
▁모두	-7.75168
▁너에게	-7.75447
▁돼	-7.7565
▁위	-7.75819
▁그런	-7.77113
▁열심	-7.77388
▁집	-7.79225
건	-7.79318
자	-7.79751
▁계속	-7.79766
▁볼	-7.80152
▁확인	-7.80872
▁그냥	-7.81063
▁마	-7.81625
▁전화	-7.8186
네	-7.81924
▁만나	-7.8243
▁마음	-7.82694
▁해야	-7.83908
▁새로	-7.8411
처럼	-7.84381
▁조금	-7.84461
▁꿈	-7.84561
▁자신	-7.84678
▁가는	-7.84974
▁수업	-7.85255
▁있습니	-7.8618
▁6	-7.8676
▁다양	-7.87933
엔	-7.88478
▁있어서	-7.88932
랑	-7.89221
▁사람들	-7.89566
▁있었어	-7.89581
▁위해서	-7.8982
▁보	-7.90061
▁무	-7.90139
▁후에	-7.90173
▁나와	-7.90601
▁정도	-7.91615
▁원	-7.91995
▁돈을	-7.92166
▁아주	-7.92656
▁빨리	-7.93452
▁살	-7.93655
▁아무	-7.93685
▁차	-7.95138
하면	-7.95633
▁대해서	-7.96412
▁같	-7.96436
▁알	-7.96528
▁무엇	-7.96562
라는	-7.96999
▁사랑	-7.9716
▁좋	-7.97257
▁이름	-7.97616
▁정보	-7.97888
다고	-7.98241
▁않았	-7.9829
▁생각합니다	-7.98728
이야	-7.99345
▁알려주	-7.99357
▁이제	-7.99898
▁있으면	-8.00019
시	-8.00243
는데	-8.00357
했어	-8.00753
립니	-8.00771
▁번째	-8.00942
▁너희	-8.01235
▁가고	-8.02073
▁좋아해	-8.02128
▁바로	-8.03297
▁처음	-8.03319
번	-8.03897
▁넌	-8.04564
▁때문	-8.04661
▁올	-8.04847
▁하	-8.05154
▁제일	-8.05192
슨	-8.05737
▁중에	-8.06303
▁되었습니다	-8.06541
▁주문	-8.06916
▁통해	-8.06919
▁관심	-8.07042
▁않았어	-8.07084
▁가서	-8.08499
됩니	-8.09201
▁한국에서	-8.10167
▁본	-8.10518
▁이유는	-8.10989
해야	-8.11016
▁가격	-8.11499
▁없는	-8.12008
▁결과	-8.12099
▁싶은	-8.12522
진	-8.12544
▁나중에	-8.12559
▁가족	-8.12668
들	-8.12693
▁사	-8.12809
▁먼저	-8.12846
▁b	-8.1288
▁해서	-8.13344
▁갑	-8.13533
▁7	-8.13554
▁많아	-8.14077
▁내용	-8.14286
▁있을까	-8.1452
▁너와	-8.14539
러	-8.15218
▁준비	-8.15303
들을	-8.15478
▁되어	-8.15576
▁메일	-8.15595
하세요	-8.15854
▁요청	-8.15966
▁자기	-8.15968
시에	-8.16096
▁적이	-8.16104
▁혼자	-8.16858
개	-8.16911
▁않고	-8.16971
▁지	-8.16976
▁자주	-8.17119
▁뭐	-8.17495
적으로	-8.17803
▁겁니다	-8.18268
▁이유	-8.18493
▁게임	-8.19077
▁그때	-8.19105
▁계획	-8.19587
▁학교	-8.19648
▁나한테	-8.19688
▁노래	-8.19865
▁온	-8.20035
▁추가	-8.20113
▁이것	-8.20288
▁받	-8.20714
▁들	-8.21035
▁다음에	-8.21202
▁만들어	-8.21222
▁여러	-8.21344
▁친구들	-8.21462
▁곳	-8.22136
▁왔어	-8.22646
▁봐	-8.2296
▁매일	-8.22978
▁이상	-8.22987
▁여기	-8.23508
▁그래	-8.23705
▁먹고	-8.23733
▁점	-8.24077
▁한번	-8.24241
▁20	-8.24464
▁사용	-8.24562
▁잘못	-8.24699
▁저녁	-8.24841
▁그러	-8.25157
▁기회	-8.25785
▁되는	-8.26096
▁아이	-8.26333
될	-8.27295
▁아니라	-8.27332
▁방법	-8.2785
▁보여	-8.281
▁갔어	-8.28259
▁들어	-8.28302
▁이미	-8.28419
이라고	-8.28932
▁필요한	-8.29156
▁집에서	-8.29193
▁개	-8.2944
▁따라	-8.29604
시면	-8.29636
▁선물	-8.299
▁필요	-8.29924
▁등	-8.30175
▁자	-8.30549
▁9	-8.30589
▁방	-8.30996
주	-8.30998
▁왔	-8.31415
므	-8.3143
월에	-8.31473
▁돈	-8.31893
일에	-8.31905
▁있다고	-8.32001
▁그러면	-8.32068
▁8	-8.32082
▁직접	-8.32593
▁있는지	-8.32669
▁고객	-8.32966
해	-8.33044
기를	-8.33078
▁예정입니다	-8.33105
거	-8.33169
▁이야기	-8.33334
▁주에	-8.33738
▁음악	-8.33764
▁받을	-8.33889
라	-8.33923
▁술	-8.33939
▁현재	-8.34112
▁하루	-8.34268
▁사람들이	-8.34651
▁준	-8.34877
▁물건	-8.34908
▁메시지	-8.35358
▁일찍	-8.35363
이나	-8.35397
▁기다리	-8.35832
▁되고	-8.35863
▁잠	-8.35867
▁원하는	-8.35984
▁관련	-8.36012
하기	-8.36196
▁살고	-8.36425
▁그것이	-8.36914
▁대부분	-8.37168
▁예약	-8.3721
▁타고	-8.37797
▁곧	-8.37813
▁건가	-8.38195
▁남	-8.38352
군	-8.38362
▁하면	-8.38417
▁없이	-8.38436
▁널	-8.38619
▁이렇게	-8.38619
▁마음이	-8.38646
▁알아	-8.38715
▁우리에게	-8.39287
▁경우	-8.39467
분	-8.39834
▁000	-8.39872
▁중요한	-8.39933
▁될까	-8.40327
▁지내	-8.40519
▁그곳	-8.40522
▁때문이	-8.4063
▁아래	-8.4064
▁가끔	-8.40709
니까	-8.4074
▁!	-8.41135
▁않을	-8.41139
▁않는	-8.41324
및	-8.41561
▁않은	-8.41567
▁삶	-8.41642
▁결혼	-8.41904
▁건강	-8.42434
▁세	-8.4244
▁이런	-8.42487
▁데	-8.42498
▁시	-8.42962
▁눈	-8.42979
▁모습	-8.43232
대로	-8.43267
▁기분이	-8.43337
▁요즘	-8.43634
▁저에게	-8.43776
▁부탁	-8.44135
▁학교에	-8.44394
▁친구와	-8.44665
▁어느	-8.45032
▁있고	-8.45078
▁받아	-8.45212
▁저희	-8.45486
▁사는	-8.45866
▁보면	-8.46996
▁일정	-8.47027
드립	-8.47477
▁각	-8.47868
▁12	-8.47924
▁되	-8.47972
▁길	-8.48117
▁만날	-8.48304
▁30	-8.48357
▁봤어	-8.48739
▁원해	-8.48858
▁대화	-8.48862
▁것으로	-8.48982
▁갔	-8.49086
▁나라	-8.49295
▁엄마	-8.49376
▁친구들과	-8.49921
▁있다면	-8.49948
▁그곳에	-8.50084
▁하기	-8.50115
▁서비스	-8.50188
어	-8.50215
▁된	-8.50391
▁최고	-8.50451
▁도움	-8.50468
▁적	-8.5055
▁거에	-8.50615
▁서류	-8.51022
자기	-8.51026
▁가야	-8.51165
▁진행	-8.51192
▁가면	-8.51382
▁미안해	-8.51462
▁생활	-8.51507
▁도움이	-8.51562
▁생각에	-8.51604
▁옷을	-8.52508
▁작업	-8.52581
▁많	-8.52719
▁들었어	-8.52775
▁아침	-8.52902
▁반	-8.52933
▁얘기	-8.53148
▁경험	-8.53589
▁받았	-8.54112
▁부탁드	-8.54207
▁모르겠어	-8.54337
▁연락	-8.54339
▁가능한	-8.54422
▁그에게	-8.54698
▁날씨	-8.54796
▁것에	-8.54982
▁되면	-8.5527
▁대신	-8.55623
▁노력	-8.55687
▁되나	-8.5601
▁가능	-8.56458
▁오면	-8.56475
▁요리	-8.56629
▁말고	-8.56883
▁와서	-8.57063
▁옆에	-8.57222
▁시험	-8.57553
▁걱정	-8.57865
▁의미	-8.57898
대	-8.58181
▁더욱	-8.58283
▁싫어	-8.58416
▁듣	-8.58584
▁이메일	-8.58723
▁주고	-8.59002
▁너한테	-8.59026
▁인해	-8.59641
이라는	-8.59643
▁받고	-8.59852
▁오래	-8.59927
▁생각이	-8.60123
▁행동	-8.60402
▁번호	-8.60533
▁알려	-8.60773
▁몰라	-8.60841
▁좋을	-8.60946
▁첫	-8.61274
▁결제	-8.6136
라도	-8.61932
▁행복	-8.62088
▁참	-8.62495
면서	-8.62653
▁안에	-8.62915
▁손	-8.62925
▁감사합니다	-8.63263
▁달	-8.63363
▁좋아요	-8.63368
▁누가	-8.63578
▁핸드폰	-8.63959
▁활동	-8.6401
▁간	-8.64084
▁약	-8.643
었어요	-8.64385
려고	-8.64433
▁줄게	-8.6448
▁말이	-8.64538
▁밥	-8.64587
▁내게	-8.64663
했던	-8.65136
▁먹을	-8.65228
▁아버지	-8.65556
▁자료	-8.65654
▁수도	-8.65789
▁주소	-8.65839
▁버스	-8.65945
▁필요해	-8.66135
▁내년에	-8.66148
▁구매	-8.66326
▁시작	-8.66412
▁싶지	-8.66519
▁답변	-8.66994
▁상품	-8.67167
▁말해	-8.6741
▁이야기를	-8.67411
▁싶다	-8.67722
▁커피	-8.67759
▁서로	-8.67984
▁결국	-8.67995
▁보낸	-8.68068
▁약속	-8.68303
▁대학	-8.68313
▁부분	-8.68428
▁머리	-8.68659
▁파일	-8.68721
▁되었어	-8.68755
것	-8.6889
▁필요합니다	-8.68946
▁편지	-8.69145
▁강	-8.69325
▁늦게	-8.69563
▁귀사	-8.69584
▁남편	-8.69775
▁그곳에서	-8.70112
▁그렇다	-8.70208
▁있지	-8.70645
▁키	-8.709
▁줘	-8.71149
▁앞으로	-8.7169
▁그녀에게	-8.72025
선	-8.72054
▁예정이	-8.72284
▁갖고	-8.7237
▁일주일	-8.72408
▁디자인	-8.72487
▁호텔	-8.72517
▁딸	-8.72746
▁있게	-8.7286
신	-8.72882
▁주는	-8.72927
▁판매	-8.73046
▁중이	-8.73251
▁식사	-8.73557
입니	-8.736
▁너랑	-8.73675
▁없었어	-8.7391
▁장소	-8.7396
▁보냈	-8.74004
▁고마워	-8.74025
▁강아지	-8.74096
▁유명한	-8.74103
▁해주	-8.74236
▁가방	-8.74248
▁배	-8.74259
▁선생님	-8.74384
▁열	-8.74424
▁프로그램	-8.74459
▁샘플	-8.74681
▁카드	-8.74785
▁있다는	-8.74821
▁가게	-8.7485
▁못해	-8.74937
▁일본	-8.75009
▁그동안	-8.7658
실	-8.76721
▁먹어	-8.76752
▁거기에	-8.76755
▁누군가	-8.76882
▁자세	-8.77127
▁누구	-8.77422
▁기대	-8.77736
거야	-8.77819
▁아들	-8.77961
▁직업	-8.78268
▁컴퓨터	-8.78338
한테	-8.78483
▁있는데	-8.78606
▁검사	-8.78981
▁고양이	-8.79179
시오	-8.79187
▁운동	-8.7936
▁비용	-8.79421
점	-8.79477
▁경기	-8.79697
▁눈이	-8.79698
시간	-8.79741
▁한국의	-8.79872
▁아	-8.80048
▁남자친구	-8.80051
▁교육	-8.80094
▁그렇	-8.80338
▁보내주	-8.80372
▁보는	-8.80457
▁지난	-8.80591
셔서	-8.80596
▁감사	-8.80695
▁받았어	-8.80803
▁절대	-8.80972
▁보낼	-8.80997
개의	-8.81054
▁업무	-8.81085
▁아름다	-8.81689
▁나머지	-8.82001
▁비행기	-8.8217
▁11	-8.82321
▁어디	-8.82375
▁있기	-8.8241
▁결정	-8.82764
▁즐겁	-8.83014
▁아닌	-8.83041
▁휴가	-8.83052
▁오는	-8.83119
▁새	-8.83416
원	-8.83534
종	-8.83598
▁세계	-8.83629
▁늘	-8.83632
▁그거	-8.83845
▁아이들	-8.83892
가요	-8.84209
▁살아	-8.84234
▁시에	-8.8425
▁부모님	-8.84301
▁되지	-8.84311
▁100	-8.84472
▁이해	-8.84583
▁아닙니	-8.8459
인데	-8.84678
란	-8.84696
▁생일	-8.84743
▁나랑	-8.85003
▁높은	-8.8523
▁멋진	-8.85251
▁수량	-8.85356
▁끝나	-8.85584
▁여	-8.85766
▁말했어	-8.85905
▁못했어	-8.85977
▁중에서	-8.86584
▁하겠	-8.86839
▁그날	-8.8698
▁만들	-8.86987
▁타	-8.87286
▁그렇기	-8.87423
▁개발	-8.87465
▁단지	-8.8752
▁연락을	-8.87823
▁진짜	-8.87924
밖에	-8.87925
▁답장	-8.88074
하러	-8.88106
▁영향	-8.88148
▁꽃	-8.88251
▁힘들어	-8.88343
▁굉장	-8.88603
▁않으면	-8.88641
▁돈이	-8.88704
▁위에	-8.88777
▁가기	-8.88876
▁작은	-8.88888
▁된다	-8.88966
▁맛있는	-8.88976
▁첨부	-8.89138
▁어디에	-8.89153
▁와	-8.89315
▁마음에	-8.89532
되었습니다	-8.89722
▁찍	-8.9002
▁집으로	-8.90504
▁덕분	-8.90685
▁그걸	-8.90733
▁월요일에	-8.90748
▁개인	-8.9088
▁그렇지	-8.90983
▁아침에	-8.9114
▁먹었어	-8.91189
▁지금까지	-8.91216
▁입	-8.91422
▁문화	-8.91487
▁중국	-8.91539
▁나이	-8.91622
▁테스트	-8.91946
▁기존	-8.91957
▁갔다	-8.92066
▁기	-8.9211
질	-8.92266
달러	-8.92276
▁말한	-8.92393
▁가진	-8.92469
▁행복한	-8.92617
▁근데	-8.92786
▁고등학교	-8.93232
데	-8.93398
▁자신이	-8.93421
▁도착	-8.9353
하려고	-8.93692
▁받지	-8.93831
▁드	-8.94009
▁종류	-8.94075
▁대로	-8.94487
▁비	-8.94518
▁금액	-8.9452
▁만	-8.94578
▁회사에서	-8.94608
▁읽	-8.9465
▁사랑하는	-8.94935
▁선적	-8.94956
▁만큼	-8.94966
▁하는데	-8.95112
▁목표	-8.95203
▁확인해	-8.95242
▁알았어	-8.95293
▁소리	-8.95298
▁행복해	-8.95429
▁김치	-8.95457
▁편	-8.95492
▁보통	-8.95683
▁기분	-8.95717
구나	-8.95884
▁관계	-8.95961
되어	-8.95976
▁좋아하지	-8.96176
인지	-8.96178
▁친구들이	-8.962
▁여기에	-8.9625
▁문	-8.96376
▁생각하는	-8.96617
▁없어서	-8.96714
▁명	-8.96754
▁차이	-8.97164
▁좋겠	-8.97178
로부터	-8.97221
▁한국어	-8.97351
▁상태	-8.97414
▁스트레스	-8.97505
▁사실	-8.97577
▁성격	-8.977
▁점심	-8.97758
▁어때	-8.97897
▁의견	-8.97955
▁보러	-8.97985
차	-8.98001
▁만든	-8.98052
▁놀	-8.98149
▁것처럼	-8.9848
▁생각했어	-8.98542
집니다	-8.98575
▁사항	-8.98576
▁c	-8.98827
▁주말에	-8.99151
▁회사에	-8.99291
▁여자친구	-8.99424
▁인터넷	-8.99721
▁거기	-8.99755
▁학생	-8.99913
▁최선	-8.99958
▁글	-9.00108
▁변경	-9.00326
▁문의	-9.00399
▁15	-9.00511
▁됐어	-9.0077
▁미국	-9.00872
▁교수님	-9.01231
▁필리핀에	-9.01353
▁좋지	-9.01519
▁계약	-9.01734
▁얼굴	-9.01794
줍니	-9.02159
▁얻	-9.02183
▁나서	-9.02185
▁크	-9.02222
▁방문	-9.02308
함	-9.02365
▁한다고	-9.02472
▁각각	-9.02496
▁먹	-9.02665
▁사용할	-9.02846
▁생산	-9.02995
▁제품이	-9.02997
▁보기	-9.03106
달라고	-9.03169
▁실수	-9.03185
개월	-9.03205
▁사고	-9.03341
▁가족들과	-9.03431
▁주로	-9.03497
▁단	-9.03508
▁상황	-9.03616
▁된다면	-9.03717
▁입고	-9.03891
▁되기	-9.04104
마다	-9.04194
▁달라	-9.04277
였	-9.0469
▁즐거운	-9.04877
▁힘든	-9.04893
▁매	-9.05042
▁몸	-9.0527
▁기술	-9.05297
혀	-9.05494
▁들었	-9.05502
▁깊	-9.05729
▁있으	-9.05857
▁만드는	-9.0593
▁기억	-9.0594
▁뒤에	-9.0599
▁필리핀	-9.06071
▁근처에	-9.06122
▁했	-9.06173
어서	-9.06242
린	-9.06382
▁때는	-9.06462
▁오후	-9.06464
▁가까운	-9.06481
▁취미	-9.06498
▁역시	-9.06538
▁봤	-9.06662
▁표현	-9.07021
▁지원	-9.0705
▁실력	-9.07059
쉽게	-9.07149
▁출장	-9.07186
▁김	-9.07196
▁시간에	-9.07234
▁진심	-9.07252
▁일에	-9.074
▁특별한	-9.07495
▁도시	-9.07502
긴	-9.07654
▁19	-9.07674
▁그림	-9.07938
▁산	-9.08049
▁가능하	-9.08106
▁운동을	-9.08573
는지	-9.08716
▁선택	-9.08826
▁제공	-9.0928
▁번째로	-9.09287
▁드리겠	-9.09428
▁별로	-9.09455
▁공연	-9.09466
▁뒤	-9.09566
▁배송	-9.09569
▁가족과	-9.09588
▁외국인	-9.09625
▁저녁에	-9.09637
본	-9.09857
▁말하는	-9.09918
▁마지막	-9.10046
▁때까지	-9.10108
▁곳이	-9.10111
한다면	-9.10209
▁들을	-9.10603
▁잊지	-9.10662
▁무엇인가	-9.10685
▁옷	-9.10919
▁짐	-9.10924
▁생각하	-9.10958
▁싶었어	-9.10977
▁여기서	-9.11469
살	-9.115
▁대하여	-9.11576
동안	-9.11657
▁도와주	-9.11824
▁소식	-9.11946
▁개의	-9.12159
▁밤	-9.12337
▁곳에	-9.1236
▁달에	-9.12503
▁심	-9.12576
▁대	-9.12668
▁주기	-9.12677
▁기뻐	-9.12697
▁모	-9.12766
▁물	-9.12897
▁관해	-9.12919
아	-9.12949
▁갈게	-9.13019
▁갑니	-9.13097
▁아마	-9.13253
▁보니	-9.13268
▁포함	-9.13273
▁거짓말	-9.13541
▁프로젝트	-9.13603
▁성공	-9.13614
▁이러	-9.13712
▁둘	-9.13788
▁없다	-9.1398
▁없었	-9.14004
▁만약	-9.14129
▁신경	-9.1475
▁데이터	-9.14771
▁아빠	-9.14918
▁불	-9.15119
▁맛	-9.15412
▁다니	-9.15578
▁자동차	-9.15579
▁사용하는	-9.15611
▁아는	-9.15616
▁점이	-9.15827
▁나쁜	-9.15903
릴	-9.15912
▁화가	-9.16031
▁제안	-9.16051
▁믿	-9.1606
하면서	-9.16069
▁원하지	-9.16098
▁연습	-9.16147
시다	-9.16434
▁드립	-9.16662
였어	-9.1672
▁괜찮아	-9.16787
▁빠른	-9.16806
▁드릴	-9.16824
▁능력	-9.16958
▁모델	-9.16991
▁가능하다	-9.17021
일까지	-9.17068
▁놀러	-9.17091
▁그녀와	-9.17248
▁마치	-9.17282
년에	-9.17588
▁미리	-9.17738
▁혹시	-9.17747
▁넣	-9.17771
▁없다고	-9.17843
관한	-9.17982
리	-9.18004
릅니	-9.1811
학년	-9.1836
▁날짜	-9.18375
▁쇼핑	-9.18428
▁위치	-9.18635
▁담배	-9.18641
▁문자	-9.18747
▁광고	-9.18871
▁줍니	-9.18893
▁있었다	-9.19138
▁가격이	-9.19246
▁뭘	-9.19352
▁여름	-9.19583
▁그와	-9.19606
▁싶은데	-9.19615
▁따뜻	-9.19673
▁충분	-9.19772
▁궁금해	-9.19876
▁말할	-9.19903
▁동물	-9.19955
▁찾고	-9.20067
▁동생	-9.20167
▁긍정적	-9.20395
었어	-9.20404
▁먹는	-9.20429
▁재미있	-9.20626
▁사이즈	-9.20651
▁총	-9.20674
▁도착하	-9.20955
▁구	-9.21157
▁만났	-9.21237
가지	-9.21263
▁영어로	-9.21329
성	-9.21346
▁힘이	-9.21503
라면	-9.21631
▁맞는	-9.21652
▁금요일	-9.21821
▁오지	-9.21927
▁일요일에	-9.21948
▁이미지	-9.21967
▁속	-9.22071
명	-9.22117
오	-9.22222
▁공항	-9.22299
▁꽤	-9.22387
▁희망	-9.22674
▁행복하게	-9.2274
려	-9.22844
▁일하는	-9.22866
▁회신	-9.22887
▁금요일에	-9.23188
▁지급	-9.23234
▁견적	-9.23379
▁성적	-9.23492
이었어요	-9.23669
▁기계	-9.23708
▁확실	-9.23725
▁않아서	-9.23769
하길	-9.23968
▁브랜드	-9.23989
▁운전	-9.24016
층	-9.24037
전히	-9.24189
▁자리	-9.24253
▁씨	-9.24287
▁하는지	-9.24308
▁스타일	-9.24428
되지	-9.24494
▁제작	-9.24544
▁긴	-9.24582
▁인생	-9.24634
▁기본	-9.24662
▁장	-9.24846
▁주지	-9.24921
▁통화	-9.2499
▁부	-9.25011
▁찾을	-9.25091
▁공	-9.25104
▁보냅니	-9.25518
▁인형	-9.256
▁그것들	-9.25733
▁사과	-9.25772
▁그들에게	-9.25855
▁월요일	-9.25867
▁보냈어	-9.25926
▁배우고	-9.25947
▁선생님이	-9.25954
▁추억	-9.25979
▁주면	-9.26023
▁발송	-9.26051
▁토요일에	-9.26066
난	-9.26122
여	-9.26151
▁막	-9.26211
▁팀	-9.2632
▁기능	-9.2637
▁때부터	-9.26473
▁주제	-9.26614
▁이용해	-9.26659
▁50	-9.26713
▁단어	-9.26725
▁주변	-9.26863
▁앞에	-9.26952
▁어머니	-9.27121
지도	-9.27126
▁하지만	-9.2724
▁크리스마스	-9.2729
▁숙제	-9.27299
▁카카오톡	-9.27601
▁축제	-9.27604
▁주시기	-9.27696
▁커	-9.27763
래도	-9.28127
수	-9.28173
▁재밌	-9.28186
▁요청한	-9.2823
▁못한	-9.28867
▁전공	-9.29074
▁설치	-9.29214
▁정확한	-9.29359
▁했는데	-9.29399
수록	-9.29457
▁선수	-9.29467
▁없을	-9.3015
▁인천	-9.30182
▁등록	-9.30235
▁나무	-9.30275
▁간단	-9.30283
▁오랜만	-9.30435
▁담당자	-9.30495
▁합니	-9.30503
▁관리	-9.30596
▁있어야	-9.30601
▁고객이	-9.3068
▁사이	-9.30688
▁보내준	-9.30777
들과	-9.30799
▁힘	-9.30873
▁종	-9.30937
▁존재	-9.31245
▁처리	-9.31253
▁인상	-9.31273
잖아	-9.31365
▁곳에서	-9.31413
▁바다	-9.31442
▁축구	-9.31574
▁순간	-9.31637
▁학생들	-9.31661
▁졸업	-9.31762
▁때마다	-9.31786
▁사람들에게	-9.31865
▁지역	-9.31928
든	-9.31969
▁영상	-9.32073
직	-9.32191
▁하러	-9.32288
▁고민	-9.32299
▁독일	-9.32336
▁일어나	-9.32391
볼	-9.32659
▁힘들	-9.32695
▁서울	-9.32717
▁사랑해	-9.32805
▁거리	-9.32982
▁쓰고	-9.32988
▁며칠	-9.331
▁오기	-9.3318
▁건물	-9.33437
▁거니	-9.33457
▁자전거	-9.3351
▁토요일	-9.33704
▁겨울	-9.338
▁학교에서	-9.33977
▁좋겠다	-9.3403
▁스케줄	-9.34056
한다고	-9.3406
▁목소리	-9.34187
▁해줄	-9.34404
▁뿐이	-9.34409
▁기타	-9.34606
▁밤에	-9.34646
▁m	-9.34717
▁분	-9.34735
▁가족이	-9.3486
▁주시	-9.34918
▁당신한테	-9.34999
천	-9.35019
▁발	-9.35216
▁못할	-9.35236
▁가수	-9.35287
▁기준	-9.35536
장	-9.35623
▁배우	-9.35826
▁효과	-9.35873
▁것들	-9.36007
▁궁금한	-9.36043
▁여성	-9.36248
▁밖에	-9.36262
▁s	-9.36353
곤	-9.36571
▁택시	-9.36755
▁회의	-9.36912
▁언제든	-9.37095
▁쓰는	-9.37108
▁찾아	-9.37265
▁가요	-9.37343
▁소개	-9.37403
▁파티	-9.37407
▁올해	-9.37528
▁카메라	-9.37543
▁연구	-9.37568
▁명의	-9.37666
▁발표	-9.37793
져	-9.3784
▁국제	-9.37872
▁도대체	-9.37882
▁이곳에	-9.3801
▁이걸	-9.3802
▁소중한	-9.38029
▁텐데	-9.38045
▁화	-9.38518
▁청소	-9.38659
▁사업	-9.3877
▁생각하지	-9.38935
▁하려고	-9.38975
▁방금	-9.39017
▁피아노	-9.39027
▁전부	-9.39146
▁신청	-9.39251
▁궁금	-9.39387
▁사용해	-9.39694
▁대학교	-9.39741
▁어렵	-9.39776
▁이름이	-9.39899
▁느낄	-9.4013
▁바란다	-9.40183
시까지	-9.40248
▁우	-9.40342
▁미래	-9.40355
▁기간	-9.4039
▁병원에	-9.40425
▁하면서	-9.40456
하였	-9.40514
▁자신감	-9.40518
▁당신들	-9.4057
▁점수	-9.40637
▁느끼	-9.40708
▁괜찮	-9.40731
▁만난	-9.40857
▁거래	-9.40903
▁고맙	-9.40911
▁할머니	-9.40961
▁그럴	-9.41029
▁거라고	-9.41043
▁않는다	-9.41123
▁아기	-9.41243
▁있지만	-9.41279
▁들어가	-9.41295
▁전화번호	-9.41298
▁한국인	-9.41434
▁최대한	-9.41458
▁환불	-9.41523
▁그것에	-9.41607
▁친구에게	-9.41635
▁지난주	-9.4178
해도	-9.41797
▁국가	-9.41927
사	-9.42069
▁확인하고	-9.42076
▁어디서	-9.42101
주세	-9.42123
▁언어	-9.42171
▁국내	-9.42199
▁아내	-9.42256
▁그러니	-9.42288
▁샀어	-9.42454
▁드라마	-9.42584
▁환경	-9.42699
치	-9.4271
▁가르쳐	-9.42811
▁정	-9.42855
▁은행	-9.42988
▁길이	-9.43054
▁직장	-9.43152
래요	-9.432
▁추천해	-9.43355
▁되었	-9.43355
▁이용	-9.43563
랫	-9.43612
▁신	-9.43631
▁방학	-9.43691
▁못했	-9.43772
▁해당	-9.4384
▁요금	-9.43852
▁연락이	-9.43949
기도	-9.44005
▁주실	-9.44023
▁수정	-9.44043
▁작품	-9.44089
▁했던	-9.44156
▁표	-9.44401
▁좋아하고	-9.44491
▁하니	-9.44703
▁언니	-9.4474
▁과제	-9.44767
세	-9.45138
▁이번에	-9.45226
▁않나	-9.45267
했는데	-9.45327
▁방법이	-9.45382
2	-9.45396
울	-9.45429
▁장비	-9.45546
▁검토	-9.45564
▁동영상	-9.45823
▁연락하	-9.46011
▁빠르	-9.46038
▁이사	-9.46139
만큼	-9.4618
▁감정	-9.462
▁친한	-9.46317
▁계정	-9.46346
▁그림을	-9.46515
▁말아	-9.46516
▁되었다	-9.4653
▁저번	-9.4658
하는데	-9.46716
▁시작했어	-9.46753
▁둘째	-9.46778
▁설명	-9.46865
▁수영	-9.46967
▁사회	-9.4704
▁걸어	-9.47051
▁나오는	-9.47094
▁아이템	-9.47148
▁똑같	-9.47166
▁듯	-9.47194
▁케이크	-9.47269
▁사람에게	-9.47275
드시	-9.47288
▁0	-9.47299
▁목요일	-9.47399
▁가능합니	-9.47441
▁전달	-9.47498
른	-9.47583
▁적용	-9.47662
▁남편이	-9.47715
▁뜻	-9.47747
▁같아서	-9.47755
▁거기서	-9.47789
▁전해	-9.47829
▁전통	-9.47966
▁않았다	-9.48005
▁나라에서	-9.48069
▁지하철	-9.48083
▁놓	-9.48269
래	-9.48291
▁상처	-9.48305
▁번역	-9.48371
▁맥주	-9.48485
▁자유	-9.48575
▁만들고	-9.48612
▁통해서	-9.48674
▁피부	-9.48793
▁의사	-9.48794
▁몸이	-9.48806
▁d	-9.48911
▁주말	-9.48921
▁말은	-9.48941
이랑	-9.48957
▁질문	-9.48994
▁교환	-9.49116
▁됐	-9.49251
▁이후에	-9.49332
▁공간	-9.49458
▁법	-9.49482
▁피곤해	-9.4951
▁영원	-9.49614
▁오후에	-9.49702
▁하게	-9.4977
더	-9.49944
▁미팅	-9.50042
▁취소	-9.50098
▁음식이	-9.50233
▁늦	-9.50384
▁생겼	-9.50401
▁티켓	-9.50588
▁필요하다	-9.50674
▁수업이	-9.50729
▁대한민국	-9.50759
▁찾	-9.51052
▁가치	-9.51107
▁사진이	-9.51127
▁세상	-9.51178
▁믿어	-9.51219
▁문장	-9.51321
▁할인	-9.51325
▁승인	-9.51369
▁미안	-9.51407
▁인사	-9.51488
▁인기	-9.51525
▁고기	-9.51544
▁분위기	-9.51664
▁할지	-9.51718
▁있던	-9.51725
▁걸려	-9.51888
▁의해	-9.51979
▁사람과	-9.52016
▁변화	-9.52027
▁꾸준	-9.52168
▁게다	-9.52192
▁만한	-9.52227
▁좋았어	-9.52231
▁스스로	-9.5228
▁재	-9.52313
▁18	-9.52332
▁보여주	-9.52346
▁비자	-9.52419
▁잔	-9.52433
▁바	-9.5246
▁할게	-9.52482
▁어렸	-9.5255
▁것보다	-9.52558
▁다리	-9.52632
▁못하는	-9.52739
▁만나서	-9.52852
▁인보이스	-9.52928
▁제품에	-9.53061
▁받는	-9.53134
▁다음으로	-9.53266
▁집중	-9.53466
▁발생	-9.53471
디어	-9.53553
런	-9.53559
겐	-9.5357
이기	-9.53722
▁부분이	-9.53793
▁계획이	-9.54031
▁서울에	-9.54239
▁주었	-9.54362
▁후회	-9.54441
▁연기	-9.54528
▁쓸	-9.54556
▁없나	-9.54607
▁이후	-9.5463
▁엄청	-9.54685
▁골프	-9.54689
▁팔	-9.54786
▁역할	-9.54941
▁답	-9.55035
▁모습이	-9.55113
▁보이는	-9.55301
단	-9.55317
▁모르는	-9.55638
▁하루에	-9.55799
▁행사	-9.55826
▁뉴욕	-9.55834
▁천	-9.56017
▁돌아오	-9.56042
▁써	-9.56053
▁깨끗	-9.56137
▁너무나	-9.56176
▁도착할	-9.56204
▁치료	-9.56218
용	-9.56278
▁감사하겠	-9.56379
스	-9.56477
▁따로	-9.56477
▁벌	-9.56477
▁스포츠	-9.5649
위	-9.56638
▁전체	-9.56677
d	-9.56717
▁것과	-9.56828
▁밝	-9.56835
▁그대로	-9.57106
▁미	-9.57233
▁아파	-9.57234
▁상	-9.57431
▁항공	-9.57454
▁뭔가	-9.57577
▁원래	-9.57617
▁수업에	-9.57632
▁들고	-9.57674
▁40	-9.57777
▁페이스북	-9.57811
▁거라	-9.5787
▁그러니까	-9.5791
▁말하지	-9.57961
▁노	-9.5811
▁싶어서	-9.58118
▁치킨	-9.5814
▁날이	-9.58142
▁피	-9.58181
▁근무	-9.58189
▁모르	-9.58229
▁출근	-9.58279
▁남아	-9.58358
▁데이트	-9.58454
▁어떠한	-9.58455
▁운영	-9.58698
했으면	-9.58706
▁주변에	-9.58835
내	-9.58844
▁벌써	-9.58947
으로써	-9.59141
▁대표	-9.59464
▁주십	-9.59476
명의	-9.59505
▁여동생	-9.59582
▁앱	-9.59647
▁말하고	-9.59738
▁테니	-9.5983
▁내부	-9.59898
▁넣어	-9.59939
s	-9.60039
▁경험이	-9.60061
▁아르바이트	-9.60113
▁춤	-9.60119
▁도와줄	-9.60166
▁않습니	-9.60317
▁예쁜	-9.60336
▁차가	-9.60365
1	-9.60382
알게	-9.60413
▁비슷한	-9.60457
식	-9.60519
▁피해	-9.60595
▁줘서	-9.60715
▁카페	-9.60731
▁인	-9.6079
▁높	-9.60806
▁그저	-9.60816
▁기차	-9.60832
▁맞	-9.60839
▁느낌	-9.6085
▁요구	-9.6091
▁인간	-9.6108
▁과정	-9.61128
▁앉아	-9.61291
▁갔었어	-9.61568
▁문서	-9.6158
적	-9.61605
▁외에	-9.61621
▁훌륭	-9.61665
▁있으니	-9.61781
▁짓	-9.61883
▁그중에서	-9.62051
▁t	-9.62111
▁정리	-9.62123
▁13	-9.62188
▁앞에서	-9.62223
▁생기	-9.62274
간	-9.62291
▁돌아가	-9.62317
▁만났어	-9.62331
▁외	-9.62792
▁배울	-9.62803
▁당연	-9.62863
▁미국에	-9.62873
▁느낌이	-9.62891
▁500	-9.62894
갈	-9.62958
▁대체	-9.63024
▁17	-9.63056
▁안전	-9.63162
▁약간	-9.63191
▁다행히	-9.63222
▁tv	-9.63261
▁입학	-9.63449
▁학원에	-9.6346
▁우리나라	-9.63546
▁것입니	-9.63612
▁종일	-9.63703
▁사이트	-9.63717
▁역사	-9.63778
▁이해해	-9.63917
▁말했	-9.6396
▁컬러	-9.63989
▁생겼어	-9.6402
기로	-9.64036
▁줬어	-9.64143
▁줬	-9.64166
▁조건	-9.64172
▁해결	-9.64215
▁열정	-9.64463
▁무료	-9.64623
▁소녀	-9.64631
▁당장	-9.64643
▁병원	-9.64645
제	-9.64792
▁쉬는	-9.64894
으로부터	-9.6492
▁알려주시	-9.64979
▁바꿔	-9.64982
▁고객님	-9.65305
▁이거	-9.65343
이고	-9.65366
▁사용하고	-9.65423
▁가족들	-9.65438
▁24	-9.6558
▁연결	-9.65613
▁가능성	-9.65764
▁주문한	-9.65805
▁찍어	-9.66007
▁이벤트	-9.66093
▁완전히	-9.66165
▁메뉴	-9.66171
▁기억에	-9.6619
▁나오	-9.66286
▁호텔에	-9.66293
▁정말로	-9.66343
▁웃	-9.66369
▁지켜	-9.66566
▁감동	-9.66625
▁편이	-9.66704
▁바빠	-9.66707
▁공항에서	-9.66739
▁네트워크	-9.6679
▁예상	-9.66916
코	-9.67025
▁송금	-9.67067
▁파트너	-9.67218
▁색	-9.67237
▁h	-9.67315
▁비가	-9.67338
▁오더	-9.67421
▁만족	-9.67442
▁공장	-9.67523
▁최종	-9.67556
▁불구	-9.67603
▁정확히	-9.67608
▁먹었	-9.67685
▁않기	-9.67686
▁성	-9.67706
▁이유로	-9.67761
▁잘하는	-9.67779
▁부산	-9.67876
▁저한테	-9.67902
▁이해할	-9.6797
▁기업	-9.67973
▁자연	-9.67982
▁과거	-9.68069
▁한다는	-9.68194
▁신발	-9.68324
▁넘	-9.68328
▁아름답	-9.68448
▁해외	-9.68471
▁다녀	-9.6848
▁내년	-9.68511
▁사항이	-9.68626
▁휴대폰	-9.68821
인가	-9.68893
▁여름에	-9.68921
▁여러분	-9.69038
▁보이지	-9.69098
▁무엇인지	-9.69175
보았습니다	-9.6924
▁좋아서	-9.69454
▁용기	-9.69458
▁자체	-9.69493
▁맛있	-9.69697
▁일요일	-9.69727
▁스마트폰	-9.69754
▁맞춰	-9.69968
▁쓰	-9.70082
▁떠나	-9.70092
▁몰랐어	-9.7016
▁놀라	-9.70449
▁만나는	-9.7046
▁방에	-9.70485
▁위험	-9.70513
▁아들이	-9.70533
▁사이에	-9.70577
▁품질	-9.70578
▁과일	-9.70612
▁조	-9.70636
▁즐길	-9.70654
▁유럽	-9.70668
▁맘	-9.70669
▁쓴	-9.70797
▁단순	-9.70823
▁감기	-9.70944
▁느껴	-9.70977
봐	-9.71149
▁재미있는	-9.71181
▁업데이트	-9.71206
들에게	-9.71286
▁수요일에	-9.7142
▁당시	-9.71424
▁기사	-9.71494
▁마케팅	-9.7159
에도	-9.71601
▁경제	-9.71727
▁만들었어	-9.71834
당	-9.71857
▁사용하	-9.71915
▁너희들	-9.71955
▁그룹	-9.72029
▁일할	-9.72056
▁식당	-9.72078
하신	-9.721
▁치	-9.72126
▁언제쯤	-9.72246
▁세상에	-9.7229
▁초콜릿	-9.72318
▁영국	-9.72532
돼	-9.72573
▁시장	-9.72646
▁각자	-9.72728
▁하겠습니	-9.72778
▁정도로	-9.72822
▁물을	-9.72833
▁화요일	-9.72858
▁시간은	-9.72977
▁사업을	-9.7298
▁받아야	-9.7321
▁먹으	-9.7326
자마	-9.73325
▁무엇이	-9.73346
▁계산	-9.73437
▁채	-9.73606
▁가보	-9.73642
▁퇴근	-9.73706
▁선	-9.73715
▁25	-9.73755
▁방식	-9.73772
▁사람들과	-9.73862
▁별	-9.73869
층에	-9.73892
▁주시겠	-9.73915
▁성격이	-9.73966
▁만나기	-9.74022
▁어	-9.74117
▁촬영	-9.74154
▁받기	-9.74249
▁내용이	-9.74269
▁반대	-9.74302
하지만	-9.74311
▁누구나	-9.74337
▁끝	-9.74519
▁16	-9.74642
▁코	-9.74719
▁넓	-9.74726
▁돼서	-9.749
▁도착했	-9.74955
▁할까	-9.75003
▁애	-9.7502
▁수술	-9.75097
▁내일부터	-9.75151
▁감사드	-9.75278
씬	-9.75324
▁양	-9.75357
▁생겨	-9.75374
▁말해주	-9.75403
듯	-9.75493
▁같은데	-9.75526
▁죄송합니다	-9.75527
▁불러	-9.75539
▁피자	-9.75556
▁다릅니	-9.7559
회	-9.75591
▁참여하	-9.7568
a	-9.75834
▁않게	-9.75837
▁상황이	-9.7587
▁시작할	-9.7588
▁오전	-9.76208
▁행복하	-9.76258
▁파티에	-9.7634
▁먹으면	-9.76379
▁먹지	-9.76473
▁인생을	-9.76822
번째	-9.76969
▁2015	-9.77058
겠어	-9.77091
▁잠시	-9.77179
▁잠이	-9.77206
▁동일한	-9.77248
다니	-9.77292
▁조사	-9.77307
▁소개해	-9.77314
▁편하	-9.77344
▁가정	-9.77395
▁싶습니	-9.77484
▁주신	-9.775
▁마시고	-9.77534
▁탈	-9.77573
▁가득	-9.77592
▁담	-9.776
했다고	-9.77619
▁슬퍼	-9.77654
▁14	-9.77753
▁모양	-9.77783
▁지나	-9.77901
▁k	-9.77905
▁유	-9.77935
▁자리에	-9.78032
화	-9.78053
줄	-9.78133
▁완료	-9.78676
명이	-9.7868
▁가이드	-9.78694
▁냄새	-9.78707
▁자꾸	-9.78708
▁선박	-9.78715
▁혼자서	-9.78731
▁추천	-9.78787
▁좋다	-9.78843
▁장점	-9.78852
▁메일로	-9.78868
▁늦어	-9.78927
하기로	-9.78979
▁다녀왔어	-9.78986
친	-9.79012
▁겨울에	-9.79146
▁계좌	-9.79164
▁당	-9.79398
▁걱정이	-9.7946
▁다이어트	-9.79461
▁이후로	-9.79599
▁뿐	-9.7962
▁근처	-9.7965
▁물어보	-9.7966
▁관광	-9.79705
▁공항에	-9.79787
▁리스트	-9.79824
▁최근에	-9.79826
▁l	-9.80051
▁크기	-9.80104
▁어려워	-9.80315
▁노력해	-9.8035
▁친	-9.80369
▁명이	-9.80387
▁sns	-9.80403
▁평생	-9.80403
▁무척	-9.8041
▁떨어져	-9.80417
▁없고	-9.80514
▁구체적	-9.8052
▁눈에	-9.80566
▁도면	-9.80671
▁쓰지	-9.8078
▁않다	-9.80827
▁것이라고	-9.8086
스러운	-9.80873
▁않는다면	-9.80912
▁살았	-9.81015
다가	-9.8109
▁예전	-9.81276
갑니	-9.8128
▁좋았	-9.81331
▁언제까지	-9.81385
▁공급	-9.81389
▁이메일로	-9.81625
날	-9.81846
▁지식	-9.81903
이었어	-9.81923
▁바람	-9.8194
▁보았	-9.81981
하	-9.82039
▁귀여운	-9.82127
▁훨	-9.82139
▁중국어	-9.82231
▁싸	-9.82457
▁즐기	-9.82476
트	-9.82491
▁잡	-9.82518
▁초	-9.8252
▁가능한가	-9.82527
▁하였	-9.82577
▁가능한지	-9.82607
▁수입	-9.82614
▁대학에	-9.82622
▁바쁘	-9.82711
▁싶었	-9.82741
걸	-9.82811
▁보내지	-9.82856
▁관해서	-9.82864
▁동의	-9.82895
▁만들었	-9.82896
박	-9.82908
▁발전	-9.82975
년이	-9.83072
▁대학교에	-9.8319
▁00	-9.83245
▁일정이	-9.83389
▁요청하	-9.83418
▁나라에	-9.83436
▁나만	-9.83497
▁이탈리아	-9.83611
하시면	-9.8363
▁책임	-9.83804
▁인기가	-9.83825
▁진	-9.83845
▁알려줘	-9.8385
▁직원	-9.8387
▁진정	-9.83884
▁봉사	-9.83935
▁포기하지	-9.8403
▁되어서	-9.84055
▁찾기	-9.8415
▁찾는	-9.84201
부	-9.84275
▁사용하지	-9.84309
▁것인가	-9.84469
었는데	-9.84474
▁과학	-9.84552
▁평가	-9.84619
▁공부할	-9.84624
▁딸이	-9.84626
셔야	-9.84781
▁전까지	-9.84781
▁기도	-9.8481
▁가능해	-9.8494
▁객실	-9.85011
▁속에	-9.8509
동시에	-9.85174
▁부족	-9.85264
▁없다는	-9.85292
▁태어나	-9.85316
▁알려준	-9.85316
▁알지	-9.85336
▁특별	-9.85351
듭니	-9.85426
▁안내	-9.85453
▁교통	-9.85588
쁩니	-9.85659
▁먹방	-9.85672
▁딱	-9.85681
▁이동	-9.85693
되는	-9.85749
▁태국	-9.85999
▁뭐라고	-9.86024
▁거로	-9.86034
▁달러	-9.86134
▁정확하	-9.86178
▁입장	-9.86221
▁많았	-9.86228
▁휴식	-9.8628
▁수학	-9.8631
▁잠깐	-9.86351
▁나갈	-9.8636
▁그다음	-9.86381
▁예전에	-9.86551
▁친구랑	-9.86649
▁매력	-9.86685
▁공원	-9.86728
▁대답	-9.86874
▁나누	-9.86891
▁23	-9.86949
으니	-9.86978
▁귀하	-9.87109
거든	-9.872
▁상황에	-9.87244
▁할아버지	-9.8728
▁줘야	-9.87283
▁즐겨	-9.87326
▁적극적	-9.87344
▁화장품	-9.87475
▁2014	-9.8749
▁아픈	-9.87521
▁오빠	-9.87522
로운	-9.87603
▁만들기	-9.8782
▁시작했	-9.87973
▁보내는	-9.8798
▁색상	-9.88025
mm	-9.88046
▁지속	-9.88097
▁가려고	-9.88269
▁학원	-9.88347
▁말씀	-9.88406
소	-9.88419
▁없습니	-9.88445
일부터	-9.88658
▁입금	-9.88701
닐	-9.88914
▁빵	-9.89015
▁시절	-9.89028
▁미소	-9.89047
▁여유	-9.89072
▁중요	-9.89073
▁연주	-9.8911
▁뛰어	-9.89137
▁도전	-9.89151
▁그만큼	-9.89178
▁약속이	-9.89298
▁아이디	-9.89334
▁어릴	-9.89349
▁공부하는	-9.89377
줘서	-9.89426
▁끝까지	-9.89427
▁태도	-9.89467
▁이상한	-9.89565
▁감	-9.89568
▁21	-9.89614
▁다니는	-9.89685
▁조언	-9.89808
▁났어	-9.89994
▁영수증	-9.90039
▁죽을	-9.90061
비	-9.90062
겠다고	-9.90086
▁충분한	-9.90134
▁배웠	-9.90347
▁형	-9.90443
▁f	-9.90623
▁중요해	-9.90628
▁반품	-9.90696
▁하여	-9.90873
▁자격증	-9.90898
▁건지	-9.90905
드	-9.91025
▁솔직	-9.91052
▁특히	-9.91223
▁면접	-9.91224
▁금	-9.91288
과연	-9.91327
▁상당	-9.91344
▁이곳	-9.91391
▁얼굴이	-9.91435
▁개인적으로	-9.9145
▁부탁해	-9.91489
▁부모님이	-9.91514
▁소년	-9.91861
불	-9.91923
▁기다려	-9.91953
▁남동생	-9.92031
▁시스템	-9.92059
▁풀	-9.92066
▁보였어	-9.9209
▁방송	-9.92187
▁절차	-9.92278
▁좋다고	-9.92313
▁코스	-9.92508
▁알려줄	-9.92591
▁가난	-9.92649
준	-9.92672
▁원하	-9.92708
▁분석	-9.92857
▁오랜	-9.92992
▁배우는	-9.93013
▁대략	-9.93115
▁우선	-9.93135
▁어려운	-9.93139
▁잤어	-9.93146
▁이틀	-9.93161
▁에너지	-9.93166
▁침대	-9.93276
▁우유	-9.93281
▁다르게	-9.93306
▁참석	-9.93311
▁코드	-9.93342
답	-9.93359
▁나보다	-9.93427
▁교사	-9.93458
▁공유	-9.93475
▁느꼈	-9.93569
▁그래야	-9.93686
보고	-9.94028
▁강의	-9.94065
▁베트남	-9.9407
▁작성	-9.94108
▁오고	-9.94268
▁물품	-9.94313
▁느끼고	-9.94326
▁것인지	-9.94334
▁호텔에서	-9.94341
▁결	-9.94378
▁소	-9.94432
▁맛이	-9.94571
▁픽업	-9.94575
시나	-9.94629
▁성장	-9.94765
▁학생들이	-9.94829
▁200	-9.94841
▁방법으로	-9.94862
▁맞지	-9.94984
▁적은	-9.94995
▁예정	-9.95013
▁필요하	-9.95087
▁시켜	-9.95089
▁비용이	-9.951
▁글쎄	-9.95107
▁여부	-9.95241
▁표시	-9.95247
▁누구보다	-9.95267
▁멀리	-9.9527
▁번씩	-9.95318
시겠습니	-9.95515
▁비디오	-9.95519
▁도와	-9.95554
▁아파서	-9.95603
꺼	-9.95693
▁출발	-9.95906
▁확인할	-9.95964
▁드리	-9.96044
▁한다면	-9.96078
▁활용	-9.96091
▁아프	-9.96321
▁프랑스	-9.96333
두	-9.96361
▁예쁘	-9.96409
▁계약서	-9.96663
▁쉽	-9.96787
▁알았	-9.96814
▁물건이	-9.96875
▁먹은	-9.97029
▁어쩔	-9.97107
▁집이	-9.97111
▁신뢰	-9.97116
▁이슈	-9.97141
▁나온	-9.97162
▁났	-9.97171
▁착한	-9.97291
▁그리워	-9.9734
▁삼성	-9.97348
▁급한	-9.97383
▁관련하여	-9.97393
▁사정	-9.97442
▁고객에게	-9.97542
▁하늘	-9.97569
▁올리	-9.976
▁싫어하는	-9.97671
▁예술	-9.97688
▁분야	-9.97746
이란	-9.97808
▁장면	-9.97873
▁인터뷰	-9.97921
▁현실	-9.98056
▁않지만	-9.98228
▁중학교	-9.98231
▁부산에	-9.9831
▁대회	-9.98399
더라	-9.98417
▁결론	-9.98543
▁좋아할	-9.9859
▁아이스크림	-9.98627
▁유지	-9.98713
▁쉽지	-9.98755
▁형태	-9.9878
▁주시겠습니	-9.98909
▁적어	-9.98955
▁축하	-9.98963
▁이용할	-9.98981
보	-9.98992
▁업체	-9.99021
▁되는지	-9.99043
▁이건	-9.99058
▁중국에	-9.99082
▁곁에	-9.99148
▁다섯	-9.99148
땐	-9.99148
▁바꿀	-9.99148
▁금방	-9.9915
▁말에	-9.99151
▁즉	-9.99156
▁자격	-9.99162
▁2017	-9.99166
▁문제에	-9.99199
▁보내드리	-9.99266
▁포장	-9.9928
▁맞아	-9.99292
▁안에서	-9.99384
같이	-9.9952
▁우리와	-9.99631
▁진실	-9.9967
▁보이	-9.99674
▁내일까지	-9.99783
▁설정	-9.99821
▁느꼈어	-9.99831
▁담당	-9.99875
▁나왔	-9.99879
▁상상	-9.99933
▁곳으로	-9.99944
▁듣는	-10.0019
▁경기장	-10.0032
▁전쟁	-10.0034
▁연락해	-10.0043
▁제주도	-10.0043
▁여권	-10.0055
뿐만	-10.0068
▁문제는	-10.007
▁가도	-10.0076
▁아쉬워	-10.0084
▁훈련	-10.0084
▁아이디어	-10.0096
▁은행에	-10.0101
▁동	-10.0104
중	-10.0113
▁프로그램에	-10.0117
▁색깔	-10.0123
▁귀	-10.0126
▁맡	-10.013
▁w	-10.013
▁레스토랑	-10.0134
권	-10.0135
▁죽	-10.0136
▁자재	-10.0138
▁그만	-10.0139
한다는	-10.015
▁걱정하지	-10.015
▁캐릭터	-10.0159
▁하자	-10.0165
▁당사	-10.0171
▁주차	-10.0172
▁쉬고	-10.0182
▁참여	-10.0184
우	-10.0187
▁낼	-10.0195
▁마지막으로	-10.0205
▁일부	-10.0206
옵니	-10.0207
▁속에서	-10.0212
십니	-10.0215
▁정상	-10.0217
▁것들이	-10.0223
▁포인트	-10.0224
▁콘서트	-10.0227
▁목적	-10.0237
▁아파트	-10.0238
자고	-10.0248
▁확신	-10.025
▁뜻이	-10.0253
▁있겠	-10.028
▁27	-10.0284
하실	-10.029
▁값	-10.0291
▁했으면	-10.0303
▁사랑에	-10.0321
씨	-10.0321
▁재고	-10.0327
▁화요일에	-10.0328
▁자동	-10.0335
▁미술	-10.0335
▁더불어	-10.0336
▁시계	-10.0337
▁데리고	-10.0339
시피	-10.034
▁abc	-10.0349
▁있잖아	-10.0353
▁따	-10.0354
▁온라인	-10.0357
▁사무실에	-10.036
▁있을지	-10.0361
▁왔다	-10.0372
▁패션	-10.0393
▁부담	-10.0399
았습니다	-10.04
▁영업	-10.0423
▁당신만	-10.0424
▁서울에서	-10.0436
▁합	-10.0436
▁비밀	-10.0441
▁수리	-10.0449
▁어디로	-10.0458
▁긴장	-10.0479
▁봅니	-10.0485
하다고	-10.0487
▁걸리	-10.049
▁종이	-10.0503
▁연	-10.0517
▁챙겨	-10.0531
호	-10.0534
▁의지	-10.0539
▁현대	-10.0552
▁어떨까	-10.0557
▁버튼	-10.0558
구	-10.0563
▁그중	-10.0565
▁괜찮은	-10.0571
▁어젯밤에	-10.0573
▁모자	-10.0578
▁걸립니	-10.0583
▁누군가에게	-10.0584
▁직업이	-10.0584
▁같네	-10.0586
▁부족한	-10.0601
▁보다	-10.0605
▁산책	-10.0619
▁원한다	-10.0622
▁중요하다	-10.0645
▁주었어	-10.0645
▁체크	-10.0646
▁p	-10.0647
▁이전에	-10.0648
▁박	-10.0657
▁텔레비전	-10.0664
더니	-10.0677
▁전화해	-10.0683
▁아이들이	-10.0695
일이	-10.0698
▁통	-10.0732
▁어디에서	-10.0739
▁이전	-10.0742
▁남들	-10.0743
▁야구	-10.0749
▁부품	-10.0755
▁원합니	-10.0757
▁작년	-10.076
▁생각할	-10.0762
▁분명	-10.0763
▁글로벌	-10.0776
▁꿈이	-10.0776
▁학생이	-10.0784
▁있으시면	-10.0786
겠지만	-10.0786
▁직원들	-10.079
▁정신	-10.0796
▁누나	-10.0796
▁간다	-10.0799
▁의심	-10.0803
▁재료	-10.0815
▁방문할	-10.0826
▁v	-10.0832
▁제시	-10.0833
▁순	-10.0837
▁왕	-10.0846
▁보고서	-10.085
▁병	-10.0856
▁길에	-10.0867
▁했을	-10.0871
하려	-10.0873
▁주인공	-10.0874
▁무서워	-10.0884
▁공기	-10.0893
▁보낼게	-10.0897
이라	-10.0915
▁관	-10.0919
▁정부	-10.092
▁구조	-10.0921
▁태어났	-10.0923
등	-10.0923
▁좋아지	-10.0925
▁위로	-10.0928
▁과목	-10.0929
▁미래에	-10.0939
▁비즈니스	-10.0939
▁고려	-10.0941
주길	-10.0941
▁행복했	-10.0955
▁당신께	-10.0971
전	-10.0975
▁마찬가지	-10.0975
▁크고	-10.0979
▁짜증	-10.0981
든지	-10.0985
되고	-10.0988
금	-10.0992
▁상대방	-10.1003
▁2016	-10.1005
▁치즈	-10.1005
▁조금씩	-10.1006
▁투자	-10.1009
▁감기에	-10.1012
▁읽어	-10.1014
▁유일	-10.1015
▁타는	-10.1019
▁강화	-10.102
▁고장	-10.1034
▁옷이	-10.1035
▁아이들에게	-10.1037
▁도착해	-10.105
▁맞게	-10.106
▁모아	-10.1065
▁지불하	-10.1066
▁돌아	-10.107
▁친구들에게	-10.108
▁최근	-10.1081
▁겁니	-10.1093
▁지난번	-10.1115
▁알아야	-10.1117
▁고객들	-10.1119
▁살아가	-10.1125
▁준다	-10.1126
▁구매자	-10.1126
▁잘해	-10.1126
▁도서관	-10.113
▁전문	-10.1136
▁바래요	-10.1137
▁어린	-10.114
▁가입	-10.1149
▁증가	-10.1153
▁군대	-10.1153
올	-10.1156
▁필리핀에서	-10.1167
▁제공해	-10.1198
▁준비해	-10.1202
▁26	-10.1203
낼	-10.1209
론	-10.1215
▁제외	-10.1217
되어야	-10.1218
이자	-10.1218
▁건강에	-10.1221
▁감사해	-10.1227
▁가치가	-10.1228
▁사건	-10.1236
▁월급	-10.1237
▁끝난	-10.1237
▁옆	-10.1239
▁리얼	-10.124
▁대금	-10.124
시부터	-10.1242
▁유학	-10.1245
▁다녀왔	-10.1247
▁구성	-10.1248
음	-10.1253
▁생각했	-10.1257
▁친절한	-10.1274
▁의자	-10.1275
▁맞나	-10.1289
▁낮	-10.1296
▁좋아하	-10.1299
▁이루	-10.1309
▁괜찮다	-10.1311
▁존경하	-10.1313
▁교수	-10.1328
▁구경	-10.134
▁대학교에서	-10.1341
▁바라보	-10.1344
▁노트북	-10.1348
▁적응	-10.1352
▁미국에서	-10.1359
▁달콤	-10.1362
▁가슴	-10.1378
▁불가능	-10.1385
▁허락	-10.1388
▁버전	-10.1413
임	-10.1418
▁실행	-10.1419
▁봤을	-10.1432
온	-10.1433
▁원인	-10.1434
▁방해	-10.1436
▁예뻐	-10.1439
▁갔었	-10.1442
▁주장	-10.1442
거리	-10.1467
▁끊임없	-10.1473
▁저와	-10.1474
▁능력이	-10.1474
▁속도	-10.1474
▁이해하지	-10.1476
▁연락처	-10.1476
▁오류	-10.1478
▁계단	-10.1479
▁등이	-10.1488
▁얘기해	-10.1489
▁상담	-10.15
▁연락할게	-10.1504
라서	-10.1507
▁이용하	-10.1517
▁알려줄게	-10.1517
m	-10.1522
▁교체	-10.1526
g	-10.1529
▁죽음	-10.1536
▁그리	-10.1552
▁페이팔	-10.1555
▁싫어해	-10.1558
▁마시	-10.1566
c	-10.157
▁손님이	-10.1598
▁놀이	-10.16
▁가졌	-10.1604
▁닭	-10.1605
▁매니저	-10.1607
▁멤버	-10.1614
▁잡아	-10.1616
▁많다	-10.163
▁칠	-10.163
▁인도	-10.1633
▁지시	-10.1633
▁자유롭	-10.1649
해줍니	-10.1661
형	-10.1661
▁일정에	-10.1661
▁오해	-10.1662
▁학기	-10.1668
▁물어	-10.1668
▁대만	-10.167
▁기름	-10.1694
▁작가	-10.1699
▁썼	-10.1701
씩	-10.1711
▁피드백	-10.1717
▁기본적	-10.1718
▁보인다	-10.1719
▁콘텐츠	-10.1719
▁진행할	-10.172
▁세금	-10.1722
▁쉬운	-10.1725
▁개선	-10.1726
▁계란	-10.1729
▁없었다	-10.1736
▁이용하여	-10.1737
▁간단하게	-10.1737
▁나올	-10.1739
으	-10.1741
▁답변이	-10.1744
▁채팅	-10.175
▁교복	-10.1752
▁이야기해	-10.1754
▁엄청나	-10.1756
▁행복했어	-10.1771
▁도서관에	-10.1771
▁지도	-10.1776
▁박스	-10.1793
▁일어나서	-10.1797
▁한국말	-10.1803
▁없네	-10.1805
▁별도	-10.1811
▁단점	-10.1811
▁말하기	-10.1824
▁끝나면	-10.1834
▁마셨어	-10.1835
▁엄마와	-10.1836
▁응원	-10.1838
감	-10.1839
▁먹기	-10.1839
하느라	-10.1843
▁외국	-10.1852
▁작업이	-10.1854
▁말라고	-10.1858
▁친절	-10.1863
▁캐나다	-10.1864
▁교회	-10.187
▁지갑	-10.188
▁실험	-10.1884
▁오른쪽	-10.1885
▁조절	-10.1891
▁일반	-10.1898
▁배송이	-10.1902
▁클럽	-10.1903
▁가자	-10.1907
▁질	-10.1908
▁보내줄	-10.1919
자가	-10.1932
▁곡	-10.1939
▁향해	-10.1949
▁조정	-10.1952
▁느	-10.1957
▁컨테이너	-10.1967
▁기록	-10.1971
▁달리	-10.1976
3	-10.1979
▁있을게	-10.1982
▁좋겠네	-10.1984
▁발견	-10.1992
▁경찰	-10.1998
▁향	-10.2
해줘	-10.2009
▁호텔로	-10.2019
조차	-10.2024
▁공식	-10.2027
▁편리	-10.2028
▁올라가	-10.2039
▁우연	-10.204
▁마무리	-10.2054
▁여자들	-10.2057
▁갔을	-10.2058
시겠어	-10.2064
▁잡고	-10.207
▁생각보다	-10.2072
▁척	-10.2075
▁신문	-10.2085
▁습관	-10.2094
▁부르	-10.2095
마	-10.21
▁비교	-10.21
▁과거에	-10.2103
▁쉬	-10.2103
▁읽었어	-10.2104
▁목록	-10.212
▁게스트하우스	-10.212
▁무언가	-10.2133
▁빌	-10.2134
▁참고	-10.214
▁지금부터	-10.2144
▁22	-10.2157
▁입력	-10.2173
▁역	-10.2175
▁범죄	-10.2178
5	-10.2182
▁구글	-10.2182
▁신고	-10.2185
▁존경	-10.2187
▁살이	-10.22
▁공정	-10.2205
▁완성	-10.2206
▁관세	-10.2207
▁향상	-10.2213
▁대중교통	-10.2224
▁삽니	-10.2224
▁온종일	-10.2225
▁내리	-10.2226
▁견적서	-10.2229
▁평화	-10.2231
▁한글	-10.2234
kg	-10.2236
▁문제점	-10.2239
▁기원	-10.2247
▁친구로	-10.2259
▁그러다	-10.2259
▁구매할	-10.2274
▁있으니까	-10.2276
▁케이스	-10.2276
▁일본에	-10.2277
었다	-10.2279
▁공장에서	-10.2284
▁취업	-10.2291
원이	-10.2295
▁생각합니	-10.2295
▁무사	-10.2296
▁봐야	-10.2306
▁잡지	-10.2306
▁파는	-10.2314
▁결혼할	-10.2332
월부터	-10.2334
▁방문하	-10.2342
▁제품들	-10.2344
▁가을	-10.2345
▁즐거웠	-10.2351
▁사촌	-10.2355
▁라고	-10.2356
▁않을까	-10.2356
▁아니고	-10.2361
석	-10.2365
▁준비하고	-10.2367
▁요소	-10.237
문	-10.2373
▁낮은	-10.2375
▁그대	-10.238
▁계절	-10.2381
▁년	-10.2389
▁카페에	-10.239
▁시도	-10.2399
냐고	-10.2401
▁판단	-10.2401
▁국민	-10.2415
▁말씀해	-10.2419
▁실패	-10.2428
▁po	-10.2439
▁가려	-10.245
▁실제	-10.2451
영	-10.2461
▁생길	-10.247
▁많았어	-10.2473
▁납품	-10.2477
▁비해	-10.2478
▁진행하	-10.2479
▁의사소통	-10.2487
▁농구	-10.2487
▁규칙	-10.2488
▁조카	-10.2488
▁지낼	-10.2491
▁송장	-10.2491
▁아시	-10.2495
▁고쳐	-10.2501
▁협의	-10.2505
▁생각하면	-10.2509
▁샤워	-10.2518
쪽으로	-10.252
▁쪽	-10.2523
▁중요하	-10.2524
▁검색	-10.2525
▁지내는	-10.2526
▁만나지	-10.2535
▁만나면	-10.2536
▁구매한	-10.2538
▁연락할	-10.2544
▁보지	-10.2566
▁돼지	-10.2567
▁사전	-10.2568
▁사용하여	-10.257
▁업그레이드	-10.2574
▁살기	-10.2585
▁보았다	-10.2586
▁작년에	-10.2587
▁제출	-10.2604
▁정상적	-10.2604
셨나	-10.2605
역	-10.2608
▁차에	-10.2625
▁책상	-10.2635
▁보자	-10.2636
▁주문하	-10.2637
▁대학에서	-10.2645
▁직원이	-10.2647
▁머물	-10.265
▁웃음	-10.265
▁동료	-10.2651
▁전기	-10.2655
▁모임	-10.2675
▁했지	-10.2676
▁관광지	-10.2676
▁손님	-10.2677
▁있길	-10.2678
▁품	-10.2688
▁처음에	-10.2689
▁체험	-10.2695
▁중인	-10.2699
▁마셔	-10.2699
▁나에	-10.2712
▁의무	-10.2714
▁최대	-10.2718
▁동생이	-10.2721
▁재미	-10.2725
▁사회적	-10.2726
디	-10.2728
살이	-10.273
▁이해가	-10.273
▁믿지	-10.274
▁누워	-10.2749
▁조용	-10.2749
▁당분간	-10.2757
▁표정	-10.2758
▁금액이	-10.276
▁진행하고	-10.2761
성이	-10.2763
▁읽었	-10.2766
▁쓰레기	-10.2767
▁주셨	-10.277
▁부인	-10.2772
▁홍보	-10.2776
▁마실	-10.2776
▁일들	-10.278
▁가질	-10.2781
▁모르겠	-10.2803
했고	-10.2804
▁혹	-10.2805
▁간호사	-10.2812
▁소개할	-10.2812
▁와인	-10.2815
▁규정	-10.2831
▁생긴	-10.2835
▁비싸	-10.2836
분명히	-10.2836
▁책임감	-10.2839
▁요청했	-10.2846
하고자	-10.2847
▁들이	-10.2849
▁화나	-10.2851
산	-10.2853
▁설계	-10.286
▁내려	-10.2861
▁찾으	-10.2865
이라서	-10.2875
▁가을에	-10.2876
▁쇼	-10.2884
동	-10.2885
▁했나	-10.2885
▁돌아올	-10.2891
▁제거	-10.2898
▁남성	-10.2902
▁여동생이	-10.2907
니깐	-10.2909
▁다행이	-10.2919
▁볼게	-10.2921
▁뉴스	-10.2925
▁갈까	-10.2931
▁지역에	-10.2942
▁주인	-10.2945
▁봄	-10.2955
▁사랑이	-10.297
▁확인해주	-10.2975
▁기다릴	-10.2975
▁화물	-10.2975
▁페이지	-10.2979
▁조직	-10.2984
▁중심	-10.3005
▁따라서	-10.3007
해보고	-10.3007
▁누구에게	-10.301
▁들으면	-10.3024
▁스키	-10.3024
▁힘들었	-10.3026
▁control	-10.3035
▁수수료	-10.3035
▁배드민턴	-10.3035
▁야채	-10.3035
▁현금	-10.3036
거에	-10.3043
▁장난	-10.3052
▁사기	-10.3055
▁대통령	-10.3056
▁포	-10.3058
▁알다	-10.3059
▁고통	-10.3064
▁울	-10.3065
▁가져	-10.3066
지는	-10.3067
▁체크인	-10.3067
▁받았다	-10.3067
▁실제로	-10.3074
▁도착한	-10.3082
▁심장	-10.3092
▁부탁드려	-10.3093
▁평소에	-10.31
▁고객사	-10.3116
▁전자	-10.3121
▁반응	-10.3131
▁힘들게	-10.3131
▁사랑하고	-10.3133
▁누구와	-10.3137
▁인정	-10.3143
▁보게	-10.3144
▁도로	-10.3147
▁이곳에서	-10.3154
▁월	-10.3155
▁물어봐	-10.3156
▁깨	-10.3158
▁준다고	-10.3163
▁디자이너	-10.3177
▁군	-10.3179
▁수준	-10.3183
세기	-10.3188
▁귀엽	-10.3191
▁나왔어	-10.3196
▁거지	-10.3196
▁하길	-10.3201
▁코팅	-10.3204
▁채소	-10.3216
▁기숙사	-10.3217
▁빠지	-10.322
▁올려	-10.3221
▁초등학교	-10.3222
기에	-10.3224
▁단계	-10.3227
▁새벽	-10.323
▁했고	-10.3231
십	-10.3233
▁시대	-10.3236
7	-10.3237
▁접수	-10.3249
▁환자	-10.3251
▁급하	-10.3271
▁예약하고	-10.3283
▁통관	-10.3298
▁배워	-10.3301
▁읽을	-10.331
▁데리러	-10.3321
▁급여	-10.3322
▁논문	-10.3326
▁왜냐	-10.3327
▁우편	-10.3331
▁소통	-10.3339
▁가져가	-10.3341
▁공주	-10.3342
▁파	-10.3352
▁가족들이	-10.3354
▁일상	-10.3354
▁사서	-10.3366
▁받으	-10.3367
여서	-10.3369
증	-10.3373
▁되도록	-10.3381
▁노력할	-10.3382
▁아름다워	-10.3382
▁가격에	-10.3382
▁사실이	-10.3382
▁믿을	-10.3394
▁울고	-10.3395
▁남자들	-10.3402
▁배달	-10.341
▁가까이	-10.3417
▁행운이	-10.3419
▁사랑할	-10.3422
▁강력	-10.3422
▁되겠	-10.3424
▁무리	-10.3424
▁마음으로	-10.3426
▁당신에	-10.3436
줘	-10.3437
▁하네	-10.3439
▁대표적	-10.3445
▁말도	-10.3445
초	-10.3452
▁즐거워	-10.3452
▁돌아왔	-10.3453
k	-10.3455
▁상자	-10.3455
▁안전하	-10.3464
▁꿈에	-10.3465
사운드	-10.3471
심	-10.3475
시킬	-10.3481
▁예방	-10.3484
▁보았어	-10.3484
▁해줄게	-10.3487
▁몰	-10.3495
▁옵니	-10.3496
▁라면	-10.3497
▁이것이	-10.3499
▁변	-10.35
▁숙소	-10.3507
▁듣기	-10.3512
▁그들과	-10.3517
▁지구	-10.352
▁예의	-10.3522
▁풀어	-10.3527
▁매장	-10.3532
록	-10.3537
물	-10.3539
▁카	-10.354
▁따른	-10.3555
▁물이	-10.3562
칠	-10.3563
▁서명	-10.3572
▁열쇠	-10.3572
▁보였	-10.3572
▁옵션	-10.3572
▁설명해	-10.3576
▁주위	-10.3579
▁청구서	-10.358
▁건강이	-10.3584
▁오르	-10.3585
▁유명	-10.3585
행	-10.3587
▁급	-10.3591
▁나누어	-10.3595
▁학습	-10.3606
▁캠핑	-10.3606
▁바쁜	-10.3613
▁x	-10.3615
낍니	-10.3615
▁프로필	-10.3615
▁물에	-10.362
▁논의	-10.3621
▁허리	-10.3624
▁나타나	-10.3628
▁기초	-10.3632
▁28	-10.3634
▁소중	-10.3639
▁필요할	-10.364
▁멋지	-10.3641
량	-10.3644
▁수행	-10.3644
▁바보	-10.3647
▁독특	-10.3651
▁특징	-10.3655
▁e	-10.3658
▁보내줄게	-10.3659
▁있으신가	-10.3661
▁거리에	-10.3664
▁번에	-10.3668
▁g	-10.3674
▁판매하는	-10.3674
사가	-10.3675
▁것이라	-10.3678
▁북한	-10.3684
▁경제적	-10.3691
▁위험한	-10.3692
▁경	-10.3695
▁시원	-10.3702
▁성과	-10.3703
▁존	-10.3706
했다는	-10.3707
▁책이	-10.371
▁가나	-10.3712
▁우산	-10.3715
▁삭제	-10.3716
▁낮에	-10.3717
깁니	-10.3726
▁겁	-10.3734
▁노인	-10.3739
▁전문가	-10.374
▁힘들었어	-10.3741
▁이야기할	-10.3755
▁경영	-10.3766
▁보내주시	-10.3792
▁사랑하지	-10.3795
▁높이	-10.3796
복	-10.3799
하셨	-10.3801
▁배려	-10.3804
법	-10.381
▁도쿄	-10.3814
▁사무실	-10.3819
▁두려워	-10.3824
▁열어	-10.3833
▁받으면	-10.3843
쯤	-10.3845
▁배웠어	-10.3847
해주	-10.3849
▁백	-10.3854
▁기억이	-10.3856
▁어울리는	-10.3861
미	-10.3865
▁빛	-10.3875
▁60	-10.3878
▁대구	-10.3881
▁70	-10.3884
학	-10.3886
▁좋아했어	-10.389
▁마닐라에	-10.3899
조	-10.39
이면	-10.39
▁상품이	-10.3902
▁독립	-10.3907
급	-10.3914
▁안경	-10.3915
▁댓글	-10.3918
▁멈추	-10.3918
번에	-10.3921
▁정책	-10.3928
▁일자리	-10.393
▁간절	-10.3932
▁회사와	-10.3934
호선	-10.3943
▁완벽한	-10.3948
됐어	-10.3951
▁되니	-10.3957
▁제외하고	-10.3961
하거	-10.397
▁식으로	-10.3971
▁방문해	-10.3971
▁원하고	-10.3975
▁생각하기에	-10.3977
▁날에	-10.3979
▁시험이	-10.3987
▁사무실에서	-10.3989
▁토	-10.4003
▁실	-10.401
값	-10.4016
▁장난감	-10.4017
▁했었어	-10.4028
▁있네	-10.4029
▁부모님과	-10.4032
리를	-10.4042
▁들었다	-10.405
▁시설	-10.4057
▁병원에서	-10.4057
▁예	-10.4066
때	-10.4066
▁확인했어	-10.4079
▁어려움	-10.408
▁공사	-10.4081
▁돌	-10.4086
▁영화에	-10.4103
▁목	-10.4104
cm	-10.4111
▁세트	-10.4111
▁성실	-10.4112
▁동일	-10.4113
▁중요하지	-10.4114
통	-10.4116
▁좋아해서	-10.4121
▁경우에는	-10.4125
▁스티커	-10.4136
▁인생에	-10.4138
▁발음	-10.4144
프	-10.4145
▁리포트	-10.4148
▁들어오	-10.4152
▁같지	-10.4167
▁말해줘	-10.4171
▁xx	-10.418
달	-10.418
▁축하해	-10.4182
지고	-10.4184
▁최소	-10.4189
▁발주	-10.4192
▁걱정돼	-10.4194
▁발달	-10.4199
분이	-10.4204
하십니	-10.4207
▁읽는	-10.4216
집	-10.4221
▁택배	-10.4229
▁가볍	-10.423
▁비타민	-10.423
▁잊을	-10.423
▁컨디션	-10.423
▁큽니	-10.423
밖으로	-10.423
▁뜨거운	-10.4231
▁다녀온	-10.4231
▁상세	-10.4232
▁도울	-10.4232
▁씁	-10.4233
▁계신	-10.4234
▁비싼	-10.4237
▁화장	-10.4239
▁맞추	-10.424
▁노력하	-10.4241
▁가격으로	-10.4242
▁정해진	-10.4243
▁시작한	-10.4249
▁많지	-10.425
▁검은색	-10.4251
▁하나님	-10.4251
▁마십	-10.4252
▁창문	-10.4255
▁후회하지	-10.4255
▁알려주면	-10.4259
▁건데	-10.426
▁포함되어	-10.4265
▁기존에	-10.4273
▁조용한	-10.4277
▁순서	-10.4278
▁방식으로	-10.4296
▁열리	-10.4298
▁버	-10.4302
▁행복할	-10.4304
▁싶을	-10.4305
▁계	-10.4308
▁출시	-10.431
▁좋아하기	-10.4313
▁컵	-10.4314
▁생각하나	-10.4315
▁사진에	-10.4315
주십시	-10.4317
하라고	-10.4321
▁골	-10.4329
▁보내줘	-10.4331
▁아까	-10.4336
▁교수님이	-10.4339
▁아름다움	-10.4343
▁원했어	-10.4352
리고	-10.4355
▁불만	-10.4358
▁타입	-10.4361
▁놀아	-10.4363
▁차량	-10.4371
▁서버	-10.4372
▁회복	-10.4374
▁진행되	-10.4382
▁귀사에서	-10.4384
▁입어	-10.4386
▁몸에	-10.4408
▁시기	-10.4409
▁유리	-10.4413
▁피곤	-10.4423
▁권	-10.4427
▁삼	-10.4432
▁와야	-10.4436
▁동아리	-10.4436
이라면	-10.4438
▁드는	-10.4442
▁동물들	-10.4445
▁장르	-10.4447
▁듭니	-10.4449
▁홍콩	-10.4449
▁세부	-10.4451
▁둘이	-10.4454
▁마을	-10.4455
▁이해하기	-10.446
▁저장	-10.446
저	-10.446
냐	-10.4465
▁납기	-10.4474
▁pc	-10.4478
졌어	-10.4484
▁고정	-10.4485
배	-10.4491
기가	-10.4492
▁일해	-10.4496
▁도착했어	-10.4506
▁그러고	-10.4509
▁통합	-10.4514
▁갖추	-10.4514
▁인증	-10.452
▁영광	-10.4521
▁소재	-10.4528
▁배송비	-10.4535
▁고르	-10.4539
▁죄	-10.4543
▁완전	-10.4544
▁좋아한다	-10.4545
▁연애	-10.4545
▁들어서	-10.4552
▁용돈	-10.4553
그	-10.4554
▁끝날	-10.4554
▁걸까	-10.4559
▁소원	-10.4563
▁통하여	-10.4563
▁300	-10.4564
▁보험	-10.4568
▁도메인	-10.4572
▁가본	-10.4576
▁먹어야	-10.4578
겠네	-10.4579
▁방향으로	-10.4582
▁잘할	-10.4584
▁분이	-10.4591
▁얼	-10.4595
▁보호	-10.4603
▁추워	-10.4604
있는	-10.4608
으니까	-10.4612
▁생활에	-10.4629
▁r	-10.4629
해줄	-10.463
▁가게에	-10.4635
하다가	-10.4637
▁기능이	-10.4642
▁꾸	-10.4646
▁전략	-10.4646
▁사용한	-10.4649
▁올림픽	-10.4655
▁바지	-10.4658
▁결혼식	-10.4661
▁시작해	-10.4666
▁열리는	-10.4677
▁절	-10.4687
▁추억이	-10.469
▁회원	-10.4691
색	-10.4698
▁말로	-10.4701
▁안부	-10.4705
▁구입	-10.4708
▁조립	-10.4708
▁한잔	-10.4708
▁이상이	-10.4712
▁친해지	-10.4721
▁끝났	-10.4724
▁끝이	-10.4725
▁몰랐	-10.4735
▁아니었어	-10.4742
▁웹사이트	-10.4745
▁하던	-10.475
이지만	-10.4762
▁청	-10.4763
▁배우기	-10.4777
▁상대	-10.4779
▁삶에	-10.478
▁일어날	-10.4782
▁모르겠다	-10.4793
▁준비했어	-10.4796
▁칭찬	-10.4797
▁숙박	-10.4797
▁바이어	-10.4797
습니	-10.4798
▁듣지	-10.4801
▁온도	-10.4803
별	-10.4811
▁소스	-10.4816
▁유치원에	-10.4817
▁감자	-10.4819
t	-10.4822
▁기다렸어	-10.4824
▁페이스북에	-10.4828
▁다르다	-10.4838
▁자는	-10.4841
▁드려	-10.4842
일로	-10.4846
▁움직이	-10.4848
▁너희들이	-10.4848
▁생명	-10.485
▁휴일	-10.4857
▁빌려	-10.4859
▁어렵다	-10.4863
▁끼	-10.4863
▁j	-10.4877
▁케이블	-10.4884
힌	-10.4885
▁봐서	-10.4886
▁스마트	-10.4886
▁와이파이	-10.4886
▁최초	-10.4886
▁규모	-10.4886
▁떠날	-10.4887
▁순수	-10.4887
▁바랄게	-10.489
▁게스트	-10.4891
▁치마	-10.4895
하셔야	-10.4896
▁고향	-10.4897
▁소주	-10.4899
▁발견했어	-10.4902
▁프로	-10.4903
▁감사하	-10.4908
▁화장실	-10.4909
셨	-10.491
▁조심하	-10.4911
▁차례	-10.4912
▁연극	-10.4914
▁부정적	-10.4915
▁보내주시기	-10.4921
▁언젠가	-10.4924
▁발생했	-10.4924
▁불량	-10.4924
▁대단한	-10.4925
▁웃는	-10.4935
▁이루어지	-10.4938
▁나갔	-10.4941
▁쪽에서	-10.4942
▁써야	-10.4943
▁대단	-10.4948
▁아프지	-10.4951
▁인원	-10.4954
▁있었는데	-10.4957
▁경쟁	-10.4964
▁질문이	-10.4973
▁전화기	-10.4978
▁달이	-10.4987
▁참가	-10.4987
▁부모	-10.4992
▁그릇	-10.4994
▁스타	-10.5
▁납니	-10.5005
▁경우에	-10.5005
▁요리사	-10.5011
▁출하	-10.5013
▁도시에서	-10.5018
피	-10.5019
▁협조	-10.502
즈	-10.5022
▁그린	-10.5023
▁좋을까	-10.5024
▁불가	-10.5026
▁사용하기	-10.5029
▁표기	-10.5032
▁땅	-10.5035
▁경찰이	-10.5046
▁감독	-10.5051
표	-10.5055
▁얻기	-10.5057
▁포기하	-10.5066
▁정신이	-10.5076
▁건너	-10.5078
▁주부터	-10.508
하니까	-10.5082
▁되어야	-10.5085
납니	-10.5087
▁청구	-10.509
▁어떻	-10.5105
▁흥미	-10.5105
▁좋았을	-10.5111
▁걸렸	-10.5112
▁추석	-10.512
▁수요일	-10.512
▁더운	-10.512
▁연장	-10.5121
▁31	-10.5122
▁연락해주	-10.5122
▁동작	-10.513
하니	-10.5132
▁반지	-10.5134
▁이용하는	-10.515
▁행운	-10.5151
▁형제	-10.5157
▁이혼	-10.5167
▁아이폰	-10.5182
▁편안하	-10.5184
▁어떠	-10.5186
▁선택한	-10.5193
▁도시에	-10.5194
려요	-10.5197
▁익	-10.5199
사의	-10.521
느라	-10.5211
▁연락하는	-10.5213
▁빈	-10.5214
▁의도	-10.5216
▁음료	-10.5218
▁있었나	-10.5219
낸	-10.5222
▁맨	-10.5223
▁해줘	-10.5225
년부터	-10.5226
▁근육	-10.5226
▁만나자	-10.5228
▁생선	-10.523
웁니	-10.523
▁샌드위치	-10.5231
▁애니메이션	-10.5231
▁즐거움	-10.5231
▁연속	-10.5231
▁비밀번호	-10.5231
▁카톡	-10.5231
▁낯	-10.5233
▁느껴져	-10.5233
▁패턴	-10.5234
▁장래	-10.5234
▁태풍	-10.5234
▁바탕	-10.5234
짜리	-10.5237
▁과자	-10.524
▁제발	-10.524
▁지났	-10.5248
판	-10.5248
팀	-10.525
년간	-10.5252
▁경주	-10.5253
▁보내주신	-10.5258
▁입을	-10.5259
▁전시회	-10.5262
▁제목	-10.5263
▁장치	-10.5265
▁친절하게	-10.5272
▁없기	-10.5272
▁손에	-10.5273
▁기부	-10.5276
▁일단	-10.5277
▁기쁘다	-10.5279
▁관점	-10.5279
▁기념	-10.5295
▁요즘에	-10.5298
p	-10.5299
e	-10.5299
▁물고기	-10.5301
▁소통하	-10.5313
▁그분	-10.5314
▁행동이	-10.532
▁지정	-10.5326
▁무서	-10.5328
▁공간이	-10.5328
▁작	-10.5338
▁가르치	-10.5341
▁인물	-10.5343
▁향기	-10.5351
▁긍정적으로	-10.5355
▁인식	-10.5356
제품	-10.5363
▁발견했	-10.5377
▁아닌지	-10.538
억	-10.5382
▁뒤로	-10.5383
안	-10.5385
▁마사지	-10.5388
▁운동하	-10.539
▁합격	-10.5394
토	-10.5395
▁주문할	-10.541
▁상의	-10.541
▁행	-10.5411
▁위에서	-10.5412
▁다음부터	-10.5429
▁치고	-10.5434
▁누르	-10.5439
▁있음	-10.544
정	-10.5442
▁이해하는	-10.546
▁라인	-10.5461
▁가구	-10.5461
▁풍부	-10.5468
해주시기	-10.5472
▁여자에게	-10.5487
▁기억해	-10.5494
▁확인했	-10.5498
▁보관	-10.5501
티	-10.5504
▁이익	-10.5506
▁확인하	-10.5508
▁방이	-10.551
▁속이	-10.5513
▁들지	-10.552
▁외부	-10.5523
▁수집	-10.5524
▁들어갔	-10.5539
▁태권도	-10.5548
▁부모님께	-10.5549
▁누	-10.555
▁자야	-10.5551
▁o	-10.5555
▁세워	-10.5559
▁현장	-10.5561
▁아닌가	-10.5562
▁좋아하니	-10.5566
▁45	-10.5575
▁가만	-10.5577
▁얘기하고	-10.5578
▁그랬어	-10.5588
▁하루하루	-10.5588
▁dhl	-10.5588
▁취향	-10.5588
▁돌아와	-10.5589
▁마침	-10.5589
▁취직	-10.559
▁테이블	-10.5592
▁열려	-10.5593
▁항공권	-10.5593
▁알려드리	-10.5594
▁욕심	-10.5594
▁모르겠네	-10.5595
▁리뷰	-10.56
하였습니	-10.5603
▁범위	-10.5605
▁배경	-10.5609
▁렌즈	-10.5609
▁주문했	-10.561
▁키우고	-10.5611
▁보내기	-10.5612
▁빛나	-10.5613
▁단체	-10.5617
▁색이	-10.5622
▁추	-10.5625
▁창고	-10.5628
▁투어	-10.5628
▁사귀고	-10.5633
▁옮겨	-10.5639
▁테니까	-10.5642
으러	-10.5643
겠	-10.5647
▁연예인	-10.5648
별로	-10.5654
▁성공할	-10.5654
칩니	-10.5655
▁어린이	-10.5656
▁선택할	-10.5658
▁소개하고	-10.5659
▁음식점	-10.5662
▁유치원	-10.5667
▁지진	-10.567
▁체크아웃	-10.567
▁만남	-10.5673
▁작아	-10.5679
▁생각한	-10.5679
▁사진으로	-10.5683
▁잘하지	-10.5684
▁일어나는	-10.5685
▁오래전	-10.5687
▁피로	-10.569
ing	-10.5694
만한	-10.5702
▁인생에서	-10.571
▁다녔	-10.5711
▁제한	-10.5723
▁미친	-10.5726
▁사람으로	-10.5729
▁생일이	-10.5735
▁사용했어	-10.574
▁썼어	-10.5748
▁하거	-10.575
왔	-10.5751
▁제공하는	-10.5755
▁구분	-10.5758
▁시장에	-10.5761
▁불편하	-10.5765
▁이하	-10.5766
▁청소년	-10.5769
▁오전에	-10.5772
▁보내면	-10.5774
▁말하	-10.5775
▁방향	-10.5778
▁시험에	-10.5779
▁사용해야	-10.578
었지만	-10.5782
▁회	-10.5785
▁준비할	-10.5796
▁맛있어	-10.5797
▁여행이	-10.5799
▁겨울이	-10.5806
▁나아가	-10.5813
▁핸드폰으로	-10.5814
▁걸릴	-10.5815
▁충격	-10.5829
▁마라	-10.5831
▁피곤하	-10.5832
▁함	-10.5832
▁홈페이지	-10.5838
▁소비자	-10.5844
▁가운데	-10.5845
▁소유	-10.5845
▁이해하고	-10.5846
류	-10.5847
▁고대	-10.5854
▁새해	-10.5856
▁있겠어	-10.5858
야만	-10.5858
겠다	-10.5858
▁긴급	-10.5859
▁파리	-10.5861
▁풍경	-10.5861
▁패키지	-10.5868
▁전해주	-10.5874
▁관리자	-10.5877
▁빠져	-10.5881
4	-10.5883
▁미국으로	-10.589
▁29	-10.5892
▁털	-10.5896
▁배운	-10.5898
▁떠난	-10.5901
▁바닥	-10.5904
▁일하	-10.5908
▁유지하	-10.5911
▁필요하지	-10.592
▁되어있	-10.5925
▁수영장	-10.5927
▁들어주	-10.5928
하였으	-10.593
▁평균	-10.5944
▁흰색	-10.5946
▁실망	-10.5949
주에	-10.5953
▁밀	-10.5957
▁엘리베이터	-10.5959
▁최신	-10.5959
▁태어난	-10.5959
▁숫자	-10.5959
▁해외여행	-10.5959
▁신용카드	-10.596
▁실시	-10.5961
▁돌아갈	-10.5961
▁어깨	-10.5961
▁없애	-10.5962
▁와이프	-10.5962
▁들어갈	-10.5968
▁오픈	-10.5972
▁주셔	-10.5973
▁무조건	-10.5974
▁진행하는	-10.5974
▁남는	-10.5977
▁번역기	-10.5978
▁상사	-10.5979
▁지키지	-10.598
▁결혼식에	-10.5989
▁마트	-10.5991
▁핵심	-10.5993
▁출신	-10.5993
▁먼	-10.5995
▁죽기	-10.5996
▁작동	-10.5997
▁인쇄	-10.6
b	-10.6002
▁마리	-10.6003
▁운영하	-10.6005
▁부모님에게	-10.6014
▁방법에	-10.6016
반	-10.6018
▁욕	-10.602
▁게임이	-10.6026
▁간식	-10.6027
▁재능이	-10.6035
냅니	-10.604
▁대중	-10.6041
▁친구한테	-10.6044
▁봤는데	-10.6046
인하여	-10.605
▁다운로드	-10.6052
▁도서관에서	-10.6059
▁떨	-10.6061
▁현상	-10.6067
▁개념	-10.6069
▁제주도에	-10.607
▁했는지	-10.6079
▁귀사에	-10.6082
▁남기	-10.6083
▁대화할	-10.6091
▁그러기	-10.6099
▁시각	-10.6105
▁부서	-10.6108
▁있었습니	-10.611
▁층	-10.612
▁대비	-10.6121
▁부족해	-10.6127
▁곰	-10.6129
▁닫	-10.6134
▁공격	-10.614
▁발생한	-10.6143
▁이루고	-10.6155
▁한국인이	-10.616
▁승무원이	-10.6161
▁흥미를	-10.6163
▁먹어보	-10.6167
▁측정	-10.6179
▁설탕	-10.6186
찬	-10.6203
체	-10.6205
엄	-10.6209
▁만화	-10.6212
▁노력하는	-10.6212
▁보내길	-10.6215
▁선택하	-10.6216
▁드렸	-10.6227
▁필수	-10.6231
▁공포	-10.6232
시네	-10.6236
▁영화의	-10.6238
▁고등학생	-10.6245
▁기술이	-10.6251
▁정원	-10.6263
▁엔지니어	-10.6271
없이	-10.6272
시키는	-10.6275
▁재미있었어	-10.6278
▁건설	-10.6289
▁같습니	-10.6297
크	-10.6302
▁취하	-10.6312
▁고생	-10.6313
루	-10.6314
▁전화하	-10.6316
▁방문했	-10.6316
▁끈	-10.6321
있습니다	-10.6324
▁홀	-10.6325
▁운송	-10.6336
▁이용한	-10.6338
▁침대에	-10.634
▁선택했어	-10.634
▁필요로	-10.6343
▁샀습니	-10.6343
▁자존심	-10.6343
▁탔어	-10.6343
▁첨부파일	-10.6344
▁2018	-10.6344
▁제대	-10.6344
▁담아	-10.6345
▁요새	-10.6345
▁물어본	-10.6345
▁주어진	-10.6346
▁출구	-10.635
▁기쁨	-10.635
▁조치	-10.6351
▁하우스	-10.6353
▁착용	-10.6355
▁싼	-10.6356
▁담당하	-10.6356
▁도구	-10.6358
▁권리	-10.6358
▁통신	-10.6358
▁무역	-10.6359
▁구워	-10.636
▁삶이	-10.6363
▁귀찮게	-10.6369
▁가사	-10.6374
▁준비해야	-10.6374
▁매운	-10.6378
▁호주에	-10.6383
▁작성해	-10.6386
▁디자인이	-10.6387
▁위기	-10.6392
출	-10.6395
▁한복	-10.6401
▁노력해야	-10.6406
▁다음번에	-10.6407
▁하다	-10.6407
▁사랑한다고	-10.6407
▁경복궁	-10.6408
▁내용물	-10.641
▁이제부터	-10.6411
▁캐나다에서	-10.6412
계	-10.6414
▁확정	-10.6415
▁기숙사에	-10.6419
▁성인	-10.6422
▁노력했	-10.6423
▁조각	-10.6424
▁공원에서	-10.6424
▁과정에서	-10.6429
▁가져오	-10.6431
▁것만	-10.6433
▁교회에	-10.6435
▁캐나다에	-10.6435
유로	-10.644
▁현지	-10.6452
▁입는	-10.6453
▁반송	-10.6453
리가	-10.6455
▁클럽에	-10.6462
▁외모	-10.6463
▁버리	-10.6464
▁용	-10.6464
▁보일	-10.6467
▁밖에서	-10.6468
▁무엇이든	-10.6472
▁가르치는	-10.6475
▁없는데	-10.6479
▁단가	-10.6481
▁산업	-10.6481
되면	-10.6484
▁제조	-10.6486
▁목적으로	-10.6487
▁품목	-10.6488
▁자신에게	-10.6489
▁사용되	-10.6491
리지	-10.6498
▁이루어	-10.6511
▁메일에	-10.6516
▁출고	-10.6516
▁나빠	-10.6517
▁갖	-10.652
▁끝내	-10.6521
▁깊었	-10.6522
▁통과	-10.6522
▁중국에서	-10.6535
▁건조	-10.6536
▁무시	-10.6545
▁언급	-10.6546
▁이기	-10.6547
▁노래가	-10.6548
▁끝에	-10.655
▁승리	-10.6555
8	-10.6559
▁그만두	-10.6559
▁옮기	-10.6571
▁붙여	-10.6577
▁되겠습니	-10.6578
▁공무원	-10.6583
▁굴	-10.6585
▁프로젝트에	-10.6586
▁리	-10.659
링	-10.6592
▁사진과	-10.6597
일까	-10.6601
▁떠났	-10.6605
▁지켜보	-10.6623
▁런던	-10.663
레	-10.6635
▁어쩌	-10.6643
▁n	-10.6644
▁접	-10.6646
▁소설	-10.6648
▁태국에	-10.6653
▁지냈	-10.6655
▁죽이	-10.6657
▁얼굴에	-10.6659
▁번만	-10.6665
▁우수	-10.6667
약	-10.6671
▁스케줄이	-10.6683
▁부러워	-10.6687
▁화면	-10.6691
▁헤어	-10.6691
▁러시아	-10.6712
▁소문	-10.6715
▁늦을	-10.6721
▁스토리	-10.6722
▁경력	-10.6723
▁다름	-10.6725
▁다해	-10.6729
▁적합	-10.673
▁사려	-10.6731
▁전시	-10.6731
▁접속	-10.6739
▁메이크업	-10.6743
껏	-10.6743
▁공룡	-10.6743
▁바이올린	-10.6743
▁회화	-10.6744
모	-10.6744
▁근거	-10.6747
있어	-10.6748
▁알려져	-10.675
▁지지	-10.6751
▁손가락	-10.6751
▁조선	-10.6752
▁스테이크	-10.6756
시기	-10.6757
▁모르겠지만	-10.6759
▁바르	-10.6763
▁분리	-10.6764
▁저렴한	-10.6767
▁원단	-10.6768
▁했잖아	-10.677
▁고등학교에	-10.6772
▁점검	-10.6776
▁여기에서	-10.6777
▁갖게	-10.6779
▁보상	-10.6785
▁영	-10.6786
▁채널	-10.6789
▁머무르	-10.679
▁업로드	-10.6796
분에	-10.6796
▁프랑스에	-10.6803
사항	-10.6811
▁바람이	-10.6816
▁전달해	-10.682
▁주위에	-10.6832
▁부자	-10.6832
▁완벽	-10.6835
▁온다고	-10.6836
▁시장에서	-10.684
▁뉴욕에서	-10.6841
▁없을까	-10.6842
▁사인	-10.6847
▁써서	-10.6851
▁않네	-10.6859
▁우승	-10.686
▁즐거웠어	-10.6861
▁대기	-10.6868
▁불렀	-10.6868
▁줄래	-10.6868
▁성공적	-10.6872
▁발행	-10.6874
▁시스템에	-10.688
▁관람	-10.688
▁왼쪽	-10.6884
x	-10.6889
▁매력적이	-10.6892
절	-10.6895
▁자원	-10.6895
▁건축	-10.6896
▁책임지	-10.6896
▁기재	-10.6898
▁찾아보	-10.6904
▁모여	-10.6907
▁계기	-10.6912
▁걸린	-10.6912
했을	-10.6913
▁고용	-10.6919
▁무대	-10.692
▁식품	-10.692
▁싶기	-10.6923
▁친절하	-10.6928
▁사람이라	-10.693
되	-10.6936
▁진행해	-10.6942
▁자라	-10.6944
▁쓰기	-10.6948
▁공부하	-10.6949
▁감상	-10.6949
▁취	-10.695
▁일본에서	-10.6951
▁종교	-10.6952
▁느낀	-10.6959
경	-10.6959
▁죽어	-10.6967
km	-10.6974
▁했었	-10.6976
▁말하면	-10.6986
장이	-10.6986
겠지	-10.6987
10	-10.6989
플	-10.7001
▁묵	-10.701
▁증명	-10.7012
▁일어났어	-10.703
▁영혼	-10.7035
▁누군	-10.704
▁기억하	-10.7041
▁같았어	-10.7045
▁추천하	-10.7046
▁없지만	-10.7055
▁거래처	-10.7056
▁동네	-10.7058
▁찍었어	-10.7062
▁싶다는	-10.7067
▁호주	-10.7067
▁해변	-10.7068
▁옛날	-10.7076
▁착	-10.7078
역에서	-10.708
▁찾아가	-10.7084
▁그러는	-10.7089
▁반영	-10.7091
▁그러던	-10.7091
▁참여했	-10.7092
▁호	-10.7093
▁빌딩	-10.7095
▁하더라	-10.7109
방	-10.7113
▁덜	-10.712
연	-10.7126
▁스케이트	-10.7126
▁모바일	-10.7134
▁연인	-10.7136
▁통한	-10.7136
▁고민이	-10.7136
▁협력	-10.7142
▁사장님	-10.7147
터	-10.7159
▁영양	-10.7159
▁신용	-10.716
▁블랙	-10.716
▁머리카락	-10.716
▁무릎	-10.716
▁싫다	-10.716
▁팬이	-10.716
▁김연아	-10.716
▁자랑스러워	-10.716
▁아픕니	-10.716
▁2013	-10.7161
▁양념	-10.7163
▁드레스	-10.7163
▁이겨	-10.7164
▁추운	-10.7168
▁발급	-10.7168
▁삼촌	-10.7168
▁보이네	-10.717
▁열차	-10.7171
▁자연스럽게	-10.7171
▁집안일	-10.7172
▁수출	-10.7174
▁어울려	-10.7179
▁원본	-10.7179
▁기쁘게	-10.718
▁펜	-10.7183
▁기기	-10.7184
▁신선	-10.7188
▁회사로	-10.7193
▁도중	-10.7195
된다	-10.7197
▁하나만	-10.7204
▁차이점	-10.7207
▁냈	-10.7211
▁기다려야	-10.7214
▁확인해야	-10.7214
▁계시	-10.7216
▁식	-10.7221
▁바빴어	-10.7222
▁알아보고	-10.7228
▁400	-10.7229
▁홍콩에	-10.7231
▁지불	-10.7232
쳐서	-10.7233
▁표현하는	-10.7237
▁감정이	-10.7239
▁사람한테	-10.724
▁생각나	-10.7243
9	-10.7249
▁모임에	-10.7249
▁공부에	-10.7265
▁동기	-10.7268
▁빠	-10.7272
▁해수욕장	-10.7275
▁될지	-10.7279
▁타임	-10.728
▁교실	-10.728
▁가족에게	-10.7281
▁90	-10.7289
했는지	-10.729
▁터키	-10.7291
▁간다면	-10.7292
▁샘플은	-10.7295
▁플레이	-10.7296
▁신체	-10.7304
▁남겨	-10.7305
▁대상	-10.7308
▁연휴	-10.7311
했	-10.7315
▁공감	-10.7317
▁믿음	-10.7318
▁완료되었	-10.7318
▁세계에서	-10.7325
▁벌어	-10.7329
▁친척	-10.734
▁교수님께	-10.7344
▁부분에	-10.7347
국	-10.7347
하시는	-10.7349
▁같다	-10.7357
▁놀랐어	-10.7358
▁사탕	-10.736
▁읽기	-10.7361
▁화려	-10.7376
▁내려가	-10.7377
▁꽃이	-10.7378
▁다음주	-10.7392
하나	-10.7396
▁요청했어	-10.7398
▁뮤지컬	-10.7398
▁싸움	-10.7399
▁나갔어	-10.7401
▁공부했어	-10.7407
▁확인해보	-10.7409
▁떠	-10.7411
▁찍는	-10.7414
▁취득	-10.7415
▁고객과	-10.7422
▁건강하	-10.7435
▁사용자	-10.7438
▁회의에	-10.7447
▁설	-10.7448
짝	-10.745
▁권한	-10.7452
▁어디인	-10.7454
▁문제없	-10.7455
▁있었을	-10.7456
▁감소	-10.746
▁쇼핑몰	-10.7466
▁불법	-10.7485
y	-10.7485
리는	-10.749
▁슬	-10.7493
▁쉬어	-10.7495
▁평소	-10.7495
▁뜨	-10.751
▁la	-10.7517
▁시내	-10.7519
▁핸드폰에	-10.7519
종일	-10.7525
▁기간이	-10.7527
▁만들어야	-10.7529
▁백화점	-10.7535
▁휴대전화	-10.7538
▁하려	-10.755
▁자서	-10.755
▁창의적	-10.7553
▁설레	-10.7553
▁호기심	-10.7559
▁주차장	-10.7564
▁등산	-10.7568
▁다르	-10.7568
▁그쪽	-10.757
정된	-10.7574
▁젊은	-10.7593
▁빨간	-10.7594
▁체육	-10.7595
▁금메달	-10.7595
▁데이비드	-10.7595
▁몇몇	-10.7595
▁부드럽	-10.7595
▁특성	-10.7595
▁슬픔	-10.7595
▁농담	-10.7595
▁신규	-10.7595
▁ems	-10.7595
▁멋져	-10.7595
▁회계	-10.7596
▁보람	-10.7596
▁예배	-10.7597
▁소금	-10.7597
▁좌우명	-10.7597
▁야경	-10.7597
▁떡볶이	-10.7598
▁쿠폰	-10.7598
원에서	-10.7598
▁저렴하	-10.7598
▁기도할게	-10.76
▁화제	-10.7601
▁보내드릴	-10.7602
▁체력	-10.7602
▁경치	-10.7602
▁오시	-10.7602
▁테니스	-10.7603
▁똑똑한	-10.7603
▁스타일이	-10.7604
▁쓰여	-10.7606
▁적절한	-10.7608
▁지불해야	-10.7613
▁우울	-10.7613
▁괜찮을까	-10.7613
▁따르면	-10.7613
▁편안한	-10.7614
▁알려주실	-10.7621
▁냉장고에	-10.7623
▁적당한	-10.763
▁참석할	-10.7631
▁예쁘다	-10.7637
▁전망	-10.7637
▁제출하	-10.7639
▁우주	-10.764
▁눈물이	-10.7641
▁기다릴게	-10.7649
▁행복이	-10.765
▁한국은	-10.7657
르	-10.7666
▁발생하는	-10.7666
▁이야기하	-10.7667
▁분야에서	-10.7673
▁임신	-10.7678
▁무시하	-10.7679
▁싱가포르에	-10.768
▁끝내고	-10.7684
▁주어서	-10.769
▁찾아야	-10.7693
째	-10.7694
▁돌아왔어	-10.7695
▁참여할	-10.7701
▁김밥	-10.7702
▁하겠어	-10.7706
▁검증	-10.7709
▁어울	-10.771
▁그림이	-10.771
▁기억나	-10.7711
시키	-10.7717
이룰	-10.7719
▁갈등	-10.7727
▁복	-10.773
▁공부하기	-10.773
▁알리	-10.7734
께서	-10.7734
하시나	-10.7737
▁아파트에	-10.774
▁배려하	-10.7742
▁알기	-10.7744
▁싶네	-10.7758
▁대표하	-10.776
▁찾았	-10.7762
▁주었다	-10.7767
▁높아	-10.779
▁바래	-10.7798
▁광	-10.7803
▁사용해서	-10.7827
▁맞추어	-10.7831
▁상관없어	-10.7845
▁사야	-10.7848
▁먹어서	-10.785
▁차단	-10.7854
▁차별	-10.7855
▁충실	-10.7856
▁만들었다	-10.7861
▁자신만	-10.7867
▁상관없	-10.787
▁칩	-10.7875
▁결혼했	-10.7881
▁물어봤어	-10.7893
▁다녔어	-10.7893
▁석	-10.7898
▁죽은	-10.7902
님	-10.7902
▁네게	-10.7906
▁특이	-10.7907
▁도움으로	-10.791
바른	-10.7911
▁그리스	-10.7913
▁소개하겠	-10.7914
▁대학생	-10.7915
▁은퇴	-10.7918
▁중간에	-10.7921
▁느끼는	-10.7932
▁가스	-10.7933
인한	-10.7933
▁다루	-10.7937
▁얻었	-10.7937
▁열정이	-10.794
▁충전	-10.7942
▁찾았어	-10.7946
▁유행	-10.7949
▁발송하	-10.7953
▁발생할	-10.7954
▁본인	-10.796
바로	-10.796
타	-10.7964
▁먹는다	-10.7975
▁자극	-10.7975
률	-10.7976
시쯤	-10.7983
▁리더	-10.799
▁증거	-10.8008
▁좌석	-10.8008
▁춥	-10.8011
▁냉장고	-10.8038
▁취소하	-10.8039
▁인재	-10.8041
바	-10.8042
▁희망해	-10.8042
▁꺼내	-10.8043
▁금융	-10.8043
▁두번째	-10.8044
▁인턴	-10.8049
▁룸메이트	-10.8049
▁카탈로그	-10.8049
▁프레젠테이션	-10.8049
▁jackal	-10.8049
▁코멘트	-10.8049
▁봉사활동	-10.8049
▁어려울	-10.8049
▁귀여워	-10.8049
▁스카이프	-10.805
▁몸매	-10.805
▁고유	-10.805
▁매너	-10.805
▁의료	-10.8051
▁변호사	-10.8051
▁인터넷에	-10.8052
▁기온	-10.8052
▁표정이	-10.8054
▁얼음	-10.8056
▁늘어나	-10.8056
▁남녀	-10.8058
▁폭력	-10.8059
▁아닐까	-10.806
▁호수	-10.806
▁얘기하	-10.8061
▁나타	-10.8061
▁심각한	-10.8063
▁링크	-10.8063
▁괜찮으시	-10.8067
▁지불할	-10.8069
▁구멍	-10.807
▁타기	-10.8074
▁받으러	-10.8076
▁전화할게	-10.8077
▁유용한	-10.8078
▁놀았	-10.8081
▁정식	-10.8084
▁공부해야	-10.8084
▁외출	-10.8085
하네	-10.8085
▁규칙적	-10.8087
▁기대해	-10.8087
▁커버	-10.8089
▁일본어	-10.8093
▁보기에	-10.8094
▁골라	-10.8099
작	-10.8104
▁한계	-10.8105
▁탑	-10.8107
▁구성되어	-10.8113
▁이상형	-10.8114
▁싶다면	-10.8116
▁니가	-10.8119
▁팔아	-10.8126
▁불가능한	-10.813
▁보내야	-10.8133
▁보냈다	-10.8135
▁엄마에게	-10.8135
▁홈페이지에	-10.8136
했었다	-10.8138
▁되었나	-10.8144
▁먹었다	-10.8145
▁일어났	-10.8146
▁돌려	-10.8148
▁밴드	-10.8148
▁노력하겠	-10.8148
▁관련해서	-10.8149
▁식당에서	-10.8153
▁사이트에서	-10.8153
▁진로	-10.8154
▁취해	-10.816
▁출력	-10.8161
▁도입	-10.8163
▁y	-10.8175
▁접근	-10.8176
▁군대에	-10.8177
▁나오면	-10.8181
버렸어	-10.8184
▁가졌어	-10.8185
▁재생	-10.8186
▁영문	-10.8195
워	-10.8198
▁지니	-10.82
▁보길	-10.8203
▁있다가	-10.8206
▁베트남에	-10.8207
▁연필	-10.8211
▁영화관에	-10.8218
▁찾지	-10.8218
▁예약해	-10.822
▁거절	-10.8222
▁중간	-10.8224
▁형이	-10.8229
▁화학	-10.823
▁의견이	-10.8237
▁it	-10.8237
▁않았습니	-10.8241
▁그다음에	-10.8259
▁그중에	-10.8266
▁사업에	-10.827
▁갈색	-10.8279
▁그때까지	-10.8283
▁싫은	-10.8293
o	-10.8294
▁허	-10.8298
▁뉴욕에	-10.8299
▁떨어지	-10.8313
▁편한	-10.8318
▁고맙다	-10.832
▁남동생이	-10.8322
▁전환	-10.8325
▁감성	-10.8326
▁하실	-10.8329
▁베	-10.8329
▁소망	-10.8331
▁계약서에	-10.8335
▁때에	-10.8337
▁상징	-10.8339
어야	-10.834
▁바뀌	-10.8341
원으로	-10.8344
▁정거장	-10.8348
셔	-10.8348
▁휴대	-10.8353
▁카드로	-10.8355
▁바뀌었	-10.8358
▁불안	-10.8363
암	-10.8366
▁노란색	-10.8373
▁팀이	-10.8377
▁안내해	-10.838
▁메	-10.8385
께	-10.8388
민	-10.8402
▁주의	-10.8403
▁찍을	-10.8407
▁가격과	-10.8408
마리	-10.8409
▁않았나	-10.841
이기도	-10.8411
▁버렸어	-10.8414
▁깊이	-10.8417
▁놀았어	-10.8419
▁재능	-10.8427
▁광주	-10.8429
▁길드	-10.8435
▁다행	-10.8437
▁자금	-10.8455
▁거기에서	-10.8455
▁든다	-10.8456
▁거부	-10.8456
드릴	-10.8485
▁않겠다	-10.8485
▁커플	-10.8488
▁행복하기	-10.8489
▁얼마인	-10.8491
▁틀림없	-10.8494
▁가벼	-10.8496
▁교	-10.8497
렴	-10.8512
▁용서	-10.8513
▁압니	-10.8519
▁토익	-10.8525
킵니	-10.8525
▁빼고	-10.8525
▁섞어	-10.8525
▁오토바이	-10.8525
▁깜짝	-10.8525
▁에어컨	-10.8525
▁흥미롭	-10.8526
▁동화	-10.8527
▁궁금하신	-10.8528
▁따르	-10.8528
▁다닙니	-10.8529
▁투표	-10.8529
▁메세지	-10.853
▁매출	-10.853
▁없는지	-10.8531
▁선주	-10.8533
▁진지	-10.8533
▁사소	-10.8534
▁규제	-10.8535
▁같았	-10.8535
▁인연	-10.8536
▁첫째	-10.8536
▁복지	-10.8537
▁고개	-10.8538
▁맵	-10.8541
▁경쟁력	-10.8543
▁등에	-10.8545
▁나름	-10.8545
▁보안	-10.855
▁코트	-10.8551
▁부부	-10.8551
▁손해	-10.8552
▁보석	-10.8554
▁오나	-10.8555
▁독서	-10.8559
▁면에서	-10.856
▁가깝	-10.8561
▁해낼	-10.8564
▁양식	-10.8569
▁못하면	-10.8573
▁만들어진	-10.8578
▁이내에	-10.8581
▁있구나	-10.8582
▁좋아하나	-10.8583
▁지방	-10.8587
▁된다는	-10.8591
▁백화점에	-10.8591
▁선수들	-10.8597
▁전송	-10.86
▁이웃	-10.86
▁좋은데	-10.8604
▁겨	-10.8605
▁짜	-10.8608
것을	-10.8609
▁지키	-10.861
▁검은	-10.8612
▁없으	-10.8613
▁종목	-10.8613
▁존중	-10.8615
드려	-10.862
초에	-10.8625
▁프로그램이	-10.8628
▁모른다	-10.8629
▁의식	-10.8631
▁가능할	-10.8636
▁로봇	-10.8644
▁도와줄게	-10.8647
▁톰	-10.8647
▁대단하다	-10.865
▁장기	-10.8655
▁확장	-10.8656
▁생각하기	-10.8659
▁생각하니	-10.866
▁좋아합니	-10.866
시는	-10.866
▁안전한	-10.8662
▁일어나지	-10.8662
보세	-10.8667
▁is	-10.8672
▁맞는지	-10.8673
▁둘째로	-10.8673
▁영어에	-10.8679
적이고	-10.868
w	-10.8687
주일	-10.8688
▁개미	-10.8689
▁고려해	-10.8689
▁지냈어	-10.8696
▁머무를	-10.8698
료	-10.8698
▁자랑	-10.8699
▁않겠어	-10.8705
▁도착하지	-10.8711
일간	-10.8711
▁시도해	-10.8712
하기에	-10.8715
때로	-10.8715
설	-10.8715
▁함께한	-10.8719
던데	-10.872
▁철	-10.8726
▁맞이	-10.8728
▁강림	-10.8731
▁해줘서	-10.8734
주의	-10.8734
▁그리는	-10.874
▁대응	-10.8742
▁뛰	-10.8746
▁보장	-10.8748
▁반복	-10.8756
박스	-10.8756
▁cd	-10.8772
희	-10.8778
야겠어	-10.878
mp	-10.8782
▁티	-10.8796
오니	-10.8801
▁시작하는	-10.8813
▁왕자	-10.8823
▁해결해	-10.8827
▁머무	-10.8836
▁한국과	-10.8841
▁완벽하	-10.8843
▁기획	-10.8849
▁걸린다	-10.8849
▁갈래	-10.885
▁나아	-10.8853
▁신나	-10.886
▁외국인이	-10.8869
▁운	-10.887
아갈	-10.8879
▁키우는	-10.8881
▁않는다고	-10.8882
▁해주는	-10.8884
눌	-10.8886
▁줄일	-10.8888
▁극	-10.8889
▁해보	-10.8893
▁의뢰	-10.8893
▁35	-10.8895
▁교실에	-10.8897
▁얻어	-10.8897
▁자녀	-10.8901
겁니다	-10.8904
▁인생이	-10.8908
▁중으로	-10.891
▁내부적	-10.8912
▁교류	-10.8916
▁예측	-10.8916
▁길게	-10.8916
▁기뻤어	-10.893
▁비행	-10.893
졌	-10.8937
▁예정인	-10.8938
▁성능	-10.8941
▁확인하였	-10.8941
▁들어갔어	-10.8948
▁갈지	-10.8949
▁개인적	-10.8951
년도	-10.8951
▁기념일	-10.8961
▁않을게	-10.8961
▁데에	-10.897
▁그립	-10.8972
▁로그인	-10.8973
▁참고하	-10.8974
▁들어가는	-10.8977
▁증명서	-10.8977
▁문화에	-10.8992
▁기다렸	-10.8996
▁소요	-10.9001
▁독	-10.9006
▁붙어	-10.9007
▁꿈꾸	-10.9015
▁뉴질랜드	-10.9015
▁선배	-10.902
시킨	-10.9023
▁인도네시아	-10.9023
▁벚꽃	-10.9025
▁달걀	-10.9025
▁모듈	-10.9025
▁햄버거	-10.9025
▁팔찌	-10.9026
▁떠납니	-10.9026
▁해결책	-10.9026
▁소파	-10.9026
▁진료	-10.9026
▁계십니	-10.9026
▁아끼	-10.9026
▁의향	-10.9027
▁금연	-10.9027
▁조식	-10.9028
▁동전	-10.9028
▁대형	-10.9028
▁외로워	-10.9028
▁드라이브	-10.9029
▁쿠키	-10.9029
▁말했잖아	-10.9031
▁안정	-10.9033
▁다녀오	-10.9034
▁평범한	-10.9036
▁누구인지	-10.9037
▁마감	-10.9037
▁부여	-10.9038
▁ip	-10.9038
▁벗어나	-10.9039
▁에러	-10.9041
▁용량	-10.9042
▁거북이	-10.9043
▁필요하신	-10.9043
▁변하지	-10.9045
▁취급	-10.9047
▁글자	-10.9048
▁여섯	-10.9049
▁매력적인	-10.9049
▁있거든	-10.905
▁메일이	-10.905
▁설명할	-10.9053
▁발효	-10.9054
▁금요일까지	-10.9055
▁쓰면	-10.9056
▁불편한	-10.9057
▁정장	-10.9061
▁지연	-10.9064
▁암	-10.9071
▁북	-10.9071
▁섬	-10.9075
▁맡기	-10.9076
▁사러	-10.9077
▁방안	-10.9084
▁다음날	-10.9087
뿐	-10.9087
발	-10.9092
▁바꾸고	-10.9093
백	-10.9099
▁강제	-10.9102
▁아래에	-10.9105
▁올게	-10.9113
전에	-10.9119
되기	-10.9121
▁mr	-10.9126
▁판매자	-10.9126
시간이	-10.9128
▁파악	-10.9132
▁변경할	-10.9133
▁남에게	-10.9134
파	-10.9135
▁벽	-10.9137
력	-10.9137
▁발생해요	-10.9141
▁독일에서	-10.9153
▁이별	-10.9156
▁못하	-10.9156
▁방문하고	-10.9159
▁얘기할	-10.9161
▁통역	-10.9169
▁외국인과	-10.9172
▁하시는	-10.9173
▁생	-10.9176
▁정의	-10.9178
때부터	-10.9178
▁중단	-10.9181
줬어	-10.9186
▁미치는	-10.9188
▁주인공이	-10.9188
▁당했	-10.9188
▁칼	-10.9191
대학교	-10.9193
▁분야에	-10.9198
개씩	-10.92
▁말해야	-10.9221
▁귀찮	-10.9224
▁들려	-10.9224
▁진학	-10.923
▁든	-10.9232
▁치과	-10.9237
▁초대	-10.9238
▁제약	-10.924
▁들어왔	-10.9249
▁뭐든	-10.9249
▁사이에서	-10.9253
▁환불해	-10.9256
▁노력했어	-10.9263
▁해산물	-10.9274
▁가게에서	-10.9276
▁150	-10.928
▁공장에	-10.9281
로써	-10.9289
▁수정해	-10.9293
▁목이	-10.9295
▁꺼	-10.9295
▁이용하면	-10.9301
▁시험에서	-10.9305
▁외식	-10.9309
▁도착하는	-10.9313
▁제품으로	-10.9314
해줄게	-10.9315
▁참석하	-10.9316
▁근무하	-10.932
▁선물이	-10.9325
▁드리고	-10.9327
▁재고가	-10.933
▁원인이	-10.9332
▁개최	-10.9334
▁그녀한테	-10.9344
▁걸어가	-10.9348
▁가득하	-10.9351
▁개봉	-10.9352
▁끝났어	-10.9352
▁음식들	-10.9353
사진을	-10.9353
▁룸	-10.9358
▁조리	-10.9366
▁기한	-10.9367
▁완료하였	-10.9378
▁현	-10.9379
▁변동	-10.9379
힐	-10.939
▁줄이	-10.9393
▁피부에	-10.9394
▁교정	-10.9396
▁충고	-10.9397
▁기간에	-10.9404
▁움직임	-10.9409
▁i	-10.9411
▁통제	-10.9412
▁수령	-10.9418
▁항목	-10.9418
▁명절	-10.9423
월까지	-10.9423
▁인스타그램	-10.9424
동에	-10.9425
▁고치	-10.9425
▁그러지	-10.9426
업	-10.9428
▁줄까	-10.9431
▁물론	-10.9432
▁상점	-10.9444
▁우체국	-10.9447
▁대전	-10.9449
▁싱가포르	-10.9449
▁밑	-10.945
▁중독	-10.9453
▁등장	-10.9455
▁운동장	-10.9464
▁마주	-10.9466
▁고급	-10.9466
▁그녀들	-10.9472
▁설립	-10.9474
▁사장	-10.9477
▁중앙	-10.9478
▁행동에	-10.9489
▁않으	-10.9492
▁것이다	-10.9493
▁앓	-10.9493
▁태워	-10.9494
▁흡연	-10.9505
▁박스에	-10.951
▁멋	-10.9514
▁나가는	-10.9522
개월이	-10.9527
▁것이었어	-10.953
▁단백질	-10.953
▁여자들이	-10.9534
림	-10.9538
▁직업에	-10.9544
▁입어야	-10.9544
▁장애	-10.9548
▁분실	-10.955
▁딸기	-10.9551
▁밤이	-10.9551
▁걷는	-10.9552
▁데뷔	-10.9552
▁매뉴얼	-10.9552
▁목숨	-10.9552
▁몸무게	-10.9552
▁아픔	-10.9552
▁앞서	-10.9552
▁햇빛	-10.9552
▁목걸이	-10.9552
▁슬픈	-10.9552
▁교통사고	-10.9552
▁낮잠	-10.9552
▁흐름	-10.9552
▁김치찌개	-10.9552
▁결승전	-10.9552
▁경향	-10.9552
▁한마디	-10.9552
▁밤새	-10.9552
▁닭고기	-10.9552
▁임무	-10.9553
▁빨간색	-10.9553
▁남았	-10.9553
▁드림	-10.9553
▁위치에	-10.9554
▁학교생활	-10.9554
▁부를	-10.9554
▁대리점	-10.9555
▁신호	-10.9555
▁고속도로	-10.9556
▁요구하는	-10.9557
▁무엇일까	-10.9557
▁사례	-10.9558
▁팝	-10.9559
▁q	-10.9559
▁통증	-10.956
▁외롭지	-10.956
년대	-10.956
▁좋으	-10.956
▁이력서	-10.9561
▁대출	-10.9562
▁그래픽	-10.9562
▁캠프	-10.9563
▁헤드	-10.9563
▁글씨	-10.9564
▁게이트	-10.9565
▁미디어	-10.9565
살에	-10.9567
▁에어	-10.9568
락	-10.9572
▁꼬리	-10.9573
▁기대돼	-10.9573
▁이해해주	-10.9576
▁레벨	-10.9577
▁폭	-10.9577
▁적응하	-10.9578
▁행위	-10.958
▁선호하	-10.958
▁않았을	-10.9583
er	-10.9583
▁초점	-10.9585
▁눈치	-10.9585
▁올린	-10.9587
▁봤다	-10.9587
▁피곤할	-10.9588
▁하셨	-10.959
▁맞습니	-10.9592
▁없잖아	-10.9595
▁데려가	-10.9596
▁우체국에	-10.9598
▁노력이	-10.9604
▁완료되	-10.9616
▁독도	-10.9617
▁즐기는	-10.962
▁금지	-10.9622
▁지난달	-10.9624
▁보려고	-10.9628
▁것만으로	-10.9633
▁달리기	-10.9633
▁치는	-10.9635
▁좋네	-10.9635
▁가방에	-10.9636
▁보내려고	-10.9646
▁대회에서	-10.9648
▁의상	-10.9651
▁비슷	-10.9651
▁제주	-10.9655
▁아내와	-10.9656
▁드시	-10.9657
▁소속	-10.9657
▁중이라	-10.9659
▁거짓	-10.9662
▁있군	-10.9664
▁거였어	-10.9667
나마	-10.9667
▁낚시	-10.967
팅	-10.967
▁사람인	-10.9673
▁기운	-10.9674
▁다음주에	-10.9675
▁한식	-10.9676
▁않을래	-10.9677
생	-10.9679
▁이상하게	-10.9684
말	-10.9685
▁강화도에	-10.969
▁켜	-10.9691
▁생성	-10.9692
▁다가오는	-10.9693
▁깔끔	-10.9704
▁해왔	-10.9709
▁꼼꼼	-10.9711
▁많기	-10.9713
▁하시나	-10.9716
▁중국인	-10.9722
▁허가	-10.9733
해줘서	-10.9734
려서	-10.9736
▁이쁘	-10.9738
▁영역	-10.9741
▁경찰서에	-10.9742
▁입사	-10.9742
▁너만	-10.9745
▁활동에	-10.9748
끼리	-10.975
▁무게	-10.9755
했었어	-10.9755
관	-10.9757
▁멋있는	-10.976
▁성실하	-10.976
지어	-10.9764
▁강남	-10.9766
▁친구야	-10.9766
▁경기에서	-10.9773
▁예약할	-10.9777
▁많을	-10.9779
▁방식이	-10.9783
▁시작되었	-10.9786
▁계절이	-10.9801
▁80	-10.9802
▁주문에	-10.9802
해보	-10.9803
▁제어	-10.9804
속	-10.9806
▁깨달았어	-10.9807
철	-10.9812
▁부분에서	-10.9813
▁샘플이	-10.982
승	-10.9822
되었다	-10.9823
▁사이트에	-10.9824
봅니	-10.983
▁추천하고	-10.9835
▁하느라	-10.9835
만원	-10.9837
후	-10.9837
▁당시에	-10.9847
▁주식	-10.9848
al	-10.9852
▁겸손	-10.9855
▁한강	-10.9857
처리	-10.9857
▁사랑한다	-10.9859
▁aa	-10.9862
▁보여준	-10.9869
▁하늘이	-10.987
▁지나면	-10.9879
▁이성	-10.9884
▁괜찮을	-10.989
▁사진들	-10.9891
▁팔고	-10.9891
▁체크해	-10.9893
▁확인하여	-10.9897
▁모델이	-10.9901
▁좋았다	-10.9902
▁죄송	-10.9904
▁가방이	-10.991
▁왼쪽에	-10.9913
채	-10.9938
▁파트	-10.9941
▁책임감이	-10.9941
했기	-10.9951
▁중이었어	-10.9956
▁빠졌어	-10.9956
▁지나치	-10.996
단계	-10.9961
▁sm	-10.9963
▁적게	-10.9964
▁토론	-10.9967
관리	-10.9969
▁미팅이	-10.9969
▁스위스	-10.9971
됐	-10.9982
▁눈으로	-10.9985
원에	-10.9986
▁세웠	-10.9989
▁싸우	-10.9994
▁아마존	-10.9996
▁독자	-10.9997
▁무섭	-11.0001
▁미안하다	-11.0005
▁통장	-11.0006
▁알아보	-11.0026
▁간장	-11.0027
돌	-11.0028
▁재미있었	-11.0028
▁않았던	-11.0029
▁않는다는	-11.0035
▁학과	-11.0049
▁합리적	-11.005
▁대학원	-11.0051
▁박물관	-11.0059
▁찬성	-11.0063
▁메신저	-11.0067
▁스페인어	-11.0073
▁옳은	-11.0077
▁어땠	-11.008
▁유명해	-11.0082
▁정치	-11.0084
▁기념품	-11.0086
하자	-11.0087
▁준비되어	-11.0089
▁낭비	-11.01
11	-11.0101
▁부지런	-11.0101
▁출석	-11.0103
▁마시는	-11.0105
▁출입	-11.0106
▁공개	-11.0107
▁43001	-11.0107
▁싫습니	-11.0107
▁유니폼	-11.0107
▁패스트푸드	-11.0107
▁제임스	-11.0107
▁포스터	-11.0107
▁유익	-11.0107
▁시험공부	-11.0107
▁바나나	-11.0107
▁바쁠	-11.0108
▁잃어버린	-11.0108
▁무거운	-11.0108
▁재킷	-11.0108
▁수익	-11.0109
▁연출	-11.0109
▁사랑스러워	-11.011
▁절반	-11.011
▁힘듭니	-11.011
▁명령	-11.011
▁팩스	-11.0111
▁땀	-11.0111
▁알바	-11.0112
▁db	-11.0113
▁떨어진	-11.0113
▁장소에	-11.0113
▁임시	-11.0117
▁태우	-11.0119
▁틀린	-11.0119
▁복잡한	-11.0124
▁어떤지	-11.0125
▁배려심	-11.0125
▁애인	-11.0126
▁없으니	-11.0129
▁가능할까	-11.0133
▁친절해	-11.0137
▁수정하여	-11.0139
▁크림	-11.0142
▁군데	-11.0143
▁콜라	-11.0144
▁이외에	-11.0147
▁마셨	-11.0148
▁변경되었	-11.0153
▁항공사	-11.0154
▁해내	-11.0159
100	-11.0161
▁비슷하	-11.0162
▁파일이	-11.0163
▁일했어	-11.0164
▁끌	-11.0168
▁전반적	-11.017
▁매장에서	-11.0172
▁사회에	-11.0174
▁장식	-11.0174
▁끈기	-11.0178
▁선호해	-11.0178
▁종류에	-11.018
▁졸업하	-11.0183
▁말아야	-11.0191
해준	-11.0191
▁둔	-11.0193
▁서서	-11.0195
재	-11.0195
▁부상	-11.0199
대에	-11.0203
▁입국	-11.0203
▁지키는	-11.021
▁과도	-11.0215
▁해당하	-11.0216
하시고	-11.0217
▁제주도에서	-11.0221
▁com	-11.0223
▁바닥에	-11.0224
▁업무에	-11.0224
▁대구에	-11.0224
▁환	-11.0225
▁예약한	-11.0225
▁그리기	-11.0225
▁악기	-11.0225
▁냈어	-11.0228
▁합쳐	-11.0228
▁필요성	-11.0239
▁적혀	-11.0241
▁변경된	-11.0242
▁방문했어	-11.0244
▁사귀	-11.0245
▁센터	-11.0245
▁정지	-11.0245
▁궁금했어	-11.025
▁만들지	-11.025
창	-11.0251
▁문장이	-11.0254
▁대만에	-11.0258
▁성분	-11.0263
▁설명하	-11.0264
▁양해	-11.0264
▁하나로	-11.0268
▁아프리카	-11.0279
하십	-11.028
▁적당	-11.0281
▁변경해	-11.0285
닝	-11.0286
▁연결해	-11.0288
▁당신하고	-11.0289
▁손상	-11.0289
▁수준이	-11.0289
▁해석	-11.0293
▁늦었	-11.0296
▁책임이	-11.0297
▁누구든	-11.0301
▁배치	-11.0301
▁없지	-11.0303
양	-11.0303
▁않았다면	-11.031
▁전용	-11.0317
▁예민	-11.032
▁쪽에	-11.0322
▁여행지	-11.0326
▁생산하	-11.0329
▁공원에	-11.0332
▁말았어	-11.0334
▁내야	-11.0343
▁선생님과	-11.0345
▁시즌	-11.0349
▁시일	-11.035
자와	-11.0358
▁정리하	-11.036
▁시카고	-11.0361
▁처벌	-11.0367
집에	-11.0367
해주면	-11.0368
▁떠나고	-11.0377
▁상황에서	-11.038
시켜	-11.0382
▁가공	-11.0382
리라	-11.0386
▁기관	-11.0386
▁재산	-11.0386
▁공부해	-11.0395
▁핸드폰이	-11.0396
▁제안했	-11.0404
▁읽으면	-11.0419
▁개성	-11.042
▁떠나는	-11.0421
▁상승	-11.0422
▁소식이	-11.0422
▁준비하	-11.0426
음에	-11.0431
▁수강	-11.0438
▁국	-11.0438
▁창	-11.044
▁쌀	-11.0441
▁결석	-11.0442
▁물어봤	-11.0446
▁시도했	-11.0446
▁자면	-11.0449
▁말레이시아	-11.045
▁소비	-11.0453
▁타면	-11.0455
▁형성	-11.0457
▁홍	-11.0459
북	-11.046
▁준비하는	-11.0463
▁강도	-11.0463
젠	-11.0466
▁화장실이	-11.0477
해져	-11.0479
▁폰	-11.0482
▁푸	-11.0483
n	-11.0483
남	-11.0491
▁일하기	-11.0494
만이	-11.0495
▁구성원	-11.0505
되었는지	-11.0507
▁그려	-11.0507
▁생겼다	-11.0509
하시기	-11.0522
▁내면	-11.0522
▁약속한	-11.0527
▁삭제하	-11.0536
▁방지	-11.0536
▁진출	-11.0537
▁결재	-11.054
병	-11.0541
▁태양	-11.0545
▁건물이	-11.0547
딜	-11.0548
▁아시아	-11.055
▁임	-11.0553
혹	-11.056
▁축제에	-11.0566
▁사건이	-11.0566
▁섹시	-11.0567
▁조심해	-11.0569
생긴	-11.057
▁연수	-11.0585
▁정류장	-11.0586
▁기뻤	-11.0595
▁민	-11.0597
자들	-11.0598
▁죽었	-11.0601
▁환자의	-11.0604
노	-11.061
었고	-11.0614
▁돌보	-11.0623
▁주의하	-11.0625
▁넘어	-11.0626
▁외우	-11.0626
▁하고자	-11.0634
▁돕는	-11.0635
▁버렸	-11.0635
▁우정	-11.0636
▁시청	-11.0639
강	-11.0643
▁송	-11.0644
▁출연	-11.0646
▁메모	-11.0651
▁돌아다니	-11.0654
▁시점	-11.0665
▁부드러	-11.0666
▁선생님께	-11.0666
▁기반	-11.0671
▁매달	-11.0677
▁구매했	-11.0683
▁알아봐	-11.0685
f	-11.0689
▁자신들	-11.0693
▁쉬워	-11.0693
쭉	-11.0693
▁하얀	-11.0695
▁가급적	-11.0695
▁기쁜	-11.0695
▁낫다	-11.0695
▁애완동물	-11.0695
▁액세서리	-11.0695
▁앨범	-11.0695
▁클래식	-11.0695
꽉	-11.0695
몹	-11.0695
▁힙합	-11.0695
▁떠오르	-11.0696
▁폭포	-11.0696
▁장단점	-11.0696
▁외로움	-11.0696
▁행복하지	-11.0696
▁교훈	-11.0696
▁미션	-11.0696
▁투명	-11.0696
▁이유에	-11.0697
▁유머	-11.0697
▁야간	-11.0698
▁식물	-11.0699
▁구두	-11.0699
▁샐러드	-11.07
▁책임질	-11.07
▁ups	-11.07
▁구매하신	-11.0702
▁불편함	-11.0702
▁스캔	-11.0703
▁다문화	-11.0704
▁키울	-11.0704
▁경영진	-11.0705
▁하나하나	-11.0705
▁나아지	-11.0705
▁도자기	-11.0705
▁문화재	-11.0707
▁인종	-11.0707
▁삼겹살	-11.0708
▁자랑스럽	-11.0708
▁테이프	-11.0708
▁엔진	-11.0708
▁파스타	-11.0708
▁가치관	-11.071
▁재물	-11.071
▁달려	-11.071
▁인구	-11.0712
했으니	-11.0712
▁시행	-11.0713
▁콩	-11.0713
▁발라	-11.0713
▁분들	-11.0714
▁메인	-11.0715
기술	-11.0716
▁사본	-11.0719
▁느끼기에	-11.072
▁동료들과	-11.0721
▁일반적으로	-11.0721
▁세우	-11.0722
▁바퀴	-11.0723
▁블록	-11.0723
▁연설	-11.0723
▁함부	-11.0724
▁이끌어	-11.0725
▁상관	-11.0727
▁설명하겠	-11.0727
▁기반으로	-11.0729
▁월요일까지	-11.073
▁세계적으로	-11.0732
▁진행됩니	-11.0736
▁맡아	-11.0739
감이	-11.0739
▁중요성	-11.0746
▁피곤했	-11.0746
▁틈	-11.0747
▁살지	-11.0748
▁노력한	-11.075
▁사랑하	-11.075
▁주어야	-11.075
해주길	-11.0751
▁가져와	-11.0751
▁돌아와서	-11.0754
▁대하는	-11.0761
공	-11.077
▁측	-11.0772
▁단위	-11.0773
▁하겠다	-11.0774
▁것일까	-11.0774
▁경제적으로	-11.0774
▁지각	-11.0778
션	-11.0778
▁산에	-11.078
▁잠들	-11.0781
▁말인가	-11.0782
▁목적지	-11.0786
▁입었	-11.0789
▁말하자	-11.0793
▁가죽	-11.0794
▁보내주실	-11.0796
▁빌려주	-11.08
▁후로	-11.0801
▁통보	-11.0803
마저	-11.0803
▁교회에서	-11.0803
▁예로	-11.0805
대한	-11.0806
학년이	-11.0809
▁멋있	-11.081
▁해외에서	-11.0811
▁송부	-11.0811
▁있겠지	-11.0812
▁신중	-11.0815
▁선택이	-11.0815
▁복수	-11.0815
▁전주	-11.0817
▁잘되	-11.0819
▁환영	-11.0821
▁동료들	-11.0824
▁감각	-11.0829
▁생각만	-11.0829
▁들어간	-11.0832
▁환경에서	-11.0841
▁발표하	-11.0844
▁확대	-11.0845
▁브라질	-11.0847
장으로	-11.0848
▁컴퓨터에	-11.0849
▁결정할	-11.0849
▁사회에서	-11.0861
▁들으니	-11.0862
▁불리는	-11.0864
었	-11.0864
▁전화할	-11.0865
사에	-11.0866
▁탄	-11.0872
▁살인	-11.0876
▁사양	-11.0876
z	-11.0877
▁사라졌	-11.0877
지지	-11.0878
▁고맙게	-11.088
▁유감	-11.088
▁간호	-11.089
▁파일에	-11.0891
▁수영장에	-11.0892
▁나비	-11.0892
▁살게	-11.0897
▁로고	-11.09
▁오사카	-11.0901
▁행사에	-11.0909
▁팀원들	-11.0911
▁힘들지	-11.0916
▁출	-11.0919
▁보스	-11.092
▁커지	-11.0921
▁사랑하게	-11.0921
▁요청해	-11.0922
▁배송을	-11.0926
▁벌기	-11.0927
▁싶으	-11.0929
▁했기	-11.0935
▁귀사와	-11.0939
▁부탁드리	-11.0939
▁출발하는	-11.094
케	-11.0944
임에	-11.0946
는걸	-11.095
▁질병	-11.0951
▁여지	-11.0954
▁효율적	-11.0955
▁해주길	-11.0958
▁시설이	-11.0963
▁궁금해서	-11.0964
▁넘는	-11.0966
▁공학	-11.0966
▁구매하고	-11.0967
덕에	-11.0967
▁들리	-11.0968
시고	-11.0969
▁지치	-11.0971
▁마음속에	-11.0978
▁축하드	-11.099
▁나쁘	-11.099
▁교육이	-11.0991
▁바라고	-11.1003
▁미용실에	-11.1008
▁확인한	-11.1013
해라	-11.1014
u	-11.1021
▁포기했	-11.105
▁없음	-11.1051
▁봄이	-11.1052
▁번이	-11.1054
▁컴퓨터로	-11.1069
▁방과	-11.1073
▁간에	-11.1084
학기	-11.1084
▁인내심	-11.1086
▁기계에	-11.1087
뿐이	-11.1091
▁혼	-11.1092
▁스	-11.1095
느냐	-11.1096
▁일일	-11.1098
▁개발자	-11.1099
▁들어가면	-11.1105
▁존재하지	-11.1108
▁친구인	-11.1109
▁영화에서	-11.1111
▁물건들	-11.1128
주고	-11.113
▁주고받	-11.1141
▁끔찍	-11.1141
▁풍	-11.1143
▁투	-11.1144
▁원하는지	-11.1145
둘	-11.115
스트	-11.1154
▁폭발	-11.1159
▁아쉽	-11.1162
▁유형	-11.1163
았어	-11.1163
▁바다에	-11.1165
▁남겼	-11.1174
드린	-11.1175
▁모으	-11.1176
▁기다	-11.1176
▁되어있어	-11.118
▁이루어져	-11.1185
▁흥미로	-11.1187
▁평	-11.1189
여행	-11.119
▁시선	-11.1193
▁만든다	-11.1196
▁판	-11.1197
▁추측	-11.1199
▁말씀드리	-11.1203
▁600	-11.1205
▁활성화	-11.1205
▁일기	-11.1205
▁수상	-11.1206
▁가까워	-11.121
▁인형이	-11.1214
▁숨기	-11.1215
▁실천	-11.122
▁입술	-11.1225
▁빨라	-11.1226
겠군	-11.123
거니	-11.1231
▁찾으려	-11.1232
▁플랫폼	-11.1258
▁힘들다	-11.1261
▁공동	-11.1262
▁쓰이	-11.1265
▁견	-11.1265
r	-11.1274
▁첨부해	-11.1277
▁잘하시	-11.1277
정보	-11.1278
▁외국어	-11.1279
▁그리워하	-11.1282
▁그러면서	-11.1287
▁위협	-11.129
▁정정	-11.1291
▁매력이	-11.1294
▁영감	-11.1295
▁대리	-11.13
▁제인	-11.1303
▁강원도에	-11.1304
▁em	-11.1312
▁눈물	-11.1313
▁플라스틱	-11.1317
▁프리미	-11.1318
장에서	-11.132
▁다이아몬드	-11.132
▁붙이	-11.132
▁솔루션	-11.132
▁스케치	-11.132
▁어학연수	-11.132
▁캠페인	-11.132
▁홈스테이	-11.132
▁소프트웨어	-11.132
▁가르침	-11.1321
▁냄비	-11.1321
▁중간고사	-11.1321
▁근본적	-11.1321
▁티브이	-11.1321
▁신분증	-11.1321
▁기쁠	-11.1321
▁예수님	-11.1321
▁새롭	-11.1322
▁눈빛	-11.1322
▁환율	-11.1322
▁이따	-11.1323
▁첫인상	-11.1323
▁대한항공	-11.1323
▁지쳐	-11.1323
▁레슨	-11.1324
▁달성	-11.1324
▁측에	-11.1325
▁액션	-11.1325
▁출산	-11.1326
▁강화도	-11.1328
▁가발	-11.1328
▁기구	-11.1329
▁장착	-11.1329
▁일부러	-11.133
▁특정	-11.1333
▁명소	-11.1336
▁하나씩	-11.1337
▁개수	-11.1338
▁알려주십시	-11.1338
▁불고기	-11.1338
▁고객님께서	-11.1341
▁조심	-11.1343
▁팩	-11.1343
▁슬프게	-11.1344
▁온천	-11.135
▁벌레	-11.1351
▁자려고	-11.1352
▁쳐다보	-11.1356
▁보실	-11.1363
▁집안	-11.1364
하여야	-11.1368
▁트럭	-11.1376
▁왔는데	-11.1381
▁바꾸	-11.1381
▁마음대로	-11.1383
▁감사드리	-11.1384
▁입양	-11.1385
▁아침부터	-11.1387
▁여태	-11.1392
▁사용하면	-11.1396
▁방학이	-11.1397
▁외국에서	-11.1402
▁입장에서	-11.1402
▁소개할게	-11.1403
어져	-11.1403
▁중인데	-11.1405
▁이태원에	-11.1405
6	-11.1406
▁진심이	-11.1407
▁혼란	-11.141
▁되는데	-11.1412
▁오늘이	-11.1413
▁교환학생	-11.1414
▁웃어	-11.1416
항	-11.1417
력이	-11.1419
▁살려	-11.1419
▁쳤	-11.1422
▁설치할	-11.1423
▁가정에서	-11.1426
▁정해지	-11.1426
▁기숙사에서	-11.1428
▁기자	-11.143
▁하기에	-11.143
▁보네	-11.143
▁군대에서	-11.143
▁거울	-11.1433
▁여겨	-11.1433
▁화장실에	-11.1441
▁사주	-11.1453
▁놓치	-11.1459
▁유용	-11.146
▁탄생	-11.1464
▁우울해	-11.1464
▁공유하	-11.1464
▁만나자고	-11.1469
▁걱정했어	-11.1473
▁생일에	-11.1475
▁낸	-11.1477
량이	-11.1477
▁서로에게	-11.1477
츠	-11.1477
▁결혼한	-11.1479
주가	-11.1481
▁전문점	-11.1481
로서	-11.1485
▁그전에	-11.1487
줬	-11.1489
▁주려고	-11.149
점이	-11.1492
▁파손	-11.1493
▁소개하	-11.1494
▁인천에서	-11.1495
▁애들	-11.1499
▁알겠어	-11.15
▁깨지	-11.15
▁마시면	-11.15
▁개별	-11.1518
유	-11.1526
▁만드	-11.1532
▁대여	-11.1534
▁선물해	-11.1534
▁아팠어	-11.1538
▁걸렸어	-11.1539
탕	-11.154
▁배우자	-11.1543
▁악	-11.1543
▁상품에	-11.1546
▁주스	-11.1546
▁계획에	-11.1549
▁중학교에	-11.1558
▁먹자	-11.1558
▁올렸	-11.156
▁누군가와	-11.1563
▁돌봐	-11.1564
▁걸쳐	-11.1568
▁받았습니	-11.1569
▁나오기	-11.1569
▁정직하	-11.1574
▁체	-11.1576
▁원했	-11.1577
▁잃어버렸	-11.1584
▁멋있어	-11.1587
▁요청할	-11.1594
▁가로	-11.1598
▁식당이	-11.16
▁것뿐이	-11.1602
▁경찰에	-11.1618
▁느꼈다	-11.1622
었다고	-11.1623
▁짓는	-11.1624
▁혜택	-11.1635
▁두려움	-11.1637
▁결혼하기	-11.1639
▁사무실로	-11.164
▁고마웠어	-11.1643
▁이곳으로	-11.1645
외	-11.1645
▁확인하기	-11.1645
▁잡았어	-11.1653
▁구매하	-11.1655
봤는데	-11.1658
▁불쌍	-11.166
▁순간이	-11.166
▁소개하려	-11.1661
le	-11.1664
잔	-11.1665
▁주사	-11.1666
▁인간이	-11.1677
▁방문한	-11.1679
▁깨달았	-11.1682
▁장점이	-11.1688
▁믿음이	-11.1688
▁나라로	-11.1695
▁튀	-11.1698
▁특징이	-11.1701
▁사랑받	-11.1703
▁원하시	-11.1708
▁테	-11.1713
▁시민	-11.1716
▁말았	-11.1716
담	-11.1717
▁않았기	-11.1719
▁군인	-11.1719
▁봅	-11.1727
▁얻는	-11.1731
핑	-11.1732
▁일해야	-11.1736
▁부정	-11.1751
▁추천해주	-11.1752
▁헬스장에	-11.1758
▁생각하는지	-11.176
▁굽	-11.1761
탈	-11.1766
곡	-11.1767
▁알려줘야	-11.1767
▁남지	-11.177
▁방학에	-11.1773
▁콜	-11.1778
▁게임에서	-11.1784
▁잡을	-11.1785
▁되었을	-11.179
▁조건이	-11.1792
▁깔끔하	-11.1797
▁강아지들	-11.1799
힙	-11.1799
▁나쁘지	-11.1801
▁대학생이	-11.1808
너	-11.1809
▁영웅	-11.1812
▁일한	-11.1817
▁모습에	-11.1817
▁위대	-11.1821
▁아팠	-11.1826
▁인천에	-11.1829
▁미치	-11.1833
곱	-11.1839
▁성공한	-11.186
▁필요해서	-11.1866
▁인정해	-11.1874
▁어른	-11.1876
▁답답	-11.1882
▁구독	-11.1884
▁잘생겼	-11.1885
▁스페인	-11.1886
왔어	-11.1887
▁맛집	-11.1889
▁휴무	-11.1895
▁불평	-11.1898
▁가리	-11.1901
령	-11.1902
▁불량이	-11.1907
▁제공하	-11.191
▁거주하	-11.192
교육	-11.192
▁전날	-11.1923
▁똑똑하	-11.193
광	-11.1931
▁번역해	-11.1933
▁센터에	-11.1936
▁캐	-11.1936
▁편집	-11.1939
▁풀리	-11.194
▁입원	-11.1944
▁낙	-11.1947
▁한국인들	-11.1947
▁살펴보	-11.195
▁윤	-11.1951
월이	-11.1952
▁꼬	-11.1955
보단	-11.1956
▁마인드	-11.1962
▁반납	-11.1965
▁선호	-11.1966
▁보증	-11.1971
신가	-11.1972
▁레	-11.1974
용으로	-11.1978
▁함께하	-11.1978
▁미안하	-11.1981
▁간섭	-11.1982
▁프린트	-11.1984
튼	-11.1986
▁맡겨	-11.1987
▁롯데	-11.1987
▁눈썹	-11.1987
▁댁에	-11.1987
▁마카오	-11.1987
▁모험	-11.1987
▁뿌리	-11.1987
▁사귄	-11.1987
▁서둘러	-11.1987
▁어제저녁	-11.1987
▁인테리어	-11.1987
▁컨셉	-11.1987
▁ota	-11.1987
▁마이클	-11.1987
▁체결	-11.1987
▁탁구	-11.1987
▁과외	-11.1987
▁학업	-11.1987
▁국어	-11.1988
▁여배우	-11.1988
▁출항	-11.1988
▁cms	-11.1988
▁게시물	-11.1988
▁exo	-11.1989
▁천연	-11.1989
▁도시락	-11.1989
▁부끄러워	-11.1989
▁고칠	-11.1989
▁업적	-11.199
▁주목	-11.199
▁학점	-11.1991
▁대처	-11.1992
▁셔틀버스	-11.1992
▁필터	-11.1992
▁헤어진	-11.1993
▁한눈	-11.1993
▁비누	-11.1994
▁고집	-11.1995
▁조회	-11.1995
▁혼란스럽	-11.1997
▁먹이	-11.1998
▁저렴	-11.1999
▁공공	-11.2001
▁마중	-11.2001
▁균형	-11.2001
▁튀김	-11.2001
▁체중	-11.2001
▁배터리	-11.2001
▁더러운	-11.2001
▁경비	-11.2002
▁일하지	-11.2002
▁향수	-11.2002
▁권력	-11.2005
▁누구한테	-11.2005
▁침	-11.2005
▁준비되	-11.2006
▁강원도	-11.2008
▁지적	-11.2008
▁먹었는데	-11.2009
▁상호	-11.2009
▁원치	-11.2009
▁샷	-11.201
▁라벨	-11.201
▁해양	-11.201
▁추천할	-11.2011
▁문법	-11.2013
▁않으려고	-11.2015
▁있겠네	-11.2018
▁새우	-11.2018
▁열립니	-11.2019
▁강릉	-11.2019
▁시차	-11.202
▁들어와서	-11.2021
▁넘치	-11.2023
▁싫어하지	-11.2023
▁치수	-11.2023
▁세포	-11.2024
▁편의	-11.2025
▁만들어주	-11.2035
▁주연	-11.2036
▁마법	-11.2036
▁명세	-11.2037
▁자랐	-11.2038
▁마신	-11.2044
▁추구하	-11.2044
▁셀	-11.2046
▁보유	-11.2049
▁학생들에게	-11.205
▁애플리케이션	-11.2051
▁부동산	-11.2053
▁파괴	-11.206
▁아니라면	-11.2061
▁국적	-11.2061
▁부위	-11.2063
▁노력할게	-11.2071
▁경기도	-11.2071
▁이탈리아에	-11.2074
▁마닐라에서	-11.2076
▁최소한	-11.2076
▁귀국	-11.2076
▁들면	-11.2077
▁디자인에	-11.2077
▁부족해서	-11.2079
▁심사	-11.2079
▁통일	-11.208
▁버릴	-11.208
▁얼마인지	-11.2081
▁기억하지	-11.2082
▁현재까지	-11.2085
줄게	-11.2086
▁협상	-11.2086
▁영화관	-11.2087
v	-11.2088
▁받아들이	-11.2094
▁교육에	-11.2098
▁도착해야	-11.2099
▁동네에	-11.2099
▁과정이	-11.21
▁공유해	-11.2105
▁해주실	-11.2105
▁거잖아	-11.2117
▁고향에	-11.2119
▁외국인들	-11.2123
▁진행하겠	-11.2143
거라고	-11.2146
▁구할	-11.2146
▁닮았	-11.2148
▁사면	-11.2154
▁뚱뚱	-11.2156
▁경기에	-11.2159
▁존중해	-11.216
교	-11.216
▁구입하	-11.2162
▁믿는	-11.2163
▁나가야	-11.2164
▁안정적	-11.2167
▁다음번	-11.2169
▁출발하	-11.217
▁지원하는	-11.2171
▁주겠다	-11.2174
▁수치	-11.2181
▁보드	-11.2182
▁오신	-11.2183
인들	-11.2184
▁힘내	-11.2184
▁터치	-11.2184
▁도전하	-11.2185
▁터미널	-11.2192
▁서양	-11.2192
▁정기적	-11.2192
셨어	-11.2194
▁버려	-11.2196
▁시장이	-11.2199
▁새벽에	-11.2206
▁싶고	-11.2209
▁있겠습니	-11.2209
▁요구한	-11.2212
▁저기	-11.2212
▁결정이	-11.2212
사는	-11.2213
▁부담이	-11.2213
▁어울리지	-11.2222
었는지	-11.2222
▁혁신	-11.223
합시	-11.2231
▁편견	-11.2233
▁문제점이	-11.2236
▁동물원에	-11.2238
▁좋아졌어	-11.2249
▁증상이	-11.225
▁기다려주	-11.2257
▁탑승	-11.2259
▁패	-11.2259
▁불편	-11.2263
▁시쯤	-11.2265
▁출근해	-11.2269
▁대회에	-11.2273
▁부탁했어	-11.2275
▁해소	-11.2277
▁맞을	-11.2277
▁알았다	-11.2277
▁기여	-11.2282
▁일과	-11.2287
대가	-11.2294
▁시절에	-11.2298
▁결과에	-11.23
였는데	-11.2301
▁어른이	-11.2302
▁심각하	-11.2311
입	-11.2312
▁들어왔어	-11.2312
▁aaa	-11.2314
▁식당에	-11.2316
▁이어	-11.2338
▁조깅	-11.2339
▁주겠어	-11.2342
▁웃으면	-11.2343
▁얘기하는	-11.2355
▁예술가	-11.2356
▁법인	-11.236
▁명확하	-11.2361
▁결혼하고	-11.2364
버리	-11.2367
들에	-11.2369
▁단점이	-11.2381
십시	-11.2383
▁학교가	-11.2407
▁co	-11.2409
▁호텔이	-11.241
▁옷들	-11.2415
향	-11.242
▁재미있어	-11.2427
▁돌아온	-11.2429
▁서울로	-11.2429
▁값이	-11.2432
▁편리하	-11.2438
▁비슷해	-11.2439
▁마을에	-11.244
▁발생하	-11.2445
▁국민들	-11.2446
▁사용했	-11.2448
▁줄어들	-11.2448
▁자살	-11.2449
포	-11.245
▁축복	-11.2453
▁동물이	-11.2457
▁있었기	-11.2471
▁부르는	-11.2489
▁익숙	-11.2491
▁건축물	-11.2493
번호	-11.2493
▁가까이에	-11.2493
▁시스템이	-11.2503
▁지켜주	-11.2504
겨	-11.2506
▁가져다주	-11.2507
▁거대	-11.2518
▁만납니	-11.2521
▁잘해야	-11.2524
리에	-11.2526
먼	-11.2527
▁냅	-11.2528
핀	-11.2531
▁할인해	-11.2534
책	-11.2534
▁말자	-11.2534
▁쳐	-11.2536
▁높다	-11.2538
▁적용하	-11.254
▁저번에	-11.2543
▁오늘까지	-11.2547
없는	-11.2548
▁전화했	-11.2554
▁걱정해	-11.2554
▁어른들	-11.2555
궁	-11.2561
▁아니었	-11.2561
중에	-11.2563
계획	-11.2564
생활	-11.2567
▁기쁘	-11.2568
능력	-11.2575
세트	-11.2578
▁잡았	-11.2582
▁준비한	-11.2583
▁해줬	-11.2583
▁지하철역	-11.2583
▁지불해	-11.2588
업체	-11.2589
▁보내서	-11.259
▁전원	-11.2591
코스	-11.2598
당한	-11.26
▁사지	-11.2605
▁여름방학	-11.2617
▁괴롭	-11.2618
▁처리하	-11.2621
▁운임	-11.2624
▁오로	-11.2632
▁펼쳐	-11.2632
▁보관하	-11.2636
▁울어	-11.2638
▁해준	-11.264
▁출전	-11.2644
▁시작하	-11.2646
▁고소	-11.2646
▁남아있	-11.2653
▁창업	-11.2653
▁남았어	-11.2654
▁황	-11.2656
▁희생	-11.2657
▁선정	-11.2661
구이	-11.2663
▁장면이	-11.2668
▁목욕	-11.267
▁전철	-11.267
▁확인하는	-11.2672
▁120	-11.2673
▁멋지다	-11.2677
▁틀리	-11.2679
▁채용	-11.2684
▁미루	-11.2684
▁기독교	-11.2686
받	-11.2686
▁유사	-11.2687
▁터	-11.2687
▁떠났어	-11.2688
▁팬들	-11.2691
▁강남에	-11.2691
▁찾아볼	-11.2692
▁만족해	-11.2698
▁잊어버리	-11.2699
랍니	-11.2699
▁특허	-11.2701
▁오렌지	-11.2701
▁짧게	-11.2701
▁걷기	-11.2701
▁껍질	-11.2701
▁놀이기구	-11.2701
▁눈앞에	-11.2701
▁밤늦게	-11.2701
▁뽀로로	-11.2701
▁안토니오	-11.2701
▁자존감	-11.2701
▁흑인	-11.2701
▁장학금	-11.2701
▁남이섬	-11.2702
▁용접	-11.2702
▁청바지	-11.2702
▁일어납니	-11.2702
▁gmo	-11.2702
▁측면	-11.2702
▁발명품	-11.2702
▁일어난	-11.2702
▁농사	-11.2702
▁여유롭	-11.2702
▁발레	-11.2702
▁대왕	-11.2702
▁선교	-11.2702
▁억지	-11.2702
▁가져올	-11.2703
▁파란색	-11.2703
▁개인정보	-11.2703
▁아침밥	-11.2703
▁인류	-11.2703
▁성형	-11.2703
▁가져왔	-11.2704
▁탁월	-11.2704
▁확신해	-11.2704
▁이루어집니다	-11.2704
▁알려드릴	-11.2705
▁시리즈	-11.2707
▁현황	-11.2707
▁부유	-11.2707
▁소중함	-11.2707
개월간	-11.2708
▁나타내	-11.2708
▁소포	-11.2708
▁세팅	-11.271
▁단풍	-11.2711
▁해운대	-11.2713
▁괴물	-11.2714
▁행정	-11.2714
▁알았는데	-11.2715
▁조개	-11.2716
▁복합	-11.2716
▁프랑스어	-11.2717
▁염색	-11.2718
▁정당	-11.2719
▁소음	-11.2719
▁설명했어	-11.2721
▁포함해	-11.2721
▁창고에	-11.2723
▁나타났	-11.2723
▁조심스럽	-11.2724
▁해결하기	-11.2725
▁알잖아	-11.2726
▁활발한	-11.2728
▁친절함	-11.2729
▁팀에	-11.2729
▁예산	-11.2731
▁알아볼	-11.2734
▁지어	-11.2736
▁제출해야	-11.2737
▁시트	-11.274
▁프레임	-11.2746
▁정해	-11.2747
▁환자들	-11.2748
▁약점	-11.275
▁id	-11.275
▁대전에서	-11.2752
▁올림픽에	-11.2752
▁금주	-11.2754
▁변명	-11.2758
▁ss	-11.2759
▁오실	-11.2763
▁가족들에게	-11.2766
▁이내	-11.2769
▁소화	-11.277
▁연주할	-11.277
▁내용에	-11.2772
할까	-11.2772
▁존재하는	-11.2774
▁있었는지	-11.2775
▁빠졌	-11.2775
▁요청했던	-11.2779
▁고객사에서	-11.2785
▁유지해	-11.2785
▁별명	-11.2786
▁취한	-11.2786
▁하잖아	-11.279
키	-11.2791
▁기술력	-11.2793
▁마시지	-11.2795
▁de	-11.28
▁되니까	-11.2803
▁져	-11.2811
▁홍콩에서	-11.2814
▁형식	-11.2815
▁긍정적이	-11.2816
▁구해	-11.2819
▁미국인	-11.282
▁헤어졌	-11.2826
▁살아야	-11.2834
▁세계에	-11.2843
▁구원	-11.2844
▁보이나	-11.2848
▁살아남	-11.2851
청	-11.2857
▁작고	-11.2859
▁필요한가	-11.286
▁올라갔	-11.2864
▁파도	-11.2864
▁달려가	-11.2864
▁숙	-11.2865
▁보관해	-11.2867
▁열고	-11.287
움	-11.2872
▁되었는지	-11.2875
▁제거하	-11.2875
▁도서	-11.2876
▁웃게	-11.288
▁페이지에	-11.2885
▁얻고	-11.2885
매번	-11.2893
▁떨어졌	-11.2899
▁대해서도	-11.2901
▁키스	-11.2903
▁왔습니	-11.2904
▁괜찮으	-11.2907
▁판매할	-11.291
▁산다	-11.2915
▁공지	-11.2916
▁적어주	-11.2919
▁계시는	-11.2922
▁신이	-11.293
▁바꾸는	-11.2931
▁신청서	-11.2931
▁것이야	-11.2933
▁갖다	-11.2935
▁가짜	-11.2937
▁오른쪽에	-11.2946
이십니	-11.2951
망	-11.2955
011	-11.2961
▁잃었	-11.2961
덕	-11.2963
▁종료	-11.2963
▁만들어졌	-11.2966
▁사냥	-11.2969
▁아나	-11.2971
▁따뜻하	-11.2974
▁한국이	-11.298
▁지역에서	-11.2982
▁업체에	-11.2982
▁가봤어	-11.2984
봤어	-11.2995
▁사람이랑	-11.2996
▁추가해	-11.2996
▁확실한	-11.3014
▁금전적	-11.3016
▁청소하는	-11.3017
▁사라지	-11.3018
▁운전하	-11.3021
아서	-11.3029
▁불편을	-11.3037
▁재밌었	-11.304
▁이해했	-11.3044
▁아이콘	-11.3047
▁당신들과	-11.305
▁계정에	-11.3051
▁글이	-11.3056
▁달랐	-11.3065
▁입구에	-11.3066
들로	-11.3073
▁이메일이	-11.3076
▁나라와	-11.3079
▁층에	-11.308
▁두통	-11.3083
시로	-11.309
▁보여줄	-11.3094
▁처	-11.3094
▁알려주기	-11.3097
역으로	-11.3098
▁참석했	-11.3099
▁씩	-11.31
▁콘서트에	-11.3102
▁대부분이	-11.3102
▁고려하	-11.3108
▁게임에	-11.3109
말로	-11.3112
▁마음속	-11.3116
▁시작하기	-11.3116
줬으	-11.3118
장에	-11.3118
▁통하	-11.3122
▁들어와	-11.3123
▁조금이	-11.3129
쳐	-11.3133
부에	-11.314
▁지금처럼	-11.3146
▁음식으로	-11.3156
012	-11.3167
▁소개해주	-11.317
▁가을이	-11.3173
▁달아	-11.3178
주년	-11.318
▁증상	-11.3182
주시기	-11.3187
▁타자	-11.3187
하진	-11.319
저것	-11.3198
▁도와준	-11.3212
▁기업들	-11.3214
▁원숭이	-11.3218
▁조화	-11.3229
▁기업이	-11.3229
벌	-11.3231
▁초대해	-11.3238
▁극복	-11.3238
킬	-11.3242
▁도착하기	-11.3245
역에	-11.3247
▁확보	-11.3252
▁돌리	-11.3253
▁기침	-11.3254
장과	-11.3256
▁취소해	-11.3258
▁뿐만	-11.3263
▁살았어	-11.3265
품	-11.3269
변	-11.3275
▁바닷가	-11.3276
으시다면	-11.3277
밀	-11.3277
▁사업가	-11.328
▁로맨틱	-11.3281
▁불이	-11.3282
▁맡았	-11.329
주시겠습니	-11.329
놓	-11.3291
▁개들	-11.3295
▁편해	-11.3296
▁마켓	-11.3297
▁초과	-11.3298
시간에	-11.3299
립	-11.3299
▁자식	-11.3303
▁해줬어	-11.3305
미터	-11.3314
해볼게	-11.3316
▁상관이	-11.3317
페이지	-11.3319
삼	-11.3319
▁마지막에	-11.332
20	-11.3322
쌉	-11.3324
문화	-11.3327
▁도와줬어	-11.3335
팀이	-11.3335
▁작곡	-11.3339
▁검	-11.3344
▁때였	-11.3346
▁분노	-11.3346
▁빌어	-11.3346
▁해봤	-11.3347
이었	-11.3349
▁즐	-11.3358
▁해야겠다	-11.3362
▁길거리	-11.3368
▁이태원	-11.337
▁연관	-11.3371
▁이름과	-11.3372
금액	-11.3382
▁흐	-11.3382
▁양의	-11.3382
▁질투	-11.3384
▁하시면	-11.3392
▁요청이	-11.3396
▁요청하였	-11.3397
▁쓰려	-11.3398
▁구름	-11.3399
▁날아	-11.3403
▁bl	-11.3404
롭	-11.3408
▁임대	-11.3413
▁극장에	-11.3419
▁잘라	-11.342
▁800	-11.3421
▁예정입니	-11.3423
▁줄여	-11.3423
▁카테고리	-11.3423
▁활	-11.3427
해졌어	-11.3436
▁애인이	-11.3442
▁물어볼	-11.3444
▁책에	-11.3448
례	-11.345
▁성경	-11.3451
▁소원이	-11.3454
▁반환	-11.3457
▁정한	-11.3459
▁지연되	-11.346
▁댄스	-11.346
▁온다	-11.346
랄	-11.3469
릿	-11.347
▁유튜브	-11.3471
▁고구마	-11.3471
▁네덜란드	-11.3471
▁녹차	-11.3471
▁디저트	-11.3471
▁스타벅스	-11.3471
▁스파게티	-11.3471
▁오스트리아	-11.3471
▁프로세스	-11.3471
▁mocha	-11.3471
▁티셔츠	-11.3471
▁페인트	-11.3471
▁pdf	-11.3471
▁가르칠	-11.3471
▁세종대왕	-11.3471
▁프로모션	-11.3471
▁괴로워	-11.3471
▁moq	-11.3471
▁베이징	-11.3471
▁스크린	-11.3471
▁늦잠	-11.3471
▁넷째	-11.3471
▁소풍	-11.3471
▁지폐	-11.3471
▁동굴	-11.3471
▁부끄러움	-11.3471
▁리더십	-11.3471
▁mcs	-11.3471
▁감염	-11.3471
▁미쳐	-11.3471
▁생각과	-11.3471
▁연말	-11.3471
▁보증금	-11.3472
▁테마	-11.3472
▁대책	-11.3472
▁매체	-11.3472
▁증오	-11.3472
▁이뻐	-11.3472
▁연료	-11.3473
▁영화배우	-11.3473
▁움직일	-11.3473
▁감명	-11.3474
▁아플	-11.3474
▁떠올리	-11.3474
▁대량	-11.3474
▁지킬	-11.3474
▁뉴	-11.3474
▁편리함	-11.3475
▁전액	-11.3475
▁유창하게	-11.3475
▁용어	-11.3475
▁분류	-11.3476
▁빌릴	-11.3476
▁디지털	-11.3477
▁비빔밥	-11.3477
▁여왕	-11.3477
▁초밥	-11.3477
▁벗어	-11.3478
▁정중	-11.3478
▁sw	-11.3478
▁기후	-11.3478
▁표본	-11.3479
▁지배	-11.3479
▁볼링	-11.3479
▁셀러	-11.348
▁메리	-11.348
▁되려	-11.3481
▁센	-11.3482
▁치아	-11.3482
▁부른	-11.3483
▁남한	-11.3484
▁정답	-11.3485
▁123	-11.3485
▁주름	-11.3485
하셨나	-11.3486
▁졸려	-11.3486
▁멈	-11.3486
▁가져야	-11.3487
▁패킹	-11.3487
▁갈아타	-11.3489
▁시간표	-11.349
▁자본	-11.349
무	-11.3491
▁두께	-11.3492
▁마쳤	-11.3493
▁헤어져	-11.3494
▁코리아	-11.3497
▁아웃	-11.3497
▁않은데	-11.3498
▁금속	-11.3498
▁이럴	-11.3498
▁세상이	-11.3499
▁보이는데	-11.3499
▁올릴	-11.35
▁올랐	-11.35
▁제공됩니	-11.3501
▁참석해	-11.3501
▁죄송하	-11.3502
▁빠질	-11.3502
▁겨울방학	-11.3503
▁함유	-11.3505
▁턱	-11.3508
▁보조	-11.3508
▁필름	-11.3508
▁어땠어	-11.351
▁월요일부터	-11.351
▁센서	-11.3511
▁넘버	-11.3511
▁재활용	-11.3512
▁비율	-11.3512
▁반응이	-11.3512
▁기르	-11.3515
▁정류장에서	-11.3516
▁지위	-11.3516
▁외모와	-11.3516
▁찌	-11.3518
▁똥	-11.3518
▁닉	-11.3518
돼서	-11.352
▁체육관에서	-11.3521
▁the	-11.3523
▁들었는데	-11.3524
▁이모	-11.3524
▁찍었	-11.3525
▁틀림없어	-11.3528
▁받았는데	-11.3528
▁에이전트	-11.3532
▁갔는데	-11.3534
▁효율적인	-11.3535
▁현장에서	-11.3536
▁음료수	-11.3537
▁해결해야	-11.3538
▁구운	-11.3538
▁어디까지	-11.3539
▁배워야	-11.3542
▁익숙하지	-11.3542
▁되네	-11.3547
▁슈	-11.3549
▁양이	-11.3554
▁끝나는	-11.3555
▁넘어가	-11.3558
▁송금할	-11.3558
▁먹으려	-11.3562
▁다수	-11.3563
▁뻔했어	-11.3563
▁기대하	-11.3569
▁집중력	-11.3571
▁빛이	-11.3572
▁사랑했	-11.3573
▁주거	-11.3574
▁스페인에	-11.3578
▁적용되는	-11.3584
▁대사	-11.3588
▁만족할	-11.3589
▁진지하	-11.3592
▁오피스	-11.3593
▁후회하	-11.3602
▁다가가	-11.3603
▁도와줬	-11.361
▁마이크	-11.361
인치	-11.3615
▁수정할	-11.3616
▁명예	-11.362
▁거미	-11.362
▁무엇보다	-11.3621
▁요리하는	-11.3621
▁lg	-11.3622
▁대상이	-11.3622
▁형태로	-11.3622
▁결혼해서	-11.3624
▁타워	-11.3626
▁제출했	-11.3626
도저	-11.3627
▁채워	-11.3628
빈	-11.3636
▁도와줘	-11.3638
▁해봐	-11.3643
년도에	-11.3643
▁만족하	-11.3643
▁탈출	-11.3644
▁다니면	-11.3645
▁갔습니	-11.3646
▁작품이	-11.365
▁가니	-11.3655
▁없었기	-11.3659
인이	-11.366
▁경험이었어	-11.3661
방에서	-11.3663
▁가시	-11.3664
▁불만이	-11.3666
▁배출	-11.3668
▁거실	-11.367
▁한데	-11.3671
▁들어가기	-11.3677
▁하느님	-11.3684
▁199	-11.3688
▁st	-11.3689
▁이민	-11.3691
▁보이기	-11.3692
하겠다고	-11.3696
시키기	-11.3705
▁째	-11.3708
▁먹습니	-11.3721
▁갈비	-11.3721
▁이래	-11.3727
▁힘으로	-11.3732
▁깨끗하	-11.3732
▁불가능해	-11.3735
▁주어	-11.3736
l	-11.3738
▁사유	-11.3738
▁찬	-11.374
▁표현이	-11.3743
▁해결되	-11.3747
▁귀찮아	-11.3751
▁직	-11.3753
▁유명하	-11.3755
▁권한이	-11.3756
▁다가오	-11.3757
▁봐주	-11.3759
▁시작된	-11.376
▁받으려	-11.3763
▁소비자들	-11.3764
▁내일이	-11.3766
▁많으면	-11.3769
▁인도에	-11.3769
하려는	-11.3771
▁생각해보	-11.3771
▁잘못했	-11.3777
▁차지	-11.3787
▁연락하기	-11.3789
▁기도하	-11.3791
▁활발하	-11.3793
▁스킨	-11.3797
▁장소로	-11.3801
▁있든	-11.3801
▁알려줬	-11.3806
▁안된다	-11.381
▁역에서	-11.3812
▁좋기	-11.3813
비는	-11.3814
▁디자인과	-11.3814
▁안심	-11.3818
▁요리해	-11.3823
▁사랑해주	-11.3827
▁제출해	-11.3828
▁오니	-11.383
▁유발	-11.3834
▁머리에	-11.384
▁다니기	-11.3843
카	-11.3848
▁행성	-11.3848
▁당일	-11.3848
▁되겠어	-11.3853
파크	-11.3853
▁혼자만	-11.3857
▁영국에	-11.3858
▁느낀다	-11.386
▁동생들	-11.3871
▁농장	-11.3871
▁해외에	-11.3879
▁불어	-11.3879
▁더워	-11.3885
▁말까지	-11.389
▁즐겼	-11.3897
▁똑똑해	-11.3897
▁담고	-11.39
▁참아	-11.3901
▁반찬	-11.3907
▁과정에	-11.3911
▁너처럼	-11.3913
▁둘러	-11.392
▁공통점	-11.3921
▁월드컵	-11.3931
독	-11.3932
▁유저	-11.3933
▁것이기	-11.3935
스타	-11.394
▁영화와	-11.3941
▁분들이	-11.3946
or	-11.3947
▁알려지	-11.3948
자에게	-11.3953
▁변했	-11.3957
▁내부에	-11.3969
▁본사	-11.3969
▁라	-11.397
▁선택해	-11.3971
▁얘기했어	-11.3971
▁무한	-11.3972
▁담요	-11.3975
▁당신으로	-11.3976
▁님	-11.3976
▁만나도	-11.3977
버	-11.3977
하라	-11.3978
함에	-11.3985
▁들으	-11.3986
현	-11.3986
▁하셔	-11.3993
▁사진에서	-11.3999
▁언제인	-11.4
▁서류에	-11.4004
▁지루	-11.4005
▁환경에	-11.4009
▁운동할	-11.4017
▁노인들	-11.4017
▁유감이	-11.4022
▁지역이	-11.4023
▁제시해	-11.4026
▁기술자	-11.4026
▁넣어주	-11.4031
▁점에	-11.4033
▁일자	-11.4035
찍어서	-11.4042
된다면	-11.4046
▁로그	-11.4047
▁맛보	-11.4052
▁해준다	-11.4052
▁나가면	-11.406
▁생에	-11.4061
▁잊었	-11.4062
▁배웠다	-11.4066
▁건축가	-11.4074
▁계곡	-11.4077
용품	-11.4078
▁말들	-11.4087
▁접시	-11.4087
▁부착	-11.4094
▁거주	-11.4095
▁잘했어	-11.4096
였습니	-11.4098
▁생물	-11.4099
▁현상이	-11.4101
▁다쳤	-11.4101
럭	-11.4108
▁든든	-11.4112
▁다할	-11.4112
▁보시	-11.4117
▁철저	-11.4117
▁뛰어나	-11.4119
▁필요한지	-11.4119
얼	-11.4127
▁지점	-11.4128
커	-11.4129
▁준비하겠	-11.4129
▁경험해	-11.4132
루기	-11.4145
▁출근하	-11.4152
퍼	-11.4153
▁이해한	-11.4154
▁인출	-11.4162
▁설명해주	-11.4162
새	-11.4163
됨	-11.4164
▁생각해서	-11.4166
▁한해	-11.4169
▁수단	-11.417
▁부족하	-11.4171
둔	-11.4174
굴	-11.4177
텐데	-11.4179
▁운명	-11.4188
▁틀렸	-11.4191
각	-11.4194
▁녹음	-11.4202
30	-11.4204
▁공휴일	-11.4206
▁지하	-11.4207
▁엄격	-11.4211
▁내렸	-11.4215
▁불편해	-11.4222
▁멀어	-11.4223
▁배에	-11.423
▁비행기에	-11.4241
▁남산	-11.4241
▁세탁	-11.4242
시켰	-11.4243
▁깨닫	-11.4245
▁외로	-11.4252
▁표준	-11.4258
▁불안해	-11.4259
▁셋	-11.426
▁보내도	-11.426
▁가시는	-11.4261
▁전달했	-11.4266
▁좋아하는지	-11.4269
▁화내	-11.4272
▁가져갈	-11.4273
▁폐	-11.4273
▁불리	-11.4274
▁기말고사	-11.4275
▁유통	-11.4277
▁신발이	-11.4278
▁잃을	-11.4282
▁벗	-11.4282
▁했습니	-11.4282
했었는데	-11.4282
▁마련	-11.4285
▁사원	-11.4287
▁아껴	-11.4287
▁노동	-11.4289
▁거짓말이	-11.4295
해주는	-11.4295
▁누락	-11.4295
▁완료했	-11.4296
▁볼까	-11.4296
▁적립	-11.4302
▁조종	-11.4304
▁쌓아	-11.4304
▁모니터	-11.4304
▁디즈니	-11.4304
▁검정	-11.4304
▁fedex	-11.4304
▁깎아	-11.4304
▁롯데백화점	-11.4304
▁숨겨	-11.4304
▁이집트	-11.4304
▁객관적	-11.4304
▁걔네	-11.4304
▁마스크	-11.4304
▁미세먼지	-11.4304
▁뷔페	-11.4304
▁솜씨	-11.4304
▁에이전시	-11.4304
▁에펠탑	-11.4304
▁엑셀	-11.4304
▁옮길	-11.4304
▁옳다고	-11.4304
▁죄책감	-11.4304
▁칵테일	-11.4304
▁트위터	-11.4304
▁해리포터	-11.4304
▁확률	-11.4304
▁훔쳐	-11.4304
▁배고파	-11.4304
▁신혼여행	-11.4304
▁감자튀김	-11.4304
▁스티브	-11.4304
▁워킹	-11.4304
▁네이버	-11.4304
▁블루	-11.4304
▁펜팔	-11.4304
▁교과서	-11.4304
▁박지성	-11.4304
▁모니터링	-11.4304
▁생깁니	-11.4305
▁다니엘	-11.4305
▁포항	-11.4305
▁파마	-11.4305
▁지혜	-11.4305
▁돼지고기	-11.4305
▁실질적	-11.4306
▁인간관계	-11.4306
▁말씀하신	-11.4306
▁미칠	-11.4306
▁말아줘	-11.4306
▁실내	-11.4307
▁골든	-11.4307
▁포함하	-11.4307
▁그리울	-11.4307
▁정신적	-11.4307
▁받아들일	-11.4308
▁고추장	-11.4308
▁모터	-11.4308
▁어울리	-11.4309
▁api	-11.431
▁아저씨	-11.431
▁클라이언트	-11.431
▁알아듣	-11.431
▁다이빙	-11.431
▁led	-11.4311
▁태그	-11.4311
▁한옥	-11.4311
▁pop	-11.4311
▁나이키	-11.4311
▁시합	-11.4312
▁화난	-11.4312
▁썰어	-11.4312
▁가격표	-11.4312
▁우려	-11.4312
▁차지하	-11.4312
받았어	-11.4312
▁직전	-11.4312
▁경찰관	-11.4312
▁마스터	-11.4312
▁초안	-11.4313
▁움직여	-11.4314
▁머물러	-11.4314
▁250	-11.4314
▁티비	-11.4314
▁개설	-11.4315
▁추정	-11.4315
▁연어	-11.4316
▁첫날	-11.4317
▁해킹	-11.4318
▁던지	-11.4318
▁점프	-11.4318
▁보온	-11.4318
▁볼거리	-11.432
▁키즈	-11.432
▁최종적으로	-11.4321
▁안녕	-11.4322
▁연락드리	-11.4325
▁태	-11.4325
▁주까지	-11.4325
▁철학	-11.4325
▁퍼즐	-11.4326
▁임원	-11.4326
▁비전	-11.4326
▁상상력	-11.4329
▁지출	-11.4331
▁내려오	-11.4331
▁휘	-11.4331
▁공유할	-11.4333
▁실습	-11.4333
▁기어	-11.4334
▁랩	-11.4335
▁부탁한	-11.4335
▁흔들리	-11.4336
▁re	-11.4337
▁천사	-11.4337
▁편의점에서	-11.4337
▁이용하시	-11.4342
▁성함	-11.4342
▁마크	-11.4342
▁최적화	-11.4344
▁떡	-11.4344
▁대안	-11.4345
▁작용	-11.4345
▁무용	-11.4348
▁정신적으로	-11.4349
▁활기	-11.4351
▁두꺼	-11.4356
▁출발할	-11.4358
▁지키기	-11.4358
▁초기	-11.4359
들도	-11.436
▁문학	-11.4363
▁없으니까	-11.4363
▁밀려	-11.4363
▁활용하여	-11.4366
▁라디오	-11.4369
▁타이어	-11.4369
▁살면	-11.437
▁32	-11.437
▁구하고	-11.4373
▁시작되	-11.4375
▁설명하기	-11.4376
▁일생	-11.4378
▁위반	-11.4378
▁단단	-11.438
▁뵙고	-11.4381
▁사용됩니	-11.4382
▁자정	-11.4383
▁전역	-11.4384
▁신분	-11.4384
▁발전할	-11.4386
▁극장	-11.4389
▁작품들	-11.439
▁기관에	-11.4391
▁밑에	-11.4394
▁송도	-11.4394
▁가까워지	-11.4395
▁누리	-11.4397
▁진행해야	-11.4398
▁가져다	-11.4399
▁입대	-11.44
▁보충	-11.4403
▁정성	-11.4405
▁이리	-11.4405
▁발견하	-11.4407
▁그림자	-11.4407
▁영향력	-11.4407
▁하셨어	-11.4408
▁돌려줄	-11.4408
▁흡수	-11.4409
▁들러	-11.441
▁고민하	-11.4415
▁않았는데	-11.4417
▁불가능하다	-11.4417
▁to	-11.442
▁롤	-11.4422
▁망	-11.4422
▁홈페이지에서	-11.4422
▁지낸	-11.4425
▁전달할	-11.4426
탄	-11.4426
▁회신해	-11.443
▁up	-11.4433
▁전화했어	-11.4438
▁드리지	-11.4439
▁여기까지	-11.4442
▁해야겠어	-11.4444
▁많은데	-11.4446
▁의문	-11.4446
▁곤란	-11.4446
▁상영	-11.445
▁사랑한다면	-11.4451
년대에	-11.4452
▁표면	-11.4452
▁박물관에	-11.4455
▁동일하	-11.446
▁리그	-11.4461
▁핀	-11.4461
때마다	-11.4463
▁지속적	-11.4463
▁베트남에서	-11.447
▁추가하여	-11.4471
▁염려	-11.4474
▁국내에서	-11.4474
▁수표	-11.4475
▁무대에	-11.448
▁어렵지	-11.4484
▁서핑	-11.4486
▁주택	-11.4487
▁등급	-11.4487
▁물어보는	-11.4487
▁수프	-11.449
▁직장에서	-11.4491
▁무기	-11.4494
▁연락하면	-11.4497
▁계산서	-11.4498
년까지	-11.45
▁성숙	-11.4501
▁발송할	-11.4505
▁도쿄에	-11.4506
▁처음이	-11.4509
▁읽지	-11.4529
▁둘러보	-11.4532
이었기	-11.4533
▁무서웠어	-11.4534
▁당신보다	-11.4534
▁동행	-11.4534
▁타인	-11.4542
▁바른	-11.4549
▁이해하려	-11.455
▁쉬었어	-11.4555
▁제시하	-11.4556
▁대행	-11.4557
▁잘하	-11.4563
위해	-11.4564
▁주간	-11.4565
▁한쪽	-11.457
▁문의를	-11.4573
12	-11.4573
다른	-11.4581
▁걱정하는	-11.4585
▁난방	-11.4588
▁귀하께	-11.4594
▁사라	-11.4595
▁때쯤	-11.4602
▁놀랐	-11.4608
▁면이	-11.4613
▁높여	-11.4615
율	-11.4615
▁당첨	-11.4616
▁조합	-11.4624
▁창출	-11.4632
▁상상해	-11.4636
명과	-11.4638
▁참을	-11.4638
▁강점	-11.4645
▁필요했어	-11.4648
▁발송해	-11.4655
▁효과적	-11.4657
▁시야	-11.466
▁사장이	-11.4666
▁설명하는	-11.4666
▁바라는	-11.4667
층에서	-11.4668
▁연봉	-11.4676
▁디	-11.4677
▁판단하	-11.4679
▁바꿨	-11.468
였기	-11.468
▁넘어졌	-11.4681
▁구역	-11.4682
▁귀엽다	-11.4686
▁확인하시	-11.4693
▁장애인	-11.4693
▁전공하	-11.4696
▁유효	-11.4697
일에서	-11.4698
▁도왔	-11.4701
송	-11.4711
▁갤러리	-11.4712
▁후원	-11.4722
▁찾았다	-11.4729
▁추가할	-11.4731
▁부어	-11.4735
▁동대문에	-11.4743
▁신나는	-11.4754
▁전문적	-11.4754
▁습관이	-11.4757
▁in	-11.476
▁지나가	-11.4763
▁사람이었	-11.4764
▁검색해	-11.4765
▁여자아이	-11.477
▁묘사	-11.4773
▁여행하기	-11.4778
▁해주시	-11.4782
▁오리	-11.4782
▁싸우지	-11.4788
▁불행	-11.4788
▁극복하	-11.4789
▁건강과	-11.4797
▁판매되	-11.4803
▁피우	-11.4804
▁왔나	-11.4811
▁어디든	-11.4811
▁살아있	-11.4815
▁말만	-11.4815
▁여행하	-11.4816
▁선택했	-11.4817
쯤에	-11.4824
이니	-11.4836
▁입력하	-11.4837
▁국제적	-11.4837
▁때였어	-11.4841
▁귀가	-11.4845
▁미팅에	-11.485
▁모양이	-11.485
관계	-11.485
▁기도해	-11.4853
하겠다	-11.4858
▁정리해	-11.4866
▁본격적	-11.4866
▁가상	-11.4867
▁일치	-11.4867
▁여행에	-11.4873
▁표현했어	-11.4874
▁못하였	-11.4874
더라고	-11.4886
▁설명이	-11.4886
▁목표가	-11.4887
▁세관에	-11.4892
으로서	-11.4894
▁스키장에	-11.4897
▁반에	-11.4898
클	-11.49
▁깊어	-11.4903
▁하려는	-11.4905
▁잘못이	-11.4912
▁벽에	-11.4924
▁일이라	-11.4928
목	-11.493
▁체계	-11.4936
▁창피	-11.494
▁여성이	-11.4941
▁sk	-11.4944
▁어리	-11.4948
▁제도	-11.4952
▁성향	-11.4953
▁지불했	-11.4961
▁이루어진	-11.4964
▁자부심	-11.4967
▁독일에	-11.4972
▁치과에	-11.4974
▁재밌었어	-11.4976
▁아름답다	-11.4978
막	-11.4979
대회	-11.4981
▁튼튼	-11.499
▁표현하고	-11.4992
필	-11.4997
▁산이	-11.4997
▁소중하	-11.4999
▁보호해	-11.5001
▁말해줄	-11.5004
척	-11.5004
▁팔았	-11.5011
▁사자	-11.5011
▁않으니	-11.5014
▁생각으로	-11.5016
▁공식적	-11.5017
▁차리	-11.502
▁로마	-11.5021
▁지불한	-11.5021
롤	-11.5022
▁합의	-11.5027
파운드	-11.5028
▁가봐야	-11.5029
문서	-11.5029
▁작업자	-11.5031
▁잘해서	-11.5033
쉬	-11.5035
▁놓으	-11.5037
▁어두	-11.5038
▁강사	-11.5039
▁증	-11.5042
▁부대	-11.5042
▁동의하	-11.5043
카드	-11.5045
끼	-11.5046
킹	-11.5054
▁계좌로	-11.5056
▁얻었어	-11.5059
▁투자하	-11.5061
밥	-11.5067
▁착하	-11.5069
작업	-11.5072
▁신제품	-11.5074
▁포장해	-11.5077
흘	-11.5078
▁of	-11.508
묘	-11.508
홀	-11.5082
타워	-11.5083
렸	-11.5087
▁진행해주	-11.5091
▁되찾	-11.5094
▁시골	-11.5098
▁뜻하는	-11.5099
받을	-11.5099
▁프라이팬에	-11.5102
▁멍청	-11.5102
▁부과	-11.5103
▁안타깝	-11.5103
▁처리해	-11.5104
해질	-11.5106
▁영웅이	-11.5106
▁강요하	-11.5106
▁출연했	-11.5106
▁프린터	-11.5109
▁강의실	-11.511
▁어리석	-11.5111
▁포즈	-11.5112
▁노출	-11.5116
▁실현	-11.5117
▁취소되었	-11.5117
▁격	-11.5119
▁시작하였	-11.5123
▁지원했	-11.5127
▁어젯밤	-11.5127
▁환상	-11.5129
▁재밌어	-11.5133
▁오염	-11.5137
▁키워	-11.5143
▁반짝	-11.5143
▁상해	-11.5144
▁입맛	-11.5144
싱	-11.5145
▁갈아	-11.5151
▁크다	-11.5157
▁양말	-11.5158
▁받아들여	-11.5159
▁절약	-11.5162
▁들여	-11.5165
▁경계	-11.5166
▁보여서	-11.517
▁조건에	-11.517
▁활동적이	-11.5171
▁말씀이	-11.5174
▁그것과	-11.5177
▁걸리는	-11.5178
▁잡혀	-11.5179
▁자율	-11.5183
▁만나보	-11.5185
▁시대에	-11.5186
▁자원봉사	-11.519
▁검토하	-11.5192
▁동양	-11.5193
▁설거지	-11.5194
리스트	-11.5195
시장	-11.5204
▁눌러	-11.5205
▁주문해	-11.5207
▁어린아이	-11.5207
▁벨	-11.5208
▁경주에	-11.5208
▁냉	-11.5209
▁슈퍼	-11.5209
▁깜빡	-11.521
▁초대할	-11.5211
▁끝나기	-11.5212
▁카카오	-11.5212
▁예비	-11.5213
▁다큐멘터리	-11.5213
▁사귈	-11.5213
▁옮겼	-11.5213
▁갯벌	-11.5213
▁걷다	-11.5213
▁걷지	-11.5213
▁겉으로	-11.5213
▁깼어	-11.5213
▁끓여	-11.5213
▁내일모레	-11.5213
▁달팽이	-11.5213
▁닭강정	-11.5213
▁바비큐	-11.5213
▁밸브	-11.5213
▁쌓고	-11.5213
▁잤습니	-11.5213
▁짬뽕	-11.5213
▁캘리포니아	-11.5213
뜩	-11.5213
▁예능	-11.5213
▁조만간	-11.5213
▁가르칩니	-11.5213
▁생존	-11.5213
▁밀접	-11.5213
▁고마움	-11.5213
▁낙태	-11.5213
▁선글라스	-11.5213
▁간편	-11.5213
▁이어폰	-11.5213
▁goc	-11.5213
▁돌고래	-11.5213
▁qr	-11.5213
▁분홍색	-11.5213
▁노벨	-11.5213
▁춤추	-11.5213
▁롤모델	-11.5214
▁손톱	-11.5214
▁중순	-11.5214
▁당근	-11.5214
▁거짓말쟁이	-11.5214
▁인턴십	-11.5214
▁오프라인	-11.5214
▁면역력	-11.5214
▁물놀이	-11.5214
▁카레	-11.5214
▁야외	-11.5214
▁대결	-11.5214
▁와이어	-11.5214
▁말씀드릴	-11.5214
▁호스	-11.5214
▁조작	-11.5214
▁단독	-11.5215
▁명품	-11.5215
▁언덕	-11.5215
▁폰트	-11.5215
▁서툴러	-11.5215
▁놔두	-11.5215
▁산타	-11.5216
▁잔디	-11.5216
▁위생	-11.5216
▁편안함	-11.5216
▁좋겠습니	-11.5216
▁알람	-11.5216
▁반갑	-11.5216
▁잔금	-11.5216
▁파란	-11.5216
▁화낼	-11.5217
▁왕산	-11.5217
▁바쁩니	-11.5217
▁벌금	-11.5218
▁단말기	-11.5218
▁개인전	-11.5219
▁노후	-11.5219
▁흉	-11.5219
▁고래	-11.522
▁뚜껑	-11.522
▁귀걸이	-11.522
▁qm	-11.5221
▁뵙겠습니다	-11.5221
▁한참	-11.5221
▁클레임	-11.5221
▁주목받	-11.5221
▁이란	-11.5222
▁무례한	-11.5222
▁치유	-11.5223
▁이들	-11.5223
▁잊어버려	-11.5224
▁돌려주	-11.5225
▁상상하	-11.5226
▁동안에	-11.5228
▁농업	-11.523
▁노력하면	-11.5231
▁좋아하시나	-11.5231
▁치러	-11.5232
▁외국인들에게	-11.5232
▁계열	-11.5232
▁대본	-11.5233
▁역량	-11.5233
▁심정	-11.5234
▁프린팅	-11.5234
▁인천공항	-11.5234
▁맥	-11.5235
▁드실	-11.5235
▁놓았	-11.5236
▁선생님으로	-11.5237
▁음	-11.5238
▁데려다주	-11.5238
▁간격	-11.5238
▁깔	-11.5238
▁더블	-11.5239
▁쌍둥이	-11.5239
▁길러	-11.5239
▁꿀	-11.524
▁놓을게	-11.5241
▁남긴	-11.5241
▁호감	-11.5243
▁소심	-11.5244
▁버릇	-11.5245
▁흘리	-11.5245
▁갑작스	-11.5245
▁그래프	-11.5246
▁오전까지	-11.5246
▁판사	-11.5246
▁귀중	-11.5246
▁포기할	-11.5246
▁해방	-11.5247
▁한가할	-11.5247
▁주저	-11.5248
▁모르는데	-11.5248
▁호찌민에	-11.5251
▁평일에	-11.5253
▁체육관에	-11.5253
▁완료된	-11.5255
▁떼	-11.5258
▁연인이	-11.526
▁인제	-11.5264
▁혼합	-11.5266
▁결함	-11.5267
▁좋아져	-11.5269
▁웃기	-11.5269
▁만들려	-11.5271
▁의논	-11.5273
▁의자에	-11.5274
▁사건에	-11.5275
▁원활	-11.5275
▁완	-11.5275
▁간직	-11.5277
▁알림	-11.5277
▁진주	-11.5285
▁화상	-11.5287
▁받는다	-11.5289
▁성장할	-11.5293
▁제조사	-11.5294
▁일본인	-11.5297
동계	-11.5298
▁해수욕장에	-11.5301
▁조정해	-11.5306
▁트리	-11.5307
▁고향으로	-11.5308
▁좋아질	-11.5308
▁확인하지	-11.5311
▁미래가	-11.5314
비용	-11.5317
▁발주서	-11.5319
▁업체와	-11.532
▁비상	-11.532
▁출장이	-11.5321
▁도쿄에서	-11.5322
▁됩	-11.5324
▁고향에서	-11.5325
▁미만	-11.5328
▁연결되어	-11.5332
▁반대하	-11.5333
주실	-11.5334
▁남들과	-11.5335
▁발급받	-11.5335
내용	-11.5344
▁호주에서	-11.535
▁맞추기	-11.5355
▁보수	-11.5359
▁범인	-11.536
▁오일	-11.5361
▁있더라	-11.5364
▁업체에서	-11.5364
실에서	-11.5367
▁인상이	-11.5368
▁모이	-11.5372
▁제작할	-11.5375
었나	-11.5375
▁세대	-11.5378
15	-11.5378
▁씨에게	-11.5382
▁대화하면	-11.5384
▁참여해	-11.5384
▁아파트에서	-11.539
▁영국에서	-11.5392
▁부르지	-11.5393
▁배송되	-11.5397
▁착용하	-11.5398
▁충족	-11.5399
스러워	-11.54
▁희	-11.5406
▁역사적	-11.5408
▁기억할	-11.5412
▁지나갔	-11.5416
▁공급자	-11.5422
▁본받	-11.5424
▁건강하지	-11.5424
▁뭘까	-11.5425
▁네일	-11.5425
버릴	-11.5427
▁클릭하	-11.5427
▁늦지	-11.543
거지	-11.5433
▁드라마에서	-11.5433
▁안되는	-11.5434
50	-11.5437
▁결심했어	-11.5438
▁책임자	-11.5439
▁슬프	-11.5441
▁해드리	-11.5442
▁숙소에	-11.5444
▁매장에	-11.5449
ine	-11.545
▁구축	-11.5453
▁유전	-11.5453
▁오해하	-11.5459
▁뜻인	-11.546
▁디자인으로	-11.5465
▁합격했어	-11.5467
▁크지	-11.5469
▁길어	-11.5474
▁갖기	-11.5478
▁처음이라	-11.5482
▁보물	-11.5483
▁일종	-11.5484
▁좋습니	-11.5485
▁게스트하우스에	-11.5488
▁바뀌었어	-11.5494
▁떠나지	-11.5496
▁외국에	-11.5497
▁됐다	-11.5501
▁z	-11.5501
▁동아리에	-11.5502
▁초대하	-11.5505
하셔	-11.551
▁우리한테	-11.5512
▁새해에	-11.5517
▁피지	-11.5525
▁리조트	-11.5535
▁본사에	-11.554
▁나무에	-11.5542
▁바뀌어	-11.5547
부에서	-11.5552
해주실	-11.5552
▁자료들	-11.5552
▁못했을	-11.5553
▁교장	-11.5555
▁신청한	-11.5556
▁칸	-11.5556
▁속으로	-11.5559
▁읽으	-11.5561
▁41	-11.5577
os	-11.5578
▁말할게	-11.5585
▁그렸어	-11.5586
▁머릿속에	-11.5594
▁관객	-11.5594
▁편의점	-11.5599
주시고	-11.5605
▁도착지	-11.5611
▁mc	-11.5611
▁미안하지	-11.5612
▁노력으로	-11.5614
▁올려주	-11.5615
▁요인	-11.5618
▁운동이	-11.5624
▁보여줘	-11.5628
▁구별	-11.5628
▁결합	-11.5631
▁목록에	-11.5637
▁글로	-11.5637
▁규격	-11.5642
비가	-11.5644
▁항구	-11.5645
▁연주하	-11.565
▁구했	-11.5655
▁요청하고	-11.5658
▁포기	-11.5661
▁조성	-11.5667
▁이용하기	-11.567
▁발전에	-11.5671
▁만났다	-11.5671
▁됐나	-11.5673
▁비교해	-11.5675
▁해라	-11.5683
▁갖는	-11.5686
▁편안	-11.5691
▁답답해	-11.5696
▁이중	-11.57
▁미용실	-11.57
▁계속되	-11.5703
▁짝사랑	-11.571
▁고마웠	-11.571
▁어딘가에	-11.5713
▁가르쳤	-11.5713
▁다하겠	-11.5716
하겠어	-11.5719
▁빅뱅	-11.5721
▁참조	-11.5724
톤	-11.5727
웠	-11.5728
▁명확	-11.5729
▁도둑	-11.5729
▁이해했어	-11.5731
▁틀	-11.5736
되었어	-11.5743
▁사람만	-11.5751
름	-11.5753
▁다이어트에	-11.5754
▁이상해	-11.5755
▁귀신	-11.5755
▁묻는	-11.5757
▁컨펌	-11.5761
▁좋아졌	-11.5761
▁만나야	-11.5763
▁스펙	-11.5764
▁고향이	-11.5766
순	-11.5767
▁관계에	-11.5772
성과	-11.5773
운이	-11.5773
▁결혼식이	-11.5774
▁서버에	-11.5778
▁유로	-11.5779
▁대해서만	-11.5789
▁페	-11.5792
▁선택하는	-11.5795
▁이것들	-11.5797
▁긍정	-11.58
▁기준에	-11.5801
▁이야기하지	-11.5801
▁기준이	-11.5802
▁나빠지	-11.5804
요일까지	-11.5805
▁카메라에	-11.5807
▁입이	-11.5808
▁몬스터	-11.5808
▁너네	-11.5808
▁치워	-11.5811
▁약국	-11.5823
▁열기	-11.5823
▁울었어	-11.5824
▁요구했어	-11.5824
▁부리	-11.5825
▁차라	-11.5833
▁뵙	-11.5833
▁팔에	-11.5834
▁보완	-11.5835
▁거실에	-11.5835
▁여자애	-11.5837
▁연예인이	-11.5841
▁거품	-11.5844
을지도	-11.5844
▁일어났을	-11.5848
▁원할	-11.5849
매	-11.5855
▁잃었어	-11.5856
▁버린	-11.5856
▁드라마에	-11.5869
▁주인이	-11.5878
▁리조트에	-11.589
에게서	-11.5894
슬	-11.5895
▁파악하	-11.5898
액	-11.5898
▁차감	-11.5901
▁현명	-11.5904
혔	-11.5905
요청	-11.591
▁내린	-11.591
▁진행하기	-11.5919
▁크리스	-11.592
환	-11.5922
테	-11.5926
동을	-11.5931
▁입금하	-11.5934
▁노동자	-11.5936
다시	-11.5944
▁위로해	-11.5946
싶어	-11.5947
▁확정되	-11.595
▁흔	-11.5951
▁운전자	-11.5963
애	-11.5968
▁존경해	-11.5969
▁아동	-11.5975
▁동경	-11.5976
ie	-11.5979
▁색상이	-11.598
▁이야기해보	-11.5983
▁잃어버렸어	-11.5984
▁닮았어	-11.5987
▁손실	-11.5991
▁존중하	-11.5992
▁당당	-11.6001
▁구리	-11.6002
▁모른	-11.6003
▁끼치	-11.6004
▁진행되는	-11.6008
녀	-11.601
▁일하면	-11.601
물을	-11.6014
시에서	-11.6018
▁강해	-11.6024
▁ne	-11.6027
▁아이템이	-11.6043
심한	-11.605
▁75	-11.6051
돈	-11.6053
▁근	-11.6055
▁문제들	-11.6056
▁얘기한	-11.6058
▁방해하는	-11.6058
▁출판	-11.6064
▁없어지	-11.6065
▁나간	-11.6069
▁테러	-11.6071
견	-11.6073
조건	-11.6077
빛	-11.6081
▁검진	-11.6083
드렸	-11.6083
▁물질	-11.6086
정책	-11.6086
빨리	-11.6088
프로그램	-11.6088
자료	-11.6088
자면	-11.6088
검사	-11.6091
▁노래방	-11.6093
▁사실은	-11.6093
임이	-11.6094
개발	-11.6094
▁부스	-11.6097
▁추위	-11.6098
▁넘기	-11.61
▁납부	-11.6101
▁뒷면	-11.6104
▁서비스로	-11.6106
▁서울역	-11.6111
이네	-11.6116
▁만들어지	-11.6118
▁인하	-11.6118
▁동물원	-11.6119
착하고	-11.612
▁도와드리	-11.612
▁파이	-11.612
▁예약했어	-11.6122
▁강남역	-11.6122
▁승무원	-11.6123
▁착각	-11.6125
▁날짜에	-11.6126
민이	-11.6131
ft	-11.6133
▁창문이	-11.6133
▁예약했	-11.6137
같은	-11.6139
▁생기는	-11.6142
보는	-11.6156
▁날이었어	-11.6157
▁치우	-11.6163
▁시기에	-11.6166
▁헌신	-11.617
▁헬스	-11.6174
▁늦어지	-11.6175
▁저축	-11.6178
▁단기	-11.6179
▁인지	-11.6181
▁데려다줄	-11.6181
▁말라	-11.6188
▁최악	-11.6189
▁넣었	-11.6194
▁알아주	-11.6194
▁기쁨이	-11.6195
▁2000	-11.6195
믹	-11.6197
▁전하고	-11.6199
▁장례식	-11.6201
▁느려	-11.6202
▁학생회	-11.6202
▁심플	-11.6205
▁발생하였	-11.6206
▁염	-11.6207
끔	-11.6207
▁넣으	-11.6207
▁아이돌	-11.6208
▁메달	-11.6208
센트	-11.6209
▁동의하지	-11.6211
▁껴안	-11.6211
읍	-11.6212
▁싱글	-11.6213
▁갤럭시	-11.6213
▁dvr	-11.6213
▁녹색	-11.6213
▁논쟁	-11.6213
▁디스플레이	-11.6213
▁매니큐어	-11.6213
▁바뀔	-11.6213
▁비트코인	-11.6213
▁빼앗	-11.6213
▁스케이팅	-11.6213
▁앉을	-11.6213
▁알레르기	-11.6213
▁요코하마	-11.6213
▁이모티콘	-11.6213
▁잃는	-11.6213
▁주파수	-11.6213
▁캄보디아	-11.6213
▁커리큘럼	-11.6213
▁커뮤니케이션	-11.6213
▁퀄리티	-11.6213
▁토마토	-11.6213
▁특수	-11.6213
▁특유	-11.6213
▁하룻밤	-11.6213
▁핼러윈	-11.6213
왠	-11.6213
▁nvr	-11.6213
▁늑대	-11.6213
▁디테일	-11.6213
▁런칭	-11.6213
▁어머님	-11.6213
▁줄넘기	-11.6213
▁타이완	-11.6213
▁녀석	-11.6213
▁태어날	-11.6213
▁포토샵	-11.6213
▁동아시아	-11.6213
▁마음가짐	-11.6213
▁불면증	-11.6213
▁드라이버	-11.6213
▁kim	-11.6213
▁배낭	-11.6213
▁협동심	-11.6213
▁크루즈	-11.6213
▁학창	-11.6213
▁갖춘	-11.6213
▁매콤	-11.6213
▁공존	-11.6213
▁버블	-11.6213
▁닭갈비	-11.6213
▁화이트	-11.6213
▁변환	-11.6213
▁토끼	-11.6213
▁소시지	-11.6214
▁촉진	-11.6214
▁심심하	-11.6214
▁공짜	-11.6214
▁끼워	-11.6214
▁무덤	-11.6214
▁돈가스	-11.6214
▁수학여행	-11.6214
▁개구리	-11.6214
▁애교	-11.6214
▁학비	-11.6214
▁피겨	-11.6214
▁딜러	-11.6214
상품	-11.6214
▁양파	-11.6214
▁음성	-11.6214
▁숙성	-11.6215
▁커튼	-11.6215
▁직무	-11.6215
▁악보	-11.6215
▁pu	-11.6215
▁열매	-11.6215
▁근대	-11.6215
▁연락드렸	-11.6215
▁배움	-11.6215
▁58	-11.6215
▁도심	-11.6216
▁물류	-11.6216
▁빕	-11.6217
▁정문	-11.6217
▁과정은	-11.6217
▁남자아이	-11.6217
▁유래	-11.6218
▁소고기	-11.6218
▁갑작스럽	-11.6219
▁공공장소에서	-11.6219
▁궁금하네	-11.6219
▁노트	-11.6219
▁화재	-11.622
▁99	-11.622
▁도장	-11.6221
▁슬리퍼	-11.6221
▁셔츠	-11.6221
▁젓가락	-11.6221
▁air	-11.6221
▁내구성	-11.6221
▁강연	-11.6222
▁생일날	-11.6222
▁운동화	-11.6223
▁침실	-11.6223
▁협회	-11.6223
▁전설	-11.6224
▁실시간	-11.6225
▁도원	-11.6226
▁아이스	-11.6226
▁사줄게	-11.6226
▁부하	-11.6228
▁번쯤	-11.6229
▁달라질	-11.623
▁양쪽	-11.623
▁알렸	-11.623
▁넉넉한	-11.623
▁심판	-11.6231
▁시리아	-11.6231
▁먹거리	-11.6232
▁컨	-11.6233
▁컨트롤	-11.6234
▁흙	-11.6234
▁연합	-11.6237
▁계약금	-11.6237
▁머	-11.6238
▁오브	-11.6238
▁내려갔	-11.6238
▁꿈속에서	-11.6238
▁닫아	-11.6238
▁비치	-11.6239
▁천안	-11.624
▁골목	-11.6242
▁감시	-11.6245
▁대화하	-11.6246
▁줄여야	-11.6246
▁빗	-11.6248
▁달간	-11.6248
▁봉투	-11.6248
▁퍼센트	-11.6248
▁꽃들	-11.6249
▁도로시	-11.625
▁가루	-11.625
40	-11.625
▁자산	-11.6251
▁시안	-11.6251
태	-11.6254
▁매진	-11.6254
▁가지는	-11.6256
▁수용	-11.6259
▁왕이	-11.626
▁물어볼게	-11.626
▁불행한	-11.626
▁취할	-11.6262
▁종합	-11.6263
▁인사동	-11.6263
▁범	-11.6264
▁드시나	-11.6264
▁주문서	-11.6266
▁예약되어	-11.6266
▁사막	-11.6267
▁있듯	-11.6269
▁공급하	-11.6271
▁숲	-11.6272
▁걸릴까	-11.6272
▁집중하지	-11.6273
▁구매해야	-11.6276
▁가든	-11.6277
▁공부하는데	-11.6278
▁상태에	-11.6279
▁광장	-11.6282
▁충분하지	-11.6283
▁모드	-11.6285
▁프리	-11.6286
했으	-11.6288
▁아쉬웠	-11.6294
▁사용법	-11.6294
▁했네	-11.6301
004	-11.6303
분까지	-11.6304
▁인력	-11.6307
▁차별화	-11.6309
▁꾸리	-11.6309
▁거기까지	-11.631
▁많네	-11.631
함이	-11.631
▁못하겠어	-11.631
▁갈치	-11.6312
▁발전이	-11.6312
▁파리에서	-11.6317
▁교양	-11.6318
▁가지기	-11.6323
▁송금해	-11.6329
렸어	-11.6329
▁사망	-11.633
▁우정이	-11.6333
▁문의하시	-11.6334
▁대학원에	-11.6336
▁입학하	-11.6342
▁화장실에서	-11.6342
▁게스트하우스에서	-11.6345
▁사물	-11.6345
▁생각하는데	-11.6346
▁결정하는	-11.6348
ss	-11.6349
▁진행하면	-11.635
▁고급스러	-11.6351
▁필요하니	-11.6354
▁대구에서	-11.6357
▁사랑하면	-11.6357
▁첨부하였	-11.6358
▁있었으	-11.6361
▁연주회	-11.6361
▁대화하기	-11.6363
▁신청할	-11.6366
▁경기장에서	-11.6366
▁대표적으로	-11.6369
▁이해심	-11.637
▁강아지에게	-11.637
▁빌려줄	-11.6373
▁고맙겠어	-11.6374
자로서	-11.6374
▁적성	-11.6375
식이	-11.6381
▁걱정되	-11.6386
▁명성	-11.6388
▁승	-11.639
▁조명	-11.639
▁안아	-11.6391
▁우리나라에서	-11.6392
▁성장하고	-11.6398
▁아쉽다	-11.6401
▁어린이들	-11.6405
심이	-11.6406
▁되시	-11.641
▁거두었	-11.6414
▁넘쳐	-11.6414
▁돌아가셨어	-11.6416
▁수업에서	-11.6416
▁넣으면	-11.6417
▁변한	-11.6421
▁원칙	-11.6421
▁태어나서	-11.6422
▁사다	-11.6423
▁샘플에	-11.6426
60	-11.6427
러운	-11.643
▁국가에서	-11.6433
▁제안해	-11.6434
▁도와주기	-11.6434
▁구매하는	-11.6435
▁지원한	-11.6438
▁여자만	-11.644
▁lc	-11.6441
▁유지하기	-11.6444
▁해주기	-11.6444
▁알리고	-11.6445
▁끝냈어	-11.6448
▁살아왔어	-11.6452
▁수정이	-11.6452
▁바쁘지	-11.6454
▁있거	-11.6459
▁넣을	-11.6465
이라니	-11.6465
▁해볼	-11.647
▁하더라고	-11.6472
▁입히	-11.6473
▁통장에	-11.6476
▁집까지	-11.6476
▁시선이	-11.6479
▁건강해	-11.648
▁법이	-11.6482
▁잠들었어	-11.6484
▁확인되	-11.6485
▁동물과	-11.6493
더군	-11.6493
더라면	-11.6494
▁다녀와	-11.6496
▁문구	-11.6497
▁발생하고	-11.6503
▁장어	-11.6505
▁추석에	-11.6508
라인	-11.6512
▁무시해	-11.6512
▁올해에	-11.6514
70	-11.6514
▁신경이	-11.6516
▁두산	-11.652
풍	-11.6521
▁피우는	-11.6521
▁속상해	-11.6522
▁봄에	-11.653
▁선정되었	-11.6537
ion	-11.6539
▁엄	-11.6541
▁입찰	-11.6543
▁다정	-11.6549
▁관광객들	-11.6551
이든	-11.6554
▁힘들다는	-11.6555
▁일등	-11.6557
▁불편하지	-11.6559
▁블로그	-11.6559
▁뒤쪽에	-11.6561
▁음식에	-11.6562
▁피곤하지	-11.6572
▁ir	-11.6573
▁제사	-11.6576
▁입었어	-11.6576
▁돌아가기	-11.6577
▁건전	-11.6579
▁섭취	-11.6579
▁마케팅에	-11.658
자들에게	-11.6583
▁맞았	-11.6583
놨어	-11.6584
▁참조하	-11.6595
▁응원해	-11.6598
▁전쟁에	-11.6602
▁싶었다	-11.6613
▁대통령이	-11.6621
▁중량	-11.6636
▁경사	-11.6639
▁빌렸	-11.6644
▁궁금하	-11.6655
▁제공한	-11.6659
▁공무원이	-11.6674
▁의해서	-11.6675
▁맞았어	-11.6677
▁돌아갔	-11.6678
드리겠	-11.668
▁춘천	-11.6686
▁학기에	-11.6688
습	-11.6692
모델	-11.6696
▁보낸다	-11.6697
▁잡으	-11.6703
▁음식들이	-11.6716
▁리스트에	-11.6723
▁명동	-11.6727
사에서	-11.6734
섬	-11.6737
▁선거	-11.6737
▁모기	-11.6738
▁협업	-11.6739
▁편인	-11.6743
▁실망했	-11.6744
▁것이니	-11.6748
▁이끌	-11.6749
▁학생으로	-11.6752
▁소중하다	-11.6753
et	-11.6753
▁잠자리	-11.6771
▁타지	-11.6772
▁900	-11.6775
▁감정에	-11.6784
▁신기했	-11.6788
▁장비에	-11.6788
▁해리	-11.6789
▁맡겼	-11.679
▁토대	-11.679
▁장사	-11.6791
▁전달하	-11.6794
▁늦었어	-11.6795
근	-11.6804
▁bi	-11.6804
▁오셨	-11.6808
▁홍대	-11.6809
▁심하	-11.6823
▁4100	-11.6827
▁지내기	-11.6829
▁극단적	-11.6833
웠어	-11.6838
▁통계	-11.6846
▁늦어졌	-11.6855
테니	-11.6859
▁내렸어	-11.686
▁졸업했	-11.6863
렁	-11.6863
▁부끄럽	-11.6868
▁살았다	-11.6872
▁들어온	-11.6872
▁기적	-11.6878
▁가지지	-11.6879
▁들어보	-11.6885
▁한잔하	-11.6887
▁자식들	-11.6889
학적	-11.6889
▁데이	-11.6895
▁이르	-11.6896
▁바에	-11.6901
▁마친	-11.6909
평	-11.6911
▁낮추	-11.6914
▁신청했	-11.6917
처	-11.6919
▁이야기한	-11.6921
▁운행	-11.6923
▁병이	-11.6924
위에	-11.6926
pc	-11.6931
▁끊어	-11.6931
운동	-11.6937
▁몰랐다	-11.6946
되었으	-11.6952
▁배달해	-11.6953
▁감싸	-11.6954
▁국립	-11.6954
▁아니었다	-11.6956
▁개방	-11.6957
투	-11.6958
▁끝냈	-11.6962
▁시도해보	-11.6964
사업	-11.6966
하다는	-11.6969
▁환불받	-11.6969
▁진행한	-11.6971
▁문제들이	-11.6971
시간씩	-11.6972
▁되어주	-11.6974
▁불렀어	-11.6978
▁사로잡	-11.6979
▁입학했	-11.6982
▁좋아했	-11.6987
해지기	-11.6987
▁피하	-11.6991
▁하든	-11.6993
▁호의	-11.6995
달러에	-11.6998
▁경고	-11.7008
▁싸우는	-11.701
▁해보는	-11.7013
▁점도	-11.7014
▁복사	-11.7014
보셨나	-11.7016
축	-11.702
▁물속에	-11.7022
▁구경하	-11.7025
▁응	-11.7026
▁기념하	-11.7029
▁주나	-11.7029
▁고객사에	-11.7031
▁회장	-11.7038
▁사용하려	-11.7045
▁안주	-11.7055
▁물품이	-11.7056
▁몽	-11.7056
▁팀원	-11.7057
▁적용해	-11.7059
▁어려웠	-11.7062
▁알아보겠	-11.7062
▁알아들	-11.7064
▁시간대	-11.7065
버려	-11.7069
▁써주	-11.7071
있다	-11.7077
밤에	-11.708
▁백성	-11.7081
▁꺼져	-11.7083
▁매칭	-11.7085
▁키우	-11.7091
▁압력	-11.7091
▁되면서	-11.7092
▁앉아있	-11.7092
치기	-11.7092
▁퍼	-11.7094
▁ha	-11.7099
▁애플	-11.7099
시려	-11.71
▁참고해	-11.7104
▁필	-11.7106
▁만들면	-11.7106
31	-11.711
▁누워있	-11.7111
▁뿌듯	-11.7113
▁부탁할	-11.7115
▁와주	-11.7118
블	-11.7123
▁cs	-11.7125
▁상대적	-11.7127
▁혀	-11.7128
따라	-11.7128
방식	-11.7129
▁전화하면	-11.7132
밭	-11.7133
인분	-11.7135
▁입에	-11.7138
▁창조	-11.7142
▁휴대폰이	-11.7142
주는	-11.7142
▁잔인	-11.7145
▁오버	-11.7145
▁등장하	-11.7146
▁상처받	-11.7147
▁나사	-11.7148
겼어	-11.7148
▁갱신	-11.7152
▁졸업했어	-11.7157
해졌	-11.7157
들께	-11.7163
▁클릭	-11.7165
▁john	-11.7165
끈	-11.7167
시험	-11.7169
▁일어나기	-11.717
텐	-11.717
▁다닌	-11.7173
▁은행으로	-11.7175
▁모텔	-11.7176
▁적합하	-11.7177
▁참가했	-11.718
▁하나뿐	-11.718
섭	-11.718
쇼	-11.7181
▁어딘	-11.7183
볼까	-11.7185
000	-11.7189
▁이기적이	-11.7191
했나	-11.7193
▁비싸지	-11.7194
▁대기업	-11.7195
▁언젠	-11.7195
꽃	-11.7195
변경	-11.7198
볼게	-11.72
▁선발	-11.7201
▁마무리하	-11.7202
▁진행되었	-11.7205
▁멕시코	-11.7208
▁올라	-11.7209
▁거면	-11.7212
치가	-11.7213
▁은행이	-11.7218
▁출신이	-11.722
▁쓴다	-11.7227
▁이루는	-11.7227
▁추구	-11.7231
▁체육관	-11.7231
▁서비스에	-11.7231
극	-11.7234
▁연구소	-11.7234
▁심리	-11.7236
▁휴일에	-11.7236
▁전시회에	-11.7237
▁모래	-11.7239
▁사생활	-11.7239
▁모델에	-11.7242
▁프리랜서	-11.7245
▁프로그래머	-11.7245
▁설날	-11.7246
▁가르쳐주	-11.7248
▁쉬면	-11.7251
▁36	-11.7251
▁세부에	-11.7252
▁계좌에	-11.7254
▁축	-11.7256
학교	-11.7261
▁바위	-11.7262
▁제시했	-11.727
▁시끄러	-11.727
▁잃어	-11.7271
▁여성들	-11.7271
▁최적	-11.7271
▁필요합니	-11.7272
▁네팔	-11.7272
▁34	-11.7273
▁간직하	-11.7276
스럽	-11.7279
▁세일	-11.7281
▁복습	-11.7284
▁시작하겠	-11.7286
▁심심해	-11.7288
▁묘	-11.729
▁고객님께	-11.7292
▁찾아갈	-11.7295
▁작동하	-11.7297
▁선택에	-11.7298
▁익숙해지	-11.7301
▁초청	-11.7303
으십니	-11.7304
▁외출하	-11.7304
▁설득	-11.7305
▁곤충	-11.7307
릭	-11.7308
▁예시	-11.7308
람	-11.7309
▁표시해	-11.731
▁정착	-11.7313
▁전학	-11.7314
켓	-11.7315
▁경찰관이	-11.732
▁휴학	-11.732
▁휴지	-11.7322
▁대우	-11.7322
▁빙	-11.7322
▁임금	-11.7322
뭡	-11.7324
▁붉은	-11.7324
▁ceo	-11.7324
▁server	-11.7324
▁끓인	-11.7324
▁낫습니	-11.7324
▁넥타이	-11.7324
▁노하우	-11.7324
▁돕기	-11.7324
▁매일매일	-11.7324
▁묶어	-11.7324
▁복숭아	-11.7324
▁수족관	-11.7324
▁스테인리스	-11.7324
▁알맞	-11.7324
▁유네스코	-11.7324
▁케이팝	-11.7324
▁텍스트	-11.7324
▁펌웨어	-11.7324
▁포스팅	-11.7324
▁프러포즈	-11.7324
▁횟수	-11.7324
홉	-11.7324
▁격렬	-11.7324
▁눈동자	-11.7324
▁버킷리스트	-11.7324
▁워터	-11.7324
▁해바라기	-11.7324
▁cctv	-11.7324
▁배고프	-11.7324
▁원산지	-11.7324
▁일러스트	-11.7324
▁트래킹	-11.7324
▁라이브	-11.7324
▁볶음밥	-11.7324
▁팝콘	-11.7324
▁팀워크	-11.7324
▁oem	-11.7324
▁밀가루	-11.7324
▁연못	-11.7324
▁초록색	-11.7324
▁퀴즈	-11.7324
▁수취인	-11.7324
▁트렌드	-11.7324
▁납득	-11.7324
▁너구리	-11.7324
▁도보여행	-11.7324
▁보온작업	-11.7324
스턴트	-11.7324
▁교통수단	-11.7324
▁소셜	-11.7324
▁보라색	-11.7324
▁자기소개	-11.7324
▁맞춤	-11.7324
▁스웨터	-11.7324
▁아시안게임	-11.7324
▁빈자리	-11.7324
▁어울린다	-11.7325
▁수하물	-11.7325
▁학급	-11.7325
▁어찌	-11.7325
▁test	-11.7325
▁경매	-11.7325
▁그레이스	-11.7325
▁비벼	-11.7325
▁면허증	-11.7325
▁간략	-11.7325
▁신념	-11.7325
▁출국	-11.7325
▁스물	-11.7325
▁고마	-11.7325
▁레시피	-11.7325
▁명칭	-11.7325
▁초능력	-11.7325
▁아시안	-11.7325
▁젤리	-11.7325
▁은혜	-11.7325
▁배추	-11.7325
▁텐트	-11.7325
▁발매	-11.7326
▁떨어질	-11.7326
▁고무	-11.7326
▁검수	-11.7326
▁2008	-11.7326
라이트	-11.7326
▁반죽	-11.7326
▁장갑	-11.7326
▁그저께	-11.7326
▁게으르	-11.7326
▁견본	-11.7326
▁지킨	-11.7326
▁국경	-11.7326
▁변형	-11.7327
▁성장하	-11.7327
▁금형	-11.7327
▁재즈	-11.7327
▁채권	-11.7328
▁육수	-11.7328
▁모레	-11.7328
▁우울증	-11.7328
▁사태	-11.7328
▁보스턴	-11.7328
▁스킬	-11.7328
▁차액	-11.7329
▁글쓰기	-11.7329
▁등교	-11.7329
▁입체	-11.7329
▁접종	-11.7329
▁대조	-11.7329
▁영양소	-11.7329
▁키웠	-11.7329
▁빈칸	-11.7329
▁잭	-11.7329
▁효율성	-11.7329
▁초기화	-11.7329
▁체육대회	-11.733
▁단호	-11.733
▁지난여름	-11.733
▁식단	-11.7331
▁도망치	-11.7331
▁회식	-11.7331
▁기쁘네	-11.7331
▁배포	-11.7331
▁실적	-11.7332
▁늦어져	-11.7332
▁골드	-11.7332
▁기대했	-11.7332
▁마늘	-11.7333
▁usd	-11.7333
▁color	-11.7333
▁mesh	-11.7333
▁스트랩	-11.7333
▁비닐	-11.7333
▁분산	-11.7333
▁마주치	-11.7333
▁자신과	-11.7333
▁영토	-11.7334
▁포크	-11.7334
▁절감	-11.7334
▁개조	-11.7335
▁부채	-11.7335
▁추적	-11.7335
▁기울여	-11.7335
▁고층	-11.7336
▁패치	-11.7336
▁체류	-11.7336
▁예정되어	-11.7336
▁짜장면	-11.7336
▁꾸며	-11.7337
▁버터	-11.7337
편	-11.7337
▁노란	-11.7337
▁변함	-11.7337
▁영어책	-11.7337
▁장례식장	-11.7338
▁사랑하기	-11.7338
▁일본식	-11.7338
▁행동하	-11.7338
▁눈사람	-11.7339
▁모형	-11.7339
▁동해	-11.7339
▁가져온	-11.7341
▁배송료	-11.7342
▁유심	-11.7342
▁지지하는	-11.7342
▁유산	-11.7343
▁잡스	-11.7343
▁참치	-11.7343
봉	-11.7346
년째	-11.7346
▁이겨내	-11.7347
▁마음씨	-11.7347
▁펌프	-11.7348
▁캠퍼스	-11.7348
▁듬	-11.7348
▁베스트	-11.7349
기까지	-11.735
▁재질	-11.735
▁아닌데	-11.735
▁설치하	-11.735
▁괴롭히	-11.7351
▁당황했	-11.7351
▁220	-11.7351
▁결말	-11.7352
▁보내줬	-11.7352
▁자야겠어	-11.7353
▁로즈	-11.7354
▁애정	-11.7354
▁역할이	-11.7354
▁놔	-11.7355
▁놀랍게	-11.7356
악한	-11.7356
▁저장해	-11.7358
▁몰아	-11.7359
▁자아	-11.736
▁빵집	-11.7361
▁하드	-11.7361
▁하트	-11.7361
▁깨어났	-11.7362
▁구하기	-11.7362
▁액자	-11.7364
▁돔	-11.7364
▁핏	-11.7364
▁축구팀	-11.7364
▁국수	-11.7366
▁유능	-11.7367
▁작성하여	-11.7369
▁이후부터	-11.7369
▁여행사에	-11.7369
문이	-11.737
▁주류	-11.737
▁나쁘다고	-11.737
▁네모	-11.737
▁정해져	-11.7371
▁퍼지	-11.7371
▁조심해야	-11.7371
▁명함	-11.7372
▁과학자들	-11.7373
▁결점	-11.7373
▁냉면	-11.7373
▁없어져	-11.7374
▁입력해야	-11.7375
▁해적	-11.7377
▁무늬	-11.738
▁하이	-11.738
▁익히	-11.738
▁주먹	-11.738
▁한류	-11.738
▁그림에	-11.7381
▁열린	-11.7381
자는	-11.7382
▁문신	-11.7382
▁알아볼게	-11.7383
▁반복해	-11.7389
▁건너편에	-11.7389
▁활동이	-11.7389
▁수납	-11.739
▁낮아	-11.739
▁청년	-11.7391
▁뜻인지	-11.7396
▁환상적	-11.7396
▁고객센터	-11.7397
▁사연	-11.7397
▁쿠	-11.7398
▁제출할	-11.7398
▁않잖아	-11.7399
▁시작하면	-11.74
▁완성된	-11.74
▁집단	-11.7401
▁까먹었어	-11.7401
▁공항까지	-11.7403
▁여가	-11.7403
▁간판	-11.7404
▁런던에서	-11.7405
▁부킹	-11.7406
▁거짓말하는	-11.7406
▁전시되어	-11.7408
▁버리지	-11.7415
▁대학원에서	-11.7417
▁올렸어	-11.7418
▁소형	-11.7419
▁65	-11.7419
▁오늘날	-11.7421
▁전달했어	-11.7422
▁작성할	-11.7423
▁완벽하지	-11.7425
▁징	-11.7426
it	-11.7426
▁그쪽에서	-11.7427
▁사랑으로	-11.7427
▁싫었어	-11.7429
ot	-11.7429
▁사용량	-11.743
▁결정하기	-11.743
▁언	-11.743
▁했을까	-11.7435
▁동영상에	-11.7436
▁마시기	-11.744
▁데이트하	-11.744
▁지원자	-11.7441
▁병행	-11.7442
▁못한다	-11.7443
▁걸었어	-11.7443
▁생산성	-11.7445
아야	-11.7446
▁대가	-11.7447
▁무상	-11.7449
▁돌려받을	-11.7449
▁가실	-11.745
▁근무시간	-11.7451
▁태워다	-11.7452
▁나가기	-11.7453
▁os	-11.7454
▁합격하	-11.7455
번째로	-11.7456
▁다하	-11.7457
▁높아지	-11.7458
▁궁금하지	-11.7459
▁정리할	-11.7459
▁여름방학에	-11.7459
▁문제인지	-11.7459
▁학생에게	-11.7461
▁않으셨	-11.7461
▁실망하	-11.7461
▁학	-11.7464
님이	-11.7466
▁여자한테	-11.7471
▁샌프란시스코에	-11.7473
▁공증	-11.7476
▁여길	-11.7476
▁용도	-11.7479
▁온다는	-11.748
▁돌아보	-11.7481
▁정체	-11.7483
▁적용할	-11.7486
▁연동	-11.7486
▁생활하는	-11.7487
▁높이기	-11.7488
▁인정받	-11.7488
▁다운	-11.7489
▁거쳐	-11.7492
▁끝없	-11.7494
▁있는걸	-11.7494
▁들어줄	-11.7497
▁끝내야	-11.7498
▁잡는	-11.75
▁발표할	-11.7502
해진다	-11.7503
▁하십니	-11.7503
▁상대로	-11.7504
▁과거와	-11.7505
일날	-11.7505
▁관리하는	-11.7508
자리	-11.7509
▁중동	-11.7509
▁슬펐어	-11.7515
워서	-11.7516
▁스타트업	-11.7521
▁재료로	-11.7524
▁두부	-11.7526
줘야	-11.7527
▁치기	-11.7528
건가	-11.7533
▁이론	-11.7537
▁이어지	-11.7537
▁모시	-11.7539
▁송금하	-11.754
였다면	-11.7542
▁정직	-11.7545
리그	-11.7545
▁전력	-11.7546
▁피할	-11.7552
▁헤어지는	-11.7552
▁거래처에	-11.7556
▁결혼하는	-11.7559
▁옛날에	-11.756
▁느껴졌어	-11.756
▁나갑	-11.7561
▁파리에	-11.7564
▁활발	-11.7566
▁찾아와	-11.7572
▁졸업식	-11.7573
▁밀어	-11.7574
▁시력	-11.7574
▁되자	-11.7576
▁지나서	-11.7577
▁번지	-11.758
▁누르면	-11.7583
▁광주에	-11.7585
▁주방	-11.7587
▁카드에	-11.7588
▁커피숍	-11.7589
▁포도	-11.7589
▁담당자와	-11.759
▁절망	-11.7593
▁멤버들	-11.7596
▁시켰어	-11.7596
▁브라질에	-11.7605
▁하나에	-11.7606
▁도와주지	-11.7608
▁당황하	-11.7611
▁역사에	-11.7611
▁과목이	-11.7617
▁기회에	-11.7618
▁편하지	-11.762
▁주님	-11.7622
▁서점에	-11.7623
▁추천한	-11.7624
▁기다렸다	-11.7629
▁장난이	-11.7629
▁향이	-11.763
▁신고할	-11.7631
▁결정하	-11.7632
▁명시	-11.7634
▁약속했어	-11.7637
0	-11.7639
▁회수	-11.7643
원하신	-11.7645
▁목에	-11.7646
▁정상에	-11.7646
▁컴백	-11.7646
▁처방	-11.7647
식에	-11.7652
▁접어	-11.7652
▁서류들	-11.7652
▁사형	-11.7653
▁검토해	-11.766
월쯤	-11.7661
룸	-11.7662
▁때와	-11.7663
▁씨와	-11.7665
법이	-11.7667
▁허용	-11.7668
▁그곳이	-11.767
▁수신	-11.7671
진다	-11.7673
▁요가	-11.768
▁모르니	-11.768
▁자랑하	-11.7683
▁항목이	-11.7686
▁악화	-11.7691
▁거란	-11.7691
줄까	-11.7693
▁차분	-11.7696
▁머물렀	-11.7701
▁천국에	-11.7701
▁놀이터	-11.7702
▁ta	-11.7705
▁납기일	-11.7706
▁시작되는	-11.7708
▁게시	-11.771
▁인천점	-11.7712
▁수원	-11.7713
해야겠어	-11.7718
▁지원해	-11.772
▁재료들	-11.7721
▁헤어졌어	-11.7721
▁숙지	-11.7723
▁날씬	-11.7726
▁나이에	-11.7731
보니	-11.7734
갔어	-11.7739
▁놀기	-11.7743
▁부르기	-11.7744
▁고양이들	-11.7767
▁나왔다	-11.7768
▁달라지는	-11.7773
대학교에	-11.7775
▁지루하지	-11.7778
아라	-11.7779
▁된장	-11.7779
▁패션에	-11.7789
▁대화하는	-11.7791
시설	-11.7802
▁부끄럽지	-11.7802
▁잘해주	-11.7803
▁자켓	-11.7804
▁보내셨	-11.7805
▁sh	-11.781
려는	-11.781
▁할당	-11.7814
▁건물에	-11.7816
▁ar	-11.7817
▁적을	-11.7819
▁약이	-11.7827
▁순위	-11.7833
ed	-11.7837
▁기억으로	-11.7837
기록	-11.7838
▁정이	-11.7839
▁데스크	-11.7841
▁올지	-11.7842
▁컴퓨터에서	-11.7844
▁졌	-11.7844
▁관람객	-11.7846
▁병원이	-11.7855
▁ps	-11.7858
▁결정되	-11.7859
▁논리적	-11.7862
▁법원	-11.7866
▁사랑한	-11.7867
▁스웨덴에	-11.7869
▁지구에	-11.787
▁맡고	-11.7874
▁이번주	-11.7876
▁샵	-11.7876
▁입장이	-11.7878
▁시킬	-11.788
▁내리면	-11.7881
▁끌어	-11.7882
▁그만두었	-11.7884
머	-11.7888
▁대답해	-11.7889
▁쳤어	-11.7893
▁기다리면	-11.7894
▁사람인가	-11.7896
▁pt	-11.7898
▁울었	-11.7901
▁발전하고	-11.7902
▁문의해	-11.7911
▁현실이	-11.7913
▁쏟아	-11.7917
▁잠자리에	-11.7917
▁su	-11.792
▁예매	-11.7921
▁인보이스에	-11.7927
▁찾아주	-11.7927
▁사무실이	-11.7932
▁음악이	-11.7932
▁줄이기	-11.7932
하시	-11.7937
▁재배	-11.7939
▁잘하기	-11.794
▁커뮤니티	-11.7944
제도	-11.7945
▁폴더	-11.7946
스럽게	-11.7946
▁응답	-11.7947
▁불쾌	-11.7947
▁관계로	-11.7949
언	-11.795
▁운전해	-11.7951
만으로	-11.7953
▁사장님이	-11.796
하리라	-11.7965
▁록	-11.7965
▁결국에	-11.7967
▁홍보하	-11.7968
▁돌아가는	-11.7968
실에	-11.7972
▁속해	-11.7974
들보다	-11.7982
▁테스트해	-11.7982
▁스웨덴	-11.7991
▁편으로	-11.7998
▁승진	-11.8
▁이메일에	-11.8001
▁주말이	-11.8002
▁그뿐만	-11.8006
ea	-11.8011
▁용서해	-11.8019
▁발휘	-11.8019
▁데려다	-11.802
지역	-11.802
▁하라	-11.8025
▁010	-11.8028
▁하시	-11.8029
▁이마	-11.8035
▁생기기	-11.8035
▁인터넷이	-11.8039
▁받으셨	-11.8039
▁첫사랑	-11.804
▁sa	-11.8051
▁헤	-11.8057
on	-11.8058
▁입구	-11.806
룰	-11.8061
왕	-11.8063
▁머릿속	-11.8065
▁유닛	-11.8066
▁전공했어	-11.8067
▁집중하고	-11.8073
▁남이	-11.8077
▁관객들	-11.8078
▁지급해	-11.8086
▁준비했	-11.8087
▁단축	-11.8089
▁식탁에	-11.8091
▁구현	-11.8094
▁여행이었어	-11.8099
▁전국	-11.8099
▁세미나에	-11.8101
린다	-11.8101
▁길고	-11.8102
들끼리	-11.8103
▁입력해	-11.8104
▁포인트가	-11.8105
짓	-11.8106
▁스케줄에	-11.8112
▁지루해	-11.8114
측	-11.8119
▁so	-11.8122
▁기내	-11.8127
▁바뀐	-11.8138
▁신체적	-11.8139
▁위주	-11.8141
▁감당	-11.8143
▁미인	-11.8144
▁남겨주	-11.8145
▁순간에	-11.8149
▁정확	-11.8154
대학	-11.8158
주문	-11.8159
▁가져갔	-11.8161
▁축복이	-11.8164
▁놀이터에	-11.8164
▁경유	-11.8164
▁알려졌	-11.8168
▁증가했	-11.8168
ms	-11.8171
▁느껴졌	-11.8172
관에	-11.8172
치고	-11.8172
▁왔었어	-11.8174
▁지고	-11.8177
▁하와이	-11.8186
결	-11.8189
▁준비된	-11.8189
▁업체로	-11.819
▁친구였	-11.8193
소스	-11.8194
ow	-11.8198
▁정하고	-11.8199
ate	-11.82
▁이뤄	-11.8202
▁연구에	-11.8207
▁지불하겠	-11.8207
▁지면	-11.8207
▁사용하던	-11.8208
때문에	-11.821
▁가정에	-11.8211
▁사나	-11.8216
▁개학	-11.8218
▁제공되	-11.8219
▁정치에	-11.8222
▁계속할	-11.8223
▁환영해	-11.8233
분만	-11.8237
▁떨어졌어	-11.8241
▁감옥에	-11.8249
▁않아야	-11.8252
▁재촉	-11.8257
▁한국인이라	-11.8265
▁로봇이	-11.8268
▁첨부하	-11.8272
el	-11.8276
▁커플들	-11.8285
▁정기	-11.8291
▁막아	-11.8292
▁사망했	-11.8292
▁내선	-11.8295
▁고통이	-11.83
▁경쟁사	-11.8303
▁비난	-11.8304
타운	-11.8306
▁좀비	-11.8311
고등학교	-11.8321
슈	-11.8323
쳐야	-11.8329
납	-11.833
▁주문하면	-11.8334
▁따를	-11.8335
▁움직이지	-11.8339
▁사귀었	-11.8346
▁우아	-11.835
성에	-11.8359
서비스	-11.836
▁아니지	-11.8361
▁인수	-11.8372
▁챙기	-11.8372
▁빅	-11.8372
황	-11.8373
▁등록하	-11.8377
▁예뻤	-11.8383
▁해주셔	-11.8388
조사	-11.8388
접할	-11.8397
▁사랑스럽	-11.8397
▁정산	-11.8401
▁장난감이	-11.8403
환경	-11.8409
▁있으신	-11.841
▁쫓아	-11.841
▁얘기했	-11.8413
▁걸으면	-11.8414
규	-11.8417
▁연락했	-11.8421
▁접촉	-11.8421
춘	-11.8423
멜	-11.8426
학습	-11.843
그램	-11.8431
빵	-11.8431
다운	-11.8434
▁책들	-11.8438
▁간다는	-11.8439
농	-11.8439
셀	-11.844
▁고양	-11.844
▁설치되어	-11.8441
피트	-11.8443
총	-11.8446
갈비	-11.8447
축제	-11.8448
큰	-11.8449
더욱	-11.8449
빌	-11.845
경제	-11.845
▁꾸미	-11.8452
식품	-11.8452
기만	-11.8454
냥	-11.8458
▁체포	-11.8465
▁바쁘다	-11.8471
명세	-11.8471
▁장애인이	-11.8474
병원	-11.8477
▁에세이	-11.8479
▁시작해야	-11.8481
가량	-11.8482
칙	-11.8484
▁세련	-11.8487
▁아닐	-11.8489
▁공유하고	-11.849
▁표현해	-11.8499
▁도전이	-11.8499
▁인공	-11.8506
▁범죄자	-11.8518
▁떨어뜨	-11.8519
▁당구	-11.852
법에	-11.852
▁났을	-11.852
▁110	-11.8523
▁찢어	-11.8526
▁어떨	-11.8526
▁송금하겠	-11.8526
▁일반적	-11.8531
▁이때	-11.8532
▁맞출	-11.8532
▁중학생	-11.8536
득	-11.8538
▁문제인	-11.8538
▁쉬어야	-11.854
▁놀랍	-11.854
old	-11.8542
▁탄력	-11.8545
▁발생했어	-11.8545
▁플랜	-11.8546
▁생각해봐	-11.8547
쁠	-11.8547
▁요구하	-11.8547
▁학회	-11.8548
▁지우	-11.8548
▁더러워	-11.855
▁제기	-11.8551
▁콘	-11.8551
▁경영학	-11.8552
쳤어	-11.8556
▁해결하	-11.856
▁점검해	-11.856
받기	-11.8561
▁가족끼리	-11.8562
▁스쿨	-11.8562
▁동호회	-11.8563
1001	-11.8564
▁환승	-11.8567
롱	-11.8569
▁보유하	-11.8569
▁많으니	-11.8572
▁재활	-11.8573
▁챔피언	-11.8573
▁기프트	-11.8574
▁핸드	-11.8574
▁최저	-11.8574
▁invoice	-11.8574
▁ucc	-11.8574
▁개츠비	-11.8574
▁그만둬	-11.8574
▁꿨어	-11.8574
▁낫지	-11.8574
▁노르웨이	-11.8574
▁뇌물	-11.8574
▁닦아	-11.8574
▁뒷모습	-11.8574
▁램프	-11.8574
▁바이러스	-11.8574
▁밸런타인데이	-11.8574
▁버섯	-11.8574
▁베네치아	-11.8574
▁숟가락	-11.8574
▁스노보드	-11.8574
▁쌍꺼풀	-11.8574
▁아랍	-11.8574
▁알코올	-11.8574
▁오른손	-11.8574
▁융합	-11.8574
▁컸어	-11.8574
▁코카콜라	-11.8574
▁피피티	-11.8574
▁하얗	-11.8574
▁햇볕	-11.8574
덟	-11.8574
뿍	-11.8574
▁jane	-11.8574
▁거꾸로	-11.8574
▁성형수술	-11.8574
▁시너지	-11.8574
▁이슬람	-11.8574
▁인종차별	-11.8574
▁agent	-11.8574
▁fob	-11.8574
▁스와치	-11.8574
▁된장찌개	-11.8574
▁리더쉽	-11.8574
▁부응하	-11.8574
▁여기저기	-11.8574
▁불이익	-11.8574
▁report	-11.8574
▁뜨겁	-11.8574
▁아메리카노	-11.8574
▁찾아뵙	-11.8574
▁대다수	-11.8574
▁다이얼	-11.8574
▁깜박	-11.8574
▁뛰어넘	-11.8574
▁하이라이트	-11.8574
▁안타까워	-11.8574
▁정반대	-11.8574
▁탐방	-11.8574
▁vip	-11.8574
▁샤프	-11.8574
▁교황	-11.8574
▁생애	-11.8574
▁보너스	-11.8574
▁서포트	-11.8574
▁혼란스러워	-11.8574
▁강렬	-11.8575
▁호텔리어	-11.8575
▁mou	-11.8575
▁시리얼	-11.8575
▁가뭄	-11.8575
▁고열	-11.8575
▁생계	-11.8575
▁소홀	-11.8575
▁데려갈	-11.8575
▁케빈	-11.8575
▁올라갈	-11.8575
▁치매	-11.8575
▁핑계	-11.8575
▁간접	-11.8575
▁vr	-11.8575
▁공항버스	-11.8575
▁qc	-11.8575
▁올리브	-11.8575
▁레드	-11.8575
▁대충	-11.8575
▁평창	-11.8575
▁아쉬움	-11.8576
▁온몸	-11.8576
▁매출액	-11.8576
▁단체전	-11.8576
▁유료	-11.8576
▁설비	-11.8576
▁타투	-11.8576
▁귀중품	-11.8576
▁마라톤	-11.8576
▁시련	-11.8576
▁고속	-11.8576
▁육군	-11.8576
▁1000	-11.8576
▁진단	-11.8576
▁반가워	-11.8576
▁토핑	-11.8577
▁대담	-11.8577
▁데릭	-11.8577
▁조그	-11.8577
▁키워드	-11.8577
▁인체	-11.8577
▁나아질	-11.8577
▁미소짓	-11.8577
▁자유주의	-11.8577
▁미용	-11.8577
▁자가용	-11.8578
▁벤치	-11.8578
▁명백	-11.8578
▁애써	-11.8578
▁왕따	-11.8578
▁비워	-11.8578
▁예금	-11.8578
▁마트에	-11.8578
▁던졌	-11.8578
▁시공	-11.8578
▁욕구	-11.8579
▁부럽	-11.8579
▁찾아올	-11.8579
달러짜리	-11.858
▁명령어	-11.858
▁도보	-11.858
▁사진작가	-11.858
▁못하더라	-11.858
▁복식	-11.858
▁소장	-11.8581
▁느린	-11.8581
▁나타난	-11.8581
▁국회	-11.8581
▁추후	-11.8582
▁보여드릴	-11.8582
▁결과물	-11.8582
▁일으켰	-11.8582
▁빌려준	-11.8582
▁김치전	-11.8582
▁통역사	-11.8583
▁아쉽네	-11.8583
▁지겨워	-11.8584
▁멘토	-11.8584
▁흠	-11.8584
tsa	-11.8584
▁뜰	-11.8584
▁삼계탕	-11.8584
▁order	-11.8584
▁풍선	-11.8584
▁리듬	-11.8584
▁code	-11.8584
▁스미스	-11.8584
▁습기	-11.8584
▁오페라	-11.8585
▁eos	-11.8585
▁재난	-11.8585
▁앙	-11.8585
▁스시	-11.8585
▁소개해줄게	-11.8585
▁발언	-11.8585
▁54	-11.8586
▁연금	-11.8586
▁주관	-11.8586
▁단식	-11.8586
▁감독관	-11.8586
▁카트	-11.8587
▁폐기물	-11.8587
▁2009	-11.8587
▁창의성	-11.8588
▁소용이	-11.8588
▁가졌는지	-11.8588
▁구하는	-11.8588
▁일기장	-11.8588
아가라	-11.8589
▁흥미로워	-11.8589
▁하느님께	-11.8589
갑	-11.859
▁들렀다	-11.8591
▁누구인가	-11.8591
▁기대할게	-11.8591
▁시끄러워	-11.8592
▁늘어	-11.8592
▁액체	-11.8592
▁궁금증	-11.8592
▁남미	-11.8592
▁주문하려	-11.8593
▁있느냐	-11.8593
▁공구	-11.8593
▁엉덩이	-11.8593
▁여우	-11.8594
▁양산	-11.8595
age	-11.8596
▁천재	-11.8597
▁동반자	-11.8597
▁보살펴	-11.8598
▁고객으로부터	-11.8598
▁변하	-11.8599
▁잔액	-11.86
▁고파서	-11.8601
▁리드	-11.8601
▁뉴질랜드에	-11.8601
▁날아오	-11.8601
▁꼽	-11.8602
▁뵐	-11.8602
▁혁명	-11.8602
▁놀란	-11.8602
▁레터	-11.8602
▁소매	-11.8603
▁어떨지	-11.8603
▁차트	-11.8603
▁되잖아	-11.8603
▁감동했어	-11.8603
▁고통받	-11.8604
▁되리라	-11.8605
▁피부색	-11.8605
▁손잡이	-11.8605
▁입점	-11.8606
▁명단	-11.8607
▁정치적	-11.8607
▁사내	-11.8607
▁피어	-11.8608
▁공군	-11.8608
▁세심한	-11.8609
▁남북한	-11.861
▁창원	-11.8611
▁보호하기	-11.8611
▁다운받아	-11.8611
▁유감스럽	-11.8612
▁다크	-11.8613
▁돋보이	-11.8613
▁피워	-11.8614
▁강당	-11.8615
▁경영학과	-11.8616
▁배송될	-11.8617
▁비어	-11.8617
▁용도로	-11.8618
▁외관	-11.8618
개월에	-11.8619
▁엉	-11.8619
▁전공이	-11.8619
▁않았잖아	-11.8622
▁환자에게	-11.8622
▁모였	-11.8624
▁금리	-11.8624
▁주중에	-11.8625
▁길동	-11.8626
▁제공했어	-11.8627
▁독일어	-11.8627
▁번역이	-11.8627
▁체제	-11.8627
▁시인	-11.8627
▁해보자	-11.8628
▁서운해	-11.8629
▁해주신	-11.863
▁죽는	-11.8631
▁자선	-11.8635
▁목요일까지	-11.8637
▁생각되는	-11.8639
▁길거리에서	-11.8639
▁의욕	-11.8639
18	-11.8639
▁모델들	-11.8639
▁틀어	-11.864
▁찾아볼게	-11.864
▁고추	-11.8641
▁족발	-11.8642
▁명세서	-11.8644
▁공중	-11.8644
▁경기장이	-11.8645
▁토요일까지	-11.8646
▁만두	-11.8648
▁곤경에	-11.8648
▁전형	-11.8648
▁전후	-11.865
▁어기	-11.865
▁아마존에서	-11.865
▁저온	-11.8651
▁해보지	-11.8651
▁알겠	-11.8652
▁되었는데	-11.8652
파일	-11.8653
▁재미있어서	-11.8653
▁시위	-11.8654
▁물량	-11.8655
▁치르	-11.8655
▁기호	-11.8658
▁이용이	-11.8659
▁말씀하시는	-11.8659
정도	-11.866
▁싸워	-11.8661
▁주겠	-11.8662
▁유출	-11.8664
▁우울하	-11.8665
▁꿈에서	-11.8666
정이	-11.8667
▁고생하	-11.8668
▁포함되어있	-11.8669
▁개입	-11.867
▁가져다줄	-11.8671
▁곳곳에	-11.8671
▁얻으려	-11.8672
▁적응하기	-11.8673
▁fw	-11.8675
eet	-11.8677
▁않으시	-11.8678
서류	-11.8679
▁성공에	-11.8679
▁코인	-11.868
▁시골에	-11.868
▁흡연자	-11.868
▁져야	-11.8681
▁족	-11.8681
▁느껴지는	-11.8682
▁쓰면서	-11.8686
냈	-11.8687
▁당사자	-11.8688
▁동료와	-11.8689
▁구분할	-11.8692
▁싸인	-11.8694
▁읽어보	-11.8696
겠습니	-11.8697
▁복용	-11.8699
▁이동할	-11.8699
▁이야기에	-11.8699
▁알면서	-11.8707
▁용품	-11.8708
▁끊었어	-11.8709
▁웃었	-11.871
▁얻는다	-11.8714
▁피트	-11.8716
▁개인이	-11.8716
▁동네에서	-11.8717
▁이해해줘	-11.8718
▁동아리에서	-11.8719
▁on	-11.8719
▁고리	-11.8719
▁주민	-11.8722
ml	-11.8728
▁싸우기	-11.8732
▁생일이라	-11.8738
▁맛있었어	-11.874
▁지불하는	-11.8743
▁자지	-11.8744
▁저항	-11.8747
▁인증서	-11.8749
▁레스토랑에서	-11.8751
▁하늘에서	-11.8754
▁현실에서	-11.8754
▁대전에	-11.8754
▁당신뿐	-11.8755
▁당일에	-11.8757
▁바꾸지	-11.8758
▁알려줄래	-11.8758
▁추천해줄	-11.8759
▁건드리	-11.876
▁공인	-11.876
▁가져가야	-11.876
▁직원과	-11.8763
▁나오나	-11.8763
▁평온	-11.8764
▁힘들어하는	-11.8765
▁복도	-11.8765
▁출근하는	-11.8768
▁잘랐어	-11.877
▁철도	-11.8771
▁놓아	-11.8772
▁음식물	-11.8773
▁발견되었	-11.8774
▁달래	-11.8776
▁수사	-11.8777
▁판매가	-11.8779
▁송이	-11.8781
▁음식점에	-11.8784
▁선택하지	-11.8784
▁드리기	-11.8787
사와	-11.879
▁다짐했어	-11.879
▁언급하	-11.8792
▁설명해야	-11.8792
▁배우면	-11.8792
과학	-11.8794
▁맛집이	-11.8794
▁중앙에	-11.8796
▁보상이	-11.8799
▁웃으	-11.88
▁주차장에	-11.88
▁못했기	-11.8801
▁잠실	-11.8802
▁수분	-11.8802
tp	-11.8803
▁중학교에서	-11.8803
갔	-11.8804
▁xxx	-11.8809
▁착해	-11.881
▁오픈하	-11.8811
▁생겼나	-11.8811
▁방문하는	-11.8812
학과	-11.8812
▁차지했	-11.8812
▁주입	-11.8813
▁풍부하	-11.8814
▁페이지에서	-11.8814
▁책에서	-11.8815
▁궁	-11.8817
▁날개	-11.8819
코드	-11.8819
▁지방에	-11.8823
▁했다는	-11.8825
▁준비하기	-11.8827
▁대개	-11.8829
▁부탁하	-11.883
▁입을지	-11.883
▁작품에	-11.8832
▁이용자	-11.8834
▁났다	-11.8838
▁말했었어	-11.8838
▁사람이었어	-11.8839
▁부서에	-11.8839
▁내성적이	-11.8841
▁귀한	-11.8843
▁가입했어	-11.8843
▁us	-11.8844
▁회장이	-11.8845
▁우리들	-11.885
▁수동	-11.8851
▁코너	-11.8852
▁달렸어	-11.8854
▁최고였어	-11.8856
▁싫어할	-11.8856
▁믿는다	-11.8858
▁기여하	-11.8863
▁문의하	-11.8863
합니	-11.8864
▁부려	-11.8866
▁끝내기	-11.8866
▁담겨	-11.887
▁이해하	-11.8872
▁창가	-11.8872
▁초등학생	-11.8875
▁반했어	-11.8875
▁법적	-11.8879
▁백성들	-11.8883
월달	-11.8884
까지만	-11.8885
▁가봤	-11.8885
▁화물이	-11.8886
▁회상	-11.8887
▁결정했어	-11.8892
▁전달하는	-11.8896
▁선사	-11.8897
▁절실	-11.89
▁전공과	-11.8901
▁내립니	-11.8902
뢰	-11.8902
▁찾아갔어	-11.8903
▁바닷가에	-11.8906
▁전체적	-11.8907
▁짝	-11.8907
▁겪었어	-11.8908
▁의뢰하	-11.8909
▁신기	-11.891
▁이점	-11.8912
▁자질	-11.8912
▁광고와	-11.8915
▁돌아가서	-11.8916
▁만납	-11.8916
▁그것으로	-11.8917
▁용서하지	-11.8918
▁하시기	-11.892
▁말해보	-11.892
▁들어야	-11.892
▁찍으	-11.8922
▁내부에서	-11.8924
▁락	-11.8933
▁팔리	-11.8939
▁집들이	-11.894
▁그렇게까지	-11.8943
▁않는데	-11.8949
▁자녀들	-11.8949
▁비교했	-11.8951
▁수행하	-11.8951
▁넣어야	-11.8951
▁지켜봐	-11.8953
▁세웠어	-11.8953
▁마진	-11.8956
▁일치하	-11.8956
▁밴쿠버에	-11.8957
▁보셨	-11.896
▁하와이에	-11.896
▁영작	-11.8962
▁어제까지	-11.8965
▁중점	-11.8966
▁무인도에	-11.8972
005	-11.8979
▁후부터	-11.8982
▁설명서	-11.8982
▁사고로	-11.8985
▁도전해	-11.8989
율이	-11.8991
▁되돌려	-11.8992
침	-11.8997
▁복구	-11.9
▁샤워하	-11.9005
▁근사	-11.9005
일째	-11.9009
▁베풀어	-11.9009
▁두바이	-11.9009
▁극대화	-11.9011
▁슈퍼마켓	-11.9012
▁사상	-11.9013
▁커플이	-11.9013
▁결제할	-11.9017
▁행동하는	-11.9018
▁체계적	-11.9024
▁바꾼다	-11.9026
▁도와준다	-11.903
▁좋아한다면	-11.9032
▁휴대폰에	-11.9037
와서	-11.9041
▁si	-11.9042
▁상태에서	-11.9043
▁반복되	-11.9045
▁의존	-11.9047
센터	-11.9051
으세	-11.9054
▁부분만	-11.9055
▁적절	-11.9055
25	-11.9059
▁나라들	-11.906
고자	-11.9064
▁몸살	-11.9065
이상	-11.9068
▁나만큼	-11.9071
▁팀에서	-11.9077
▁평등	-11.9077
▁쉬었	-11.9081
▁고등학생이	-11.9084
▁모를	-11.9089
▁pa	-11.909
▁떨어	-11.9093
▁구매하기	-11.9093
▁스키장	-11.9097
행할	-11.91
▁받았다고	-11.91
자로	-11.9101
▁사용하시	-11.9102
하던	-11.9106
▁본다	-11.9107
▁회전	-11.9112
▁보라카이에	-11.9114
▁정부에	-11.9118
▁실패했어	-11.9119
▁여자보다	-11.912
▁경기장에	-11.9122
▁푸는	-11.9124
▁붙어있	-11.9124
였으니	-11.9125
▁번역하	-11.9125
음이	-11.9128
▁여자로	-11.9129
▁되어줘	-11.9139
▁영어학원	-11.9141
▁이마트	-11.9143
▁웹사이트에	-11.9149
▁유도	-11.915
▁새겨	-11.9151
▁만족하는	-11.9158
▁진동	-11.9159
시지	-11.9164
▁섬에	-11.9164
▁심각	-11.9164
일지	-11.9165
해진	-11.9168
▁살다	-11.9171
▁식사할	-11.9173
▁집주인	-11.918
▁샘	-11.9182
▁가위	-11.9186
▁mi	-11.9189
▁이직	-11.9193
▁비서	-11.9195
▁까먹	-11.9198
▁여러분들	-11.9202
정하지	-11.9213
▁응원해주	-11.9216
▁갚	-11.9217
▁할래	-11.9217
▁물음	-11.9223
▁필기	-11.9226
▁오이	-11.9226
▁감독이	-11.9231
▁이쁘다	-11.9234
▁워크	-11.9237
▁몸으로	-11.9238
▁요약	-11.9239
▁바뀌는	-11.9248
▁다양성	-11.9251
으셔	-11.9252
▁유치	-11.9256
▁지났어	-11.9258
개만	-11.9261
▁입시	-11.9262
버스	-11.9267
▁돌아가면	-11.9272
▁노력과	-11.9277
▁가운	-11.9277
인용	-11.9278
▁친척들	-11.9291
▁늘려	-11.9292
▁찜질방	-11.9293
▁지루하	-11.9294
▁군인이	-11.9294
▁한자	-11.9297
▁실용적	-11.9297
▁장난으로	-11.9299
▁사진들이	-11.9303
▁고른	-11.9309
▁정서	-11.931
▁강조	-11.9312
세에	-11.9317
▁않음	-11.9318
트리	-11.932
▁품목이	-11.9323
▁작업에	-11.933
▁저주	-11.9334
▁그걸로	-11.9334
▁생각나는	-11.9336
▁지하철이	-11.9345
▁시카고에	-11.9352
▁jo	-11.9353
▁이주	-11.9353
▁없던	-11.9357
▁승객	-11.9363
▁지표	-11.9364
▁피리	-11.9371
▁바꿨어	-11.9371
▁넘어졌어	-11.9374
▁안되	-11.9384
▁익숙해	-11.9386
▁닫았	-11.9394
▁시티	-11.94
▁본질	-11.9403
▁질의	-11.9408
▁매력적	-11.9408
▁쓰레기통	-11.9409
르고	-11.941
식으로	-11.9413
▁대도시	-11.9414
▁말지	-11.9415
▁낳아	-11.9415
▁동시	-11.9416
▁제외하	-11.9416
▁박람회	-11.9417
us	-11.9418
▁상에	-11.9418
▁점수에	-11.9418
▁반대해	-11.9419
▁공간에	-11.9422
▁자르	-11.943
질이	-11.9433
▁시각에	-11.9434
▁인지하	-11.9435
▁u	-11.9437
▁eu	-11.9439
▁환급	-11.9441
이니까	-11.9443
▁ad	-11.9445
▁완료되어	-11.9448
▁알려줬어	-11.9457
▁부모들	-11.9461
▁괜찮습니	-11.9461
▁ai	-11.9462
▁김치볶음밥	-11.9465
▁부작용	-11.9465
▁해결했	-11.9466
▁송금하고	-11.9473
▁위험해	-11.9475
▁것뿐	-11.9476
▁감각이	-11.9477
▁아름다움이	-11.9479
▁해결하고	-11.9481
▁흐르	-11.9483
▁여행사	-11.9485
▁구경했	-11.9488
▁적절하	-11.9489
▁날이라	-11.9491
▁해보았	-11.9493
▁요리에	-11.9496
▁가지만	-11.9503
▁흔들	-11.9507
▁그림들	-11.951
▁나에게도	-11.951
▁독점	-11.9513
일만	-11.9516
▁강하	-11.9526
▁공제	-11.9526
▁로비	-11.9526
▁관계없	-11.9527
▁화해	-11.9529
▁직진	-11.9535
▁그만두는	-11.9536
▁말씀해주	-11.9538
▁48	-11.9539
▁자식이	-11.9546
▁자연스러	-11.9553
▁석사	-11.9554
▁노출되	-11.9557
▁여행이었	-11.9558
▁알면	-11.956
으신	-11.9561
▁주는지	-11.9561
▁꼼꼼하	-11.9563
▁문서에	-11.9565
▁무겁	-11.9565
▁제품인	-11.9567
▁비정상적	-11.9568
▁혼났	-11.957
받아야	-11.9571
되었	-11.9574
▁기도하겠	-11.9588
▁소요되	-11.9592
▁느리	-11.9592
▁앉았	-11.9597
▁도와주면	-11.9597
▁한국사	-11.9608
01	-11.9608
▁시험해	-11.9608
▁무서웠	-11.961
▁번호로	-11.9615
타야	-11.9616
▁태어났어	-11.9622
▁못하여	-11.9622
▁쪽이	-11.9622
▁있냐	-11.9628
글	-11.9628
말이	-11.9631
▁동창	-11.9633
▁타려	-11.9633
▁눌러주	-11.9636
좋	-11.9638
이신	-11.964
▁진실이	-11.9643
상으로	-11.9652
▁수송	-11.9656
▁일정으로	-11.9657
이었으	-11.9657
▁선생님들	-11.9664
▁지원되	-11.9666
▁커피숍에	-11.9667
▁사항들	-11.9671
▁부평	-11.9672
▁어색해	-11.9679
하잖아	-11.9679
▁풀이	-11.9681
▁버는	-11.9682
▁가수들	-11.9683
▁것들에	-11.9685
▁예정이라	-11.9687
▁변화에	-11.9688
▁않는지	-11.969
▁수직	-11.969
▁타임이	-11.9692
날이	-11.9694
▁일주일이	-11.9694
회사	-11.9696
부를	-11.9697
▁활동하	-11.9697
▁풀려	-11.97
▁왕국	-11.9704
▁점원	-11.9704
▁한국인인	-11.971
징	-11.9714
시가	-11.9716
▁진행했	-11.9718
호텔	-11.9718
▁챙겨주	-11.9725
▁너희와	-11.9725
▁존재해	-11.9727
악	-11.9727
▁목적이	-11.9728
포인트	-11.973
▁160	-11.9731
▁버전이	-11.9734
▁충분하다	-11.9736
▁작성하였	-11.9738
▁내장	-11.974
▁여행도	-11.9749
▁데서	-11.975
▁이름만	-11.9752
▁수의사	-11.9753
▁기부했	-11.9754
▁추진	-11.9764
▁빌리	-11.9765
▁진학하	-11.9767
▁좋나	-11.9771
▁주셨어	-11.9774
▁생긴다	-11.9776
▁바가	-11.9779
▁도로에	-11.978
▁켜지	-11.9784
▁송부해	-11.9785
▁브	-11.9786
▁호환	-11.9789
▁입금해	-11.9792
밤	-11.9793
▁책상에	-11.9796
▁ca	-11.9796
▁동남아	-11.9797
▁요구했	-11.9799
맨	-11.9799
천만	-11.9802
되었다고	-11.9803
▁없다니	-11.9807
▁유기	-11.9809
▁광고에	-11.981
기보다	-11.9818
죽	-11.9824
첩	-11.983
▁늙어	-11.984
충	-11.9842
범	-11.9843
틴	-11.9843
공간	-11.9845
▁데려	-11.9847
▁여권이	-11.9847
▁계속된	-11.9848
방울	-11.9849
▁지능	-11.9855
▁뽀뽀	-11.9855
▁통과하	-11.9855
▁업체들	-11.9856
알	-11.9856
패	-11.9857
▁가능하시	-11.9857
겹	-11.9857
검	-11.9859
▁향후	-11.986
엘	-11.9864
▁지쳤	-11.9865
▁육	-11.9867
앤	-11.9869
아요	-11.987
▁엠	-11.9871
▁시작하지	-11.9872
팩	-11.9873
잘	-11.9873
틈	-11.9874
등급	-11.9875
춥	-11.9875
실험	-11.9875
사이즈	-11.9878
▁군인들	-11.9878
▁퇴	-11.9879
놀이	-11.988
방송	-11.988
▁환전	-11.9883
몰	-11.9884
▁아쉬	-11.9886
▁정비	-11.9887
▁손님들	-11.9888
럼	-11.9888
▁게시판	-11.9888
▁1234	-11.989
버려서	-11.9892
▁특별하	-11.9892
▁덥	-11.9894
301	-11.9894
▁싶은지	-11.9895
▁공중전화	-11.9898
주간	-11.9899
▁마닐라	-11.9901
▁잘된	-11.9901
▁낭비하	-11.9903
했음에	-11.9905
▁im	-11.9905
▁적극적이	-11.991
▁붙잡	-11.9911
▁내역	-11.9911
▁날씨에	-11.9912
▁광화문	-11.9912
▁첨가	-11.9913
▁대접	-11.9914
▁배신하	-11.9914
▁덕	-11.9915
▁표현한	-11.9915
안에	-11.9915
▁과장	-11.9916
▁건너편	-11.9919
▁직장인	-11.992
▁많아졌	-11.9922
▁골프장	-11.9923
▁지옥	-11.9925
▁자상하	-11.9926
▁자취	-11.993
▁케	-11.9931
▁투어에	-11.9931
쇠	-11.9931
▁날인	-11.9935
▁열렸	-11.9937
▁함께해서	-11.9943
▁술집에	-11.9945
▁정하는	-11.9946
▁죽지	-11.9948
▁산책하	-11.995
▁행복하다	-11.9951
▁자들	-11.9954
▁계산했	-11.9955
▁소년이	-11.9956
▁맛있다	-11.9957
▁좌절하	-11.9962
▁잘생기	-11.9962
▁되었습니	-11.9963
▁어려	-11.9965
▁겸	-11.9967
▁남북	-11.9968
받고	-11.9968
▁흥분	-11.997
▁씻어	-11.9978
▁서식	-11.9978
▁스위치	-11.9978
▁묻어	-11.9978
▁동성애	-11.9979
업을	-11.9982
▁퇴사	-11.9983
▁세탁기	-11.9983
▁클래스	-11.9987
▁운전면허	-11.9987
▁법률	-11.9988
▁매트	-11.9988
정리	-11.9988
▁85	-11.9989
▁문화적	-11.999
셈	-11.999
▁뿌려	-11.9991
▁뽑아	-11.9991
▁길이에	-11.9993
▁선착장	-11.9996
▁폴	-11.9996
▁때문인	-11.9997
딩	-11.9998
▁사무	-11.9999
▁서툴	-12
▁연계	-12
▁쌓여	-12
▁dis	-12.0002
둡	-12.0002
▁농부	-12.0002
▁핸들	-12.0003
▁head	-12.0003
▁멀티	-12.0003
▁url	-12.0003
▁강강술래	-12.0003
▁겨울왕국	-12.0003
▁꽂아	-12.0003
▁끊을	-12.0003
▁낫기	-12.0003
▁노폐물	-12.0003
▁늙은	-12.0003
▁다람쥐	-12.0003
▁돕습니	-12.0003
▁딸꾹질	-12.0003
▁라이선스	-12.0003
▁로맨스	-12.0003
▁맥베스	-12.0003
▁무책임	-12.0003
▁미네랄	-12.0003
▁벙커	-12.0003
▁보컬	-12.0003
▁볶아	-12.0003
▁산토리니	-12.0003
▁샀다	-12.0003
▁셰익스피어	-12.0003
▁순조롭	-12.0003
▁실리콘	-12.0003
▁싫고	-12.0003
▁아이패드	-12.0003
▁아줌마	-12.0003
▁앞날	-12.0003
▁앞쪽	-12.0003
▁어둠	-12.0003
▁얽매이	-12.0003
▁에어비앤비	-12.0003
▁여드름	-12.0003
▁오케스트라	-12.0003
▁왼손	-12.0003
▁원어민	-12.0003
▁인라인스케이트	-12.0003
▁인터페이스	-12.0003
▁지붕	-12.0003
▁짧아	-12.0003
▁최상	-12.0003
▁칫솔	-12.0003
▁칼슘	-12.0003
▁팬으로	-12.0003
▁퍼포먼스	-12.0003
▁홀리데이	-12.0003
텀	-12.0003
▁낳았	-12.0003
▁맺었	-12.0003
▁스택	-12.0003
▁스트레칭	-12.0003
▁스팸	-12.0003
▁튜브	-12.0003
▁페널티	-12.0003
▁프라하	-12.0003
▁확산	-12.0003
▁단둘이	-12.0003
▁벼락치기	-12.0003
▁부득이	-12.0003
▁식습관	-12.0003
▁엑스레이	-12.0003
▁웨딩	-12.0003
▁pfp	-12.0003
▁일으켜	-12.0003
▁토마스	-12.0003
▁모로코	-12.0003
▁캡처	-12.0003
▁nba	-12.0003
▁도넛	-12.0003
▁심심할	-12.0003
▁즉흥적	-12.0003
▁힐링	-12.0003
▁베니스	-12.0003
▁화이트데이	-12.0003
▁스노우	-12.0003
▁모국어	-12.0003
▁가맹점	-12.0003
▁악몽	-12.0003
▁이순신	-12.0003
▁멈췄	-12.0003
▁팔로우	-12.0003
▁드셔보	-12.0003
▁꿀벌	-12.0003
▁핸들링	-12.0003
▁eta	-12.0003
▁호랑이	-12.0003
▁체벌	-12.0003
▁조개구이	-12.0003
▁튀겨	-12.0003
▁손수건	-12.0003
▁충돌	-12.0003
▁방사능	-12.0003
▁스카프	-12.0003
▁동화책	-12.0003
▁hq	-12.0003
▁잡히지	-12.0003
▁디바이스	-12.0003
▁설문조사	-12.0003
▁치열	-12.0003
▁크리스마스이브	-12.0003
▁펜션	-12.0003
▁공익	-12.0003
▁꽃잎	-12.0003
▁날카로	-12.0003
▁tom	-12.0003
▁공동체	-12.0003
▁빨래	-12.0003
▁관습	-12.0003
▁축소	-12.0004
▁김포공항	-12.0004
▁영희	-12.0004
▁황금	-12.0004
▁엘	-12.0004
▁바코드	-12.0004
▁입학시험	-12.0004
▁적당량	-12.0004
▁선천적	-12.0004
▁자외선	-12.0004
▁질렀	-12.0004
▁재주문	-12.0004
▁조율	-12.0004
▁잔돈	-12.0004
▁접착	-12.0004
▁친밀	-12.0004
▁대나무	-12.0004
▁계좌번호	-12.0004
▁발라드	-12.0004
▁욕조	-12.0004
▁사라져	-12.0004
▁08	-12.0004
▁센스	-12.0004
▁웃겨	-12.0004
▁할리우드	-12.0004
▁마땅	-12.0004
▁코끼리	-12.0005
▁필통	-12.0005
▁무관심	-12.0005
▁담백	-12.0005
▁색채	-12.0005
▁무지개	-12.0005
▁과음	-12.0005
▁분담	-12.0005
▁공책	-12.0005
▁야근	-12.0005
▁세럼	-12.0005
▁화창	-12.0005
▁놀라워	-12.0005
▁청결	-12.0005
▁싸웠	-12.0005
▁교재	-12.0005
▁공모전	-12.0005
▁달빛	-12.0006
▁진급	-12.0006
▁구속	-12.0006
▁소모	-12.0006
▁흘러	-12.0006
▁쾌적	-12.0006
▁돌아옵니	-12.0006
▁저스틴	-12.0006
▁파이프	-12.0006
▁추울	-12.0006
▁북경	-12.0006
▁서른	-12.0007
▁와중에	-12.0007
▁버그	-12.0007
▁분양	-12.0007
▁보여드리겠	-12.0007
▁무거워	-12.0007
▁친해진	-12.0007
▁추수	-12.0007
▁단짝	-12.0007
▁군사	-12.0008
▁평안	-12.0008
▁화산	-12.0008
▁dc	-12.0008
▁미미	-12.0008
되나	-12.0008
▁모색	-12.0008
▁예수	-12.0009
▁늘어난	-12.0009
▁인권	-12.0009
▁이유만으로	-12.0009
▁연락드릴	-12.0009
▁불량품	-12.001
▁ios	-12.001
▁저지르	-12.001
▁플러그인	-12.001
▁셀프	-12.001
▁기다려져	-12.001
▁바쁜데	-12.001
▁견문	-12.001
▁기재되어	-12.001
▁의류	-12.001
▁개업	-12.0011
▁식욕	-12.0011
▁응원할게	-12.0011
▁매운맛	-12.0011
▁가축	-12.0011
▁단기간	-12.0011
▁약속할게	-12.0012
▁격식	-12.0012
ark	-12.0012
▁담임	-12.0013
▁다스리	-12.0013
▁흘려	-12.0013
▁개그	-12.0013
▁사료	-12.0013
▁하락	-12.0013
▁간디	-12.0014
▁모르잖아	-12.0014
▁정품	-12.0014
▁광경	-12.0014
▁전통의상	-12.0014
▁주신다	-12.0014
▁과장님	-12.0014
▁막내	-12.0014
▁코미디	-12.0014
▁스터디	-12.0014
▁씹	-12.0014
▁패널	-12.0014
▁옥수수	-12.0014
▁베이스	-12.0015
▁활력	-12.0015
▁고생했어	-12.0016
▁계급	-12.0016
▁스카이	-12.0016
▁탁자	-12.0017
▁투입	-12.0017
▁이민자	-12.0017
▁지냅니	-12.0017
▁공포증	-12.0017
▁360	-12.0017
▁명언	-12.0017
▁오락	-12.0018
▁겹치	-12.0018
▁박사	-12.0018
▁울려	-12.0018
▁장미	-12.0019
▁물체	-12.0019
▁분량	-12.0019
▁우측	-12.002
▁스토어에서	-12.002
▁배구	-12.002
▁일방적	-12.002
▁cb	-12.002
▁열정적	-12.002
▁사과할게	-12.0021
▁잃어버려	-12.0021
▁혜	-12.0021
▁맡길	-12.0021
▁칼로리	-12.0022
물이	-12.0022
▁헤어지자	-12.0022
▁그리움	-12.0023
▁말해줄래	-12.0023
▁이동하기	-12.0023
▁여객	-12.0024
▁있으십니	-12.0024
▁설득력	-12.0024
▁커질	-12.0025
▁근육통	-12.0025
▁어떠신	-12.0027
▁학위	-12.0027
▁lot	-12.0027
▁팀으로	-12.0027
▁여수	-12.0028
▁여보	-12.0028
▁web	-12.0029
▁벤	-12.0029
▁만족시키	-12.0031
▁기울이	-12.0031
▁미군	-12.0031
▁복잡	-12.0031
▁키워야	-12.0031
▁대체품	-12.0033
▁다치지	-12.0033
▁담겨있	-12.0033
▁매연	-12.0035
▁찼	-12.0035
▁roll	-12.0035
▁덤	-12.0035
▁벤처	-12.0035
▁영업팀	-12.0035
▁민감한	-12.0036
▁파워	-12.0036
▁일상생활에서	-12.0036
▁곡선	-12.0036
▁에센스	-12.0036
▁목욕탕	-12.0036
▁예쁘네	-12.0036
▁드러	-12.0037
▁마칠	-12.0037
▁주의해야	-12.0038
▁67	-12.0038
▁발목	-12.0039
▁계획인가	-12.0039
▁자막	-12.0041
▁수염	-12.0041
▁가야겠어	-12.0041
▁원격	-12.0042
▁본래	-12.0043
▁추세	-12.0044
▁동맹	-12.0044
▁물감	-12.0045
▁특별해	-12.0047
▁헤어지고	-12.0047
▁국내선	-12.0049
▁보호하	-12.0049
▁여신	-12.005
▁커졌	-12.005
▁아이에	-12.005
▁ux	-12.005
▁red	-12.005
▁각질	-12.0051
▁로드	-12.0052
▁따라갈	-12.0053
▁명시되어	-12.0053
▁얘기해주	-12.0053
▁연구소에서	-12.0053
▁넓히	-12.0054
▁촉촉하	-12.0055
▁레이	-12.0055
▁붓	-12.0055
▁지루할	-12.0055
▁데려다줄게	-12.0056
▁55	-12.0057
▁삼아	-12.0058
▁농	-12.0059
평가	-12.0061
▁법학	-12.0061
▁안타깝게	-12.0062
▁속성	-12.0062
▁없으신	-12.0062
▁하노이	-12.0063
▁되었네	-12.0063
▁알아보자	-12.0064
▁무난	-12.0065
▁마당	-12.0066
▁95	-12.0066
▁레이어	-12.0066
▁흔한	-12.0066
▁몸집	-12.0067
▁낙지	-12.0067
▁할인율	-12.0069
▁약물	-12.007
▁괜찮았	-12.0071
았던	-12.0073
▁구매하려고	-12.0074
킬로	-12.0074
▁발생하여	-12.0077
▁콘도	-12.0077
▁용인	-12.0077
▁또래	-12.0078
▁철저한	-12.0078
▁성공하기	-12.008
▁노래방에서	-12.0081
▁바뀌면	-12.0082
▁시골에서	-12.0082
▁복제	-12.0084
▁초대했어	-12.0086
▁가졌다	-12.0087
▁거래처와	-12.0088
▁고객들에게	-12.0089
▁상업	-12.009
▁부담스럽	-12.0092
▁자석	-12.0093
▁바꾸었	-12.0093
시간은	-12.0093
▁말해줄게	-12.0095
▁죄송하게	-12.0096
man	-12.0098
▁상사와	-12.0099
▁김씨	-12.0099
▁일행	-12.01
▁러시아에	-12.0101
▁선생님께서	-12.0101
▁기대되	-12.0102
▁입으	-12.0102
은행	-12.0105
▁납	-12.011
▁바이어와	-12.0111
▁풀었어	-12.0111
▁의미하는	-12.0111
▁오해할	-12.0111
▁완화	-12.0111
▁오후까지	-12.0112
▁동영상이	-12.0115
▁알려주신	-12.0115
▁표현했	-12.0115
봅	-12.0117
일과	-12.0117
▁나노	-12.0117
▁덧	-12.0119
▁실수하지	-12.0121
▁던지기	-12.0121
▁노래방에	-12.0121
▁인지도	-12.0124
▁생길까	-12.0125
▁우월	-12.0125
▁가정부	-12.013
▁즐겨보	-12.0131
▁들립니	-12.0133
▁진화	-12.0133
▁망고	-12.0133
▁보았습니	-12.0134
▁배신	-12.0134
ca	-12.0135
주면	-12.0135
▁앤	-12.0138
▁해드릴	-12.0139
측에	-12.0139
▁기관에서	-12.014
▁만져	-12.0142
▁각국	-12.0143
들어	-12.0144
▁서면	-12.0145
▁공상	-12.0145
▁도와야	-12.0146
▁세어	-12.0146
▁부족했	-12.0147
▁두번째로	-12.0147
▁전공했	-12.0147
▁재현	-12.0151
▁부서에서	-12.0151
▁여름이	-12.0151
압	-12.0152
▁시청자	-12.0152
▁알아봤어	-12.0154
화된	-12.0154
▁나아졌어	-12.0156
▁하신	-12.0156
▁홀로	-12.0156
13	-12.0157
▁성질이	-12.0157
▁하였습니	-12.0157
▁흘	-12.0158
▁아빠에게	-12.0159
▁보아야	-12.0159
▁매표소에	-12.0161
▁안돼	-12.0161
나무	-12.0162
▁보존	-12.0163
▁노예	-12.0165
▁한다	-12.0168
▁인상적이었어	-12.0169
▁버전에서	-12.0172
▁우체국에서	-12.0173
▁뒀어	-12.0176
▁해줄래	-12.0177
▁약화	-12.0177
▁환불이	-12.0178
▁느껴졌다	-12.0178
▁하단	-12.0179
안이	-12.0183
▁단일	-12.0184
▁프라이팬	-12.0185
▁여자친구에게	-12.0185
▁그릴	-12.019
셨습니	-12.019
▁따라오	-12.0191
▁전날에	-12.0196
▁워크숍에	-12.0196
▁기법	-12.0198
타임	-12.0201
하니깐	-12.0205
▁돌아올게	-12.0206
▁넣었어	-12.0208
▁봉	-12.0208
▁경로	-12.0208
▁나로서	-12.0209
이었지만	-12.0211
▁스태프	-12.0212
▁따기	-12.0217
▁회로	-12.022
촌	-12.022
▁정했어	-12.0221
▁만일	-12.0224
니아	-12.0224
▁킹	-12.0225
▁싶어졌어	-12.0225
▁파크에	-12.0227
▁오만	-12.0235
▁율	-12.0235
▁요건	-12.0239
▁많아졌어	-12.0239
▁지난밤	-12.0245
▁휴일이	-12.0246
▁배정	-12.0246
▁감지	-12.0247
▁잠들었	-12.0249
해주시	-12.0251
▁빌딩이	-12.0253
▁인식하	-12.0254
▁생각했었어	-12.0256
▁자제	-12.0256
▁바꾸어	-12.026
▁춥지	-12.0261
▁안정되	-12.0261
▁예뻐지	-12.0262
▁다니지	-12.0263
▁들어가지	-12.0263
▁사인이	-12.0263
▁색과	-12.0264
▁내년부터	-12.0264
▁철저하	-12.0265
▁요구되	-12.0268
층이	-12.0269
▁막히	-12.027
뿐인	-12.0272
▁부족하다	-12.0276
▁국기	-12.0276
가격	-12.0277
았다	-12.0278
▁울리	-12.0279
▁신기해	-12.0281
▁관광객이	-12.0284
▁것조차	-12.0286
▁계산해	-12.0288
▁빈도	-12.0288
냈다	-12.0292
권이	-12.0296
▁그다음으로	-12.0305
▁떨고	-12.0305
▁갈라	-12.031
▁선적해	-12.0312
▁가운데에	-12.0312
▁흐르는	-12.0314
▁개혁	-12.0318
▁신라	-12.0319
하셨습니	-12.032
▁기억만	-12.032
▁죽이기	-12.0321
▁상했	-12.0333
▁갚을	-12.0333
▁없군	-12.0337
▁공손하	-12.0338
역까지	-12.0339
▁흔적	-12.0339
▁시스템에서	-12.0342
▁실패하	-12.0344
▁수술이	-12.0344
▁사람들보다	-12.0345
개국	-12.0346
하느냐	-12.0346
▁사업자	-12.0349
▁잡아주	-12.0353
▁미팅에서	-12.0354
▁다신	-12.0358
▁보시면	-12.0358
▁공장이	-12.0359
▁누구에게도	-12.036
보겠다	-12.0362
팀에서	-12.0369
▁도왔어	-12.0369
▁해주었어	-12.0369
▁전등	-12.0372
터가	-12.0373
▁대상자	-12.0375
▁죽었다	-12.0378
▁느껴보	-12.0381
▁유용하	-12.0382
▁얘기하지	-12.0385
▁매사	-12.0391
▁이수	-12.0393
▁88	-12.0393
▁가난했	-12.0393
▁판매원	-12.0394
▁탄자니아	-12.0394
▁감옥	-12.0395
▁겪었	-12.0395
▁스튜디오	-12.0397
▁광저우	-12.0399
▁다쳤어	-12.04
▁교토	-12.0401
▁침착하	-12.0401
▁끝부분	-12.0405
▁감동적이었	-12.0406
▁sd	-12.0406
▁즉각적	-12.0406
▁풍경이	-12.0406
▁바꾸기	-12.0408
▁가평	-12.0409
▁자사	-12.0412
▁결정해	-12.0416
나갈	-12.0418
▁공사가	-12.0419
▁존재할	-12.042
▁취소되	-12.0422
ment	-12.0423
▁웨이	-12.0423
▁얼마에	-12.0427
▁재미있었다	-12.043
▁들었나	-12.043
▁실험실	-12.0432
졌다	-12.0432
▁영웅들	-12.0432
▁탭	-12.0434
▁먹을래	-12.0442
▁보답하	-12.0448
▁계정으로	-12.0451
▁배운다	-12.0453
▁결심	-12.0453
▁비용에	-12.0454
▁가동	-12.0455
▁들어오면	-12.0459
원의	-12.046
▁페이	-12.0461
사이트	-12.0463
▁의원	-12.0468
▁친근	-12.047
▁이발	-12.0474
▁트	-12.0476
▁제작되어	-12.0478
▁입금하면	-12.0479
▁취했	-12.0483
▁속상하	-12.0487
▁쉬지	-12.0494
즘	-12.0498
▁육체적	-12.0507
▁보자고	-12.0514
▁동봉	-12.0516
▁전주에	-12.0521
▁견적서에	-12.0523
▁했다	-12.0524
▁제품만	-12.0524
받았	-12.0526
▁오타	-12.0538
▁조용하	-12.054
▁지내시	-12.0544
▁따고	-12.0549
▁재단	-12.055
교시	-12.0553
▁화면에	-12.0553
▁세관	-12.0553
▁설치해	-12.0554
해봐	-12.0555
▁신장	-12.0561
▁이야기했어	-12.0566
▁외계인	-12.0566
▁노래에	-12.0566
▁가져가고	-12.0567
▁실용	-12.0572
▁해봤어	-12.0575
▁당황	-12.0575
▁연주하는	-12.0576
▁제니	-12.0578
▁지나도	-12.0582
▁인내심이	-12.0585
▁격려	-12.059
▁부재중	-12.0591
▁집중하기	-12.0592
▁조사해	-12.0595
▁잊어버렸어	-12.0596
▁bo	-12.0598
▁즐기면	-12.0602
▁감사했어	-12.0602
▁억울	-12.0602
▁레스토랑에	-12.0602
▁발전시키	-12.0605
▁흔적이	-12.0609
▁미술관에	-12.0612
▁현실에	-12.0614
▁나누었	-12.0615
▁폰이	-12.0615
▁고려한	-12.0618
▁권장	-12.0618
▁허락해	-12.0621
▁mo	-12.0621
▁신속	-12.0639
▁차질	-12.0644
▁pe	-12.0644
▁제안서	-12.0646
▁대사관에	-12.0652
▁반영되	-12.0653
▁말레이시아에	-12.0653
▁지쳤어	-12.0653
▁호흡	-12.0656
▁표현으로	-12.0668
▁me	-12.067
▁해주시기	-12.0671
▁일상에	-12.0673
냈어	-12.0673
▁선보	-12.0673
풀	-12.068
▁돈만	-12.0683
▁정원에	-12.0686
▁가슴에	-12.0688
▁관찰	-12.069
▁사람에	-12.0693
▁승객들	-12.0694
▁명인	-12.0694
▁울산에	-12.0696
▁원하시는	-12.0697
▁빠를	-12.0698
▁반이	-12.0703
▁시키	-12.0704
▁건강하시	-12.0715
미를	-12.0716
▁덴마크	-12.0718
▁받아주	-12.072
▁해물	-12.0721
▁폐기	-12.0727
▁귀신이	-12.0727
▁에버랜드	-12.073
▁문명	-12.073
▁만날까	-12.0736
24	-12.0742
▁교육받	-12.0743
▁만들었습니	-12.0745
받지	-12.0747
▁서로에	-12.0748
▁유저들	-12.075
▁세계로	-12.0751
브	-12.0756
▁돌아가셨	-12.0757
▁전화하지	-12.0761
쁘게	-12.0763
▁권유	-12.0764
▁lo	-12.077
스터	-12.0776
▁깨어	-12.0777
▁아니니	-12.0778
쪽에	-12.078
▁옷들이	-12.0788
▁읽었다	-12.0789
하거든	-12.0791
▁불꽃	-12.08
▁편의점이	-12.0802
▁싸움이	-12.0804
▁장벽	-12.0805
금이	-12.0806
▁있다니	-12.0807
▁직원들이	-12.0807
▁장이	-12.0808
▁지었어	-12.0814
▁신비	-12.0819
▁종이에	-12.0822
▁관광객	-12.0823
▁받았으	-12.083
합	-12.083
▁재미있기	-12.0835
▁권위	-12.0835
▁월드	-12.0836
요금	-12.0841
▁학생이라	-12.0848
▁받습니	-12.0854
였을	-12.0854
▁되었기	-12.0865
▁마당에	-12.0867
▁세월	-12.0874
▁어렵습니	-12.0886
▁잊어버렸	-12.0887
▁희망이	-12.0892
i	-12.0892
▁방문한다	-12.0893
▁명동에	-12.0898
▁목격	-12.0903
▁출현	-12.0904
▁척하	-12.0904
▁학생이었	-12.0907
▁잘못되었	-12.0907
달에	-12.0908
▁상식	-12.091
▁역에	-12.0913
▁체험해	-12.0914
▁틀렸다	-12.0916
▁pl	-12.0917
▁죄송하다	-12.0917
▁선거에	-12.0918
▁들어가도	-12.0918
▁국가들	-12.0919
채로	-12.0919
▁울산	-12.092
▁돌아갔어	-12.0921
▁생활하기	-12.0923
▁다치	-12.0926
개나	-12.0932
▁보내겠	-12.0934
▁하신다	-12.0934
▁ke	-12.0938
▁영향이	-12.094
색이	-12.094
▁아이템에	-12.0943
▁차려입	-12.0948
▁동성애자	-12.0952
▁사람입니	-12.0966
▁신속하	-12.0969
▁멈춰	-12.097
부가	-12.0971
▁주무	-12.0971
▁보라카이	-12.0979
▁불가능하	-12.0988
▁진행된	-12.099
▁고가	-12.0997
ack	-12.0998
족	-12.0998
▁no	-12.1001
▁하루였	-12.1012
▁표시되	-12.1013
▁올라갔어	-12.1013
▁부재중이	-12.1018
▁방문하기	-12.1021
▁구출	-12.1023
▁상품으로	-12.1023
▁ho	-12.1024
▁극복했	-12.1028
▁맛있었	-12.1031
약이	-12.1037
▁물품들	-12.104
난다	-12.1043
▁톤	-12.1044
▁가져갔어	-12.1044
▁다리에	-12.1052
▁미스	-12.1053
▁지워	-12.1054
▁편견이	-12.1054
▁아름다웠	-12.1059
▁드셨	-12.1062
▁건네	-12.1063
▁육체	-12.1065
시켰어	-12.1071
부로	-12.1073
건지	-12.1075
▁웅장	-12.1077
is	-12.1077
▁오사카에	-12.1077
▁외모에	-12.1078
▁복귀	-12.1078
▁대학생들	-12.1078
▁개나	-12.1098
▁안심이	-12.1103
▁칭찬해	-12.1105
▁형식이	-12.1111
▁머물렀어	-12.1115
▁욕망	-12.1116
ia	-12.1117
▁복장	-12.112
um	-12.1122
▁갈매기	-12.1123
▁요일	-12.1124
치는	-12.1126
▁개개인	-12.1129
▁건조해	-12.1133
▁직장에	-12.1133
▁바랐	-12.114
▁연습하	-12.1146
▁진행했어	-12.1151
▁안겨	-12.1152
▁마련이	-12.1152
봤	-12.1153
▁올까	-12.116
▁카운터	-12.1162
▁놓쳤	-12.1164
장님	-12.1165
어도	-12.1168
▁없어졌	-12.117
▁외로웠	-12.1171
▁소녀들	-12.1174
▁혈압	-12.1175
쪽	-12.1176
▁방문하려	-12.1179
기사	-12.1182
▁화폐	-12.1185
▁어두워	-12.1198
75	-12.1199
까진	-12.12
해봤어	-12.1203
▁변함없	-12.1207
▁터미널에	-12.1208
▁싫어했	-12.1209
▁마치면	-12.1216
▁집어	-12.122
▁들기	-12.122
▁모았	-12.1226
▁능숙	-12.1227
▁꿈인	-12.1232
▁웹툰	-12.1237
야드	-12.124
▁조상	-12.1241
▁알아냈	-12.1242
▁학자	-12.1249
▁탐사	-12.1253
▁돼야	-12.1254
▁과일이	-12.1256
▁보여줬	-12.1258
년생	-12.126
▁발명	-12.1265
▁연습해야	-12.1265
▁사고방식	-12.1266
▁다르지	-12.1266
▁실려	-12.1267
▁정하	-12.1268
곳	-12.1268
▁고통스러	-12.127
▁참고해주	-12.127
▁차분하	-12.1276
▁중국인이	-12.1278
▁것일	-12.1287
▁집중해	-12.1288
▁포기해	-12.1291
▁갖다주	-12.1296
▁나날	-12.1302
▁33	-12.1302
▁가입한	-12.1302
▁사용되지	-12.1307
▁서점	-12.1307
▁찾는다	-12.1308
추	-12.1311
49	-12.1315
▁인정하는	-12.1323
▁살아왔	-12.1329
▁동행하	-12.1331
▁거짓이	-12.1331
▁mu	-12.1333
▁뿌듯했	-12.1338
져야	-12.1339
▁워	-12.1339
68	-12.1341
▁봤었어	-12.1343
▁관중	-12.1344
▁오신다	-12.1345
h	-12.1347
▁지낸다	-12.1349
▁대접하	-12.1349
▁없었을	-12.1354
▁지원하	-12.1354
▁선택해야	-12.1363
▁추석이	-12.1363
▁다짐	-12.1365
▁분할	-12.1366
▁제안하	-12.137
▁추출	-12.137
트와	-12.137
페	-12.1371
▁부산으로	-12.1371
▁항목에	-12.1372
▁느낌이었어	-12.1373
▁선호합니	-12.1381
▁대신해	-12.1383
▁애들이	-12.1384
▁참여한	-12.1386
▁그리워해	-12.1386
re	-12.1387
▁근로자	-12.139
▁골랐	-12.1392
▁낯설	-12.1393
▁그렸	-12.1396
▁북한에	-12.1396
▁넘었	-12.1399
윤	-12.1399
▁들렸	-12.14
사람	-12.14
시스템	-12.14
열	-12.1403
▁집착	-12.1406
시킨다	-12.1409
공장	-12.1413
▁목사	-12.1416
▁갈아입	-12.1417
대상으로	-12.142
en	-12.1421
ma	-12.1429
▁찍기	-12.1432
짜	-12.1432
▁섬세	-12.1434
▁요소들	-12.1437
날짜	-12.144
▁다운받	-12.1443
칸	-12.1444
▁업	-12.1445
▁워크숍	-12.1446
▁복잡하	-12.1447
디자인	-12.1447
▁탐험	-12.145
업무	-12.1457
완	-12.1459
▁나타났어	-12.146
▁경험하	-12.1463
▁대답했	-12.1466
욕	-12.1467
▁as	-12.147
▁정보에	-12.147
▁도착하였	-12.1471
골	-12.1473
▁추억들	-12.1476
장치	-12.1476
▁같기	-12.1479
▁대표님	-12.1486
▁180	-12.1489
▁채택	-12.149
▁복사해	-12.1491
련	-12.1492
▁그에게서	-12.1493
▁일했	-12.1494
▁이곳이	-12.1497
ra	-12.1498
▁도착했다	-12.1499
▁전반	-12.15
▁가능하니	-12.1501
손	-12.1505
원씩	-12.1509
▁미니	-12.1509
▁술집	-12.151
▁지급할	-12.151
폭	-12.1513
렛	-12.1514
영이	-12.1514
▁라인이	-12.1515
▁엄격하	-12.1516
▁졸	-12.1519
▁일이든	-12.1519
▁에스	-12.1519
윈	-12.1526
넷	-12.1526
쾌	-12.1526
▁멋있다	-12.1528
▁기다리겠	-12.1529
덧	-12.1534
빙	-12.1536
▁피곤하겠	-12.1536
귀	-12.1536
몽	-12.1536
fw	-12.1537
벨트	-12.1537
항공	-12.1538
▁통일이	-12.1538
▁단편	-12.1539
탈이	-12.1539
푸	-12.154
체험	-12.1541
털	-12.1541
▁왔었	-12.1541
증명서	-12.1542
▁하였으	-12.1542
매니저	-12.1543
음악	-12.1543
갖	-12.1543
▁공연이	-12.1545
기관	-12.1545
차례	-12.1545
센터에	-12.1547
불리	-12.1547
▁방콕	-12.1549
▁전쟁이	-12.155
▁유쾌하	-12.155
문제	-12.1551
으면서	-12.1552
▁고전	-12.1552
▁한가지	-12.1553
▁원리	-12.1553
머리	-12.1555
▁닮았다	-12.1555
상태	-12.1557
부분	-12.1558
▁되었으	-12.1561
오래	-12.1561
▁연인들	-12.1565
편을	-12.1565
▁밀라노	-12.1571
▁루	-12.1571
▁가톨릭	-12.1571
▁열정적이	-12.1573
▁발송되	-12.1574
백만	-12.1575
▁겪어	-12.1575
▁잎	-12.1584
▁우주에	-12.159
▁덜어	-12.1591
▁취급하	-12.1594
▁가입하	-12.1598
▁작업할	-12.16
▁클	-12.16
▁캠핑장	-12.16
톡	-12.1606
해줬	-12.1609
one	-12.1612
▁이외	-12.1615
▁빨	-12.1616
▁세종	-12.1617
ap	-12.1617
▁알았지	-12.1619
허가	-12.162
▁삼각	-12.1622
▁버티	-12.1626
▁드린	-12.1626
▁박물관이	-12.1629
세로	-12.163
▁하나님께	-12.1634
▁서두르	-12.1635
▁구조물	-12.1635
rd	-12.1636
▁자연스럽	-12.1636
▁고파	-12.1637
▁척하지	-12.1638
▁사교	-12.1639
▁비유	-12.1639
▁냉동	-12.164
▁쓰인	-12.164
▁워싱턴	-12.1641
▁사격	-12.1641
▁외롭	-12.1643
▁세심	-12.1643
▁브라우저	-12.1644
▁소방	-12.1644
카를	-12.1646
▁경제학	-12.1649
▁암호	-12.165
▁테이블에	-12.1653
▁중요시	-12.1654
▁유적지	-12.1654
te	-12.1655
준다	-12.1656
툰	-12.1657
▁예쁘지	-12.1658
▁응급	-12.1658
쩍	-12.1659
▁민족	-12.1659
▁fee	-12.166
후에	-12.1662
▁식민지	-12.1662
▁플래	-12.1664
▁훔쳤	-12.1665
개에	-12.1666
▁숨어	-12.1667
▁청각	-12.1668
텍	-12.1668
문화와	-12.1668
▁전투	-12.1668
▁마술	-12.1668
▁tech	-12.1668
멸	-12.1668
▁언론	-12.1669
낀	-12.1669
▁혈액	-12.1669
▁가라앉	-12.1669
▁볶음	-12.1669
▁버클	-12.1669
▁나눠주	-12.1669
▁심사숙고	-12.1669
▁싱가폴	-12.1669
▁여쭤	-12.1669
▁훼손	-12.1669
밋	-12.1669
즙	-12.1669
vessel	-12.1669
▁issue	-12.1669
▁wheel	-12.1669
▁갈비뼈	-12.1669
▁갖춰	-12.1669
▁고정관념	-12.1669
▁관광명소	-12.1669
▁굳어	-12.1669
▁남녀노소	-12.1669
▁닦았	-12.1669
▁닿는	-12.1669
▁덮어	-12.1669
▁도마뱀	-12.1669
▁라오스	-12.1669
▁라이센스	-12.1669
▁레전드	-12.1669
▁로체스터	-12.1669
▁마드리드	-12.1669
▁멀지	-12.1669
▁묻지	-12.1669
▁박근혜	-12.1669
▁반입	-12.1669
▁뷰티	-12.1669
▁샴푸	-12.1669
▁서랍	-12.1669
▁설악산	-12.1669
▁섹스	-12.1669
▁안드레아	-12.1669
▁알렉스	-12.1669
▁앞이	-12.1669
▁에드워드	-12.1669
▁오리지널	-12.1669
▁오징어	-12.1669
▁웹페이지	-12.1669
▁의약품	-12.1669
▁이삿짐	-12.1669
▁이스라엘	-12.1669
▁자물쇠	-12.1669
▁잘생겨	-12.1669
▁잦아	-12.1669
▁젊음	-12.1669
▁짖는	-12.1669
▁칠면조	-12.1669
▁컨설턴트	-12.1669
▁콤플렉스	-12.1669
▁크레딧	-12.1669
▁키베라	-12.1669
▁트래픽	-12.1669
▁특산물	-12.1669
▁파우더	-12.1669
▁페덱스	-12.1669
▁펼치	-12.1669
▁포트폴리오	-12.1669
▁프로토콜	-12.1669
▁피아니스트	-12.1669
▁혐의	-12.1669
▁홈런	-12.1669
▁홈플러스	-12.1669
▁횡단보도	-12.1669
▁훗날	-12.1669
깰	-12.1669
▁도미니카	-12.1669
▁맥도날드	-12.1669
▁바구니	-12.1669
▁뽑혔	-12.1669
▁친화력	-12.1669
▁침묵	-12.1669
▁패스워드	-12.1669
▁흥미진진	-12.1669
▁data	-12.1669
▁고깃집	-12.1669
▁관능적	-12.1669
▁나리타	-12.1669
▁모닝콜	-12.1669
▁브런치	-12.1669
▁스트리트	-12.1669
▁식용유	-12.1669
▁폴란드	-12.1669
▁프로세서	-12.1669
▁아일랜드	-12.1669
▁고양종합운동장	-12.1669
▁낙엽	-12.1669
▁로열티	-12.1669
▁장난꾸러기	-12.1669
▁파라미터	-12.1669
▁하드웨어	-12.1669
▁한라산	-12.1669
▁유재석	-12.1669
▁13001	-12.167
▁사우나	-12.167
▁설렘	-12.167
▁승낙	-12.167
▁엔딩	-12.167
▁괴롭힘	-12.167
▁산업혁명	-12.167
▁인턴쉽	-12.167
▁스피커	-12.167
▁옷걸이	-12.167
▁재사용	-12.167
▁다락방	-12.167
▁떠올랐	-12.167
▁미뤄	-12.167
▁게으름	-12.167
▁에티켓	-12.167
▁유기견	-12.167
▁드러냈	-12.167
▁몽골	-12.167
▁유머러스	-12.167
▁클라우드	-12.167
▁cnee	-12.167
▁롯데마트	-12.167
▁문화유산	-12.167
▁직설적	-12.167
▁트레이닝	-12.167
▁국가대표	-12.167
▁땅콩	-12.167
▁ppt	-12.167
▁양치질	-12.167
▁웨스트	-12.167
▁아가씨	-12.167
▁anna	-12.167
▁빈혈	-12.167
▁저작권	-12.167
▁팔레트	-12.167
▁결혼기념일	-12.167
▁해결방법	-12.167
▁iot	-12.167
▁진찰	-12.167
▁추우니	-12.167
▁피라미드	-12.167
▁텀블러	-12.167
▁태평	-12.167
▁탄탄	-12.167
▁usb	-12.167
▁관념	-12.167
▁사망률	-12.167
▁슬라이드	-12.167
▁자연재해	-12.167
버린	-12.167
▁홍삼	-12.167
▁수목원	-12.167
▁우선순위	-12.167
▁타깃	-12.167
▁패킷	-12.167
▁을왕리	-12.167
부턴	-12.167
▁양동이	-12.167
▁양육	-12.167
▁포켓	-12.167
▁세일즈	-12.167
▁숙모	-12.167
▁풀타임	-12.167
▁멜론	-12.167
▁바람둥이	-12.167
▁파견	-12.167
▁앤드	-12.167
▁공허	-12.167
▁1994	-12.167
▁못지않	-12.167
▁늘어날	-12.167
▁크롬	-12.167
▁bbb	-12.167
▁우편번호	-12.167
▁yy	-12.167
▁쓰러져	-12.167
▁주니어	-12.167
▁pcn	-12.167
▁성냥	-12.167
▁유리창	-12.167
▁포스트	-12.167
▁여직원	-12.167
▁box	-12.1671
▁견디	-12.1671
▁끝마치	-12.1671
▁덕수	-12.1671
▁기다림	-12.1671
▁무렵	-12.1671
▁비참	-12.1671
▁체형	-12.1671
▁osd	-12.1671
▁피켓	-12.1671
▁응용	-12.1671
▁다운타운	-12.1671
▁커리어	-12.1671
▁sap	-12.1671
▁임대료	-12.1671
▁다이어리	-12.1671
▁거미줄	-12.1671
▁로션	-12.1671
▁운반	-12.1671
▁백업	-12.1671
▁습도	-12.1671
▁탑재	-12.1671
▁자발적	-12.1671
▁수정작업	-12.1671
▁에릭	-12.1671
▁첫눈	-12.1671
▁mia	-12.1671
▁화목	-12.1671
▁호스트	-12.1671
▁도와드릴	-12.1671
▁체코	-12.1671
▁인품	-12.1671
▁생소	-12.1671
▁2019	-12.1672
▁뿌듯함	-12.1672
▁잡혔	-12.1672
▁정밀	-12.1672
▁알고리즘	-12.1672
▁존재만으로	-12.1672
▁전자기기	-12.1672
▁왕복	-12.1672
▁유방	-12.1672
▁음반	-12.1672
▁그려져	-12.1672
▁어플	-12.1672
▁그림책	-12.1673
▁겨울철	-12.1673
▁풍성	-12.1673
▁44	-12.1673
▁편의성	-12.1673
▁홍수	-12.1673
▁back	-12.1673
▁달려갔	-12.1673
▁복무	-12.1673
▁활력소	-12.1673
▁선별	-12.1673
▁포터	-12.1673
▁기밀	-12.1673
▁외교관	-12.1673
▁증진	-12.1673
▁벽화	-12.1673
▁인디	-12.1674
▁공통	-12.1674
▁패드	-12.1674
▁고모	-12.1674
▁2007	-12.1674
▁리본	-12.1674
먼트	-12.1674
▁계셨	-12.1675
▁브라운	-12.1675
▁함수	-12.1675
▁원룸	-12.1675
▁착각했어	-12.1675
▁운송료	-12.1676
▁속옷	-12.1676
▁추운데	-12.1676
▁모토	-12.1676
▁이룹	-12.1676
▁단정	-12.1676
▁충주	-12.1676
▁작문	-12.1676
▁급행	-12.1676
▁지목	-12.1676
▁기약	-12.1677
▁용의자	-12.1677
▁설문	-12.1677
▁금식	-12.1677
▁체증	-12.1677
▁시럽	-12.1677
▁생신	-12.1677
▁소방관	-12.1677
▁캐러	-12.1678
▁비행기표	-12.1678
▁새제품	-12.1678
▁근래에	-12.1678
▁놓친	-12.1678
▁찾겠어	-12.1679
▁잃어버리	-12.1679
▁응대	-12.1679
▁조국	-12.1679
▁감량	-12.1679
▁차갑	-12.168
▁교대	-12.168
▁상표	-12.168
▁겨울옷	-12.168
▁지켰	-12.1681
▁우편물	-12.1681
▁방영	-12.1681
▁순천	-12.1681
▁불평등	-12.1681
▁시체	-12.1681
▁불안감	-12.1681
▁선반	-12.1682
▁거듭	-12.1682
▁외근	-12.1682
▁까다로	-12.1682
▁유아	-12.1682
▁바이오	-12.1683
▁안될까	-12.1683
조림	-12.1683
▁항공료	-12.1683
▁갓	-12.1683
▁드로잉	-12.1683
▁포워딩	-12.1683
▁지침	-12.1684
▁skin	-12.1684
▁첨단	-12.1684
▁쿠션	-12.1684
▁박사님	-12.1684
▁공헌	-12.1684
▁동쪽	-12.1684
▁사회복지사	-12.1684
▁도박	-12.1684
▁발사	-12.1684
▁오리온	-12.1685
▁계획표	-12.1685
▁ctm	-12.1686
▁커져	-12.1686
▁700	-12.1687
▁고난	-12.1687
▁인내	-12.1687
▁발견됐	-12.1687
▁거룩	-12.1688
▁자동화	-12.1688
▁코치	-12.1688
▁우표	-12.1688
▁벗기	-12.1688
▁탐정	-12.1688
▁생리	-12.1688
▁이룬	-12.1688
▁등재	-12.1689
▁물리적으로	-12.1689
▁운동선수	-12.1689
▁물리학	-12.1689
▁연맹	-12.1689
▁꺼진	-12.1689
▁보류	-12.169
▁비행편	-12.169
▁마칩니	-12.169
▁도난	-12.169
▁그렇듯	-12.1691
▁심각해	-12.1691
▁등등	-12.1691
▁가장자리	-12.1691
▁재판	-12.1691
▁박수	-12.1692
▁착오	-12.1692
▁감기약	-12.1692
▁시비	-12.1693
▁pro	-12.1693
▁표현하였	-12.1693
남도	-12.1693
▁주머니에	-12.1694
▁한밤중에	-12.1694
▁피곤함	-12.1694
▁드론	-12.1694
▁망쳐	-12.1695
▁사이드	-12.1695
▁것이든	-12.1696
▁케이블카	-12.1696
▁at	-12.1696
▁산소	-12.1697
▁올라오	-12.1697
둥이	-12.1697
▁답신	-12.1697
▁시각적	-12.1697
▁결제방식	-12.1698
▁메모리	-12.1698
▁괜찮아질	-12.1699
▁유해	-12.1699
▁원형	-12.1699
▁주유	-12.1699
▁119	-12.1699
이밍	-12.17
▁평상시에	-12.17
분간	-12.17
▁부지런함	-12.17
▁패션쇼	-12.17
▁건배	-12.1701
▁교통비	-12.1701
▁생겨난	-12.1701
▁위로해주	-12.1701
▁번화가	-12.1702
▁조종사	-12.1702
▁경품	-12.1702
▁전복	-12.1702
▁좋더라	-12.1703
▁깨워	-12.1703
atch	-12.1703
▁결정하였	-12.1704
▁마모	-12.1704
▁반영하여	-12.1704
▁안아주	-12.1705
▁분열	-12.1705
▁신부	-12.1705
▁부천	-12.1706
▁브라이언	-12.1707
▁사방	-12.1708
▁러브	-12.1708
▁삐	-12.1708
▁싹	-12.1708
▁쏙	-12.1708
▁베를린	-12.1708
▁젓	-12.1708
▁37	-12.1708
▁복싱	-12.1708
▁때보다	-12.1708
쟁이	-12.1709
▁조끼	-12.1709
▁컷	-12.1709
▁되겠네	-12.171
▁아프다	-12.171
▁퇴근하	-12.171
▁시달리	-12.1711
▁공부한	-12.1712
▁철자	-12.1712
▁육체적으로	-12.1712
▁만드는데	-12.1713
야겠네	-12.1713
▁박자	-12.1713
▁자원봉사자	-12.1714
▁출근했어	-12.1714
032	-12.1714
▁베개	-12.1714
▁깨우	-12.1714
gb	-12.1715
▁이목	-12.1715
▁망치	-12.1716
▁건전지	-12.1718
▁화사	-12.1718
▁등록금	-12.1719
▁노력에	-12.1719
▁진단서	-12.1719
▁손질	-12.1719
▁이탈리아어	-12.172
▁없겠네	-12.172
▁강남역에서	-12.1721
구에	-12.1721
기준	-12.1721
808	-12.1722
▁감명받았	-12.1722
▁man	-12.1723
▁요청사항	-12.1723
▁배송기간	-12.1724
▁무단	-12.1725
▁수락	-12.1726
▁정복	-12.1726
▁심심해서	-12.1726
▁김장	-12.1726
▁기업에	-12.1726
▁김해	-12.1727
▁참을성	-12.1728
▁게시판에	-12.1728
▁유혹	-12.1729
▁분명해	-12.1729
▁부탁할게	-12.1729
▁돌아간	-12.1729
▁생활비	-12.173
과정	-12.173
▁신기한	-12.173
하는지	-12.1731
▁꾸미기	-12.1731
▁않더라	-12.1731
▁분들에게	-12.1731
▁벌이	-12.1732
▁소득	-12.1732
▁list	-12.1732
▁배수	-12.1733
▁우물	-12.1733
▁가능하신	-12.1734
▁무의도	-12.1734
▁거주지	-12.1735
▁영역이	-12.1735
▁영화였	-12.1735
▁연기력	-12.1735
돼야	-12.1736
▁흥	-12.1739
▁63	-12.1739
▁선적될	-12.1739
▁유의	-12.174
▁필요한데	-12.174
▁연락해야	-12.174
▁솔	-12.1741
▁않을지도	-12.1741
▁되돌아	-12.1742
▁동성	-12.1743
▁학대	-12.1744
▁게으	-12.1746
▁다루기	-12.1746
▁싶으신	-12.1747
▁소유자	-12.1747
▁김민	-12.1749
▁포장물	-12.1749
▁동상	-12.1749
▁연관성	-12.1749
▁걸리는지	-12.175
▁폴리	-12.175
▁있었잖아	-12.1752
▁향하는	-12.1753
▁판단력	-12.1754
▁헐	-12.1755
▁배우면서	-12.1755
▁등록해야	-12.1755
▁풀기	-12.1755
▁옥	-12.1757
▁깐	-12.1757
처에	-12.1757
▁비평가	-12.1757
▁없거든	-12.1758
▁물리	-12.1758
▁멀어지	-12.1759
▁보급	-12.176
▁아니잖아	-12.176
▁대표작	-12.176
▁틀리지	-12.1761
▁an	-12.1761
▁택시비	-12.1762
▁달릴	-12.1764
▁풀어주	-12.1764
▁영업시간	-12.1765
▁동료에게	-12.1765
▁자국	-12.1766
▁상점에서	-12.1766
쳤	-12.1767
학년들	-12.1767
▁도전해보	-12.1767
▁불신	-12.1768
▁항공사에서	-12.1768
▁민지	-12.1769
▁포트	-12.1771
이거든	-12.1771
▁판정	-12.1772
▁갔는지	-12.1773
▁자문	-12.1773
▁섬유	-12.1776
▁광고주	-12.1776
차원	-12.178
▁띠	-12.1783
▁병사들	-12.1784
석에	-12.1785
▁아프다고	-12.1786
▁반전	-12.1787
▁이토	-12.1788
▁맞기	-12.1788
▁하늘에	-12.1788
nd	-12.179
▁참고할	-12.179
▁가능할지	-12.1793
▁화주	-12.1794
▁제천	-12.1795
▁달린	-12.1797
▁조원들	-12.1798
▁이스트	-12.1799
▁조교	-12.1802
▁그분들	-12.1802
적이	-12.1803
▁log	-12.1804
▁언니에게	-12.1808
▁당첨되	-12.1808
▁자랑스러	-12.181
▁먼지	-12.181
▁착각하	-12.1812
▁덥지	-12.1814
▁엘리	-12.1814
▁호기심으로	-12.1815
▁행복함	-12.1815
▁쉬었다	-12.1816
▁사랑하면서	-12.1816
▁공장으로	-12.1816
▁우위	-12.1817
▁길어지	-12.1818
▁면도	-12.1818
▁튀어나	-12.1819
▁이용했어	-12.182
▁여행객	-12.182
▁똑같아	-12.1821
▁잡기	-12.1821
▁공용	-12.1822
▁속상	-12.1823
▁돌려서	-12.1824
▁처리해야	-12.1825
▁친해	-12.1825
▁사용해보	-12.1826
주에서	-12.1826
▁벨트	-12.1828
▁성별	-12.1828
▁홍대에	-12.1832
▁길거리에	-12.1832
보았어	-12.1834
▁달라진	-12.1835
적이지	-12.1835
▁배우들	-12.1835
▁삭제했어	-12.1835
▁받아들였어	-12.1837
▁하느냐	-12.1837
▁찍었다	-12.1837
▁막상	-12.1838
▁건강해야	-12.184
▁데이트하기	-12.1841
▁스트레스받	-12.1842
▁화내는	-12.1843
▁주려	-12.1844
▁비판	-12.1849
▁방해했	-12.1851
▁아침이	-12.1851
▁전문가들	-12.1852
었다는	-12.1858
▁뒷면에	-12.186
수와	-12.1861
▁주문할게	-12.1861
▁생명이	-12.1861
▁요리법	-12.1862
▁사람들에	-12.1867
려줄	-12.1872
것이	-12.1873
▁반복하	-12.1873
▁불빛이	-12.1874
▁합리적이	-12.1874
▁레고	-12.1877
▁번식	-12.1879
▁잘못되어	-12.188
호로	-12.188
시켜주	-12.188
▁치지	-12.188
이름	-12.188
리네	-12.1881
주신	-12.1881
▁주민들	-12.1881
▁섭	-12.1883
▁노래로	-12.1884
▁뻔	-12.1885
▁생각해봤어	-12.1886
▁한때	-12.1886
▁잔다	-12.1887
▁당사에서	-12.1888
이기에	-12.1891
▁mar	-12.1892
▁여러분께	-12.1893
▁수준으로	-12.1897
▁정류장에	-12.1898
▁돌아다녔어	-12.1898
▁말아주	-12.1899
▁양보해	-12.1899
었기	-12.1903
▁사랑할게	-12.1904
▁불가능할	-12.191
▁당면	-12.191
▁회의실	-12.1911
▁입원했	-12.1912
▁기다려줘	-12.1912
어졌	-12.1912
▁이러는	-12.1913
▁섬세하	-12.1913
학년에	-12.1916
▁약관	-12.1924
▁획득	-12.193
있	-12.1931
▁책임져	-12.1935
▁어색하	-12.1938
▁전쟁에서	-12.1939
▁쓰나	-12.1939
▁별에서	-12.1942
▁입술이	-12.1944
산에	-12.1944
등이	-12.1944
▁외면	-12.1945
▁go	-12.1947
나가는	-12.1948
▁그램	-12.195
mc	-12.1952
▁체인	-12.1955
▁다닌다	-12.1956
▁말해줬어	-12.1957
▁풍부해	-12.1958
▁싶어져	-12.1961
▁가십	-12.1962
▁그룹에	-12.1962
▁부탁드릴	-12.1965
▁예상되	-12.1965
▁저녁까지	-12.1967
▁사람일	-12.1967
▁엉망이	-12.1969
▁or	-12.197
▁빠져들	-12.1971
▁손길	-12.1971
▁역사와	-12.1972
▁근무했었	-12.1972
▁기업과	-12.1973
▁혼잡	-12.1974
▁194	-12.1976
▁작곡가	-12.1978
으시면	-12.1982
▁나중	-12.1983
▁옆자리에	-12.1983
▁합법적	-12.1989
▁편리해	-12.1989
▁일하는데	-12.1993
▁자금이	-12.1995
마한	-12.1999
▁거래하	-12.1999
▁주장하	-12.2001
▁싫어하	-12.2002
▁두가지	-12.2005
▁보건	-12.2006
▁전하겠	-12.2008
으려고	-12.2008
▁자랑했어	-12.201
▁매기	-12.201
▁가더라	-12.2011
▁대한민국에서	-12.2013
▁지도자	-12.2013
함으로	-12.2013
▁사랑하나	-12.2014
스로	-12.2016
▁인정받는	-12.2018
심사	-12.2019
▁서쪽	-12.202
▁솔직하	-12.2022
▁저만	-12.2024
▁전통의	-12.2026
▁걱정된다	-12.2026
간에	-12.2027
▁조지	-12.2028
▁증가하	-12.2032
자의	-12.2032
▁편입	-12.2033
▁의외	-12.2033
▁요구해	-12.2037
▁요정	-12.2037
오는	-12.2038
▁수능	-12.2038
▁그러려	-12.204
▁압력이	-12.2041
▁자신에	-12.2042
▁챙겨주는	-12.2047
▁이제까지	-12.2054
▁교수들	-12.2055
▁잠들어	-12.2058
▁로마에	-12.2059
▁정자	-12.2063
▁당신만큼	-12.2063
▁이윤	-12.2063
정할	-12.2064
호에	-12.2064
▁이어가	-12.2067
▁연예인들	-12.2068
ck	-12.2069
▁수정했어	-12.207
▁못할까	-12.2072
▁제안할	-12.2073
▁현장에	-12.2073
▁개정	-12.2074
▁팀장이	-12.2076
▁학문	-12.2084
▁계획했	-12.2084
▁05	-12.2085
▁신기하	-12.2087
▁땅에	-12.209
▁해결하려	-12.2091
li	-12.2092
▁쉽다	-12.2092
▁물론이	-12.2092
▁끼치는	-12.2092
▁주셔야	-12.2094
인걸	-12.2094
▁정신없	-12.2096
▁유행하	-12.2096
▁압축	-12.2099
▁un	-12.2099
해줬어	-12.21
받아	-12.2102
▁교류하	-12.2107
▁추상적	-12.2112
란에	-12.2114
▁학년	-12.2116
▁걸어보	-12.2116
오고	-12.212
▁결정한	-12.2123
▁테스트할	-12.2125
▁설정이	-12.2126
▁다했	-12.2127
▁무례하	-12.2128
▁돌이	-12.213
▁왜곡	-12.213
der	-12.2131
▁보여줬어	-12.2131
써	-12.2135
▁업계	-12.2137
▁위층에	-12.2139
으실	-12.214
▁작성하는	-12.2142
▁연습했어	-12.2146
▁나갔다	-12.2147
▁연락주	-12.2149
▁벌었	-12.2151
▁돌아가셔	-12.2151
▁즐겁기	-12.2152
▁지장	-12.2153
내는	-12.2156
▁연락했어	-12.2157
▁피하기	-12.2157
▁꼬치	-12.2157
▁피웠	-12.2157
어집니다	-12.2163
▁후원자	-12.2163
▁따지	-12.2165
▁맞서	-12.2165
▁일이네	-12.2166
▁눌	-12.2169
▁지나가는	-12.2169
▁있기에	-12.2169
▁계곡에	-12.217
▁앉았어	-12.2171
▁손실이	-12.2173
▁알려주겠	-12.2175
▁책자	-12.2176
▁친척들이	-12.2177
▁이루어진다	-12.2177
▁알려달라	-12.218
▁주장했	-12.218
답지	-12.2181
▁시민들	-12.2182
▁해치	-12.2185
▁ro	-12.2186
당이	-12.2186
▁수준에	-12.2187
▁초등학교에	-12.2189
됐다고	-12.2189
▁형사	-12.2191
누	-12.2193
▁잊었어	-12.2194
잇	-12.2194
▁기침이	-12.2196
▁변신	-12.2198
▁예정일	-12.2201
▁지키려	-12.2204
▁대해주	-12.2207
▁비정상	-12.2209
▁진행하였	-12.2212
▁해달라고	-12.2214
▁옹	-12.2215
▁연기하	-12.2217
편이	-12.2221
14	-12.2222
▁적용되어	-12.2223
▁산출	-12.2225
▁회의에서	-12.2226
▁가까	-12.2226
▁볼래	-12.2227
▁바쁘기	-12.2229
▁팔려	-12.2229
▁노동자들	-12.223
▁반영해	-12.223
nt	-12.2233
▁적었어	-12.2234
▁적응해	-12.2235
▁영리하	-12.2235
▁드나	-12.224
▁녹화	-12.2241
▁남극	-12.2244
▁요청해서	-12.2249
▁집행	-12.225
▁프런트	-12.225
▁지르	-12.2252
▁두렵지	-12.2252
▁교제	-12.2255
기간	-12.2256
▁한국인에	-12.2256
▁그루	-12.2257
▁바꾸려	-12.226
▁설명해줄	-12.2263
▁시원하	-12.2265
▁김수	-12.2266
▁로비에	-12.2268
05	-12.227
▁알려졌어	-12.227
▁올림픽이	-12.2273
▁희망하	-12.2273
▁너만큼	-12.2275
▁요양원에	-12.2281
▁앱스토어에	-12.2285
da	-12.2286
▁땅이	-12.2287
▁풀리는	-12.2288
▁걱정할	-12.2288
▁살길	-12.2291
▁만들어졌어	-12.2296
▁건강하기	-12.2299
▁보낼까	-12.23
▁바뀌었다	-12.2303
▁만들어졌다	-12.2303
▁문과	-12.2306
▁조절하	-12.2308
▁해결되었	-12.231
입에	-12.231
제는	-12.2313
르트	-12.2313
해지면	-12.2318
▁지경이	-12.2319
선에	-12.2322
▁연도	-12.2324
▁사실에	-12.2325
▁이달	-12.2329
▁걸음	-12.2334
ent	-12.2341
▁계산하	-12.2343
거래	-12.2349
▁별개	-12.2359
▁메뉴들	-12.2366
▁늦어지는	-12.2366
▁여정	-12.2366
▁여자애들	-12.2366
▁식탁	-12.2367
▁상승했	-12.2367
80	-12.2368
▁예고	-12.2369
광이	-12.2373
▁기대에	-12.2373
났어	-12.2375
▁실망했어	-12.2375
▁유용하다	-12.2375
▁찾아보았	-12.2376
▁어떡하	-12.2377
▁세미나	-12.2379
▁비웃	-12.2388
▁뿐이었어	-12.239
▁재료에	-12.2392
▁작성하	-12.2392
다발	-12.2393
▁찍으면	-12.2402
▁표시하	-12.2405
▁만난다	-12.2407
▁탕	-12.2409
하더라고	-12.2412
▁도달했	-12.2414
▁통화로	-12.2414
호와	-12.2416
▁양도	-12.2418
분들	-12.2418
문의	-12.2421
▁일어	-12.2421
▁먹을까	-12.2424
j	-12.2427
▁붙여주	-12.2427
▁죽였	-12.2428
▁제공하기	-12.243
▁원서	-12.2437
▁몸짓	-12.2439
시설이	-12.2441
th	-12.2445
▁기하학	-12.2445
▁회복되	-12.245
▁사과드	-12.2451
었을	-12.2453
▁후회해	-12.2459
▁공격하	-12.2461
▁뛰어나다	-12.2462
▁않겠	-12.2465
▁부엌에	-12.2467
▁환전하	-12.2468
놓았	-12.2468
격	-12.2468
▁옮기기	-12.2471
▁지급하	-12.2475
▁가난하	-12.2477
▁취소하겠	-12.248
▁설명하고	-12.2487
la	-12.2488
▁운동하기	-12.2489
▁호치민	-12.2489
▁포지션	-12.2489
▁오디션	-12.249
▁하셨습니	-12.2491
▁노릇	-12.2491
▁이웃이	-12.2493
▁꼴	-12.2494
▁전할	-12.2495
▁배송지	-12.2503
▁자만	-12.2504
▁가셨	-12.2509
▁술이	-12.2516
칭	-12.2516
▁놀지	-12.2518
▁cn	-12.2521
턴	-12.2524
▁느긋	-12.2525
▁짜장	-12.2526
▁종교적	-12.2528
내고	-12.2528
▁보시는	-12.253
▁어색했	-12.2532
▁견고	-12.2535
▁마당이	-12.2537
▁아름다웠어	-12.2541
▁물어보았	-12.2542
▁인천이	-12.2549
▁발송되었	-12.2551
▁룸이	-12.2556
▁개선하	-12.256
▁참가비	-12.2561
▁동대문	-12.2563
▁발표하고	-12.2571
▁책장	-12.2572
▁만들어줘	-12.2577
▁섬이	-12.2578
▁즐겼어	-12.2578
▁점검하	-12.2578
▁정해주	-12.2579
▁줄어	-12.258
▁외향적	-12.2583
▁월드에	-12.2583
▁보여준다	-12.2588
▁승리했	-12.2589
▁사운드	-12.2591
▁응답하	-12.2593
▁안무	-12.2605
외로	-12.2614
▁돌봐주	-12.2617
06	-12.262
▁떠나기	-12.2621
▁해줘야	-12.2625
▁결제하	-12.2626
▁십	-12.2626
▁민감	-12.2628
▁주문하기	-12.2628
▁많으	-12.263
▁자기만	-12.2633
▁더위	-12.2633
▁계약이	-12.2641
▁남쪽	-12.2642
▁나뭇잎	-12.2646
▁방출	-12.2654
관이	-12.2657
▁달랐어	-12.2657
▁남아있어	-12.2659
▁간주	-12.2663
▁대변	-12.2665
▁외국인들이	-12.267
▁바꿔주	-12.267
▁비만	-12.2671
▁비밀이	-12.2672
▁노리	-12.2679
▁아이돌이	-12.2679
▁제공하겠	-12.268
ha	-12.2683
킨	-12.2683
▁의논하	-12.2683
▁dr	-12.2683
▁찬성하	-12.2688
▁완료하	-12.269
▁확인서	-12.2691
리와	-12.2693
했을때	-12.2696
▁독감	-12.27
▁적지	-12.2701
▁연구하	-12.2706
인에게	-12.2717
▁이대로	-12.2719
▁않으면서	-12.272
▁제출하라	-12.2725
▁놀다	-12.2725
▁열었어	-12.2727
해봤	-12.2729
▁드려야	-12.2729
▁활약	-12.2732
활동	-12.2733
▁권유했	-12.2743
id	-12.2743
▁강화하	-12.2747
▁간이	-12.2748
▁가족에	-12.2755
▁이력	-12.2755
▁뭐라	-12.2759
ve	-12.2761
▁과잉	-12.2762
▁부리지	-12.2763
▁노고	-12.2764
우니	-12.2764
▁좋으니	-12.2769
▁부엌	-12.2775
▁일이었어	-12.2775
▁오십	-12.2776
집에서	-12.2777
▁방해한	-12.2782
▁에이	-12.2782
▁친절하지	-12.2783
▁받았을	-12.2785
▁라인에	-12.2795
▁잘생겼어	-12.2797
▁샵에	-12.2801
▁물건들이	-12.2804
rr	-12.2807
▁노력하지	-12.2808
▁차량이	-12.2809
▁지인	-12.2811
품이	-12.2811
▁한입	-12.2812
음으로	-12.2814
cp	-12.2814
▁관여하	-12.2815
▁팝송	-12.2815
▁성실함	-12.2817
르게	-12.2818
▁신청했어	-12.2818
▁공유하겠	-12.2819
▁대사관	-12.2822
▁조사했	-12.2824
▁전자레인지에	-12.2829
▁충격이	-12.2829
콜	-12.283
▁친절했	-12.2833
▁어색	-12.2835
▁진열	-12.2836
▁투자가	-12.2841
▁구절	-12.2845
목이	-12.2851
▁가겠다	-12.2853
▁완성했	-12.2855
▁앉으	-12.2856
▁종이가	-12.2857
구매	-12.2869
▁추웠	-12.2872
▁경험에	-12.2879
▁시청하	-12.288
▁ka	-12.2882
▁미술관	-12.2885
▁퇴원	-12.289
▁책들이	-12.2892
▁막걸리	-12.2895
▁억제	-12.2897
단지	-12.2901
▁가난하다	-12.2903
시겠네	-12.2904
▁전해지	-12.2905
▁썼다	-12.2913
거려	-12.2915
육	-12.2917
▁불안정	-12.2918
ry	-12.2921
▁재정	-12.2927
53	-12.293
▁미흡	-12.2932
▁늦었다	-12.2933
▁의존하	-12.2935
▁가던	-12.2936
▁왕성	-12.2941
▁회사들	-12.2949
▁타입이	-12.2953
▁거래에	-12.2954
▁들었습니	-12.2959
▁답해	-12.296
▁안된다는	-12.2961
▁얻었다	-12.2963
65	-12.2971
▁정보들	-12.2972
▁청구한	-12.2972
▁제작했	-12.2972
룩	-12.2973
▁유명해졌	-12.2976
▁필수적이	-12.2979
▁두개	-12.2988
▁충분해	-12.2988
우스	-12.299
번이	-12.299
▁열광	-12.2992
▁분쟁	-12.2999
잡	-12.2999
있었어	-12.3001
컵	-12.3001
▁kt	-12.301
▁터키에	-12.3013
▁행동한	-12.3025
▁집중해야	-12.3027
▁140	-12.3031
▁생각한다	-12.3034
▁천국	-12.3034
▁평범	-12.3038
법으로	-12.3043
ne	-12.3044
리사	-12.3046
랜드	-12.3049
▁사이인	-12.3051
회사에서	-12.3061
▁198	-12.3064
어질	-12.3065
▁수업할	-12.3066
▁반성	-12.3066
▁설정하	-12.3066
▁부문에	-12.3067
▁사회복지	-12.3087
▁해야할	-12.31
▁출연하	-12.3105
▁얘기하면	-12.311
▁참여해주	-12.3113
▁교차	-12.3117
▁함께하지	-12.3118
▁축하하	-12.3121
▁침착	-12.3122
▁현지에	-12.3122
▁남성들	-12.3125
▁규정이	-12.3128
하겠네	-12.3129
▁부활	-12.3137
▁재미없	-12.3139
▁플	-12.3139
▁잊어	-12.3145
▁130	-12.3145
▁찾아갔	-12.3148
업계에서	-12.3154
▁형편없	-12.3158
▁찾아왔	-12.3159
▁달라졌	-12.3159
▁연주해	-12.3164
▁단골	-12.3171
▁약자	-12.3175
▁해소해	-12.3176
che	-12.3177
▁건이	-12.3182
▁픽업해	-12.3184
▁부품들	-12.3185
훈	-12.3191
▁수정하고	-12.3192
점으로	-12.3197
▁연기해	-12.3197
▁요리로	-12.3197
▁대비해	-12.3199
▁위험하지	-12.3205
▁감탄	-12.3205
▁교환해	-12.3208
▁탈출하	-12.3209
▁빠져있	-12.3221
▁선명	-12.3225
an	-12.323
▁찾아온	-12.323
▁믿기	-12.3231
▁올래	-12.3231
▁후배	-12.3231
베	-12.3233
구로	-12.3235
▁겪는	-12.3239
▁이루어졌	-12.3242
▁ch	-12.3247
▁195	-12.3253
▁서울시	-12.3254
▁적었	-12.3256
▁형성되	-12.3256
됐다	-12.3258
▁추는	-12.3262
▁원칙이	-12.3263
▁기둥	-12.3265
ard	-12.3268
▁경찰서	-12.3273
쿠	-12.3274
▁인성	-12.3284
▁cc	-12.3285
▁카카오톡에	-12.3286
진이	-12.3286
▁해피	-12.3287
▁바빴	-12.3288
▁이미지에	-12.329
▁비싸다	-12.3293
▁내방	-12.33
▁협	-12.3305
▁주문과	-12.3307
▁출근하면	-12.3309
▁판매자에	-12.3311
▁약해	-12.3315
▁올라가는	-12.3317
▁만들어보	-12.332
▁슬펐	-12.332
▁최고였	-12.3328
해져야	-12.3334
술	-12.3334
▁의문이	-12.3335
▁해놓	-12.3335
▁반가웠	-12.3345
통이	-12.3345
경이	-12.3345
▁주장이	-12.3347
▁항공기	-12.3348
▁유의하	-12.3349
자재	-12.3352
▁같고	-12.3354
▁등장했	-12.3356
▁기뻐하	-12.3358
▁두세	-12.3359
▁뿌듯해	-12.3362
▁습득	-12.3364
▁대답하	-12.3364
▁걱정하	-12.3368
▁용이	-12.3368
▁유럽에	-12.3376
▁두르	-12.3378
▁na	-12.3379
▁무엇이라	-12.3382
▁동의해	-12.3389
▁소지	-12.3391
투자	-12.3391
▁화났	-12.3391
▁제작하는	-12.3393
▁보라	-12.3396
▁변경되	-12.3396
▁열었	-12.3398
tv	-12.3399
쌈	-12.3406
닉	-12.3409
▁켰	-12.341
▁기억해야	-12.341
▁설명에	-12.3411
경기장	-12.3411
▁자동차에	-12.3413
▁따라가	-12.3415
▁확인해주시	-12.3416
산업	-12.3419
▁197	-12.342
▁마음만	-12.342
▁웃었어	-12.3427
팀에	-12.3427
▁불빛	-12.3428
▁교외	-12.343
▁축적	-12.3432
▁불러일으	-12.3433
▁체험하는	-12.3434
중학교	-12.344
▁안타까	-12.3444
▁현지인	-12.3446
계약	-12.3449
▁받아보	-12.3452
텔	-12.3452
▁들려주	-12.3454
구조	-12.3458
▁만료	-12.3461
▁잠자는	-12.3462
▁발전하는	-12.3464
리로	-12.3464
▁이동하는	-12.3465
켜	-12.3468
▁부담하	-12.347
▁성질	-12.3474
센	-12.3475
▁원한	-12.3476
눈	-12.3476
▁곁들	-12.3479
▁답변해	-12.3482
port	-12.3482
▁학과에	-12.3485
▁이베이에	-12.3486
▁사이즈에	-12.349
▁쓸쓸	-12.3492
▁접했	-12.3493
방안	-12.3495
벨	-12.3499
찜	-12.35
댈	-12.35
팟	-12.35
ue	-12.3502
찌	-12.3506
▁th	-12.3506
▁초콜릿이	-12.3507
옥	-12.3508
꼭	-12.3509
▁친하	-12.351
메	-12.351
균	-12.3511
▁가정용	-12.3512
혜	-12.3514
해드릴	-12.3515
▁제목이	-12.3516
참	-12.3518
탑	-12.3522
행해야	-12.3526
▁검은색이	-12.3527
▁정체성	-12.3528
▁감사하다	-12.353
솔	-12.3531
캡	-12.3531
▁불에	-12.3532
띠	-12.3533
▁수소	-12.3536
펜	-12.3536
취	-12.3537
칼	-12.3537
▁소수	-12.3537
크림	-12.3538
전공	-12.3538
배우	-12.3539
똥	-12.3539
바닥	-12.354
프레임	-12.354
▁공급받	-12.3541
▁저렴해	-12.3541
▁교체해	-12.3541
계절	-12.3541
밴드	-12.3542
▁가꾸	-12.3542
쓸	-12.3543
카페	-12.3543
그룹	-12.3543
렌즈	-12.3543
앱	-12.3544
abc	-12.3544
희망	-12.3544
설계	-12.3546
▁알아가는	-12.3546
타입	-12.3547
투어	-12.3547
케이스	-12.3547
순위	-12.3549
▁책정	-12.355
효과	-12.3552
▁운영해	-12.3552
보드	-12.3553
예술	-12.3557
자원	-12.356
워져	-12.3561
▁냉장	-12.3562
▁방어	-12.3563
▁sp	-12.3564
▁개회식	-12.3565
걸음	-12.3565
▁tr	-12.3566
베이	-12.3567
업자	-12.3568
마일	-12.3569
향상	-12.3569
쓰고	-12.357
▁피스	-12.3574
▁중복	-12.3575
▁전선	-12.3576
▁개발했	-12.3577
바람이	-12.358
▁점심시간	-12.3581
▁곳인	-12.3583
▁좋아진	-12.3589
▁변해	-12.3589
꾼	-12.359
대학교에서	-12.3591
맛이	-12.3593
▁초반	-12.3594
▁변경해주	-12.3594
▁내주	-12.3595
▁국물	-12.3595
▁도덕적	-12.3597
▁전달되	-12.3597
없고	-12.3598
▁침해	-12.3599
▁소품	-12.36
▁마녀	-12.3602
여야	-12.3603
▁돋보	-12.3605
운전	-12.3605
▁한글이	-12.3608
▁경쟁자	-12.3608
큼	-12.3609
▁않으려	-12.3611
말고	-12.3611
▁감명받	-12.3614
▁적용되	-12.3618
념	-12.3618
▁깃털	-12.3619
단계에서	-12.362
zon	-12.362
군데	-12.362
▁도우	-12.362
레이션	-12.362
▁평일	-12.3621
▁데일리	-12.3622
▁채웠	-12.3624
셨는데	-12.3627
두면	-12.3628
▁지루했	-12.3631
무지	-12.3632
씨에게	-12.3632
▁출동	-12.3633
레스	-12.3633
▁충성	-12.3636
▁겉모습	-12.3636
▁면세점에	-12.3637
▁시달	-12.3637
맨이	-12.3638
▁스파	-12.3638
▁빈틈	-12.3639
▁했으	-12.3639
마트	-12.364
룬	-12.3641
번역	-12.3643
▁스테이	-12.3645
▁행복해야	-12.3645
▁대중들	-12.3648
▁스토리에	-12.3649
▁부딪	-12.365
▁놀림	-12.3652
닌	-12.3653
화장품	-12.3654
▁외교	-12.3657
▁군산	-12.3657
▁한결	-12.3664
▁주의해	-12.3664
▁막연	-12.3664
릉	-12.3665
▁투숙	-12.3666
픕니	-12.3668
틱	-12.3668
▁겁쟁이	-12.3668
▁어우러	-12.3669
▁스탠	-12.3669
▁당뇨	-12.3669
▁준결승	-12.3669
낄	-12.3669
▁혐오	-12.3669
▁리허설	-12.3669
▁뮌헨	-12.3669
▁잊으	-12.3669
▁carrot	-12.3669
▁korea	-12.3669
▁oecd	-12.3669
▁robbie	-12.3669
▁간접흡연	-12.3669
▁고소공포증	-12.3669
▁곤돌라	-12.3669
▁골키퍼	-12.3669
▁광안리	-12.3669
▁교통체증	-12.3669
▁까다롭	-12.3669
▁끊기	-12.3669
▁끊은	-12.3669
▁끓이	-12.3669
▁나뭇가지	-12.3669
▁남대문	-12.3669
▁낳을	-12.3669
▁달빛축제정원	-12.3669
▁닮아	-12.3669
▁대인관계	-12.3669
▁동그라미	-12.3669
▁동기부여	-12.3669
▁뜻깊	-12.3669
▁라스베이거스	-12.3669
▁마요네즈	-12.3669
▁마이크로칩	-12.3669
▁마카롱	-12.3669
▁맨체스터	-12.3669
▁멀었	-12.3669
▁몰디브	-12.3669
▁뮤지션	-12.3669
▁미얀마	-12.3669
▁바깥	-12.3669
▁바텐더	-12.3669
▁박태환	-12.3669
▁박효신	-12.3669
▁배고픔	-12.3669
▁부끄럼	-12.3669
▁불어넣	-12.3669
▁비쌌	-12.3669
▁비지니스	-12.3669
▁빼먹	-12.3669
▁생년월일	-12.3669
▁속마음	-12.3669
▁숨바꼭질	-12.3669
▁슬리팅	-12.3669
▁승용차	-12.3669
▁시끄럽	-12.3669
▁쌓았	-12.3669
▁아몬드	-12.3669
▁아무렇지	-12.3669
▁안드로이드	-12.3669
▁앞머리	-12.3669
▁앨리스	-12.3669
▁어쨌	-12.3669
▁에스프레소	-12.3669
▁엘리자베스	-12.3669
▁예방접종	-12.3669
▁울타리	-12.3669
▁원더걸스	-12.3669
▁유모차	-12.3669
▁자연경관	-12.3669
▁잤다	-12.3669
▁재부팅	-12.3669
▁짜파게티	-12.3669
▁쫄면	-12.3669
▁챕터	-12.3669
▁출퇴근	-12.3669
▁캣쇼에	-12.3669
▁컴플레인	-12.3669
▁컸으	-12.3669
▁탓하	-12.3669
▁탱크	-12.3669
▁토너먼트	-12.3669
▁특기	-12.3669
▁팬케이크	-12.3669
▁포워더	-12.3669
▁퓨리토	-12.3669
▁프로듀서	-12.3669
▁하찮	-12.3669
▁핫도그	-12.3669
▁햄스터	-12.3669
▁향신료	-12.3669
▁헬렌	-12.3669
▁헬리콥터	-12.3669
▁훔친	-12.3669
▁휴강	-12.3669
곽	-12.3669
뀝	-12.3669
센티미터	-12.3669
▁기저귀	-12.3669
▁논란	-12.3669
▁동그랗	-12.3669
▁레몬	-12.3669
▁생김새	-12.3669
▁세라믹	-12.3669
▁응급처치	-12.3669
▁잊기	-12.3669
▁지녀야	-12.3669
▁튤립	-12.3669
▁팬덤	-12.3669
▁피시방	-12.3669
▁학수고대	-12.3669
탬	-12.3669
▁동성결혼	-12.3669
▁등장인물	-12.3669
▁멸종	-12.3669
▁베이컨	-12.3669
▁트럼프	-12.3669
▁mono	-12.3669
▁가스레인지	-12.3669
▁닉네임	-12.3669
▁대규모	-12.3669
▁사진찍기	-12.3669
▁영상통화	-12.3669
▁타이핑	-12.3669
▁거스름돈	-12.3669
▁결단력	-12.3669
▁래퍼	-12.3669
▁미역국	-12.3669
▁블록체인	-12.3669
▁스무	-12.3669
▁트러블	-12.3669
▁학부모	-12.3669
▁농산물	-12.3669
▁데미지	-12.3669
▁멜로디	-12.3669
▁미스터	-12.3669
▁윗부분	-12.3669
▁이라크	-12.3669
▁라운지	-12.367
▁리버풀	-12.367
▁미수금	-12.367
▁일으킨	-12.367
▁닥치	-12.367
▁초음파	-12.367
▁뛰어놀	-12.367
▁낙찰	-12.367
▁불필요	-12.367
▁스쿠버	-12.367
▁엑스포	-12.367
▁리스팅	-12.367
▁교도소	-12.367
▁극단주의	-12.367
▁도요타	-12.367
▁파워포인트	-12.367
▁깃발	-12.367
▁edf	-12.367
▁다방면	-12.367
▁민주주의	-12.367
▁컵케이크	-12.367
▁헤드셋	-12.367
킬로그램	-12.367
▁esd	-12.367
▁리스크	-12.367
▁민영화	-12.367
▁증빙	-12.367
▁후드티	-12.367
▁엽서	-12.367
▁bmw	-12.367
▁개발도상국	-12.367
▁페이퍼	-12.367
▁iq	-12.367
▁plus	-12.367
▁비롯	-12.367
▁스케일링	-12.367
▁튜터링	-12.367
▁멈춘	-12.367
▁액젓	-12.367
▁제스쳐	-12.367
▁재발행	-12.367
▁jack	-12.367
▁얼간이	-12.367
▁스몰	-12.367
▁miss	-12.367
▁국악	-12.367
▁고등어	-12.367
▁생활습관	-12.367
▁포커스	-12.367
▁탐색	-12.367
▁탱고	-12.367
▁부합하	-12.367
▁효능	-12.367
▁민경이	-12.367
▁공항철도	-12.367
▁ico	-12.367
▁lcl	-12.367
▁북극	-12.367
▁육류	-12.367
▁하이힐	-12.367
▁대륙	-12.367
▁잔소리	-12.367
▁kbs	-12.367
▁전지현	-12.367
▁바삭	-12.367
▁지녔	-12.367
▁rma	-12.367
▁레이저	-12.367
▁급격	-12.367
▁윈도우	-12.367
▁인맥	-12.367
▁친숙	-12.367
▁미끄러져	-12.367
▁애착	-12.367
▁정규	-12.367
▁혈액형	-12.367
▁여주인공	-12.367
▁곱창	-12.367
▁허무	-12.367
▁관광산업	-12.367
▁서브	-12.367
▁한반도	-12.367
▁권투	-12.367
▁근력	-12.367
▁새우젓	-12.367
▁흘렀	-12.367
▁알러지	-12.367
▁하버드	-12.367
▁저지른	-12.367
▁감추	-12.367
▁니체	-12.367
▁축구선수	-12.367
▁모티브	-12.367
▁fta	-12.367
▁창백	-12.367
▁석유	-12.367
▁소설책	-12.367
▁검정색	-12.367
▁파타야	-12.367
▁건강검진	-12.367
▁생생	-12.367
▁궁전	-12.367
▁부흥	-12.367
▁문제해결	-12.367
▁신세계	-12.367
▁오피스텔	-12.367
▁미련	-12.367
▁강압적	-12.367
▁발걸음	-12.367
▁전염병	-12.367
▁메타	-12.3671
▁문질러	-12.3671
▁털어놓	-12.3671
▁버너	-12.3671
▁액수	-12.3671
▁경리단길	-12.3671
▁성취감	-12.3671
▁세면대	-12.3671
▁소름	-12.3671
▁명심해	-12.3671
▁챔피언스	-12.3671
느니	-12.3671
▁usda	-12.3671
▁단무지	-12.3671
▁동정심	-12.3671
▁꼬마	-12.3671
▁폭행	-12.3671
▁굴절	-12.3671
▁상냥	-12.3671
▁역동적	-12.3671
▁하얀색	-12.3671
▁부풀	-12.3671
▁행방	-12.3671
라이어	-12.3671
▁육성	-12.3671
▁시공작업	-12.3671
▁유독	-12.3671
▁반바지	-12.3671
▁도매	-12.3671
▁인근	-12.3671
▁생명체	-12.3671
▁실연	-12.3671
▁sam	-12.3671
▁당겨	-12.3671
▁살아간다	-12.3671
▁작별	-12.3671
▁crd	-12.3671
▁이하급	-12.3671
▁크리스천	-12.3672
▁합병	-12.3672
▁데이브	-12.3672
▁소지품	-12.3672
▁영주권	-12.3672
▁보편적	-12.3672
▁야영	-12.3672
▁일회용	-12.3672
▁기압	-12.3672
▁감자탕	-12.3672
▁듀오	-12.3672
▁칠레	-12.3672
▁선적서류	-12.3672
▁총액	-12.3672
▁구애	-12.3672
▁전자제품	-12.3672
▁지리산	-12.3672
▁퇴실	-12.3672
▁안정화	-12.3672
▁동방	-12.3672
▁사이버	-12.3672
▁탐구	-12.3672
▁형님	-12.3672
▁예절	-12.3672
▁숙녀	-12.3672
▁자칼	-12.3672
▁푸른	-12.3672
▁안락사	-12.3672
▁큰소리	-12.3672
▁승차	-12.3672
▁남겨두	-12.3673
▁애타	-12.3673
▁호박	-12.3673
▁핵	-12.3673
▁원피스	-12.3673
▁푸드	-12.3673
▁미백	-12.3673
▁sos	-12.3673
▁내려놓	-12.3673
▁이뤄졌	-12.3673
▁치명적	-12.3673
▁당황스럽네	-12.3673
▁동그	-12.3673
▁사계절	-12.3673
▁합창단	-12.3673
▁교내	-12.3673
▁루이스	-12.3673
▁충치	-12.3673
▁지닌	-12.3673
▁속담	-12.3673
▁악수	-12.3673
▁유체	-12.3673
▁부츠	-12.3673
▁소개해드릴	-12.3673
▁불교	-12.3673
▁조약	-12.3673
▁밝혀졌	-12.3673
▁윤아	-12.3673
▁감정표현	-12.3673
▁살찌	-12.3674
▁새끼	-12.3674
▁스릴	-12.3674
▁205	-12.3674
▁무술	-12.3674
▁최소화	-12.3674
▁메뉴판	-12.3674
▁밝혀	-12.3674
▁출연료	-12.3674
▁터질	-12.3674
▁세로	-12.3674
▁조별	-12.3674
▁누적	-12.3674
▁면허	-12.3674
▁절제	-12.3674
▁소요된다	-12.3674
▁퍼프	-12.3674
▁셀카	-12.3674
▁부러졌	-12.3674
▁분께	-12.3674
▁즉석	-12.3674
▁직후	-12.3674
▁마우스	-12.3674
▁포도주	-12.3675
▁포토	-12.3675
망쳤어	-12.3675
▁지우개	-12.3675
▁헷갈리	-12.3675
▁비스트	-12.3675
▁떼어	-12.3675
▁대박	-12.3675
▁짐작	-12.3675
▁작사	-12.3675
▁얼만큼	-12.3675
▁베드	-12.3675
▁스타일링	-12.3675
▁노동시장	-12.3675
▁부주의	-12.3675
▁기원하	-12.3676
▁합성	-12.3676
▁마틴	-12.3676
▁정통	-12.3676
개월째	-12.3676
▁바디	-12.3676
▁매입	-12.3676
▁화초	-12.3677
▁bre	-12.3677
▁액정	-12.3677
▁부피	-12.3677
▁이산화탄소	-12.3677
▁깨워주	-12.3677
▁개척	-12.3677
▁서구	-12.3677
▁담보	-12.3677
▁기상청	-12.3677
▁계층	-12.3677
▁부장님	-12.3677
▁드러내	-12.3677
▁스며들	-12.3677
▁무너지	-12.3678
▁모피	-12.3678
▁북쪽	-12.3678
▁건강해질	-12.3678
▁mg	-12.3678
▁숙박비	-12.3678
▁입혀	-12.3679
▁건강관리	-12.3679
▁지독	-12.3679
▁도망쳤	-12.3679
▁실버	-12.3679
▁노력해야겠어	-12.3679
▁황제	-12.3679
▁구형	-12.368
▁신촌	-12.368
▁평판	-12.368
▁하키	-12.368
▁도트	-12.368
▁체크하	-12.368
▁보습	-12.368
▁고혈압	-12.368
▁소개해드리	-12.368
▁심해졌	-12.368
▁모퉁이	-12.368
▁저질러	-12.368
▁옥상	-12.3681
▁전근	-12.3681
▁야망	-12.3681
▁내려갈	-12.3681
▁나아갔	-12.3681
▁있으니깐	-12.3681
▁아이유	-12.3681
▁길렀	-12.3681
▁무궁	-12.3682
▁막혀서	-12.3682
▁장애물	-12.3682
▁ui	-12.3682
▁자바	-12.3682
▁감수	-12.3683
▁육상	-12.3683
lb	-12.3683
▁상위	-12.3683
▁샤	-12.3683
▁39	-12.3683
▁뛰어났	-12.3683
▁무관	-12.3684
▁철학자	-12.3684
▁많습니	-12.3684
▁어린아이들이	-12.3684
▁미세	-12.3684
▁난존	-12.3684
▁창의력	-12.3684
▁입장료	-12.3684
▁신상품	-12.3684
▁비중	-12.3685
▁괴	-12.3685
▁빙수	-12.3685
▁sq	-12.3685
▁개체	-12.3686
▁ray	-12.3686
▁쉐	-12.3686
▁백반	-12.3686
▁보고싶어	-12.3687
▁고흐	-12.3687
▁부딪히	-12.3687
키아	-12.3687
▁잼	-12.3687
▁점유율	-12.3687
▁프로그래밍	-12.3687
▁꾀	-12.3687
▁딥	-12.3687
▁윙	-12.3687
▁터널	-12.3687
▁온난화	-12.3687
▁어묵	-12.3687
▁착륙	-12.3687
▁하고싶은	-12.3687
▁꿔	-12.3687
▁dna	-12.3687
▁니트	-12.3687
▁spec	-12.3687
▁같던데	-12.3687
▁권총	-12.3687
▁원료	-12.3688
▁보내드렸	-12.3688
▁xl	-12.3688
▁말투	-12.3688
▁통과해야	-12.3688
▁고령화	-12.3688
▁소독	-12.3688
▁거절했어	-12.3688
▁수업료	-12.3688
▁캐드	-12.3689
▁재산권	-12.3689
▁어려우	-12.3689
▁법칙	-12.3689
▁발전해	-12.3689
▁꼭대기	-12.3689
▁찾아다니	-12.369
바이트	-12.369
▁추진력	-12.369
▁합계	-12.369
▁베네	-12.369
▁파전	-12.369
▁동원	-12.3691
▁탐	-12.3691
▁가볼	-12.3691
▁유무	-12.3691
▁여행지로	-12.3692
▁조달	-12.3692
▁히어로	-12.3692
▁분수	-12.3692
▁빈번	-12.3692
▁사시는	-12.3692
▁학력	-12.3692
▁욕실	-12.3692
▁하나둘	-12.3692
▁클래스에	-12.3693
▁헷갈려	-12.3693
▁350	-12.3693
▁혼동	-12.3693
▁토르	-12.3694
▁점퍼	-12.3694
▁답안	-12.3694
▁과시	-12.3694
▁주차비	-12.3695
▁데모	-12.3695
▁장려	-12.3695
▁암호화	-12.3695
▁롤러	-12.3695
▁초코	-12.3695
▁채우	-12.3695
▁세션	-12.3695
▁광고성	-12.3696
▁많아지면	-12.3696
▁투자금	-12.3696
▁가파	-12.3697
▁적정한	-12.3697
▁큰아들	-12.3698
▁자장면	-12.3698
▁믿기지	-12.3698
▁분포	-12.3698
▁가설	-12.3699
▁깨어나	-12.37
▁지속되	-12.37
▁표시되어	-12.37
연재	-12.37
대회에	-12.37
▁올려놓았	-12.37
스테이트	-12.37
▁발전하기	-12.37
▁감독님	-12.37
▁여의도	-12.3701
▁난폭	-12.3701
▁공차	-12.3701
▁받아줄	-12.3702
▁신세	-12.3702
▁능숙하지	-12.3703
▁멋지네	-12.3703
▁팔렸	-12.3703
▁시작이	-12.3704
▁일주일간	-12.3704
▁스테이지	-12.3704
▁맞이해	-12.3704
▁예외	-12.3705
▁면세점	-12.3705
▁병정	-12.3705
▁학술	-12.3705
▁꿈속에	-12.3706
▁찾아오	-12.3706
▁축하해주	-12.3706
▁심어주	-12.3706
▁신화	-12.3707
▁딜레이	-12.3707
▁출발했어	-12.3707
▁한결같	-12.3708
▁법정	-12.3708
▁유물	-12.3708
▁누워있었어	-12.3708
▁가입되어	-12.3708
▁월세	-12.3708
▁망상	-12.3708
▁시식	-12.3708
▁바람직	-12.371
▁찍혀	-12.371
▁기아	-12.371
▁높아져	-12.371
▁투수	-12.371
▁울음	-12.3711
▁app	-12.3711
▁서두르지	-12.3712
▁들를게	-12.3712
▁놨	-12.3713
▁쌍	-12.3713
▁고용주	-12.3714
▁자립	-12.3714
▁듀	-12.3714
▁전산	-12.3715
▁키트	-12.3715
▁사다리	-12.3715
▁방향에	-12.3715
▁물성	-12.3716
▁지날	-12.3716
▁잘못됐	-12.3716
감으로	-12.3716
▁큐	-12.3717
▁쫀득	-12.3717
▁잉크	-12.3717
▁krw	-12.3717
▁핑크	-12.3717
▁성장한	-12.3718
▁필드	-12.3718
▁들려줄	-12.3718
▁솔로	-12.3718
▁비비	-12.3718
▁사교성	-12.3719
▁77	-12.3719
▁들어있습니	-12.3719
▁사이판	-12.3719
▁중계	-12.3719
▁아프네	-12.3719
▁개선해야	-12.372
▁요구사항	-12.372
▁윈도	-12.372
▁공주님	-12.3721
▁hd	-12.3721
▁정리했어	-12.3721
▁발표회	-12.3722
▁공원이	-12.3722
더러	-12.3723
▁감사함	-12.3723
▁모델링	-12.3723
▁실망시키	-12.3724
▁좋아하십니	-12.3724
▁통화하기	-12.3724
▁사과하기	-12.3725
▁머신	-12.3725
▁않으신	-12.3725
▁소비자에게	-12.3726
▁어려서	-12.3726
▁빠르다	-12.3727
▁부족함	-12.3727
▁회사원이	-12.3728
▁취소되지	-12.3728
▁말해준	-12.3731
▁긴장감	-12.3731
▁피해자	-12.3732
▁방수	-12.3732
▁98	-12.3732
▁반출	-12.3732
▁경기장까지	-12.3733
▁발행해	-12.3733
▁세계관	-12.3734
▁김구	-12.3734
▁좌절	-12.3734
▁바빴다	-12.3735
▁81	-12.3737
▁구입하기	-12.3737
▁방사	-12.3738
▁감사절	-12.3739
▁향상된	-12.3739
▁경상	-12.3739
▁스파이	-12.3739
▁온수	-12.374
▁상어	-12.3741
▁한창	-12.3741
릴라	-12.3742
▁만족스럽	-12.3742
박한	-12.3744
▁평면	-12.3745
▁표현하기	-12.3745
레이	-12.3746
▁합류	-12.3746
▁예시로	-12.3746
▁기종	-12.3747
▁빠져나	-12.3747
▁오더부터	-12.3747
▁딴	-12.3748
▁꾹	-12.3748
▁찰	-12.3748
▁용서해주	-12.3749
▁위원회	-12.3749
▁알리기	-12.3749
▁혼나	-12.375
▁조항	-12.375
▁쓰여있	-12.375
▁동작하는	-12.3751
▁외출할	-12.3752
est	-12.3752
▁심했어	-12.3753
▁태국어	-12.3756
▁항공편	-12.3757
▁즐기기에	-12.3757
뒀어	-12.3757
▁다칠	-12.3758
▁가겠어	-12.376
▁영감이	-12.376
▁상단	-12.3761
▁미라	-12.3762
▁수신자	-12.3763
▁점심시간에	-12.3763
▁느끼기	-12.3764
▁지난해	-12.3764
▁부끄러웠	-12.3764
▁가져갈게	-12.3765
▁제공해주	-12.3766
▁말입니	-12.3766
▁입기에	-12.3767
▁주디	-12.3769
▁살아야겠다	-12.3771
▁아트	-12.3772
▁뜨거워	-12.3774
비아	-12.3775
▁가열	-12.3775
▁43	-12.3775
▁싸운	-12.3776
▁도수	-12.3776
ation	-12.3777
▁만족감	-12.3777
▁해보려고	-12.3779
▁수화물	-12.378
▁중독성	-12.378
▁병력	-12.3781
▁보관할	-12.3781
▁연상	-12.3781
▁전세계	-12.3783
▁베리	-12.3783
▁누웠어	-12.3784
▁다가와	-12.3786
▁적용하여	-12.3786
▁금고에	-12.3787
▁그레이	-12.3787
▁보여줄게	-12.3787
▁가래	-12.3788
▁사용된다	-12.3788
▁나쁘다	-12.379
▁나고야	-12.379
▁불편해서	-12.379
▁낙서	-12.379
산에서	-12.3793
▁필수적인	-12.3793
▁멕시코에	-12.3793
▁여행사에서	-12.3794
▁명랑	-12.3794
▁한가해지	-12.3794
▁서울까지	-12.3794
▁요리하기	-12.3797
▁알아내	-12.3797
▁보려	-12.3797
▁크네	-12.3798
▁지저분	-12.38
▁부렸	-12.38
▁그랜드	-12.3801
▁뒤집	-12.3802
▁허브	-12.3802
son	-12.3802
장님께	-12.3802
▁들어봐	-12.3803
▁받아들여야	-12.3804
▁증가함	-12.3804
▁세안	-12.3804
▁제재	-12.3805
▁연인과	-12.3805
▁서부	-12.3805
▁cif	-12.3806
▁겹	-12.3807
▁소박	-12.3808
▁캡	-12.3809
▁읽어주	-12.3811
▁봐야겠다	-12.3811
수도	-12.3811
▁네트	-12.3811
▁정확도	-12.3812
단에서	-12.3813
▁인정하	-12.3814
절이	-12.3815
▁부족하기	-12.3815
▁49	-12.3816
▁지어진	-12.3817
▁교육비	-12.3817
▁멋있게	-12.3818
▁유쾌	-12.3818
▁룩	-12.3818
▁기도해주	-12.3818
▁입학하기	-12.3819
▁괜찮겠어	-12.3819
▁굴어	-12.3821
▁찾아봤어	-12.3822
▁있단	-12.3823
▁시도할	-12.3823
▁222	-12.3825
▁메신저로	-12.3825
▁누락되었	-12.3826
▁남아있는	-12.3826
▁피우지	-12.383
▁편의점에	-12.383
▁잠자기	-12.3831
▁도시라고	-12.3833
▁되돌아가	-12.3833
▁수필	-12.3833
▁강의실에	-12.3834
▁늦기	-12.3834
▁선적하기	-12.3834
▁운동회	-12.3837
▁시킨	-12.3838
▁쾌	-12.3838
▁mark	-12.3838
▁구단	-12.3839
점에	-12.384
03	-12.3841
▁자유시간	-12.3843
▁연결되는	-12.3843
▁방향성	-12.3844
▁이끌었	-12.3845
▁놀려	-12.3845
달이	-12.3846
▁실감	-12.3847
▁통과했어	-12.3848
▁요트	-12.3849
▁새것	-12.3853
▁부담할	-12.3853
▁파주	-12.3853
▁일으	-12.3853
▁존경받는	-12.3855
▁액	-12.3857
▁내려와	-12.386
▁이득이	-12.3863
▁취소해주	-12.3863
▁품질이	-12.3864
ler	-12.3865
▁나타났다	-12.3865
▁죽겠어	-12.3865
▁참석해야	-12.3866
▁야드	-12.3866
▁그리워할	-12.3867
▁원하는데	-12.3867
▁접근성	-12.387
▁유지해야	-12.3872
시장이	-12.3873
▁로또에	-12.3874
▁샌디에이고에	-12.3874
▁42	-12.388
▁놈	-12.388
▁규	-12.3881
▁당하는	-12.3881
▁장관이	-12.3882
▁끝났으니	-12.3883
▁초까지	-12.3885
▁대답할	-12.3885
▁비트	-12.3887
▁청소했어	-12.3887
▁모던	-12.3889
▁기능성	-12.3892
▁짜증나	-12.3892
▁믿으	-12.3894
▁말려	-12.3894
▁쓰인다	-12.3895
▁연애하	-12.3895
▁나무들	-12.3895
▁돕는다	-12.3895
▁중심지	-12.3897
▁입고된	-12.3901
▁참조해	-12.3902
▁동거	-12.3904
▁천문학자	-12.3905
▁상반	-12.3906
▁용감하	-12.3908
▁이하로	-12.3908
hat	-12.391
배가	-12.3915
▁지어졌	-12.3915
▁발표했어	-12.3916
▁작게	-12.3918
▁걸렸다	-12.3918
▁되었지	-12.3918
▁신중하	-12.3918
▁나라별	-12.3919
▁이물질	-12.392
▁중반	-12.3921
▁오래됐	-12.3922
▁모집	-12.3922
▁쇼핑하는	-12.3922
게임	-12.3923
▁측정하	-12.3923
출된	-12.3923
▁의심되	-12.3924
▁부장	-12.3927
▁하위	-12.3928
▁맞은	-12.3928
▁동의한다	-12.3929
▁돌렸어	-12.3932
▁망가	-12.3934
▁충동적	-12.3936
▁자네	-12.3938
▁취소할	-12.3938
▁우승자	-12.394
▁텔레비전에서	-12.3947
▁명상	-12.3948
▁도시였	-12.3949
▁능동적	-12.395
▁소화기	-12.3951
▁활용하	-12.3958
▁회복하	-12.3959
▁배웅	-12.396
▁아시아에	-12.3961
▁극도	-12.3964
▁상처받았어	-12.3966
▁오려	-12.3966
▁할아버지와	-12.3966
▁일제	-12.3967
▁확보하	-12.3969
▁가신	-12.397
▁매점	-12.3971
▁실종	-12.3972
▁여자인	-12.3975
▁지휘	-12.3975
▁사귀기	-12.3976
▁보냈었습니다	-12.3977
▁이날	-12.3979
▁지문	-12.3979
▁속인	-12.398
▁아마존에	-12.3982
▁판다	-12.3984
▁겨울방학에	-12.3987
▁아이였	-12.3988
▁들어오기	-12.399
▁부서지	-12.3991
▁싱	-12.3997
▁있으리라	-12.3998
▁만들어줄	-12.3998
▁관광지로	-12.3999
▁선적일	-12.4
▁영화인	-12.4002
▁빌게	-12.4003
▁이사한	-12.4003
▁오래됐어	-12.4003
▁반가웠어	-12.4005
▁할때	-12.4007
▁애나	-12.4007
▁유명했	-12.4007
▁없어질	-12.4008
▁만다	-12.4012
▁빠지기	-12.4013
▁듣기로	-12.4015
▁본부	-12.4018
▁화분	-12.4022
▁낮게	-12.4026
▁답장해	-12.4026
art	-12.4027
▁만지	-12.4027
▁상품들	-12.4033
▁off	-12.4033
▁전면	-12.4035
▁됨	-12.4035
▁참고하시	-12.4038
▁틀렸어	-12.4039
심으로	-12.4039
밭에	-12.404
▁아니니까	-12.4045
▁날아가	-12.4046
▁부당	-12.4047
▁일하려	-12.4047
▁픽업할	-12.4047
▁성공했어	-12.4048
▁딸에	-12.4049
▁여행했	-12.4051
시켰다	-12.4051
▁단계별	-12.4053
▁수레	-12.4054
▁발명했	-12.4054
할래	-12.4057
▁곤란해	-12.406
▁공장과	-12.406
▁위함	-12.406
▁동의하시	-12.4063
▁산책로	-12.4066
▁클리	-12.4066
▁개편	-12.4067
▁낫겠어	-12.4069
▁발리	-12.4071
▁청구하	-12.4073
▁신청하는	-12.4073
▁건들	-12.4074
▁질서	-12.4075
제품에	-12.4075
드리고	-12.4076
▁대통령으로	-12.4077
▁기념일에	-12.4077
▁윤리적	-12.4077
▁놓았다	-12.4081
▁갇혀있	-12.4081
▁끼지	-12.4083
▁부담되	-12.4084
▁클리어하	-12.4084
▁se	-12.4085
▁싶대	-12.4088
▁풀어야	-12.4089
▁이익이	-12.409
▁말씀드리고	-12.4093
버리자	-12.4093
▁시스템으로	-12.4093
말은	-12.4095
해달라고	-12.41
▁요소로	-12.4101
▁성취하	-12.4102
학과에	-12.4108
▁한명	-12.411
▁심화	-12.411
번지	-12.4111
▁정면	-12.4112
ive	-12.4112
▁심야	-12.4113
▁김밥에	-12.4113
혔어	-12.4114
우기	-12.4121
▁사랑보다	-12.4122
▁자격증이	-12.4123
▁꺼냈어	-12.4123
▁타나	-12.4127
▁판매량	-12.4128
▁눈길	-12.4131
▁내려야	-12.4133
▁다른데	-12.4134
▁전문가로	-12.4135
▁따른다	-12.4136
▁있었네	-12.4137
▁소소	-12.4138
▁걸려있	-12.414
▁면에	-12.4145
▁입증하	-12.4145
▁고백하	-12.415
왔다	-12.4152
▁예기	-12.4153
▁종업원들	-12.4156
▁조수	-12.4159
▁있으시	-12.4162
▁수행되	-12.4166
ic	-12.4166
▁나뿐만	-12.4168
▁싶어졌	-12.417
▁기차에	-12.417
▁토론토에	-12.4172
▁괜찮으니	-12.4172
▁줬다	-12.4173
▁전제	-12.4175
▁미지	-12.4176
▁모았어	-12.4178
▁화성	-12.4179
이어	-12.4184
▁실패했	-12.4184
▁전화해야	-12.4185
▁안녕이라	-12.4186
▁창조적	-12.4186
▁단어들	-12.4187
▁상태이	-12.4193
▁넘지	-12.4196
▁방황	-12.4197
▁달성하	-12.4202
▁나온다	-12.4208
▁해안	-12.4208
▁촉박	-12.4211
▁매치	-12.4211
▁과학이	-12.4216
▁느껴서	-12.4217
▁원만	-12.4222
▁표현하	-12.4223
▁기록했	-12.4224
▁고양이에게	-12.4227
▁어쩌다	-12.4227
▁사랑합니	-12.423
▁애로	-12.4231
▁쌀쌀하	-12.4235
▁형제들	-12.4236
▁할머니께	-12.4239
▁철회	-12.4239
▁태양이	-12.424
▁마비	-12.4244
▁느끼면	-12.4244
▁유명하다	-12.4244
▁걸어가면	-12.4245
▁일치하는	-12.4247
▁마르	-12.4249
▁역도	-12.4253
▁생물학	-12.4254
▁회사보다	-12.4255
▁인사할	-12.4256
▁충전기	-12.4258
▁동반	-12.426
▁다니나	-12.4263
▁좋은지	-12.4265
▁답장할	-12.4265
▁불과	-12.4266
▁수석	-12.4267
▁자부심이	-12.4267
▁가셨어	-12.4268
품에	-12.4269
▁지향	-12.4271
▁차별이	-12.4272
▁떨어지면	-12.4272
주로	-12.4272
▁애기	-12.4272
▁경도	-12.4273
▁긴장하	-12.4274
▁반대했	-12.4274
▁줄로	-12.4275
볼만한	-12.4278
일인지	-12.4278
q	-12.4279
▁도출	-12.4281
▁깨닫는	-12.4282
▁특이하	-12.4286
▁일요일이	-12.4287
▁즐기기	-12.4287
▁일이라면	-12.4291
▁함께하기	-12.4291
▁감이	-12.4292
▁소비하	-12.4293
▁취득했	-12.4297
▁감동받았	-12.4298
▁국제화	-12.43
▁성향이	-12.4303
▁표현력	-12.4309
▁수제	-12.431
▁큰일	-12.4314
▁관용	-12.4319
▁한편	-12.4319
▁mt	-12.432
▁해변에	-12.4325
▁당기	-12.4326
96	-12.4327
▁엉망	-12.4327
▁비우	-12.4327
▁사건으로	-12.433
▁남자인	-12.4331
▁단계에	-12.4333
▁해결되는	-12.4333
▁창피해	-12.4335
bi	-12.4337
▁공부와	-12.4337
▁확실해	-12.4339
▁고지	-12.4343
▁표현된	-12.4344
▁원망하	-12.4345
▁증대	-12.4345
▁보내라	-12.4349
▁당당하	-12.4355
▁이베이	-12.4356
▁바랐어	-12.4357
▁저축해	-12.4358
▁그때쯤	-12.436
▁중심에	-12.4362
▁중입니	-12.4364
변할	-12.4369
▁이웃에	-12.4369
▁노래들	-12.4372
▁남부	-12.4379
▁수리하	-12.4385
▁ji	-12.4387
동이	-12.4392
▁직진하	-12.4394
▁요인이	-12.4397
▁고치려	-12.4398
▁술집이	-12.4401
▁dm	-12.4402
▁조용해	-12.4402
▁길가에	-12.4403
▁두었	-12.4404
▁입었다	-12.4406
봐야겠어	-12.4412
거렸어	-12.4412
▁관광지에	-12.4413
▁좋아졌다	-12.4413
었거든	-12.4417
▁텍사스에	-12.4418
▁디즈니랜드에	-12.4419
▁청소년들	-12.4421
▁전략이	-12.4422
84	-12.4424
▁두드리	-12.4425
▁운영되	-12.4426
▁사랑스럽다	-12.4429
▁아우	-12.4432
▁구조적	-12.4432
▁연습이	-12.4432
▁추리	-12.4433
▁풍자	-12.4435
하겠	-12.4435
▁일하는지	-12.4437
▁살았었어	-12.4438
▁가족사진	-12.4438
▁없어진	-12.4441
▁격려해	-12.4443
▁원이	-12.4444
초가	-12.4444
마을	-12.4449
▁죽었어	-12.4451
▁쓰셔	-12.4452
▁감당하	-12.4453
▁req	-12.4453
▁하시고	-12.4455
▁추측해	-12.4457
했었잖아	-12.446
▁행동할	-12.446
▁호화	-12.4468
▁본성	-12.4472
▁지갑에	-12.448
쇼에서	-12.4481
▁놓여	-12.4484
▁아이템으로	-12.4486
▁입자	-12.4488
▁사에서	-12.4494
▁앱이	-12.4496
▁편지에	-12.4496
▁폭죽	-12.4496
리아	-12.4496
▁대신할	-12.4499
▁하냐	-12.4501
▁줍	-12.4503
▁보장하	-12.4504
▁같으	-12.4506
56	-12.4506
▁밝아	-12.4506
▁사원이	-12.451
▁대단해	-12.4513
▁지점에	-12.4519
▁노인이	-12.452
▁고수	-12.4524
▁작업하	-12.4524
▁객실에	-12.4529
▁190	-12.4531
▁모르지	-12.4532
▁상쾌해	-12.4532
번씩	-12.4535
▁영상이	-12.4537
▁추웠어	-12.4538
▁상황이라	-12.4539
▁데려다줬	-12.4541
▁텔레비전에	-12.4541
▁현실적	-12.4542
쇄	-12.4543
▁좌측	-12.4546
어주는	-12.4547
▁믿었	-12.455
▁알겠지	-12.4553
▁며칠이	-12.4558
▁해오	-12.4558
▁갖은	-12.456
▁수영하	-12.456
▁벨기에	-12.4561
▁깊었어	-12.4562
원들	-12.4566
▁입주하	-12.4566
cf	-12.4568
▁싸이	-12.4569
인조	-12.4571
▁tri	-12.4573
▁구절이	-12.4575
▁대지	-12.458
▁청주에	-12.4585
▁수박	-12.4585
▁암시	-12.4587
▁ma	-12.459
▁be	-12.4595
ong	-12.4601
▁이상하다	-12.4604
오지	-12.4605
▁문제라고	-12.4606
▁벌어졌	-12.4606
▁담았	-12.4609
▁병에	-12.4609
▁방치	-12.4609
▁피하고	-12.4616
▁현실적이	-12.4618
▁가족으로	-12.4629
▁성당에	-12.4631
▁av	-12.4638
▁스트레스로	-12.4639
▁제정신	-12.4647
▁삼가	-12.4656
▁베이	-12.4656
990	-12.4656
▁비판하	-12.4657
▁적응했	-12.4661
▁시원해	-12.4662
했대	-12.4665
▁만들어내	-12.4672
▁전체에	-12.4674
▁차고	-12.4675
▁도착했으니	-12.4676
▁나였	-12.468
▁일본과	-12.468
▁부르면	-12.468
▁응모	-12.4684
▁방송에	-12.4685
▁창조해	-12.4686
▁이론이	-12.4686
▁레스토랑이	-12.4694
스에	-12.4694
드가	-12.4697
▁직관적	-12.4702
▁알아가	-12.4703
▁포옹	-12.4705
▁소개받	-12.4705
▁답변에	-12.4706
▁독려	-12.4711
볼래	-12.4717
▁지역별	-12.472
자들이	-12.4721
▁반면	-12.4723
시장에	-12.4725
▁호스텔에	-12.4729
▁가셔	-12.4729
넘버	-12.4745
▁도달	-12.4746
▁만만	-12.475
▁연구원	-12.4755
▁변경되어	-12.4755
ire	-12.4759
▁받았나	-12.4761
▁맡겼어	-12.4763
▁능	-12.4763
▁방송국에	-12.4766
▁고국	-12.4769
주일이	-12.4769
▁빠졌을	-12.4777
▁승인받	-12.4778
▁강의에	-12.4779
▁관리하	-12.4779
▁민감하	-12.478
▁선물할	-12.4783
▁두렵	-12.4784
▁동갑	-12.4788
▁반찬이	-12.4789
▁전환이	-12.4792
▁주었습니	-12.4793
▁존재로	-12.4796
▁주워	-12.4796
▁전쯤	-12.4798
▁떠나보	-12.48
▁지루하다	-12.4805
▁비판적	-12.4806
▁논리	-12.4807
하였다	-12.482
ub	-12.4821
셨고	-12.4822
▁구매에	-12.4831
▁sun	-12.4833
▁금액으로	-12.4834
켓팅	-12.4834
ds	-12.4842
▁사촌들	-12.4845
▁오셨습니	-12.4845
▁소개했	-12.4848
tc	-12.4853
족발	-12.4854
▁다트	-12.4858
▁넉넉	-12.4858
▁받으시	-12.4858
▁안개	-12.4859
▁학생이었어	-12.486
▁남쪽에	-12.486
▁이상할	-12.4861
▁자카르타	-12.4861
▁난민	-12.4862
▁교감	-12.4868
▁달러에	-12.4868
▁기재해	-12.4874
▁do	-12.4876
▁사랑했어	-12.4878
▁지속하	-12.4884
▁응시하	-12.4884
▁추가했	-12.4887
▁주유소	-12.4889
co	-12.4893
▁믿었어	-12.4893
▁활발해	-12.4894
▁동갑이	-12.4897
▁이체	-12.4898
▁포기한	-12.4901
▁다해야	-12.4905
▁해산물이	-12.4906
▁서운	-12.4908
▁볼트	-12.4912
▁교수님에	-12.4915
▁수명	-12.4915
ng	-12.492
▁뉴욕이	-12.4921
▁늘었어	-12.4923
▁맛있고	-12.4925
▁행복해지	-12.4926
▁듣다	-12.4929
▁김이	-12.4931
사할	-12.4934
▁중부	-12.4939
▁에버랜드에	-12.495
▁실패해	-12.4952
▁교환하	-12.4955
▁지내나	-12.4955
▁개발에	-12.4955
▁성당	-12.4956
주소	-12.4957
▁완성하	-12.4958
▁세계적	-12.4962
ok	-12.4963
▁신발들	-12.4964
▁도와주었	-12.4965
▁구상하	-12.4968
▁덴마크에	-12.4968
989	-12.4969
어줘	-12.4971
이었을	-12.4975
▁경찰들	-12.4976
▁가졌으	-12.4984
▁치시	-12.4985
▁기사님	-12.4986
▁ea	-12.4986
▁판매한	-12.4989
▁침해하	-12.499
▁보이면	-12.4997
▁오는지	-12.5001
▁마사지하	-12.5003
▁누를	-12.5005
▁맞았다	-12.5013
▁확인해보았	-12.5015
았	-12.5017
▁ic	-12.502
sm	-12.5023
▁주인의	-12.5026
▁스마트폰에	-12.5027
▁보내주겠	-12.5033
▁nan	-12.5039
할때	-12.5042
▁물어봐야	-12.5042
시다면	-12.5046
▁서울역에	-12.5049
▁그려주	-12.5049
▁금전	-12.5053
▁추천했	-12.5053
▁활용해	-12.5059
▁향상되	-12.506
▁게이	-12.5062
▁긴장이	-12.5063
▁gre	-12.5067
▁면담	-12.5075
▁나에게만	-12.5075
▁접하	-12.5076
87	-12.5077
▁메뉴에	-12.5078
▁제품명	-12.5078
▁걱정되어	-12.508
회의	-12.5081
▁이마트에	-12.5081
빈이	-12.5089
골이	-12.5091
▁공연장	-12.5092
▁퇴근했	-12.5096
▁독창적	-12.5105
▁76	-12.5106
▁달렸	-12.5106
▁구하지	-12.5108
▁김포	-12.5109
했잖아	-12.511
▁조차	-12.5113
▁경험으로	-12.5116
해달라	-12.5117
▁그리웠	-12.5124
▁발행되	-12.5127
▁립스틱	-12.5128
▁fa	-12.513
해주셨	-12.5131
▁일러	-12.5144
▁회장님	-12.5144
▁영화로	-12.5148
▁잠깐이	-12.5151
▁작정	-12.5152
포트	-12.5156
▁이불	-12.5159
스러웠어	-12.5162
선거	-12.5164
▁편이라	-12.5165
▁개발하여	-12.5171
▁수행했	-12.5175
▁처한	-12.5176
▁영수증이	-12.5177
있지	-12.518
▁방송이	-12.5182
cent	-12.5185
▁돌려보	-12.5188
▁hs	-12.5189
▁남자답	-12.5189
▁그리스도	-12.5192
▁장기적	-12.5193
▁전달해주	-12.5194
▁음악들	-12.5194
▁견적에	-12.5194
▁촬영해	-12.5196
▁문장들	-12.5206
숙이	-12.5207
▁강점이	-12.5211
▁청구해	-12.5212
놨	-12.5216
ps	-12.5219
▁알고있	-12.522
▁임신한	-12.522
▁담임선생님	-12.5222
▁수출하	-12.5226
사로	-12.5229
▁놀이공원	-12.5229
▁상관없는	-12.5231
▁영역에	-12.5231
▁사냥하	-12.5232
직한	-12.5234
▁잘생겼다	-12.5241
현이	-12.5251
▁곳들	-12.5252
▁관심에	-12.5254
▁페이팔에	-12.5254
▁di	-12.5256
▁가격인	-12.5258
▁친구네	-12.5263
▁부족하지	-12.5267
▁공부했	-12.5268
▁바꾼	-12.5271
▁해주었	-12.5275
▁상의해	-12.5281
▁합격했	-12.5286
▁재무	-12.5287
▁블로그에	-12.5291
▁우산이	-12.5293
▁두바이에	-12.5306
04	-12.5308
▁지하철에	-12.5309
당하는	-12.5309
▁가르쳐줄	-12.531
▁요양원	-12.5315
▁길었	-12.5317
▁두어	-12.5323
▁어필	-12.533
▁수단이	-12.5331
되도록	-12.5336
▁좋아하셨	-12.5341
발한	-12.5346
pin	-12.535
▁완벽해	-12.5351
▁그녀에게서	-12.5358
▁일상생활	-12.5358
▁이행	-12.536
▁친근하	-12.5361
▁나란	-12.5362
▁나태	-12.5366
었더라면	-12.5372
성으로	-12.5374
▁동물에	-12.5374
▁메이	-12.5376
▁외워	-12.5382
▁부담해	-12.5385
집으로	-12.5387
▁청주	-12.5387
▁wp	-12.5394
▁따뜻해	-12.5394
▁밴쿠버	-12.5399
▁mac	-12.5401
▁여행자	-12.5406
▁저녁이	-12.5408
dd	-12.5418
▁상기	-12.5418
▁세워야	-12.542
▁기뻐했	-12.5424
위로	-12.5428
ts	-12.5431
▁어겼	-12.5431
▁썩	-12.5434
▁일반적이	-12.5435
편에	-12.5439
▁서울이	-12.5449
▁처리되	-12.5451
▁보이니	-12.5454
러스	-12.5455
어진	-12.5458
▁막대	-12.546
중에서	-12.5475
▁조언해	-12.5476
▁무섭다	-12.5479
▁그만뒀	-12.5481
▁힘내라	-12.5482
▁전달하겠	-12.5488
▁전문성	-12.5489
in	-12.5491
▁칸에	-12.5496
영화	-12.5497
▁말했을	-12.5498
▁당했다	-12.5501
▁ms	-12.5502
▁똑똑	-12.5504
42	-12.5509
▁재미있다	-12.551
▁미처	-12.5512
▁해상	-12.5512
▁용감	-12.5513
28	-12.5521
▁스캔해	-12.5522
89	-12.5524
▁방출하	-12.5533
▁중지	-12.5534
▁칠리	-12.5537
▁만남이	-12.5548
보아야	-12.5548
▁때리	-12.5548
▁트레이	-12.5549
▁전달받았	-12.5551
구역	-12.5561
▁개선이	-12.5561
▁보도	-12.5569
▁존중받	-12.5574
▁해체하	-12.5574
기간이	-12.5576
▁도와주겠	-12.5581
▁친구보다	-12.5581
▁배트맨	-12.5582
▁작동되	-12.5585
▁찾아가는	-12.5585
러시	-12.5591
▁먹어볼	-12.5595
▁신입생	-12.5597
했거든	-12.5602
▁보호자	-12.5603
▁부탁했	-12.5603
▁좋아지기	-12.5605
▁mp	-12.5608
▁동의했	-12.5614
▁잘해줄	-12.5616
pp	-12.5619
▁체크했	-12.5619
판이	-12.5624
▁만들어주는	-12.5625
▁국민이	-12.5627
▁후라이	-12.5627
▁김은	-12.5629
ger	-12.5635
▁지불했어	-12.5636
▁따라와	-12.5637
▁걸어갔	-12.5638
▁넘겨	-12.5639
006	-12.564
00	-12.564
▁기입	-12.5645
▁감사했	-12.5649
▁헤어지	-12.5652
▁그만해	-12.5662
▁미인이	-12.5665
▁갇혀	-12.5665
림이	-12.5666
비자로	-12.5666
▁한방	-12.5667
▁간직하겠	-12.5672
▁가격대	-12.5672
▁주차하	-12.5674
▁낫겠	-12.5679
양식	-12.5682
조로	-12.5685
▁출고되	-12.5686
▁유니	-12.5689
▁어디서든	-12.5689
▁들어가려	-12.5699
있게	-12.57
화로	-12.57
▁보드에	-12.5703
▁더웠	-12.5707
▁실패한	-12.5708
▁숙박하는	-12.5709
▁기차역	-12.5711
▁경복궁에	-12.5713
력과	-12.5714
▁때렸	-12.5717
겼	-12.5722
▁끼쳤	-12.5726
▁필요했	-12.5726
짐	-12.5731
▁da	-12.5732
▁담가	-12.5737
▁여인	-12.5737
▁예민하	-12.5738
▁화나는	-12.574
▁없을지	-12.5741
추어	-12.5746
▁ci	-12.5746
▁보물이	-12.5747
▁신청하	-12.5748
▁출시되었	-12.5754
▁중학생이	-12.5759
아이	-12.576
▁acce	-12.5761
멘	-12.5761
▁can	-12.5761
▁개에	-12.5764
▁된다니	-12.5767
▁중심이	-12.5769
▁bm	-12.5769
▁설계하	-12.5773
네스	-12.5774
▁지리	-12.5774
▁잘랐	-12.5777
▁gr	-12.5778
▁경기도에	-12.5778
▁세차	-12.5781
▁202	-12.5781
익	-12.5782
▁추가하	-12.5782
▁건조하	-12.5786
▁말해줬	-12.5787
▁선정하	-12.5787
▁통지	-12.5793
▁잡아먹	-12.5801
▁험	-12.5802
였나	-12.5812
▁꿈이었	-12.5813
▁시작됐	-12.5818
할께	-12.5819
76	-12.5821
아주	-12.5826
▁열성	-12.5827
해봅	-12.5831
판에	-12.5831
원인	-12.5832
▁쳐다보지	-12.5832
se	-12.5837
▁이적	-12.5838
위까지	-12.5842
같	-12.5843
▁나간다	-12.5844
▁돌렸	-12.5845
날로	-12.5845
달라	-12.5849
▁등급이	-12.5851
텔라	-12.5851
셨을	-12.5855
▁성사	-12.586
홍	-12.5864
ac	-12.5865
▁바라봐	-12.587
▁꾸었	-12.5875
▁for	-12.5876
▁희망합니	-12.5877
브랜드	-12.588
▁매표소	-12.5886
▁끊었	-12.5888
▁젖었	-12.5894
▁명도	-12.59
▁거지만	-12.5904
▁민간	-12.5911
허	-12.5911
맹	-12.5912
▁ra	-12.5912
브르	-12.5912
▁부자인	-12.5913
▁사용하였	-12.5915
▁싫었	-12.592
▁몰랐지	-12.5925
rs	-12.5926
작품	-12.5928
공원	-12.5929
준다고	-12.5939
카메라	-12.594
▁그것보다	-12.594
▁사드	-12.5945
이징	-12.5948
수거	-12.595
혈	-12.5951
▁공부만	-12.5951
▁혈	-12.5951
▁거두	-12.5952
▁저하	-12.5953
틀	-12.5954
▁돌려받	-12.5956
신청	-12.5959
▁연기자	-12.5959
▁섰	-12.5959
객이	-12.5959
팔	-12.5959
렌	-12.5963
▁기억하기	-12.5964
숙	-12.5972
▁아프다는	-12.5973
▁거네	-12.5974
▁드라이	-12.598
▁규칙이	-12.5983
비스	-12.5988
간다	-12.5994
▁존경받	-12.5995
졸라	-12.5997
▁잠자	-12.5998
세계	-12.5998
촉	-12.6001
착	-12.6003
탁	-12.6004
▁데려오	-12.6005
생으로	-12.6008
ek	-12.6011
샵	-12.6012
▁말씀해주시	-12.6012
데이	-12.6015
영화제	-12.6015
▁화요일이	-12.6016
▁만족스러웠	-12.6018
펠	-12.6019
페소	-12.602
성적	-12.602
▁들었고	-12.602
커버	-12.6022
찍	-12.6022
▁입력했	-12.6023
19	-12.6023
▁뭐해	-12.6024
▁라이프	-12.6024
▁불러야	-12.6025
피스	-12.6025
▁끌려	-12.6026
무늬	-12.6027
▁효	-12.6028
흥	-12.6028
작정	-12.6029
관련	-12.603
수화물	-12.603
▁움직	-12.6033
헐	-12.6033
민족	-12.6033
▁숲에	-12.6033
▁내보내	-12.6033
▁기부하	-12.6034
샘	-12.6035
▁비교하	-12.6035
둥	-12.6038
턱	-12.6038
▁여자분	-12.6038
떡	-12.6038
동아리에	-12.6039
접	-12.6039
딸	-12.6039
뜨	-12.6039
보험	-12.6039
▁발전시키는	-12.604
필름	-12.604
쌀	-12.604
낙	-12.604
▁소극적	-12.604
▁비평	-12.604
잠	-12.6041
바퀴	-12.6041
종합	-12.6041
몸	-12.6041
레벨	-12.6041
여섯	-12.6041
벌레	-12.6042
구멍	-12.6042
올림픽	-12.6042
블록	-12.6042
싸	-12.6042
웨이	-12.6043
초등학교	-12.6043
클럽	-12.6044
너무	-12.6044
꿈	-12.6044
램	-12.6044
훈련	-12.6044
아파트	-12.6044
곧	-12.6044
경우	-12.6045
모습	-12.6045
통관	-12.6045
버전	-12.6045
치킨	-12.6045
커피	-12.6045
공급	-12.6046
데이터	-12.6046
파티	-12.6047
품질	-12.6049
▁멜	-12.605
결제	-12.6053
음료	-12.6053
수량	-12.6054
재료	-12.6054
▁보태	-12.6054
▁시드니	-12.6055
모양	-12.6055
▁무엇에	-12.6055
▁cli	-12.6056
▁시애틀에	-12.6056
세포	-12.6056
단위	-12.6057
▁떠나야	-12.6059
▁착용해	-12.6059
▁기다려주시	-12.6059
이트	-12.6062
▁후반	-12.6062
프로	-12.6062
▁곤란하	-12.6064
▁결혼이	-12.6065
▁설치한	-12.6065
▁문학관	-12.6066
무가	-12.6066
치수	-12.6067
씨와	-12.6067
코트	-12.6067
분당	-12.6067
▁렌트비	-12.6068
었습니	-12.607
▁실수했	-12.6071
▁매니저로	-12.6072
▁페스티벌	-12.6074
▁촉촉	-12.6074
처가	-12.6076
▁타도	-12.6078
▁옆집	-12.6079
▁san	-12.608
행위	-12.6081
▁꿈속	-12.6082
97	-12.6082
주스	-12.6082
so	-12.6083
sh	-12.6084
객	-12.6085
▁공연에	-12.6086
직원	-12.6086
장애	-12.6088
저리	-12.6091
▁노엘	-12.6092
▁뭉	-12.6092
▁올려놓	-12.6092
▁월미	-12.6096
▁들어줘	-12.6096
▁72	-12.6097
ct	-12.6098
▁깃든	-12.6098
결과	-12.6099
않고	-12.6101
분들이	-12.6103
▁편도	-12.6107
호텔로	-12.6109
▁손잡	-12.6114
▁ri	-12.6114
이브	-12.6115
▁47	-12.6121
▁졸리	-12.6122
분께서	-12.6122
▁pi	-12.6122
▁다뤄	-12.6122
26	-12.6122
▁궁금했	-12.6122
▁불확실	-12.6123
페이지에서	-12.6124
▁나열	-12.6125
▁향기로	-12.6128
▁청소기	-12.6129
▁전망대	-12.6129
▁협약	-12.613
만두	-12.6132
▁꺾어	-12.6135
▁har	-12.6137
▁바랄	-12.6138
▁완료되었으	-12.6139
▁공급되	-12.6141
▁헌법	-12.6142
먹을	-12.6142
▁사우디에	-12.6144
▁실업	-12.6144
뿐이었어	-12.6146
뜬	-12.6147
원과	-12.6148
▁젖어	-12.6148
▁긁어	-12.615
▁소속되어	-12.615
▁건강했	-12.6151
무라	-12.6152
▁도면이	-12.6156
▁좌우	-12.6156
▁플러그	-12.6157
ail	-12.6157
▁틀림	-12.6159
▁비춰	-12.6159
▁후기	-12.616
고추	-12.6161
회에서	-12.6161
픈	-12.6161
▁바라볼	-12.6162
베리	-12.6163
븐	-12.6164
▁굶주	-12.6165
▁번창하	-12.6166
▁해석해	-12.6166
▁낙담	-12.6166
▁부재	-12.6166
석이	-12.6167
틸	-12.6168
롬	-12.6168
▁견뎌	-12.6169
딘	-12.6169
셜	-12.6169
숫	-12.6169
긋	-12.6169
▁연령	-12.6169
▁gif	-12.6169
▁스케일	-12.6169
퍼런스	-12.6169
▁화합	-12.6169
톨	-12.6169
▁템플	-12.6169
▁star	-12.6169
▁보행	-12.6169
▁한양대	-12.6169
무릅	-12.6169
▁소프트	-12.6169
▁bga	-12.6169
▁design	-12.6169
▁duct	-12.6169
▁dvd	-12.6169
▁facebook	-12.6169
▁flitto	-12.6169
▁heinz	-12.6169
▁label	-12.6169
▁matt	-12.6169
▁onvif	-12.6169
▁swift	-12.6169
▁거머쥐	-12.6169
▁겪지	-12.6169
▁경각심	-12.6169
▁경연대회	-12.6169
▁과태료	-12.6169
▁광복절	-12.6169
▁구석구석	-12.6169
▁궁궐	-12.6169
▁까르푸	-12.6169
▁꼭두각시	-12.6169
▁나눠보	-12.6169
▁나눠줄	-12.6169
▁나눴어	-12.6169
▁나뉜다	-12.6169
▁나이팅게일	-12.6169
▁나트륨	-12.6169
▁낫토	-12.6169
▁낮춰	-12.6169
▁녹아	-12.6169
▁늙으	-12.6169
▁담뱃값	-12.6169
▁대중매체	-12.6169
▁덮개	-12.6169
▁덮밥	-12.6169
▁도라에몽	-12.6169
▁동유럽	-12.6169
▁뒷자리에	-12.6169
▁딜리버리	-12.6169
▁뜯어	-12.6169
▁래프팅	-12.6169
▁로스쿨에	-12.6169
▁리모컨	-12.6169
▁마그네슘	-12.6169
▁마스카라	-12.6169
▁모둠	-12.6169
▁묻기	-12.6169
▁뭔데	-12.6169
▁미온수	-12.6169
▁바느질	-12.6169
▁밟아	-12.6169
▁방글라데시	-12.6169
▁뱀파이어	-12.6169
▁번거롭	-12.6169
▁부적합	-12.6169
▁불공평	-12.6169
▁비정규직	-12.6169
▁비흡연	-12.6169
▁빼놓	-12.6169
▁빼빼로	-12.6169
▁빼야	-12.6169
▁뺏어	-12.6169
▁뽑기	-12.6169
▁뽑았	-12.6169
▁뿌렸	-12.6169
▁사령관	-12.6169
▁삽입	-12.6169
▁삿포로	-12.6169
▁샀었	-12.6169
▁서프라이즈	-12.6169
▁섞으	-12.6169
▁소규모	-12.6169
▁손목시계	-12.6169
▁숯불	-12.6169
▁슈퍼주니어	-12.6169
▁스리랑카	-12.6169
▁스크래치	-12.6169
▁스크립트	-12.6169
▁스펠링	-12.6169
▁시뮬레이션	-12.6169
▁신데렐라	-12.6169
▁심부름	-12.6169
▁쌀쌀맞	-12.6169
▁쌓이	-12.6169
▁아낌없	-12.6169
▁아이스하키	-12.6169
▁알라딘	-12.6169
▁알렉산더	-12.6169
▁알파벳	-12.6169
▁앞선	-12.6169
▁어댑터	-12.6169
▁어벤져스	-12.6169
▁억만장자	-12.6169
▁얹어	-12.6169
▁얽매여	-12.6169
▁에스컬레이터	-12.6169
▁엑스트라	-12.6169
▁오리엔테이션	-12.6169
▁외모지상주의	-12.6169
▁유나이티드	-12.6169
▁이곳저곳	-12.6169
▁이끄는	-12.6169
▁인센티브	-12.6169
▁인천국제공항	-12.6169
▁임진왜란	-12.6169
▁자메이카	-12.6169
▁쟁반	-12.6169
▁정년퇴직	-12.6169
▁정션박스	-12.6169
▁조미료	-12.6169
▁조부모님	-12.6169
▁주문취소	-12.6169
▁중소기업	-12.6169
▁증강현실	-12.6169
▁지방자치단체	-12.6169
▁짊어	-12.6169
▁짧았	-12.6169
▁짧지	-12.6169
▁차근차근	-12.6169
▁청계천	-12.6169
▁최후	-12.6169
▁캡슐	-12.6169
▁컨텐츠	-12.6169
▁콘크리트	-12.6169
▁콜라보레이션	-12.6169
▁콜롬비아	-12.6169
▁클렌저	-12.6169
▁클렌징	-12.6169
▁특강	-12.6169
▁특집	-12.6169
▁파운데이션	-12.6169
▁팔짱	-12.6169
▁팥빙수	-12.6169
▁퍼레이드	-12.6169
▁편찮으	-12.6169
▁푸석푸석	-12.6169
▁풉니	-12.6169
▁프랭크	-12.6169
▁피카소	-12.6169
▁홈구장	-12.6169
▁홋카이도	-12.6169
▁휠체어	-12.6169
▁휩쓸	-12.6169
▁흑돼지	-12.6169
▁흰옷	-12.6169
깬	-12.6169
덫	-12.6169
묶음	-12.6169
뻑	-12.6169
▁edward	-12.6169
▁white	-12.6169
▁더치커피	-12.6169
▁덱스터	-12.6169
▁도둑맞았	-12.6169
▁바베큐	-12.6169
▁발자국	-12.6169
▁베스트셀러	-12.6169
▁베토벤	-12.6169
▁부적절	-12.6169
▁쌓는	-12.6169
▁얇아	-12.6169
▁엉뚱	-12.6169
▁오래달리기	-12.6169
▁요거트	-12.6169
▁자영업	-12.6169
▁좌회전	-12.6169
▁집단지성	-12.6169
▁캔자스	-12.6169
▁켈리	-12.6169
플렉스	-12.6169
▁emapi	-12.6169
▁manager	-12.6169
▁sign	-12.6169
▁uav	-12.6169
▁단발머리	-12.6169
▁랜덤	-12.6169
▁마틸다	-12.6169
▁무자비	-12.6169
▁미사일	-12.6169
▁보살핌	-12.6169
▁불국사	-12.6169
▁상호작용	-12.6169
▁새끼고양이	-12.6169
▁스페셜	-12.6169
▁올레길	-12.6169
▁인건비	-12.6169
▁전원주택	-12.6169
▁카네기	-12.6169
▁클라이브	-12.6169
▁타이틀	-12.6169
▁편두통	-12.6169
▁피크닉	-12.6169
귑	-12.6169
뜁	-12.6169
뜹	-12.6169
▁erp	-12.6169
▁kevin	-12.6169
▁step	-12.6169
▁경호원	-12.6169
▁농작물	-12.6169
▁트윈	-12.6169
▁alex	-12.6169
▁lee	-12.6169
▁가상화폐	-12.6169
▁브랜딩	-12.6169
▁유난히	-12.6169
▁커미션	-12.6169
uise	-12.6169
▁곰곰	-12.6169
▁레이아웃	-12.6169
▁망가뜨	-12.6169
▁블랙넛	-12.6169
▁스프링	-12.6169
▁ttf	-12.617
▁블루투스	-12.617
▁포맷	-12.617
▁핀란드	-12.617
▁기말시험	-12.617
▁브로커	-12.617
▁파키스탄	-12.617
▁플리토	-12.617
▁루브르	-12.617
▁세계대전	-12.617
▁오른편	-12.617
▁테일러	-12.617
▁투쟁	-12.617
▁힌트	-12.617
▁cpu	-12.617
▁데이빗	-12.617
▁보이스톡	-12.617
▁부딪쳤	-12.617
▁빅데이터	-12.617
▁트윈룸	-12.617
▁헌팅	-12.617
▁14007	-12.617
▁exw	-12.617
▁암벽	-12.617
▁의료관광	-12.617
▁충청	-12.617
▁크로스	-12.617
▁you	-12.617
▁성탄절	-12.617
▁스쿠	-12.617
▁어카운트	-12.617
▁판소리	-12.617
▁굴뚝	-12.617
▁서술하	-12.617
▁펜던트	-12.617
▁david	-12.617
▁둘러싸	-12.617
▁템플릿	-12.617
▁험담	-12.617
▁바꿉	-12.617
▁비빔	-12.617
▁gina	-12.617
▁plate	-12.617
▁뉴데이	-12.617
▁섭섭	-12.617
▁신앙	-12.617
[...]
