<pad>	0
<s>	0
</s>	0
<unk>	0
▁.	-2.72006
▁i	-3.21172
▁the	-3.37156
s	-3.59691
▁	-3.60281
▁to	-3.65407
▁you	-3.77963
▁a	-3.9169
,	-4.16131
ing	-4.21901
▁is	-4.44355
▁and	-4.47102
ed	-4.53562
▁of	-4.54082
▁in	-4.57645
▁it	-4.59995
▁?	-4.65575
▁my	-4.74603
y	-4.7609
▁be	-4.7926
▁that	-4.8171
▁for	-4.91648
▁t	-4.99343
d	-5.06849
▁with	-5.08998
▁have	-5.09768
▁your	-5.13031
▁me	-5.17475
▁s	-5.18367
ly	-5.18541
▁on	-5.19303
▁can	-5.26508
▁will	-5.27544
▁are	-5.31153
▁he	-5.37667
▁do	-5.40228
▁m	-5.41516
▁was	-5.42015
▁go	-5.48122
▁if	-5.5621
▁so	-5.56722
e	-5.58276
▁want	-5.58332
▁like	-5.60943
▁not	-5.65798
▁at	-5.68558
▁there	-5.70145
▁this	-5.72598
▁we	-5.74845
▁when	-5.77313
▁as	-5.79804
▁she	-5.81824
▁time	-5.86819
n	-5.94472
▁what	-5.95828
▁an	-5.96256
▁about	-5.96643
▁am	-5.98785
▁but	-6.00051
▁don	-6.01474
▁think	-6.03907
cause	-6.04999
▁please	-6.08566
▁know	-6.11776
▁by	-6.1191
m	-6.1325
▁get	-6.17027
▁work	-6.17636
t	-6.2444
▁they	-6.25808
▁how	-6.26873
▁has	-6.35662
▁after	-6.35773
▁would	-6.38177
▁good	-6.3822
▁fro	-6.38397
▁day	-6.43998
▁her	-6.44155
▁who	-6.48115
▁up	-6.51837
▁next	-6.54126
▁any	-6.54527
▁us	-6.55703
▁more	-6.58706
▁out	-6.59694
▁make	-6.59724
▁all	-6.60593
▁his	-6.62509
▁need	-6.62978
▁take	-6.6311
▁ll	-6.63964
▁one	-6.64188
▁korea	-6.64526
▁now	-6.65006
▁just	-6.65882
▁send	-6.67171
▁people	-6.68719
▁come	-6.70474
▁did	-6.7227
▁should	-6.72701
▁see	-6.74544
▁wh	-6.75077
▁look	-6.75664
▁some	-6.76224
▁lot	-6.77526
▁product	-6.78465
▁other	-6.7848
▁re	-6.78627
▁had	-6.81093
▁year	-6.81699
▁well	-6.81858
▁been	-6.8201
▁tomorrow	-6.82165
▁let	-6.83753
▁friend	-6.83903
also	-6.86162
er	-6.88144
▁or	-6.88239
▁love	-6.90426
▁him	-6.91292
very	-6.91413
▁give	-6.92497
▁no	-6.94524
es	-6.95058
▁hope	-6.95393
▁school	-6.96288
▁use	-6.96621
▁every	-6.96772
▁man	-6.97211
▁could	-6.98614
▁which	-6.99519
▁again	-6.99649
▁call	-7.00666
▁were	-7.00788
▁today	-7.01272
▁feel	-7.02889
▁thing	-7.03052
▁our	-7.05106
▁first	-7.05118
▁help	-7.0621
▁tell	-7.07525
▁got	-7.08179
▁check	-7.08245
▁too	-7.08361
▁home	-7.09321
▁back	-7.09676
▁company	-7.09727
▁place	-7.10122
▁most	-7.10455
▁since	-7.10478
▁person	-7.10596
▁friends	-7.1108
▁than	-7.12238
▁english	-7.12447
▁talk	-7.13563
ies	-7.14116
▁week	-7.14603
▁them	-7.15641
▁korean	-7.15898
▁even	-7.16271
▁hard	-7.16338
▁ask	-7.18406
▁didn	-7.18755
▁long	-7.18937
▁f	-7.19467
▁life	-7.19926
▁happy	-7.20237
▁ve	-7.20352
▁alway	-7.21551
▁right	-7.21574
▁b	-7.21931
went	-7.22141
th	-7.23184
▁order	-7.23276
▁new	-7.24335
▁here	-7.2467
▁two	-7.24931
▁way	-7.26105
▁where	-7.26616
▁meet	-7.267
▁family	-7.26732
uch	-7.27041
▁before	-7.27986
▁study	-7.28676
ever	-7.29699
▁their	-7.30074
▁last	-7.3133
▁house	-7.31779
made	-7.32041
one	-7.32503
▁money	-7.32527
▁play	-7.36562
▁real	-7.38182
▁2	-7.38209
▁live	-7.38262
▁try	-7.38545
st	-7.3899
self	-7.39722
▁food	-7.40043
▁change	-7.40684
▁d	-7.40897
▁movie	-7.40921
▁eat	-7.42539
ally	-7.4392
▁show	-7.44017
▁visit	-7.44057
▁problem	-7.44306
▁3	-7.447
▁through	-7.46118
r	-7.46528
a	-7.46546
on	-7.47835
▁best	-7.48984
▁start	-7.49401
thing	-7.49943
i	-7.50068
▁thought	-7.50385
ether	-7.50693
▁kind	-7.51533
▁possibl	-7.51619
▁watch	-7.52632
able	-7.52703
▁class	-7.53133
▁does	-7.54415
▁say	-7.54906
▁yes	-7.55416
▁sent	-7.56175
▁job	-7.57187
▁keep	-7.57472
o	-7.57819
▁al	-7.58346
▁reason	-7.58445
▁into	-7.59786
▁price	-7.61101
rom	-7.61328
▁whil	-7.62515
▁may	-7.62795
▁name	-7.63855
▁won	-7.64205
▁high	-7.64267
▁car	-7.64449
▁came	-7.64477
round	-7.65295
▁second	-7.65361
al	-7.65366
▁great	-7.65744
▁soon	-7.65988
▁buy	-7.66211
▁dream	-7.6637
▁room	-7.66371
▁request	-7.66534
▁1	-7.66627
▁book	-7.6692
▁number	-7.67401
▁learn	-7.67486
▁contact	-7.67743
▁over	-7.67846
▁trip	-7.67884
▁become	-7.6808
each	-7.68101
▁part	-7.68863
▁phone	-7.69464
▁month	-7.71029
om	-7.71062
out	-7.71069
▁student	-7.71465
▁business	-7.72192
▁still	-7.72216
▁stay	-7.72411
▁receive	-7.73448
▁never	-7.73765
▁something	-7.74133
tter	-7.74542
aid	-7.7515
▁wait	-7.7538
▁different	-7.76096
▁understand	-7.76172
▁travel	-7.76366
▁hear	-7.76724
▁put	-7.76819
▁g	-7.77632
▁wish	-7.77661
▁game	-7.78144
▁read	-7.79056
▁find	-7.79088
▁picture	-7.79442
▁late	-7.80143
le	-7.81392
▁fr	-7.81485
▁pay	-7.82111
▁seem	-7.83243
▁doesn	-7.84796
▁couldn	-7.85233
▁thank	-7.85458
▁tog	-7.87014
▁customer	-7.87149
▁schedule	-7.89011
little	-7.89893
l	-7.90059
▁these	-7.9038
▁enjoy	-7.90455
▁sleep	-7.90518
▁off	-7.90695
▁important	-7.91609
h	-7.9289
▁until	-7.93126
other	-7.94082
▁mind	-7.94806
▁being	-7.9496
▁information	-7.95202
▁5	-7.9539
ion	-7.95989
▁arrive	-7.96147
▁p	-7.97518
▁experience	-7.97881
▁world	-7.97979
▁universit	-7.99162
▁country	-7.99541
▁night	-7.99835
▁plan	-8.00542
▁must	-8.00868
▁deliver	-8.01086
▁meeting	-8.01942
▁10	-8.02318
▁such	-8.02546
ld	-8.02792
▁test	-8.03589
▁bad	-8.04513
▁nice	-8.04717
ness	-8.04777
ce	-8.04887
▁down	-8.05656
any	-8.05831
▁email	-8.06776
▁o	-8.07222
▁finish	-8.07366
▁color	-8.08129
▁mean	-8.08155
ary	-8.08368
▁interest	-8.10094
▁hotel	-8.10208
▁morning	-8.1044
▁health	-8.10731
▁dur	-8.11796
▁beautiful	-8.12052
▁parent	-8.12411
▁care	-8.1248
▁un	-8.12542
in	-8.12931
▁away	-8.12959
▁th	-8.1331
▁later	-8.13685
▁saw	-8.13737
▁ye	-8.1426
▁favorite	-8.14529
▁leave	-8.14839
▁due	-8.14905
▁hav	-8.14924
▁teacher	-8.14958
▁word	-8.15026
▁drink	-8.15042
▁message	-8.15233
▁old	-8.15406
▁service	-8.16195
▁sure	-8.16385
▁makes	-8.16952
twee	-8.17506
▁big	-8.1751
▁left	-8.17884
▁c	-8.18905
▁4	-8.18929
ity	-8.19631
▁might	-8.19707
▁music	-8.2014
an	-8.2022
▁ago	-8.20279
▁girl	-8.20574
once	-8.20708
▁20	-8.20973
▁free	-8.21141
▁result	-8.21838
▁listen	-8.21851
read	-8.21871
▁office	-8.23518
▁hour	-8.23572
▁various	-8.24115
▁reply	-8.24148
▁document	-8.24158
▁near	-8.24292
▁rest	-8.24353
▁miss	-8.24364
▁wear	-8.24441
▁park	-8.24713
▁store	-8.24864
u	-8.24992
▁speak	-8.257
▁happen	-8.25966
ame	-8.26077
▁bus	-8.26217
▁w	-8.26231
▁boyfriend	-8.2628
▁woman	-8.26295
▁mail	-8.26318
▁team	-8.26366
▁clothe	-8.26963
ave	-8.27385
▁date	-8.27481
▁fun	-8.27582
▁close	-8.2841
ous	-8.2848
▁tired	-8.29325
▁wrong	-8.29452
▁among	-8.29824
▁account	-8.30095
▁sometime	-8.30503
▁heart	-8.30804
▁000	-8.30817
▁item	-8.31125
ation	-8.31165
▁own	-8.31177
▁station	-8.31191
ok	-8.3135
▁sam	-8.31981
me	-8.32145
often	-8.32415
▁market	-8.32498
▁prepare	-8.32712
▁japan	-8.32714
▁though	-8.32849
ve	-8.32853
▁guy	-8.32988
ough	-8.33384
hose	-8.33386
ful	-8.33442
▁beca	-8.33514
▁brother	-8.33744
▁sai	-8.33944
▁charge	-8.34231
▁difficult	-8.34399
▁water	-8.34509
▁design	-8.34556
more	-8.35417
▁introduce	-8.35452
▁song	-8.35804
▁plann	-8.3582
en	-8.36432
▁answer	-8.3671
▁spend	-8.36756
▁children	-8.37143
▁!	-8.37443
ought	-8.37531
▁open	-8.37738
▁end	-8.38088
▁walk	-8.38386
ting	-8.38416
▁liv	-8.38683
▁case	-8.38721
▁thanks	-8.38862
▁restaurant	-8.39253
▁6	-8.3927
▁airport	-8.3961
▁usual	-8.40017
▁monday	-8.40322
▁cold	-8.40477
▁believe	-8.40561
▁bit	-8.4081
ry	-8.40975
day	-8.41408
▁bring	-8.41704
ng	-8.41916
▁move	-8.4195
▁seoul	-8.42129
▁vacation	-8.42151
▁issue	-8.42181
ive	-8.42337
▁cost	-8.42698
▁enter	-8.43202
▁husband	-8.43235
▁sister	-8.4324
▁face	-8.43447
▁question	-8.43609
coming	-8.4435
▁en	-8.44369
▁busy	-8.44498
▁ever	-8.44607
▁card	-8.44617
▁philippine	-8.44729
▁done	-8.4505
▁purchase	-8.45117
▁feeling	-8.45633
▁met	-8.45886
▁worrie	-8.46518
▁tak	-8.46976
▁wonder	-8.47012
▁train	-8.47033
▁dinner	-8.47388
▁cook	-8.47772
▁girlfriend	-8.47786
▁kim	-8.47912
ther	-8.48116
▁file	-8.48644
orry	-8.48912
▁future	-8.48946
▁women	-8.48947
▁sample	-8.48958
▁final	-8.49092
▁process	-8.49181
▁fel	-8.49233
▁earl	-8.49387
▁pictures	-8.49512
▁recommend	-8.49687
▁point	-8.49692
▁eyes	-8.49964
▁mak	-8.49996
fore	-8.50038
▁stop	-8.50047
▁payment	-8.50163
▁event	-8.50371
▁present	-8.5101
not	-8.51369
▁provide	-8.5168
▁dog	-8.52164
us	-8.523
▁turn	-8.52607
▁hand	-8.53556
▁city	-8.53635
▁opinion	-8.53749
▁video	-8.54156
▁found	-8.54194
▁prett	-8.55492
▁letter	-8.55658
▁floor	-8.55824
▁clean	-8.56538
▁friday	-8.56665
▁situation	-8.5667
▁birthday	-8.56676
▁father	-8.56834
▁write	-8.57123
▁mother	-8.57232
▁small	-8.57242
▁material	-8.57599
alone	-8.57618
▁thre	-8.57714
▁pass	-8.58485
▁side	-8.58767
▁type	-8.58916
▁amount	-8.59245
▁chance	-8.59248
▁data	-8.59294
est	-8.59533
g	-8.59657
▁special	-8.6008
▁bag	-8.60113
▁front	-8.60323
▁daughter	-8.6057
▁son	-8.60859
▁few	-8.61067
▁support	-8.61452
▁muc	-8.61699
▁hair	-8.62609
▁professor	-8.62771
▁winter	-8.62774
▁hurt	-8.62828
ried	-8.62952
sterda	-8.62998
▁remember	-8.63225
▁30	-8.63291
▁program	-8.63358
▁complete	-8.63552
▁decided	-8.63636
▁weekend	-8.63888
▁sell	-8.64043
▁return	-8.64127
▁summer	-8.64155
▁set	-8.64608
▁attend	-8.64713
low	-8.64874
▁sad	-8.6496
▁consider	-8.65034
▁moment	-8.65077
▁content	-8.65114
▁major	-8.65224
▁pick	-8.66286
▁photo	-8.66361
▁add	-8.66718
use	-8.66799
▁coffee	-8.66894
▁far	-8.66904
▁story	-8.67274
▁regard	-8.67371
▁explain	-8.67388
▁7	-8.67404
▁minute	-8.67631
▁hate	-8.67698
▁both	-8.67727
ember	-8.67734
▁address	-8.67737
▁child	-8.67982
ten	-8.68198
▁hospital	-8.68201
▁young	-8.68282
▁memor	-8.68283
▁fam	-8.68367
▁matter	-8.68429
▁grade	-8.68506
▁contract	-8.69215
▁bank	-8.69393
▁sudden	-8.69745
▁computer	-8.69773
▁availab	-8.69835
▁relationship	-8.70236
ment	-8.70692
yet	-8.70746
▁list	-8.70958
▁college	-8.71214
▁express	-8.71607
▁short	-8.72123
▁saturday	-8.72188
▁body	-8.72279
▁sorr	-8.72674
▁full	-8.72707
▁quick	-8.72716
▁k	-8.73083
▁model	-8.7319
▁easi	-8.73229
▁teach	-8.73643
▁forward	-8.7434
▁confirm	-8.74682
▁weather	-8.74805
▁touch	-8.74967
▁public	-8.75141
▁system	-8.75212
▁kid	-8.75368
▁forget	-8.75753
nstead	-8.75762
▁saying	-8.76749
▁past	-8.76837
re	-8.7703
▁proceed	-8.77254
▁department	-8.77259
▁ticket	-8.77275
p	-8.77358
▁size	-8.77702
▁building	-8.77789
▁hot	-8.77959
ance	-8.78251
▁strong	-8.78258
▁current	-8.78343
▁fee	-8.78569
▁flower	-8.787
▁gett	-8.78838
▁report	-8.79732
▁happi	-8.80301
▁main	-8.80385
▁glad	-8.80489
▁attach	-8.80844
or	-8.80904
▁act	-8.8118
▁haven	-8.81261
▁party	-8.8151
▁share	-8.81536
▁grow	-8.81795
▁easy	-8.819
▁education	-8.82061
▁men	-8.82143
▁worry	-8.8231
▁factor	-8.82537
▁break	-8.82606
▁isn	-8.8276
▁island	-8.83028
▁project	-8.83134
▁course	-8.83135
▁flight	-8.83156
▁appreciate	-8.83621
▁effort	-8.83683
▁client	-8.83684
▁fast	-8.83878
▁culture	-8.84589
▁chicken	-8.848
▁fall	-8.8511
c	-8.8523
▁under	-8.85312
▁develop	-8.85593
▁head	-8.85949
▁its	-8.86187
▁additional	-8.86237
▁character	-8.86496
▁sunday	-8.86531
▁reservation	-8.86549
▁gift	-8.8708
▁according	-8.87145
▁age	-8.87301
▁popular	-8.87342
▁shipp	-8.8749
▁delicious	-8.87643
▁positive	-8.87674
▁china	-8.8769
▁follow	-8.87855
is	-8.8791
▁true	-8.8803
▁fine	-8.88277
▁idea	-8.88322
▁promise	-8.88609
side	-8.88714
▁kimch	-8.88784
▁animal	-8.88813
▁group	-8.88823
▁light	-8.88936
▁h	-8.88944
▁9	-8.89121
▁broke	-8.89182
▁middle	-8.89389
▁canno	-8.89538
▁center	-8.90007
▁sick	-8.90175
se	-8.90278
▁exam	-8.90343
▁invoice	-8.90604
▁y	-8.9067
▁line	-8.90734
▁lunch	-8.9116
▁difference	-8.91193
▁careful	-8.91218
▁mistake	-8.91675
▁marri	-8.91809
▁clock	-8.91811
▁sound	-8.91888
▁air	-8.91997
▁warm	-8.92061
▁cancel	-8.92089
▁base	-8.92127
▁choose	-8.92476
w	-8.92685
▁skin	-8.928
ork	-8.9281
▁works	-8.93066
▁power	-8.93243
▁8	-8.93503
▁writing	-8.93663
▁expect	-8.93802
▁else	-8.94202
body	-8.94457
▁condition	-8.94629
▁dollars	-8.94638
▁along	-8.94671
▁e	-8.94699
▁trust	-8.9492
▁reading	-8.94999
▁participate	-8.95477
▁mom	-8.95485
▁run	-8.95623
ese	-8.95695
▁snow	-8.957
time	-8.95808
▁exercise	-8.95858
▁following	-8.9595
kay	-8.96058
▁exchange	-8.96209
▁smile	-8.96417
▁apply	-8.96517
▁safe	-8.97263
▁festival	-8.97952
▁refund	-8.98594
▁taste	-8.98642
▁skill	-8.98647
▁members	-8.98724
▁language	-8.99238
▁install	-8.99247
▁meal	-8.9931
▁onl	-8.99374
▁shopp	-8.99396
ncheon	-8.99473
nd	-9.00352
▁street	-9.00598
ook	-9.00726
▁comfortabl	-9.00811
▁books	-9.01048
f	-9.0119
less	-9.01303
▁exist	-9.01465
▁goal	-9.01514
▁shop	-9.01859
▁join	-9.01933
▁cell	-9.01966
▁ship	-9.01975
▁machine	-9.02002
▁activit	-9.02462
work	-9.02559
▁star	-9.02629
▁accept	-9.0265
▁value	-9.02731
▁conversation	-9.03206
▁paper	-9.03383
▁foreign	-9.03554
▁stress	-9.03714
ability	-9.03824
▁development	-9.03895
▁kakao	-9.03899
▁style	-9.03922
▁chang	-9.03958
▁box	-9.04173
▁co	-9.04349
▁lives	-9.04424
▁save	-9.04466
▁holiday	-9.04553
▁film	-9.04617
▁improve	-9.04821
▁100	-9.05204
▁born	-9.05596
▁club	-9.05721
▁mad	-9.05748
▁l	-9.0575
▁deep	-9.05856
▁increase	-9.06053
▁area	-9.06243
▁exact	-9.06617
▁method	-9.0662
▁view	-9.07704
▁unit	-9.07973
▁correct	-9.07986
▁prepar	-9.08003
▁poor	-9.08055
▁receiv	-9.08155
▁interne	-9.08474
▁detail	-9.08649
▁german	-9.09158
▁black	-9.09447
▁performance	-9.09458
▁human	-9.0959
▁tv	-9.09801
▁sales	-9.09849
k	-9.09852
▁recent	-9.10177
▁control	-9.10363
▁practice	-9.10454
▁mr	-9.10533
▁interesting	-9.10566
king	-9.10977
▁international	-9.11126
though	-9.11152
▁foreigner	-9.11238
▁treat	-9.11443
▁qualit	-9.11473
▁clear	-9.11689
▁site	-9.11907
▁post	-9.12204
▁wif	-9.12252
▁respect	-9.12327
nce	-9.12511
▁function	-9.13059
▁south	-9.13223
nt	-9.13309
terda	-9.13324
▁regret	-9.1344
▁lo	-9.13765
▁per	-9.13956
hing	-9.13979
▁field	-9.14027
▁personal	-9.14173
▁cat	-9.14363
ers	-9.14522
▁afternoon	-9.14605
▁hands	-9.14609
▁whole	-9.1461
▁inform	-9.1467
▁wasn	-9.1481
came	-9.14848
where	-9.15224
▁fish	-9.15253
▁mountain	-9.15355
▁police	-9.15456
▁necessar	-9.15518
▁sign	-9.15672
ball	-9.15915
▁match	-9.15985
nger	-9.16054
▁solve	-9.1629
▁cut	-9.16458
▁studie	-9.16634
to	-9.16658
▁simple	-9.17498
▁text	-9.18102
▁los	-9.18308
▁jan	-9.18349
▁basic	-9.18446
▁sea	-9.18496
some	-9.18506
▁includ	-9.1855
▁ride	-9.18777
▁cute	-9.18919
▁bed	-9.19115
▁direct	-9.19179
▁similar	-9.19202
▁period	-9.19212
▁15	-9.19307
▁aren	-9.19407
▁image	-9.19582
▁chine	-9.19646
▁inside	-9.19786
▁librar	-9.19889
and	-9.20086
▁agree	-9.20355
be	-9.2051
▁realize	-9.2053
▁giv	-9.21215
land	-9.21285
by	-9.21424
▁meaning	-9.21462
▁countr	-9.21474
▁tradition	-9.2167
▁offer	-9.21705
rice	-9.21998
▁evening	-9.22012
▁ju	-9.22175
▁photos	-9.22213
ose	-9.22402
▁space	-9.22433
▁march	-9.22462
te	-9.22472
▁brand	-9.22487
▁social	-9.22521
▁ma	-9.2253
▁road	-9.22598
▁shipment	-9.23319
▁mine	-9.23505
▁fix	-9.23614
▁active	-9.23687
rd	-9.23994
▁marriage	-9.24099
▁hobb	-9.24148
▁accident	-9.24234
▁bigge	-9.24252
▁season	-9.24579
▁christ	-9.24621
▁research	-9.24641
▁four	-9.24641
ent	-9.24711
▁discuss	-9.24895
broad	-9.24907
▁prefer	-9.24948
at	-9.25068
▁review	-9.25137
▁sa	-9.25675
▁include	-9.25821
▁guest	-9.25827
▁decide	-9.26103
▁art	-9.26285
▁jeju	-9.266
▁subway	-9.26607
▁wedding	-9.26643
▁appear	-9.26918
▁academ	-9.27091
▁news	-9.27142
▁ga	-9.27155
up	-9.27215
▁original	-9.27223
▁cool	-9.27269
▁fell	-9.2747
▁effect	-9.27482
▁tree	-9.27586
▁fit	-9.27727
▁pray	-9.2779
▁manager	-9.27944
▁advance	-9.27997
quite	-9.28011
▁r	-9.28224
▁term	-9.28306
▁register	-9.28338
▁employee	-9.28624
gry	-9.28663
▁white	-9.28833
mas	-9.28884
▁singer	-9.28906
▁weight	-9.29143
▁rain	-9.29151
▁tuesday	-9.29195
▁wednesday	-9.29197
▁large	-9.29199
▁require	-9.29339
▁release	-9.29519
▁quit	-9.29764
▁50	-9.30009
▁decision	-9.30073
etter	-9.30147
▁guess	-9.30219
▁12	-9.30529
▁natural	-9.30556
▁hang	-9.30568
▁record	-9.30771
▁serious	-9.30963
▁pm	-9.31004
▁normal	-9.31027
▁sweet	-9.31174
▁lose	-9.31239
▁personalit	-9.31665
▁voice	-9.32011
▁doll	-9.32428
▁sports	-9.32509
▁quantit	-9.32749
▁sentence	-9.32773
▁law	-9.32949
▁lead	-9.33177
▁transfer	-9.33312
▁state	-9.33371
▁cake	-9.33516
▁top	-9.33597
▁perfect	-9.33623
▁presentation	-9.33723
▁achieve	-9.3385
▁create	-9.34267
▁interview	-9.34541
he	-9.34584
▁camera	-9.34618
ester	-9.34758
b	-9.34863
▁boy	-9.35027
▁cup	-9.35096
older	-9.35257
▁win	-9.35299
ty	-9.35338
▁severa	-9.35488
▁facebook	-9.35508
▁suffer	-9.35522
am	-9.35562
night	-9.35596
▁amaz	-9.3564
it	-9.35665
▁extra	-9.35798
▁guide	-9.35974
▁shape	-9.36197
▁bett	-9.36218
▁socc	-9.36569
▁america	-9.36713
▁sense	-9.37082
▁table	-9.37214
▁suggest	-9.37323
▁dec	-9.37356
▁october	-9.37379
▁curious	-9.37382
▁continue	-9.37576
most	-9.37662
▁rate	-9.37933
▁hit	-9.38236
▁fact	-9.38262
▁level	-9.38327
▁discount	-9.38333
▁precious	-9.38333
▁further	-9.38346
▁estimate	-9.38367
▁piece	-9.38378
▁di	-9.38649
▁separate	-9.38761
▁sun	-9.38768
▁fill	-9.38947
▁page	-9.39039
▁baby	-9.39042
▁19	-9.39177
ll	-9.3955
eating	-9.39575
ter	-9.39663
▁proper	-9.39813
▁select	-9.39821
ard	-9.40043
um	-9.40133
▁201	-9.40302
▁responsibilit	-9.40328
▁lesson	-9.40415
▁protect	-9.40497
▁technolog	-9.40523
▁depend	-9.40551
▁patient	-9.40568
▁fe	-9.4071
▁apri	-9.40735
▁writ	-9.40913
▁deal	-9.40971
▁ha	-9.41098
▁form	-9.41162
▁subject	-9.41224
▁delay	-9.41244
▁application	-9.4125
▁concern	-9.41357
▁national	-9.41587
▁lie	-9.41651
▁luck	-9.41784
▁worker	-9.41937
▁search	-9.42026
▁scene	-9.42075
▁war	-9.42234
▁position	-9.42682
▁opportunit	-9.42741
▁com	-9.43002
▁choice	-9.43243
▁concert	-9.43293
▁beside	-9.43412
▁satisfie	-9.43471
▁scar	-9.43779
▁wake	-9.43856
▁production	-9.43885
man	-9.43982
▁pack	-9.44
▁earn	-9.44106
▁environment	-9.44198
▁death	-9.44251
▁beach	-9.44319
▁total	-9.44414
▁jun	-9.44702
▁meat	-9.44705
▁key	-9.44736
▁church	-9.45308
▁actual	-9.45341
rry	-9.4539
▁taxi	-9.45771
▁cover	-9.46117
▁apologize	-9.46226
▁website	-9.46294
▁thursday	-9.46297
▁figure	-9.46301
▁continuous	-9.46307
▁management	-9.46311
▁appointment	-9.46402
▁individual	-9.46504
▁focus	-9.46987
▁relat	-9.47022
▁seat	-9.47073
ted	-9.47317
▁equipment	-9.47339
▁president	-9.474
▁sky	-9.47478
▁player	-9.47524
▁cheap	-9.47808
▁pian	-9.47833
▁low	-9.47994
▁refer	-9.48407
▁successful	-9.48412
▁drawing	-9.48491
▁boss	-9.48724
▁catch	-9.48736
ble	-9.48764
▁forgot	-9.48833
▁raise	-9.48981
▁militar	-9.49076
▁drive	-9.4908
▁histor	-9.49085
ic	-9.49224
▁cheer	-9.49594
▁god	-9.49649
aught	-9.49686
▁half	-9.5003
▁da	-9.5007
▁fried	-9.50105
▁allow	-9.50475
▁dish	-9.5053
▁regular	-9.50592
▁tour	-9.50865
▁cafe	-9.51047
5	-9.51226
▁bill	-9.51491
▁driv	-9.51495
▁wouldn	-9.51617
▁credit	-9.51624
▁bright	-9.5168
iness	-9.5172
▁camp	-9.51825
▁po	-9.51927
▁chose	-9.51992
▁graduate	-9.52049
▁relate	-9.52155
bru	-9.52164
▁hong	-9.52508
▁ate	-9.52536
▁expens	-9.52725
▁action	-9.52781
▁mov	-9.52786
▁behavior	-9.52815
▁single	-9.52917
▁tea	-9.53175
▁couple	-9.53824
▁cellphone	-9.53829
▁fruit	-9.53876
old	-9.53901
▁member	-9.53985
▁arm	-9.5408
▁grand	-9.54133
▁fight	-9.54198
▁memori	-9.54476
rote	-9.5459
▁compare	-9.54614
comfortabl	-9.54902
▁volunteer	-9.54949
▁global	-9.55012
▁red	-9.55028
▁role	-9.55163
▁smok	-9.55288
expected	-9.55485
▁pa	-9.55523
▁except	-9.55575
▁fa	-9.55882
▁die	-9.55883
▁stuff	-9.56081
▁urgent	-9.56085
▁competition	-9.56088
▁transportation	-9.56092
▁inspection	-9.56099
▁hold	-9.5618
do	-9.56191
▁ok	-9.56334
▁stock	-9.5635
▁11	-9.56371
▁ear	-9.56408
▁pai	-9.56515
▁reserve	-9.56574
▁step	-9.5666
▁package	-9.56706
▁smart	-9.56849
2	-9.56879
▁surprise	-9.57083
▁success	-9.57135
▁representative	-9.57239
▁ball	-9.57251
▁mention	-9.5729
▁official	-9.57308
▁response	-9.57341
▁breakfas	-9.57454
▁spen	-9.57837
▁arriv	-9.57983
as	-9.58032
▁lecture	-9.58097
ither	-9.58258
▁dress	-9.58333
▁visa	-9.58458
▁ra	-9.58481
▁update	-9.58496
▁understanding	-9.59098
▁drama	-9.59582
▁secret	-9.59585
▁standard	-9.59587
▁blue	-9.59595
▁society	-9.59602
▁score	-9.59672
▁progress	-9.59716
▁j	-9.59729
▁marry	-9.59859
▁00	-9.60125
▁gone	-9.60203
▁door	-9.60231
▁earlie	-9.603
▁trouble	-9.60404
▁purpose	-9.60734
▁damage	-9.60759
▁vietnam	-9.6076
▁previous	-9.60762
▁certain	-9.60773
▁doctor	-9.60775
▁apartment	-9.60796
▁appearance	-9.60805
ree	-9.60844
hind	-9.60878
▁thankful	-9.60885
▁carry	-9.61114
▁actor	-9.61233
▁stand	-9.61389
▁dance	-9.61695
▁lonel	-9.61701
▁strength	-9.61774
▁shoe	-9.61776
▁august	-9.61962
▁network	-9.61966
▁upload	-9.61984
▁version	-9.62036
▁via	-9.62038
▁spring	-9.62105
▁tourist	-9.62208
▁cry	-9.62301
▁suit	-9.62311
▁prevent	-9.62695
▁fail	-9.62757
▁laugh	-9.63163
▁stadium	-9.63184
▁vegetable	-9.63188
▁leg	-9.63263
▁fire	-9.63274
▁sing	-9.63288
sleep	-9.6342
▁cream	-9.63527
▁rich	-9.63927
▁higher	-9.64048
▁whom	-9.64329
▁fault	-9.64421
▁chocolate	-9.64421
▁cause	-9.64493
▁golf	-9.64501
▁disappoint	-9.64528
▁financial	-9.64596
▁local	-9.64633
▁science	-9.64636
▁dong	-9.64658
▁pain	-9.64722
▁app	-9.64933
▁kill	-9.65283
▁partner	-9.6544
▁bar	-9.6547
▁sold	-9.65504
▁18	-9.6565
▁honest	-9.6567
▁smartphone	-9.65674
▁government	-9.65674
▁egg	-9.65687
▁license	-9.6599
▁reach	-9.66013
ch	-9.6602
▁sept	-9.66073
▁thai	-9.66119
▁lower	-9.66209
▁tax	-9.66321
▁se	-9.66489
▁physical	-9.66579
▁draw	-9.66653
▁locate	-9.66902
▁window	-9.66942
▁runn	-9.66985
▁woke	-9.67003
▁eye	-9.67077
▁block	-9.67084
▁swimm	-9.67142
▁li	-9.6715
▁worth	-9.67354
▁everythi	-9.67695
▁gain	-9.67797
▁north	-9.67833
▁menu	-9.6789
rank	-9.68245
▁airline	-9.68274
▁hung	-9.68285
▁direction	-9.68356
▁expression	-9.68423
▁slow	-9.68649
▁less	-9.68746
▁probabl	-9.6878
▁diet	-9.68784
▁driver	-9.68899
▁print	-9.69122
▁american	-9.69129
▁spic	-9.69366
▁traffic	-9.69513
go	-9.6954
▁error	-9.69542
▁private	-9.69562
▁ca	-9.69584
lso	-9.69697
▁dad	-9.70247
▁communication	-9.7086
▁earth	-9.71115
ver	-9.71183
▁sit	-9.71187
1	-9.71367
▁oil	-9.71456
▁mix	-9.71659
online	-9.7168
age	-9.71912
▁0	-9.72022
▁produce	-9.72092
▁uniform	-9.72162
▁impossib	-9.72186
▁treatment	-9.72186
▁certificate	-9.72225
▁engineer	-9.72249
▁repair	-9.72272
▁convenient	-9.72331
mobile	-9.72599
▁lea	-9.7264
▁communicate	-9.72977
▁submit	-9.73037
▁han	-9.7316
▁rule	-9.73325
▁handle	-9.73414
▁taiwan	-9.7351
▁element	-9.73513
▁avoid	-9.7353
▁passion	-9.73596
▁borrow	-9.73707
▁toward	-9.73873
▁beaut	-9.7408
▁mu	-9.74203
▁13	-9.74471
talk	-9.74502
▁buyer	-9.74867
▁proud	-9.74878
▁unique	-9.74881
▁fashion	-9.74882
▁bec	-9.74954
▁whe	-9.7509
▁abo	-9.75116
doing	-9.75214
▁river	-9.75331
▁upset	-9.75512
▁custom	-9.75632
▁200	-9.75654
▁rid	-9.75708
et	-9.75791
▁painting	-9.75848
▁reduce	-9.75942
▁surger	-9.76121
▁code	-9.76171
ves	-9.76192
id	-9.76229
▁habit	-9.76244
▁domestic	-9.76272
▁quiet	-9.7628
▁leader	-9.76352
▁comment	-9.76376
▁pop	-9.76409
▁economic	-9.76579
▁task	-9.76625
▁spot	-9.76625
▁nature	-9.76648
▁plane	-9.76668
▁pupp	-9.76813
▁compani	-9.76975
▁shall	-9.7699
▁sincere	-9.7708
▁build	-9.7713
lly	-9.77448
▁especial	-9.77685
cy	-9.77695
▁energ	-9.77733
▁sauce	-9.77742
▁deposit	-9.77771
▁dishe	-9.77788
▁specific	-9.78036
▁v	-9.78051
▁ice	-9.78119
▁board	-9.78123
▁fan	-9.78182
▁afr	-9.78224
▁occur	-9.78482
▁40	-9.7861
▁owner	-9.78665
▁500	-9.78679
the	-9.7879
▁mark	-9.78932
▁self	-9.79012
▁contain	-9.79042
▁depart	-9.79102
▁nervous	-9.79108
x	-9.79109
▁device	-9.7911
▁smell	-9.79141
▁region	-9.79178
▁u	-9.79198
▁favor	-9.79206
way	-9.79319
ily	-9.79544
▁24	-9.79594
▁suppose	-9.79643
▁leav	-9.80204
▁desk	-9.80553
▁dangerous	-9.80564
▁knowledge	-9.80599
▁heavy	-9.80607
▁france	-9.80813
▁confident	-9.80818
▁lee	-9.80978
▁collect	-9.81141
▁applie	-9.81183
ts	-9.81197
▁fresh	-9.81328
▁general	-9.81762
▁push	-9.81934
▁advertisement	-9.82036
▁internal	-9.82066
▁hometown	-9.82073
▁holding	-9.82077
kept	-9.82127
▁su	-9.82209
▁rent	-9.82233
tion	-9.82296
▁bas	-9.8233
▁conduct	-9.82332
▁hi	-9.82499
▁manage	-9.82516
won	-9.82616
▁advice	-9.83517
▁example	-9.83529
▁grandmother	-9.83537
▁convenience	-9.83592
▁frequent	-9.8361
▁variet	-9.83848
▁agenc	-9.83875
▁tall	-9.83883
media	-9.84265
▁soft	-9.8471
▁milk	-9.85026
▁guitar	-9.85031
▁adjust	-9.85036
▁double	-9.8504
▁staff	-9.85083
▁third	-9.85085
▁common	-9.85107
▁green	-9.85112
▁attitude	-9.85136
▁professional	-9.85244
▁participat	-9.85383
▁bread	-9.85586
▁16	-9.85631
▁wor	-9.8596
▁wi	-9.86088
▁17	-9.86178
▁yea	-9.86227
▁notice	-9.86236
▁immediate	-9.86574
▁examination	-9.86613
▁chair	-9.86703
▁location	-9.86767
▁throw	-9.86933
un	-9.86947
▁cloth	-9.86996
▁expense	-9.87027
▁inquir	-9.87045
▁bother	-9.87147
▁na	-9.87198
▁career	-9.87425
ju	-9.87506
izza	-9.87678
▁luggage	-9.88133
▁temperature	-9.88138
▁exhibition	-9.88146
▁disappear	-9.88155
▁influence	-9.88177
▁supply	-9.88182
▁talent	-9.88188
▁huge	-9.88452
▁responsibl	-9.88465
▁ho	-9.88512
others	-9.88807
▁gu	-9.88883
▁definite	-9.88938
▁solution	-9.89065
▁hasn	-9.89068
▁shouldn	-9.89413
▁shower	-9.89557
▁europe	-9.89621
▁article	-9.89735
ny	-9.89783
▁medicine	-9.89791
▁stor	-9.89827
▁alcohol	-9.90093
ory	-9.90513
▁strange	-9.9067
▁25	-9.9071
▁import	-9.90819
▁operation	-9.91177
head	-9.91284
▁noodle	-9.91332
▁village	-9.91333
▁director	-9.91484
▁mouth	-9.91511
over	-9.91663
▁coat	-9.91775
▁mid	-9.92012
standing	-9.92401
▁moon	-9.92618
▁wide	-9.92638
▁purchas	-9.92939
▁stomach	-9.92971
▁australia	-9.92974
▁translation	-9.92998
▁advantage	-9.93101
▁stage	-9.9325
▁recover	-9.93267
▁produc	-9.93327
▁option	-9.93395
▁useful	-9.93511
▁apple	-9.9354
▁happ	-9.93693
▁theater	-9.93714
▁wall	-9.94205
▁receipt	-9.94638
▁dormitor	-9.94639
▁demand	-9.94643
▁kindergarten	-9.94643
▁passport	-9.94646
▁destination	-9.94647
▁confiden	-9.94669
▁constant	-9.94712
▁detailed	-9.9485
cheon	-9.95057
▁invite	-9.95064
▁delete	-9.95072
all	-9.95123
▁lack	-9.95144
▁connect	-9.95673
uar	-9.95891
▁de	-9.96052
▁dut	-9.96094
▁affect	-9.96297
▁atmospher	-9.96324
▁fortunate	-9.96382
▁movement	-9.96391
▁fourth	-9.96489
▁cultural	-9.96626
▁14	-9.96726
▁attache	-9.9678
▁foot	-9.96865
held	-9.96971
▁goods	-9.97041
rs	-9.97478
▁sheet	-9.97519
▁depress	-9.97688
▁serve	-9.97736
▁tru	-9.97935
▁museum	-9.98054
▁succeed	-9.98055
▁snack	-9.98056
▁tokyo	-9.98071
▁non	-9.98082
▁impression	-9.98097
▁degree	-9.98133
▁button	-9.98161
▁facilit	-9.98192
▁valuable	-9.98222
▁funn	-9.98295
▁perform	-9.98395
▁land	-9.98591
▁translate	-9.98647
▁grat	-9.98662
▁nation	-9.98697
▁lov	-9.98721
▁buil	-9.98781
▁plant	-9.98953
▁remaining	-9.98977
▁simpl	-9.99041
ries	-9.99398
ice	-9.99445
▁press	-9.99782
▁female	-9.99807
▁olympic	-9.99809
▁cousin	-9.9981
▁ski	-9.99819
▁fi	-9.99847
▁weak	-9.99904
▁officer	-9.99979
▁organization	-10.0001
▁accurate	-10.0006
▁town	-10.0009
▁track	-10.0054
▁dry	-10.0122
▁challenge	-10.0122
▁wind	-10.0123
▁ten	-10.0129
▁six	-10.0147
▁prize	-10.016
▁soldier	-10.016
▁emotion	-10.0168
▁confirmation	-10.0169
▁manner	-10.0174
▁2014	-10.0189
ster	-10.0191
▁topic	-10.02
▁tower	-10.0207
▁screen	-10.0224
▁23	-10.0257
▁concentrate	-10.0274
▁east	-10.028
▁appli	-10.0298
▁garden	-10.0341
▁ingredient	-10.0342
▁approval	-10.0342
▁blood	-10.0343
▁mo	-10.0343
▁gym	-10.0344
▁classroom	-10.0348
then	-10.0349
▁attraction	-10.0351
▁appropriate	-10.0353
▁safet	-10.0356
msel	-10.0356
▁gate	-10.037
▁web	-10.0384
3	-10.0389
▁pressure	-10.0401
▁cross	-10.0472
new	-10.0478
▁daeg	-10.0488
▁21	-10.049
een	-10.0499
▁cats	-10.0511
▁electronic	-10.0527
▁assignment	-10.0527
▁wanna	-10.0528
ship	-10.0533
▁attack	-10.0539
▁excited	-10.0543
▁adapt	-10.0566
▁pool	-10.0576
▁bet	-10.0589
▁salary	-10.0589
gan	-10.0592
▁provid	-10.0598
▁artist	-10.0599
▁addition	-10.0616
▁port	-10.0666
ife	-10.0668
eful	-10.0671
▁ran	-10.0694
▁kong	-10.0712
▁cosmetic	-10.0715
▁despi	-10.0717
▁excellent	-10.0718
▁industr	-10.0719
▁ground	-10.0722
▁status	-10.0729
▁attractive	-10.0734
▁million	-10.0736
▁canad	-10.0742
▁calm	-10.0742
▁gangn	-10.0746
▁server	-10.0746
▁begin	-10.0746
▁force	-10.0748
pt	-10.0755
▁dark	-10.0764
▁recognize	-10.0771
mm	-10.0776
ill	-10.0781
▁constructi	-10.0803
el	-10.082
ure	-10.082
▁profit	-10.0822
▁aware	-10.0833
▁truth	-10.0867
▁straight	-10.0894
▁bicycle	-10.0907
▁disease	-10.0907
▁download	-10.0908
▁distance	-10.0909
▁effective	-10.0915
▁procedure	-10.0935
ays	-10.0939
▁chat	-10.0956
▁container	-10.0957
▁remove	-10.0971
▁dai	-10.0972
▁trade	-10.1
▁gold	-10.1022
▁worse	-10.1023
▁paint	-10.1025
▁nor	-10.1026
▁drop	-10.1073
▁relax	-10.1102
▁adult	-10.1103
▁feedback	-10.1103
▁maintain	-10.1104
▁potato	-10.1112
▁crime	-10.1129
▁birth	-10.1151
▁asian	-10.1152
v	-10.1171
▁graduat	-10.12
father	-10.1205
▁pull	-10.1207
▁nam	-10.121
▁ex	-10.1212
▁reflect	-10.1242
mous	-10.1248
▁roll	-10.1248
▁spa	-10.1254
▁stick	-10.1282
.	-10.1284
▁drunk	-10.1296
▁senior	-10.1303
▁google	-10.1303
▁basket	-10.1303
▁complex	-10.1303
▁boil	-10.1307
▁seller	-10.1313
▁lover	-10.1322
▁limit	-10.1326
▁claim	-10.1331
▁st	-10.1344
▁king	-10.1347
ization	-10.1356
▁si	-10.1362
▁understoo	-10.1375
▁27	-10.1396
▁remain	-10.1402
▁count	-10.141
utum	-10.1439
rew	-10.1446
ings	-10.1469
▁length	-10.1479
▁glass	-10.149
▁jung	-10.15
▁feet	-10.1502
▁colleague	-10.1507
▁thorough	-10.1508
▁characteristic	-10.1508
▁beginning	-10.1509
▁cheese	-10.151
▁unlike	-10.1513
▁extreme	-10.1525
▁locat	-10.153
▁ji	-10.1532
ist	-10.154
ause	-10.1548
▁oversea	-10.1557
▁bored	-10.1573
▁speed	-10.1582
▁nurse	-10.1613
▁heat	-10.1617
▁la	-10.1623
▁grown	-10.1624
ears	-10.1627
▁samsun	-10.1635
▁display	-10.1716
▁craz	-10.1717
▁contest	-10.1717
▁citizen	-10.1723
▁imagine	-10.1727
▁bor	-10.1738
rought	-10.1759
▁almo	-10.1778
▁rock	-10.1785
▁pen	-10.1843
▁sho	-10.1843
▁vessel	-10.1849
ish	-10.185
▁finishe	-10.1869
▁engl	-10.1885
▁doubt	-10.1885
▁opening	-10.1894
ar	-10.191
▁ocean	-10.1928
▁palace	-10.1928
▁negative	-10.1928
▁burden	-10.1928
▁embarrass	-10.1928
▁entire	-10.1929
▁proposal	-10.193
▁diligent	-10.1933
▁cash	-10.1944
▁2017	-10.1948
ne	-10.199
▁relieve	-10.2004
▁firm	-10.2005
▁rough	-10.2006
▁expert	-10.2031
▁shin	-10.204
▁hall	-10.2042
▁belong	-10.2046
ay	-10.2052
▁jump	-10.2058
▁relative	-10.2058
dy	-10.2071
▁bo	-10.2071
▁pleasur	-10.2071
▁yo	-10.2081
▁leas	-10.2083
▁male	-10.2085
▁fair	-10.2107
▁manil	-10.2124
▁explanation	-10.2146
▁peace	-10.2155
cross	-10.2175
▁spread	-10.218
▁makeup	-10.2186
▁remind	-10.2238
▁programs	-10.2256
▁manufactur	-10.2314
▁setting	-10.2339
▁gas	-10.2344
▁math	-10.2348
▁concept	-10.2353
▁climb	-10.2367
▁anniversar	-10.2368
▁automatic	-10.2368
ro	-10.2371
▁sale	-10.2371
▁replace	-10.2373
▁waste	-10.2374
▁compar	-10.2376
▁terribl	-10.2377
▁bowl	-10.2381
▁pre	-10.2384
▁smoke	-10.2386
▁wash	-10.2392
▁complet	-10.2394
▁glasses	-10.2404
▁n	-10.2405
▁hero	-10.2431
▁electric	-10.2437
▁exercis	-10.2438
▁fool	-10.2439
▁respond	-10.244
▁height	-10.2443
▁shar	-10.2445
▁lotte	-10.2454
▁twi	-10.2456
▁pro	-10.2465
▁26	-10.2472
▁load	-10.2492
▁etc	-10.2496
▁tri	-10.2496
▁gather	-10.2511
▁hyun	-10.2542
ile	-10.2549
ated	-10.2556
▁passe	-10.2566
▁stoppe	-10.2584
▁laptop	-10.2595
▁ramen	-10.2596
▁represent	-10.2597
▁pattern	-10.2597
▁designer	-10.2601
▁copy	-10.2607
▁smooth	-10.2614
▁master	-10.2614
▁structure	-10.2663
z	-10.2697
6	-10.2701
▁farm	-10.2717
▁loss	-10.2812
▁dead	-10.2819
▁nose	-10.2819
▁experiment	-10.2828
▁impressive	-10.2829
▁congratulation	-10.2832
▁promotion	-10.2833
▁modern	-10.2835
▁bike	-10.2838
▁shot	-10.2847
▁familiar	-10.2848
▁section	-10.2854
▁agent	-10.2859
▁usage	-10.2859
my	-10.2866
abc	-10.2867
▁creat	-10.2868
▁econom	-10.2877
▁divers	-10.2879
ems	-10.2879
▁increasing	-10.2888
▁ideal	-10.2894
▁dropp	-10.2895
▁mart	-10.2901
▁jin	-10.2915
▁injur	-10.2925
▁imagin	-10.2944
ada	-10.2945
line	-10.2957
▁revise	-10.2961
kg	-10.2965
▁raw	-10.2979
▁user	-10.2982
▁sex	-10.299
▁balance	-10.3006
▁registr	-10.3016
▁hurr	-10.3046
▁yellow	-10.3065
town	-10.3071
▁pc	-10.3075
▁fluent	-10.3081
▁celebrit	-10.3082
▁pig	-10.3088
▁pretend	-10.3093
▁thick	-10.3096
▁tough	-10.311
▁famili	-10.3119
▁22	-10.3122
▁sp	-10.3123
▁danc	-10.3125
▁band	-10.3143
ather	-10.3144
▁min	-10.3146
8	-10.3168
▁mall	-10.3179
▁profi	-10.3179
▁ba	-10.3182
mber	-10.3187
▁connected	-10.32
▁ar	-10.3206
ium	-10.33
▁ceremon	-10.3309
▁wallet	-10.3314
ware	-10.3323
▁suggestion	-10.3329
▁joke	-10.3331
▁policy	-10.3352
▁nov	-10.3353
▁exhaust	-10.3377
▁dear	-10.3395
▁forgive	-10.3395
ism	-10.3413
▁range	-10.3421
▁mood	-10.3425
ring	-10.3435
▁brown	-10.3457
▁consist	-10.3476
▁feature	-10.3477
▁stair	-10.3499
▁continu	-10.3514
▁provinc	-10.354
light	-10.3542
tention	-10.3551
▁newspaper	-10.3559
▁title	-10.3564
▁benefit	-10.3565
inton	-10.3567
▁defect	-10.3577
pe	-10.3585
▁shoot	-10.3602
▁frustrat	-10.3603
▁soap	-10.3615
▁bear	-10.3623
15	-10.3628
▁sem	-10.3632
ady	-10.3643
▁x	-10.366
▁desire	-10.3672
▁pet	-10.3679
house	-10.3695
▁wire	-10.3715
▁shock	-10.3718
▁stone	-10.3728
▁joy	-10.3729
her	-10.3733
▁welcome	-10.3738
co	-10.3744
page	-10.3763
▁entra	-10.3781
de	-10.3786
▁encourage	-10.3799
▁deserve	-10.3816
▁accommodation	-10.3816
▁invest	-10.3817
▁empty	-10.3817
▁risk	-10.3818
▁tool	-10.3818
▁background	-10.3819
▁regulation	-10.3819
▁passionate	-10.3823
▁domain	-10.3824
▁shy	-10.3824
▁pencil	-10.3827
il	-10.3832
▁modifi	-10.3832
▁overcome	-10.3834
▁loud	-10.3841
▁finger	-10.3858
▁lady	-10.3868
▁con	-10.3871
▁possibilit	-10.3893
▁establish	-10.3894
▁approach	-10.3897
▁transferr	-10.3926
nna	-10.393
▁frame	-10.3941
▁sh	-10.3946
▁harm	-10.3984
▁chatt	-10.3984
red	-10.3999
▁celebrate	-10.4003
▁badm	-10.4031
▁wa	-10.4041
▁kit	-10.4049
yang	-10.4065
ul	-10.4067
▁object	-10.407
▁kne	-10.4076
▁bu	-10.4076
▁audience	-10.4079
▁cigarette	-10.4079
▁seafood	-10.4079
▁branch	-10.4079
▁incident	-10.408
▁insurance	-10.4082
4	-10.4095
▁consideration	-10.4098
▁plent	-10.4099
▁finding	-10.4116
▁creative	-10.4116
▁anyway	-10.4119
▁confus	-10.4127
▁john	-10.4132
▁nail	-10.4141
▁deadlin	-10.4141
▁complaint	-10.4158
▁tw	-10.4171
▁securit	-10.419
▁kang	-10.4197
▁operate	-10.4198
ence	-10.4206
7	-10.422
▁impress	-10.423
▁pr	-10.423
▁award	-10.4231
▁mission	-10.4242
▁permissi	-10.426
▁300	-10.4265
▁jeon	-10.4269
▁arrange	-10.4284
ture	-10.43
▁starte	-10.4303
▁india	-10.4311
ma	-10.4311
▁salt	-10.4328
▁access	-10.4341
▁bottom	-10.4348
▁russia	-10.4348
▁channel	-10.4349
▁conclusion	-10.4349
▁quotation	-10.4349
▁conference	-10.4349
▁perspective	-10.4349
▁toilet	-10.4352
▁translator	-10.4352
▁jacket	-10.4356
▁nick	-10.4357
▁horse	-10.4361
▁flow	-10.4361
▁princess	-10.4379
ught	-10.439
▁civil	-10.4391
▁fly	-10.4392
▁entr	-10.4395
▁laz	-10.4396
▁centu	-10.4402
▁swim	-10.4404
▁chu	-10.4407
▁satisfy	-10.4409
verage	-10.4417
▁q	-10.442
ate	-10.4426
ine	-10.4427
rench	-10.4444
▁studi	-10.4455
ying	-10.4463
▁citi	-10.4469
▁submitt	-10.4477
▁combin	-10.4485
▁mess	-10.4491
ang	-10.4491
▁cable	-10.4498
don	-10.4507
▁skat	-10.4533
▁map	-10.4579
▁upgrade	-10.4604
▁umbrella	-10.4626
▁refrigerator	-10.4627
▁weird	-10.4627
▁particular	-10.4628
▁annoy	-10.4632
▁inconvenience	-10.4634
▁technical	-10.4634
▁honor	-10.4634
▁agreement	-10.4636
▁teenager	-10.4638
▁spirit	-10.4638
▁bottle	-10.4639
▁shirt	-10.4644
▁medal	-10.4676
apor	-10.4676
9	-10.4681
paris	-10.4686
▁ignore	-10.4688
▁comfort	-10.469
▁link	-10.4702
▁pleasant	-10.4706
san	-10.4715
▁sport	-10.4765
right	-10.4768
▁income	-10.4781
▁resolve	-10.4808
▁solv	-10.4811
▁payp	-10.4825
ept	-10.4826
▁uncle	-10.4854
▁joint	-10.4859
vision	-10.4876
▁lend	-10.4895
▁launch	-10.4902
▁accomplish	-10.4911
▁percent	-10.4911
▁speech	-10.4912
▁divorce	-10.4912
▁airplane	-10.4912
▁guarantee	-10.4912
▁password	-10.4912
▁component	-10.4912
▁sugar	-10.4912
▁muscle	-10.4913
▁resource	-10.4913
▁improvement	-10.4918
▁employ	-10.4937
▁adopt	-10.4938
▁cloud	-10.4944
ache	-10.4945
▁wheel	-10.4945
▁fund	-10.4955
▁beat	-10.4967
▁musical	-10.4988
▁export	-10.499
▁novel	-10.5001
▁judge	-10.5001
led	-10.5002
▁massage	-10.5006
▁settle	-10.5007
▁sticker	-10.501
▁31	-10.5033
▁operat	-10.5042
▁fat	-10.5049
▁soul	-10.5068
▁70	-10.5105
▁charm	-10.5105
▁fear	-10.5125
▁seven	-10.515
▁awe	-10.5168
ant	-10.5179
▁gang	-10.5186
▁fever	-10.5194
ood	-10.5197
▁essential	-10.5206
▁corporation	-10.5207
▁xx	-10.5207
▁investment	-10.5208
▁courage	-10.5216
▁batter	-10.5222
▁bridge	-10.5224
▁fabric	-10.5233
▁ceo	-10.5234
ns	-10.5235
▁rude	-10.5237
▁sensitive	-10.524
▁consumer	-10.5251
▁28	-10.5255
ical	-10.5258
▁ones	-10.5261
▁authorit	-10.5274
▁opposit	-10.5277
▁slight	-10.5298
mission	-10.5305
▁hole	-10.5306
▁apart	-10.5314
hood	-10.5339
▁60	-10.5344
▁burn	-10.5358
▁hat	-10.5376
tting	-10.5405
raid	-10.5411
▁washing	-10.5415
▁ki	-10.5422
ving	-10.5425
ility	-10.5433
▁practical	-10.5452
ition	-10.5463
whil	-10.5484
▁sle	-10.5484
▁ta	-10.5488
▁welfare	-10.5509
▁magazine	-10.5509
▁terminal	-10.5509
▁transaction	-10.5509
▁certification	-10.551
▁extension	-10.551
▁joyful	-10.5511
▁italian	-10.5512
▁manual	-10.5525
▁input	-10.5529
▁decrease	-10.5535
▁attenti	-10.5564
▁analys	-10.5571
aewon	-10.5572
ad	-10.5575
ier	-10.5595
ible	-10.5599
▁withdraw	-10.5613
▁charming	-10.5613
▁invit	-10.5625
▁meant	-10.5625
▁becom	-10.5625
▁du	-10.563
▁gap	-10.5637
▁minim	-10.5639
▁suitabl	-10.5639
▁lines	-10.5657
▁path	-10.5665
▁propert	-10.567
▁squa	-10.5677
▁kn	-10.5687
ur	-10.5714
▁legal	-10.5731
la	-10.574
bility	-10.575
▁practic	-10.5755
▁em	-10.5764
▁jo	-10.5793
▁rais	-10.5794
cm	-10.5811
▁brief	-10.5821
▁disturb	-10.5821
▁vitamin	-10.5821
▁christian	-10.5822
▁painful	-10.5826
▁wave	-10.583
▁pocket	-10.5835
▁arrival	-10.5838
▁brain	-10.5842
▁hop	-10.586
▁ei	-10.5861
you	-10.5867
▁layer	-10.5869
▁advise	-10.5889
▁pla	-10.589
▁discriminat	-10.5891
▁freed	-10.5899
▁opera	-10.5901
▁soju	-10.5901
▁luxur	-10.591
▁surprising	-10.5911
▁realiz	-10.5932
▁broadcast	-10.595
▁env	-10.5952
▁dat	-10.5959
▁race	-10.5988
▁mass	-10.6002
▁tr	-10.6004
▁coin	-10.6025
hy	-10.6085
▁greet	-10.6089
ra	-10.61
▁bath	-10.6101
sort	-10.6121
▁jam	-10.613
▁sight	-10.6134
ended	-10.614
▁vehicle	-10.6143
▁abandon	-10.6143
▁bathroom	-10.6144
▁neck	-10.6145
▁neighbor	-10.6148
▁pot	-10.6148
▁institute	-10.615
▁grill	-10.615
seok	-10.6159
▁emergenc	-10.6159
ped	-10.6161
▁friendship	-10.6167
▁cargo	-10.6168
▁wood	-10.6171
gram	-10.6174
▁describe	-10.6174
▁busa	-10.6176
▁exit	-10.6183
▁davi	-10.6186
▁pure	-10.6197
▁extend	-10.6197
▁propose	-10.62
ga	-10.621
▁gradua	-10.6212
▁cooperati	-10.6231
▁neat	-10.6234
▁institution	-10.6237
▁mental	-10.6249
▁elder	-10.6265
ri	-10.6267
▁shoulder	-10.628
▁sang	-10.6287
▁edit	-10.6304
ious	-10.6321
ied	-10.6326
▁tight	-10.6378
▁inner	-10.6394
for	-10.6405
▁determine	-10.6408
ef	-10.6415
▁ring	-10.6417
▁tel	-10.6436
wards	-10.6443
ide	-10.6452
▁commercial	-10.6455
na	-10.6459
▁emotional	-10.6462
▁stupid	-10.6476
▁baggage	-10.6477
▁animation	-10.6478
▁western	-10.6479
▁bloom	-10.6479
▁lon	-10.648
▁arms	-10.6482
▁seme	-10.6484
▁strict	-10.6492
▁fulfill	-10.6494
▁efficient	-10.6495
taly	-10.6495
▁foundation	-10.6496
▁gun	-10.6502
▁skirt	-10.6505
▁caf	-10.6531
▁sung	-10.6532
▁hell	-10.6548
▁plate	-10.655
▁usa	-10.6551
▁weren	-10.6558
▁aunt	-10.6566
▁divide	-10.6568
▁hug	-10.6568
▁eight	-10.6572
▁multi	-10.6588
▁construct	-10.6604
evision	-10.6606
▁reward	-10.6612
shop	-10.6618
▁organize	-10.6625
▁impresse	-10.663
▁dirt	-10.665
▁yard	-10.6651
▁nights	-10.6661
▁prove	-10.6664
▁smil	-10.6664
otto	-10.6666
dical	-10.6675
▁dr	-10.6681
▁af	-10.6681
▁log	-10.6696
▁gra	-10.6696
da	-10.6697
q	-10.6755
▁daejeo	-10.6758
▁promote	-10.676
▁communit	-10.6794
▁alive	-10.6808
▁supplie	-10.6817
▁nephew	-10.6821
▁monitor	-10.6821
▁ganghwa	-10.6821
▁criminal	-10.6821
▁crab	-10.6822
▁actress	-10.6822
▁africa	-10.6822
▁command	-10.6822
▁sibling	-10.6822
▁click	-10.6823
▁wealth	-10.6823
▁heaven	-10.6824
▁administration	-10.6825
▁weakness	-10.6826
▁rode	-10.6827
▁lyric	-10.6829
▁potter	-10.683
▁exciting	-10.6832
▁genre	-10.6836
▁consistent	-10.6838
▁modify	-10.6844
ki	-10.685
▁realit	-10.6851
ta	-10.6856
▁generation	-10.6858
▁iphone	-10.6868
ca	-10.6872
▁hide	-10.6877
▁round	-10.6879
ba	-10.688
▁clos	-10.6894
▁asia	-10.6896
▁fo	-10.6908
▁pant	-10.691
▁taek	-10.6929
▁capital	-10.6963
▁prince	-10.6987
▁breath	-10.6988
▁host	-10.6994
▁scener	-10.7019
▁occurre	-10.7038
▁dae	-10.7046
▁bean	-10.7048
▁duri	-10.7056
board	-10.7062
▁ne	-10.7065
▁complain	-10.7075
▁nove	-10.7081
▁considerat	-10.7084
▁bird	-10.71
po	-10.7106
▁sweat	-10.7111
▁fare	-10.7122
ating	-10.7128
ru	-10.7144
▁memorize	-10.7166
▁tast	-10.7176
▁dhl	-10.7178
▁junior	-10.7178
▁pepper	-10.7178
▁awkward	-10.7178
▁sandwich	-10.7178
▁platform	-10.7178
▁instrument	-10.7179
▁signature	-10.7179
▁enterprise	-10.7179
▁compliment	-10.7179
▁monster	-10.7179
▁gangwon	-10.718
▁stew	-10.7181
▁fortune	-10.7185
▁corner	-10.7186
▁escape	-10.7187
▁capture	-10.7193
▁discover	-10.7194
▁sharp	-10.7195
ordina	-10.7195
▁league	-10.7196
dong	-10.7197
▁jane	-10.7197
▁motor	-10.7197
▁robot	-10.7198
▁attendant	-10.7198
▁typical	-10.7201
ee	-10.7204
kbang	-10.7206
▁contribute	-10.7211
ome	-10.7217
▁source	-10.7224
▁boat	-10.7247
▁intention	-10.7248
▁sleepy	-10.7271
per	-10.7282
▁hire	-10.7297
▁pour	-10.7299
▁lock	-10.7305
▁strateg	-10.7313
ling	-10.7324
ha	-10.7336
▁dollar	-10.7339
▁addict	-10.7355
▁paste	-10.7362
▁kyung	-10.7381
▁feb	-10.7393
place	-10.7428
▁29	-10.743
▁rib	-10.7439
▁diar	-10.7472
▁pregnan	-10.7483
▁cap	-10.7489
▁remov	-10.7499
▁le	-10.751
▁zoo	-10.7531
▁advertis	-10.7535
ak	-10.7537
▁par	-10.7543
▁album	-10.7548
▁obtain	-10.7548
▁target	-10.7548
▁karaoke	-10.7548
▁turkey	-10.7548
▁conflict	-10.7549
▁circle	-10.7549
▁elevator	-10.7549
▁blind	-10.7549
▁disadvantage	-10.7549
▁sightsee	-10.7549
▁excuse	-10.7549
▁classmate	-10.755
▁headache	-10.755
▁selfish	-10.755
▁coupon	-10.7552
▁jackal	-10.7552
▁statement	-10.7553
▁ferment	-10.7556
▁warehouse	-10.7559
▁zeal	-10.7562
▁fin	-10.7572
▁accessor	-10.759
▁admire	-10.7597
zed	-10.76
▁led	-10.7602
we	-10.7605
▁improv	-10.7606
▁suppos	-10.7608
▁lay	-10.7628
▁rise	-10.7628
▁bang	-10.763
▁author	-10.763
▁lake	-10.7656
▁polite	-10.7658
▁rose	-10.7663
▁stopp	-10.7673
▁stole	-10.7673
▁broadcasting	-10.7673
ative	-10.7681
▁tale	-10.769
▁eun	-10.7698
▁analyze	-10.7731
▁cheat	-10.7733
▁approve	-10.775
fe	-10.7752
▁patien	-10.7763
▁bi	-10.7764
▁distribut	-10.7764
▁destroy	-10.7764
▁touris	-10.777
▁san	-10.7806
▁trie	-10.7816
▁aut	-10.7844
are	-10.7851
▁pan	-10.7859
▁compan	-10.7867
▁por	-10.7872
ney	-10.7876
▁pair	-10.7884
▁prettie	-10.7905
▁rank	-10.7922
▁measure	-10.7925
▁tag	-10.7927
▁valley	-10.7933
▁budget	-10.7933
▁illegal	-10.7933
▁dentist	-10.7933
▁technique	-10.7933
▁steak	-10.7933
▁romantic	-10.7933
▁incredibl	-10.7933
▁intelligen	-10.7933
▁competitive	-10.7933
▁label	-10.7933
▁cherry	-10.7934
▁introduction	-10.7936
▁investigation	-10.7936
▁academic	-10.7938
▁brazil	-10.7938
▁graduati	-10.7945
▁assign	-10.7945
▁golden	-10.7947
▁tu	-10.7947
▁temple	-10.7947
▁enthusiastic	-10.795
▁preparation	-10.7955
▁cons	-10.7956
▁kiss	-10.7962
table	-10.7965
os	-10.7983
rk	-10.7985
▁west	-10.8012
▁cha	-10.8018
▁nine	-10.8019
▁choi	-10.802
▁chi	-10.8032
▁chip	-10.8042
hand	-10.8065
ial	-10.8081
▁froze	-10.8102
▁writer	-10.8112
▁court	-10.8113
▁cris	-10.8128
twe	-10.8149
▁stori	-10.8161
▁trend	-10.8162
▁intern	-10.817
0	-10.8205
▁apolog	-10.8206
ge	-10.8207
▁jes	-10.8216
▁tooth	-10.8228
room	-10.8232
▁mature	-10.8239
▁publish	-10.8267
so	-10.8283
familiar	-10.8285
▁postpone	-10.8288
ade	-10.8289
▁greed	-10.829
▁ab	-10.8306
▁scale	-10.833
▁surface	-10.8333
▁earthquake	-10.8333
▁distinguish	-10.8333
▁alternative	-10.8333
▁circumstance	-10.8333
▁excessive	-10.8333
▁unfortunate	-10.8333
▁revolution	-10.8333
▁retirement	-10.8334
▁priorit	-10.8334
▁faith	-10.8334
▁pump	-10.8336
▁consult	-10.8341
▁reaction	-10.8346
▁native	-10.8346
▁interior	-10.8347
▁shift	-10.8348
▁billion	-10.8351
▁spare	-10.8363
▁forest	-10.8364
▁ja	-10.8381
nia	-10.8382
▁athlete	-10.8384
▁truck	-10.8412
▁inter	-10.8412
▁pri	-10.8417
▁reject	-10.8426
▁super	-10.843
▁satisfact	-10.8431
▁string	-10.8439
▁br	-10.844
▁temporar	-10.8446
▁angel	-10.8455
▁fairy	-10.8462
▁chin	-10.8481
lastic	-10.8491
▁expir	-10.8492
18	-10.851
▁identi	-10.8524
umn	-10.8533
till	-10.8558
▁nurs	-10.8568
▁absen	-10.8569
▁studio	-10.8603
▁lens	-10.8606
▁hanb	-10.8607
▁handl	-10.8608
▁visitor	-10.8608
▁refuse	-10.8609
▁ke	-10.8623
▁iron	-10.8635
▁gil	-10.865
mark	-10.8688
▁dis	-10.8696
ck	-10.8704
▁jae	-10.8704
▁photograph	-10.8714
▁resemble	-10.8721
▁translat	-10.8722
▁chica	-10.873
▁furni	-10.873
▁attract	-10.8737
sushi	-10.8738
▁pl	-10.8746
▁punish	-10.8748
▁attempt	-10.8749
▁symptom	-10.8749
▁hundred	-10.8749
▁jealous	-10.8749
▁catalog	-10.8749
▁dinosaur	-10.8749
▁rescue	-10.8749
▁draft	-10.875
▁crush	-10.875
▁dislike	-10.8751
▁suspect	-10.8751
▁battle	-10.8753
▁honey	-10.8754
▁nap	-10.8755
▁orange	-10.8755
▁attachment	-10.8758
▁pursue	-10.8763
▁specification	-10.8766
▁recall	-10.8768
▁capacit	-10.8769
▁commission	-10.877
▁scold	-10.8771
▁connection	-10.8771
▁45	-10.8791
▁expectation	-10.8801
▁feed	-10.8804
▁independent	-10.881
▁pollut	-10.8812
▁admit	-10.8829
▁guard	-10.8843
▁heal	-10.8858
▁sort	-10.8862
▁confuse	-10.8864
▁rat	-10.8876
▁central	-10.8881
▁experienc	-10.8881
▁pe	-10.889
▁premi	-10.8893
▁che	-10.8912
our	-10.8917
eeth	-10.8918
▁seo	-10.8925
▁severe	-10.8929
▁grace	-10.8961
▁republic	-10.8989
young	-10.9019
let	-10.9022
▁assistan	-10.9023
▁fold	-10.903
▁metal	-10.9045
lo	-10.9049
mp	-10.906
▁elderl	-10.9077
name	-10.908
▁labor	-10.9082
▁dust	-10.9085
bye	-10.9092
fish	-10.9101
▁equal	-10.9105
▁repeat	-10.9109
▁scare	-10.9119
▁violin	-10.9137
hai	-10.9138
▁rare	-10.9153
▁introduc	-10.9154
▁sub	-10.9154
alon	-10.916
ending	-10.9166
ning	-10.9177
▁roast	-10.9182
▁osaka	-10.9183
▁turtle	-10.9184
▁blossom	-10.9184
▁horror	-10.9184
▁journey	-10.9184
▁souvenir	-10.9184
▁approximate	-10.9184
▁potential	-10.9184
▁protein	-10.9185
▁passenger	-10.9186
▁spider	-10.9186
▁manufacture	-10.9187
▁stamp	-10.9187
▁queen	-10.9187
▁guild	-10.9191
▁endless	-10.9193
▁juice	-10.9194
▁crew	-10.9199
▁hardship	-10.92
▁religion	-10.9201
▁campaign	-10.9202
▁expand	-10.9203
▁guilt	-10.9203
▁complicat	-10.9204
▁temper	-10.9215
▁evaluation	-10.922
▁assembly	-10.9225
▁je	-10.9229
▁misunderstand	-10.9229
▁whi	-10.9231
▁recommendation	-10.9232
▁aspect	-10.9247
▁sl	-10.9247
▁info	-10.925
toge	-10.9272
▁independen	-10.931
▁enem	-10.9325
kong	-10.9326
▁happie	-10.9339
▁kick	-10.9341
▁gre	-10.9342
giv	-10.9352
titude	-10.9358
▁weekday	-10.9375
▁afterward	-10.9413
▁saving	-10.9441
▁yeon	-10.9448
▁noise	-10.9451
11	-10.9461
sung	-10.9471
im	-10.9486
▁lean	-10.9492
▁mis	-10.9496
▁sever	-10.9506
▁wen	-10.9506
▁insist	-10.9515
tten	-10.9516
▁90	-10.9521
ved	-10.9537
▁examine	-10.9544
▁pink	-10.9553
▁400	-10.956
▁booking	-10.9565
▁surpris	-10.9568
▁hel	-10.9572
▁invent	-10.9585
▁flat	-10.9594
▁kr	-10.9597
▁instruction	-10.9601
▁confess	-10.9611
▁wise	-10.9614
yeongju	-10.9615
▁calculat	-10.9617
▁audit	-10.9627
▁ghost	-10.9635
▁rumor	-10.9636
▁mirror	-10.9638
▁absolute	-10.9638
▁superior	-10.9638
▁evidence	-10.9638
▁indonesia	-10.9638
▁betray	-10.9639
▁enroll	-10.9639
▁compensation	-10.964
▁origin	-10.9642
▁external	-10.9642
▁rea	-10.9642
▁principle	-10.9644
uck	-10.9645
▁unexpected	-10.965
▁jewel	-10.9651
gung	-10.9657
▁afford	-10.9658
▁grab	-10.9658
cebu	-10.967
▁announce	-10.9689
▁brave	-10.969
▁signal	-10.9695
▁calculate	-10.97
▁printer	-10.9709
▁mask	-10.9714
▁va	-10.9717
ground	-10.9719
▁crack	-10.972
chen	-10.9731
▁pu	-10.9734
▁scent	-10.9739
▁slipper	-10.9743
▁blame	-10.9751
▁counter	-10.9751
▁conditioner	-10.9758
▁zone	-10.9766
▁pi	-10.9777
▁interpret	-10.979
ot	-10.981
back	-10.9814
▁shang	-10.9815
▁manag	-10.9816
▁gathering	-10.9836
▁usd	-10.9843
▁199	-10.9846
▁pyeong	-10.9849
▁cookie	-10.9849
▁mi	-10.986
▁beyon	-10.987
▁putt	-10.9871
▁vi	-10.9874
▁interrupt	-10.9884
▁issu	-10.9891
▁micro	-10.9902
▁jean	-10.9908
▁stir	-10.9915
of	-10.9921
▁era	-10.9923
▁hid	-10.9944
▁hesitate	-10.9944
▁polic	-10.9956
eral	-10.9964
▁behave	-10.9968
▁chil	-10.9971
jing	-10.9978
▁euros	-10.9986
▁switch	-11.002
▁gwangj	-11.0026
▁fac	-11.0029
▁cur	-11.0046
▁skate	-11.0048
▁planet	-11.0062
men	-11.0068
km	-11.007
ir	-11.0081
style	-11.0083
▁engine	-11.0084
▁predict	-11.0105
▁misunderst	-11.0109
▁blank	-11.011
▁curiosit	-11.0111
▁diamond	-11.0111
▁typhoon	-11.0111
▁pancake	-11.0111
▁powder	-11.0111
▁dynamic	-11.0111
▁prompt	-11.0111
▁disaster	-11.0111
▁competitor	-11.0111
▁disney	-11.0112
▁sejong	-11.0112
▁parcel	-11.0112
ties	-11.0112
▁roommate	-11.0112
▁supermarket	-11.0115
▁pronunciation	-11.0115
▁neighborhood	-11.0115
▁harsh	-11.0115
▁peaceful	-11.0116
▁routine	-11.0118
▁belo	-11.0119
▁volu	-11.0125
▁dump	-11.0126
▁jeong	-11.0127
▁currency	-11.0128
▁desperate	-11.0131
▁survive	-11.0133
▁population	-11.0136
▁compatib	-11.0137
▁surf	-11.0138
misunderstanding	-11.0142
▁hugg	-11.0144
▁penalt	-11.0144
▁frank	-11.0146
▁primar	-11.0157
ew	-11.0157
▁logo	-11.0166
▁inventor	-11.0168
▁route	-11.017
▁tend	-11.0181
▁grass	-11.0205
▁asset	-11.0206
happy	-11.0217
▁involve	-11.0218
▁hearts	-11.0221
▁idol	-11.0222
▁bond	-11.0227
▁compose	-11.0228
if	-11.0244
▁ver	-11.0249
ort	-11.0251
ong	-11.0261
▁yun	-11.0268
nnis	-11.0291
box	-11.03
▁sincer	-11.0308
▁lift	-11.0314
cient	-11.0323
pping	-11.0347
ngue	-11.0357
▁fake	-11.0363
dai	-11.037
▁decorate	-11.0373
▁caus	-11.0407
rash	-11.044
lone	-11.0441
▁ko	-11.0448
▁twent	-11.0468
▁flavor	-11.0469
▁slice	-11.0474
▁graphic	-11.0482
▁crowd	-11.0484
▁prison	-11.0492
here	-11.0493
▁casual	-11.0495
▁jul	-11.0514
▁35	-11.0524
▁150	-11.0526
▁occurr	-11.053
dom	-11.0533
▁alon	-11.0537
▁reporter	-11.0538
▁insta	-11.0542
▁dan	-11.0554
ho	-11.056
▁hip	-11.0563
ou	-11.0569
▁flu	-11.0589
▁dyna	-11.0608
▁replie	-11.061
▁phenomen	-11.0611
▁strawberr	-11.0611
▁messenger	-11.0611
▁seminar	-11.0611
▁seaweed	-11.0611
▁tutor	-11.0611
▁silver	-11.0611
▁association	-11.0612
▁announcement	-11.0613
▁freight	-11.0614
▁consultation	-11.0614
▁blanket	-11.0615
▁objective	-11.0615
▁resume	-11.0615
▁youtube	-11.0616
▁disagree	-11.0618
▁achievement	-11.0619
▁artwork	-11.0622
gh	-11.0623
▁disable	-11.0625
▁choos	-11.0627
▁incorrect	-11.0629
▁aim	-11.0632
▁survey	-11.0632
▁abilit	-11.0636
▁environmental	-11.0636
▁tape	-11.064
▁james	-11.0641
▁permit	-11.0642
▁developer	-11.0642
▁module	-11.0645
▁dealing	-11.0655
▁celebrat	-11.0658
▁maximu	-11.0659
▁rush	-11.0671
▁assume	-11.0672
ends	-11.0673
▁magic	-11.0681
▁dorm	-11.0691
▁deduct	-11.0705
▁thirt	-11.0708
100	-11.071
▁challeng	-11.0723
▁industrial	-11.0731
▁beverage	-11.0733
▁manufacturer	-11.0734
▁80	-11.0742
ft	-11.0757
▁jang	-11.0776
▁bigg	-11.0779
▁correspond	-11.0781
▁luna	-11.0783
▁twin	-11.079
son	-11.0793
▁nei	-11.0798
▁plays	-11.0817
▁devote	-11.0833
ore	-11.0833
wond	-11.0838
▁yang	-11.0856
▁mc	-11.0876
ian	-11.0878
gs	-11.0879
chines	-11.0905
▁charg	-11.0914
▁hye	-11.0914
▁organiz	-11.0916
▁loan	-11.0916
▁releas	-11.0957
given	-11.0958
▁steam	-11.0972
▁fixe	-11.0975
▁playgrou	-11.0976
▁secure	-11.098
eic	-11.0987
▁medica	-11.0989
▁chew	-11.099
▁clip	-11.0991
▁ray	-11.0998
▁pal	-11.0999
▁woo	-11.1005
▁yong	-11.1015
▁cr	-11.102
▁differ	-11.1021
chang	-11.1021
▁brush	-11.1054
▁bri	-11.1075
▁categor	-11.1078
▁divid	-11.1079
▁malaysia	-11.1092
▁acquire	-11.1094
▁gwang	-11.1096
▁confide	-11.1104
tic	-11.112
▁homosexual	-11.1137
▁mathematic	-11.1137
▁prejudice	-11.1137
▁british	-11.1137
▁headquarter	-11.1137
▁phrase	-11.1137
▁heritage	-11.1137
▁bracelet	-11.1137
▁picnic	-11.1137
▁thousand	-11.1137
▁impact	-11.1138
▁rapid	-11.1138
▁butterfl	-11.1138
▁esteem	-11.1138
▁internship	-11.1139
▁measurement	-11.1139
▁bucket	-11.1139
▁estate	-11.1139
▁territor	-11.1141
▁fifth	-11.1142
eaten	-11.1142
▁alarm	-11.1143
▁salad	-11.1143
▁meaningless	-11.1144
▁fancy	-11.1145
▁requirement	-11.1145
▁instant	-11.1147
▁convey	-11.1149
▁earnest	-11.115
▁judgment	-11.1154
▁restroom	-11.1155
▁fuel	-11.1158
▁annual	-11.1159
▁pill	-11.1163
▁heating	-11.1166
▁supplier	-11.117
▁european	-11.117
▁ruin	-11.1179
▁nutrition	-11.119
▁wo	-11.1202
gu	-11.1203
▁danger	-11.1217
▁fantastic	-11.1226
ie	-11.1236
▁recipe	-11.1242
▁cheon	-11.1246
▁mechanic	-11.1249
▁ending	-11.126
▁argue	-11.1271
ow	-11.1274
▁cough	-11.1281
▁election	-11.1288
016	-11.129
▁ri	-11.1305
▁valid	-11.131
▁significant	-11.1311
▁serving	-11.1317
▁blow	-11.1328
▁rope	-11.1374
▁exclud	-11.1378
▁jong	-11.1394
▁hu	-11.1404
▁fur	-11.1418
▁donate	-11.1437
oo	-11.144
▁nois	-11.1475
▁res	-11.1478
cal	-11.1486
oon	-11.1527
rance	-11.1552
000	-11.1553
▁achiev	-11.1564
▁tim	-11.1574
▁alr	-11.1595
▁baker	-11.1606
▁hearted	-11.1619
▁requir	-11.1619
nel	-11.1627
▁inquiri	-11.1629
ping	-11.1632
▁ill	-11.1633
▁ignor	-11.1637
▁nu	-11.1642
▁sin	-11.1658
ake	-11.1658
▁murder	-11.1665
ps	-11.1665
▁hol	-11.1676
▁compos	-11.1677
▁exten	-11.168
▁commit	-11.1686
▁chemical	-11.1693
▁fatigue	-11.1693
▁fundamental	-11.1693
▁hawaii	-11.1693
▁43001	-11.1693
▁obvious	-11.1693
▁necklace	-11.1693
▁shuttle	-11.1693
▁counsel	-11.1693
▁laundr	-11.1693
▁suicide	-11.1693
▁fedex	-11.1693
▁banana	-11.1693
▁exclusive	-11.1693
▁gyeongbok	-11.1693
▁argument	-11.1693
▁cartoon	-11.1694
▁punishment	-11.1695
▁mindset	-11.1698
▁belonging	-11.1698
▁mexic	-11.1698
▁negotiation	-11.1698
▁essay	-11.1698
▁worship	-11.1699
▁replacement	-11.1699
▁filter	-11.17
▁notify	-11.17
▁sketch	-11.1706
▁desert	-11.171
▁reference	-11.171
▁digital	-11.1714
▁reveal	-11.1717
▁ad	-11.1719
▁dimension	-11.1719
▁oh	-11.172
▁seek	-11.1733
▁strap	-11.1739
ut	-11.174
▁swed	-11.1752
▁reasonabl	-11.1753
▁architecture	-11.1769
▁spoke	-11.1779
▁cooperate	-11.1786
▁repeated	-11.1798
▁dongdaem	-11.1814
▁quote	-11.1821
▁lion	-11.1822
▁designate	-11.1828
▁appreciat	-11.1843
▁stands	-11.1876
una	-11.1878
▁promot	-11.1889
rely	-11.1892
▁political	-11.1892
▁learne	-11.1907
▁congratulate	-11.1921
▁expose	-11.1925
▁remitt	-11.1931
▁residenc	-11.1933
kdo	-11.1946
▁knee	-11.1948
▁inquire	-11.1953
rried	-11.1962
min	-11.1978
rw	-11.1989
▁mode	-11.2006
gi	-11.2026
▁promis	-11.2027
▁cancell	-11.2031
▁exclude	-11.2036
▁architect	-11.2049
▁politic	-11.2074
▁bell	-11.2076
▁revis	-11.2082
ton	-11.2085
▁praise	-11.2103
▁exo	-11.2112
llo	-11.2168
▁row	-11.2177
▁tap	-11.2184
▁kyo	-11.2202
care	-11.2204
▁anti	-11.2209
sty	-11.2218
wise	-11.2246
bo	-11.2248
stay	-11.2254
▁surviv	-11.2254
▁wrap	-11.2257
marine	-11.2262
▁belt	-11.2269
▁anxious	-11.2281
▁dessert	-11.2281
▁franchise	-11.2281
▁shrimp	-11.2281
▁tariff	-11.2281
▁ultimate	-11.2281
▁victim	-11.2281
▁agricultur	-11.2281
▁relevan	-11.2281
▁modification	-11.2281
▁unfair	-11.2281
▁coworker	-11.2282
▁entertainment	-11.2282
▁percentage	-11.2283
▁generous	-11.2283
▁household	-11.2284
▁failure	-11.2284
▁textbook	-11.2284
▁hamburger	-11.2284
▁screw	-11.2284
▁bookstore	-11.2284
▁jogg	-11.2285
▁emphasize	-11.2286
▁radio	-11.2286
▁insert	-11.2287
▁allowance	-11.2287
▁gorge	-11.2294
▁suspicio	-11.2296
▁introvert	-11.2297
▁arrest	-11.2299
▁qualification	-11.2309
ia	-11.231
▁faithful	-11.231
▁flutter	-11.231
▁waist	-11.2312
▁winner	-11.2322
▁sorrow	-11.2323
▁inspect	-11.2331
▁appeal	-11.2339
▁discussion	-11.2343
▁restrict	-11.2346
rising	-11.2353
▁collection	-11.2354
▁script	-11.2361
▁shut	-11.2364
▁ro	-11.237
▁sufficient	-11.2372
▁willing	-11.2374
▁hallow	-11.2375
mi	-11.2377
10	-11.2379
▁melt	-11.2384
myeon	-11.2398
▁gentle	-11.2403
▁historical	-11.2422
pan	-11.2438
▁offering	-11.2441
solution	-11.2446
clear	-11.2446
▁lad	-11.2447
▁newly	-11.2448
▁jose	-11.2451
▁tire	-11.2456
▁tra	-11.246
▁barbe	-11.2464
▁union	-11.2466
tory	-11.247
pain	-11.2473
book	-11.2476
▁shipper	-11.2479
▁resident	-11.2494
arts	-11.2516
▁mich	-11.2516
▁vote	-11.2521
▁reli	-11.2535
▁bug	-11.2547
▁poster	-11.2552
▁supervis	-11.2558
16	-11.2561
▁retire	-11.2573
▁highlight	-11.2582
▁edge	-11.2584
▁sat	-11.2598
illa	-11.2621
term	-11.2639
stead	-11.2655
▁plu	-11.266
▁van	-11.2663
▁grandm	-11.2688
▁fry	-11.2689
▁ac	-11.2689
▁establishe	-11.2714
▁stretch	-11.2722
▁renew	-11.2723
▁ag	-11.2723
▁cou	-11.2723
▁dece	-11.273
▁bound	-11.2733
▁carbon	-11.2769
▁120	-11.2792
▁cherish	-11.2804
▁yours	-11.2821
▁creativ	-11.2823
▁tip	-11.2833
ral	-11.2834
▁univers	-11.2846
limited	-11.2849
ans	-11.2859
▁skip	-11.2859
▁interfere	-11.2869
▁1000	-11.2874
like	-11.2879
▁indicate	-11.2881
▁dragon	-11.2905
▁concrete	-11.2906
▁enormous	-11.2906
▁fascinat	-11.2906
▁galaxy	-11.2906
▁garbage	-11.2906
▁recruit	-11.2906
▁scientist	-11.2906
▁chapter	-11.2906
▁implement	-11.2906
▁tattoo	-11.2906
▁climate	-11.2906
▁psychological	-11.2906
▁filipino	-11.2907
▁weapon	-11.2908
▁estimation	-11.2909
▁ota	-11.291
▁absence	-11.291
▁patent	-11.291
▁outfit	-11.2911
▁exceed	-11.2911
▁debut	-11.2911
▁frequenc	-11.2913
▁kitten	-11.2913
▁insect	-11.2916
▁fridge	-11.2917
▁thro	-11.2918
▁belief	-11.2921
▁restriction	-11.2922
▁duck	-11.2923
▁unknow	-11.2928
▁careless	-11.2931
▁mar	-11.2933
▁roof	-11.2933
▁leaf	-11.2937
▁session	-11.294
end	-11.2941
▁sofa	-11.2943
▁spell	-11.2948
▁watche	-11.2949
▁steal	-11.295
ural	-11.2958
▁socks	-11.2964
▁obsess	-11.2965
what	-11.2976
▁trial	-11.2979
▁victor	-11.2981
hen	-11.2986
▁detect	-11.2987
▁fond	-11.2992
▁thoughtful	-11.3003
how	-11.3004
▁strengthen	-11.3009
▁lips	-11.302
▁surrounding	-11.302
▁gi	-11.3029
tally	-11.3031
▁infect	-11.3033
▁wound	-11.3043
▁chung	-11.3044
▁pound	-11.3047
▁yoon	-11.3047
▁onion	-11.3049
etting	-11.3064
ordin	-11.3065
▁typ	-11.3069
▁bl	-11.3071
▁core	-11.3072
cer	-11.3085
▁initial	-11.309
▁lab	-11.3092
▁observe	-11.31
▁fl	-11.3144
▁concentrat	-11.3165
▁cent	-11.3174
▁jack	-11.321
▁steve	-11.3212
▁stranger	-11.3226
▁acknowledge	-11.3233
sis	-11.3236
▁kimba	-11.3244
▁logical	-11.3252
▁regrett	-11.3259
▁packag	-11.3265
ue	-11.3265
▁tae	-11.3269
▁orient	-11.3272
hee	-11.3274
▁ups	-11.3279
▁plasti	-11.3305
ette	-11.3312
▁occasion	-11.3313
ds	-11.3322
taken	-11.3345
▁wrinkle	-11.335
ridge	-11.3353
chi	-11.3353
ap	-11.3378
▁ti	-11.3382
ea	-11.3392
▁bora	-11.3393
▁basi	-11.3408
▁bone	-11.3411
▁thin	-11.3412
▁char	-11.3419
▁moistur	-11.3428
wn	-11.3437
▁console	-11.3445
▁breathe	-11.3449
sh	-11.347
▁buck	-11.3471
▁minh	-11.3474
▁bake	-11.3507
▁2000	-11.353
▁wig	-11.3567
pent	-11.3568
▁humor	-11.3572
▁aggressive	-11.3573
▁multicultural	-11.3573
▁soybean	-11.3573
▁scholarship	-11.3573
▁telephone	-11.3573
▁identification	-11.3573
▁affair	-11.3573
▁unemploy	-11.3573
▁gesture	-11.3573
▁puzzle	-11.3573
▁fantas	-11.3574
▁unusual	-11.3574
▁carrot	-11.3574
▁bubble	-11.3575
▁detective	-11.3575
▁hairstyle	-11.3576
jin	-11.3576
▁musician	-11.3576
▁cheek	-11.3577
▁bro	-11.3577
▁gender	-11.3577
▁greek	-11.3577
▁motivation	-11.3577
▁outdoor	-11.3579
▁violen	-11.3581
▁pension	-11.3581
▁coach	-11.3583
▁executive	-11.3584
▁cheerful	-11.3585
▁possess	-11.3587
▁booth	-11.3592
▁leftover	-11.3592
▁precise	-11.3592
ight	-11.3592
▁speaker	-11.3594
▁defeat	-11.3595
▁folk	-11.3595
▁trick	-11.3595
▁sacr	-11.3596
▁minor	-11.3597
▁comic	-11.3597
▁knock	-11.3599
▁tho	-11.3609
▁broad	-11.3615
▁merit	-11.3616
▁clinic	-11.3619
▁debt	-11.3619
▁beg	-11.3619
▁namsa	-11.362
▁wrapp	-11.3629
▁convention	-11.3635
gae	-11.3639
▁poet	-11.365
▁aqua	-11.3654
▁immun	-11.3655
▁slim	-11.368
▁entertainer	-11.3681
▁sum	-11.3683
ai	-11.3683
get	-11.3692
▁spoon	-11.3698
13	-11.3706
▁strike	-11.3708
uri	-11.3715
timid	-11.3728
school	-11.373
▁react	-11.3736
▁capabilit	-11.374
▁note	-11.3752
▁observat	-11.3757
▁happening	-11.3763
unda	-11.377
▁600	-11.3771
▁healthi	-11.3773
▁euro	-11.3782
craft	-11.3789
▁farmer	-11.379
▁rub	-11.3791
▁shi	-11.3792
▁gar	-11.3802
j	-11.3818
▁evaluate	-11.3822
li	-11.3826
▁cal	-11.3834
hang	-11.3845
buck	-11.385
bok	-11.3865
▁meter	-11.3885
▁mold	-11.3895
▁bump	-11.3895
▁hunt	-11.3909
▁bulg	-11.3921
▁trends	-11.3924
pal	-11.3926
rim	-11.3944
▁tech	-11.3961
ug	-11.3967
▁cure	-11.3977
▁shame	-11.3982
▁800	-11.3988
▁root	-11.4
▁sta	-11.4007
▁format	-11.4009
▁sides	-11.401
nice	-11.4013
▁reserv	-11.4015
▁sophi	-11.4058
cope	-11.4062
awn	-11.4079
▁financ	-11.4079
ride	-11.4086
▁recogniz	-11.4089
▁assist	-11.4091
▁ch	-11.4099
ko	-11.4101
arling	-11.4103
▁discharge	-11.4108
▁enhance	-11.412
▁relation	-11.4133
lim	-11.4148
▁amuse	-11.4154
ael	-11.4177
cial	-11.4179
month	-11.4181
▁eu	-11.4186
▁cast	-11.4205
▁shippe	-11.4214
▁geni	-11.4232
point	-11.4234
▁serv	-11.4237
▁db	-11.4238
▁philosoph	-11.4241
▁onto	-11.4243
▁excel	-11.4245
▁coast	-11.4249
elt	-11.425
▁efficien	-11.4252
ms	-11.4262
▁committe	-11.427
bu	-11.4273
▁ge	-11.4274
▁weigh	-11.4275
▁exhibit	-11.4283
▁artificial	-11.4287
▁cafeteria	-11.4287
▁cautious	-11.4287
▁perfume	-11.4287
▁simultaneous	-11.4287
▁trivial	-11.4287
▁unforgettabl	-11.4287
▁curriculum	-11.4287
▁catholic	-11.4287
▁motorcycle	-11.4287
▁blueprint	-11.4287
▁literature	-11.4287
▁sausage	-11.4287
▁humble	-11.4288
▁random	-11.4288
▁expansion	-11.4288
▁systematic	-11.4288
▁eager	-11.4288
▁split	-11.4288
▁giant	-11.4289
▁greece	-11.429
▁monkey	-11.4291
▁preference	-11.4291
▁appoint	-11.4293
▁adjustment	-11.4294
▁corporate	-11.4295
▁innovation	-11.4295
▁crash	-11.4297
▁invention	-11.4298
▁legend	-11.4298
▁fli	-11.4299
▁protest	-11.4299
▁applicant	-11.4302
▁pub	-11.4307
▁curry	-11.4309
▁bb	-11.4311
▁importan	-11.4313
▁assembl	-11.4313
▁medium	-11.4315
▁rains	-11.4315
▁interpreter	-11.4315
▁poem	-11.4319
su	-11.432
ncil	-11.4321
▁bedroom	-11.4325
▁moral	-11.4325
▁committ	-11.433
▁sensor	-11.4335
cha	-11.4341
easure	-11.4345
▁polish	-11.4349
▁slide	-11.436
za	-11.4362
▁coke	-11.4362
▁semi	-11.4365
▁cms	-11.4373
▁amend	-11.4374
▁gmo	-11.438
top	-11.4388
▁clam	-11.4388
▁commute	-11.4395
rmal	-11.4404
▁flag	-11.4422
▁seok	-11.4427
▁partners	-11.4427
▁chart	-11.4428
▁guns	-11.443
▁classic	-11.4444
▁controll	-11.4449
▁towel	-11.4452
▁grape	-11.4462
▁indian	-11.4463
▁shine	-11.4464
ery	-11.4466
nish	-11.4468
▁advertise	-11.4469
▁determin	-11.4471
▁cruis	-11.4481
▁associate	-11.4487
▁net	-11.4488
hi	-11.4491
▁pose	-11.4493
▁soo	-11.4499
han	-11.4503
hip	-11.4509
▁flexibl	-11.4516
lot	-11.452
▁physic	-11.4531
etti	-11.4531
▁lik	-11.4533
can	-11.4536
▁dri	-11.4539
▁font	-11.456
ol	-11.4563
▁bully	-11.4574
▁tail	-11.4577
half	-11.4578
▁nut	-11.4578
▁aaa	-11.4588
▁boxe	-11.459
▁graph	-11.4594
gun	-11.4617
efore	-11.4618
00	-11.4621
▁pin	-11.4625
▁lob	-11.4625
▁wage	-11.4626
ding	-11.4631
▁galler	-11.4632
ung	-11.4643
▁reported	-11.4644
▁forced	-11.4648
01	-11.4655
usan	-11.4656
lated	-11.4659
▁yu	-11.4661
▁gum	-11.4684
dden	-11.4686
east	-11.4694
▁relie	-11.4697
▁ears	-11.4705
▁convince	-11.4714
year	-11.4722
case	-11.4726
▁bibimba	-11.473
hat	-11.4741
▁cho	-11.4742
oing	-11.4743
▁thrill	-11.4745
▁jenn	-11.4752
▁cheape	-11.4754
▁rome	-11.4763
fu	-11.4773
tation	-11.4773
▁tir	-11.4787
▁wang	-11.4816
▁memoriz	-11.4825
uk	-11.4827
▁wro	-11.485
▁decid	-11.4864
▁250	-11.4865
iel	-11.4874
shame	-11.488
violent	-11.4887
▁qui	-11.4892
▁snows	-11.4895
oup	-11.4904
olog	-11.4905
▁trace	-11.4907
▁mat	-11.4913
▁ugl	-11.4917
▁donation	-11.4919
ned	-11.493
chief	-11.4939
ular	-11.4974
▁grant	-11.4982
ail	-11.4988
▁eel	-11.4998
▁easie	-11.5005
▁inde	-11.5015
▁swit	-11.5022
▁visual	-11.5045
▁sm	-11.5047
▁destin	-11.5056
▁eyebrow	-11.5056
▁genuine	-11.5056
▁scientific	-11.5056
▁cocktail	-11.5056
▁dolphin	-11.5056
▁encounter	-11.5056
▁comparison	-11.5056
▁marvel	-11.5057
▁vertical	-11.5057
▁narrow	-11.5057
▁miserable	-11.5057
▁sympath	-11.5057
▁acquaintance	-11.5057
▁costume	-11.5057
▁buffet	-11.5058
▁inevitabl	-11.5058
▁radish	-11.5058
▁notebook	-11.5058
▁freez	-11.5058
▁instructor	-11.5059
▁twitter	-11.5059
▁creature	-11.5061
▁lodging	-11.5061
▁cabin	-11.5061
▁consign	-11.5062
▁123	-11.5062
▁minister	-11.5063
▁guideline	-11.5064
▁verify	-11.5064
▁gimba	-11.5066
▁silent	-11.5067
▁angle	-11.5067
▁antoni	-11.5069
▁tendenc	-11.5069
▁solid	-11.5069
▁output	-11.5075
▁absorb	-11.5076
▁icon	-11.5077
▁plug	-11.5077
▁forecast	-11.5079
▁shadow	-11.5079
▁limitation	-11.5082
▁calculation	-11.5087
▁burst	-11.5094
▁blog	-11.5095
▁grind	-11.5105
▁landscape	-11.5107
▁cooperat	-11.5109
▁participant	-11.5111
em	-11.5117
▁santa	-11.5118
▁diction	-11.5119
▁odd	-11.512
unch	-11.5121
▁voluntar	-11.5123
▁ethic	-11.513
▁castle	-11.5132
▁pipe	-11.5132
▁poro	-11.5133
▁leak	-11.5136
chon	-11.5137
▁rail	-11.5137
▁elde	-11.5137
▁negotiate	-11.5141
▁sexual	-11.5143
nis	-11.5164
▁pharmac	-11.5171
▁blessing	-11.5174
▁pic	-11.5174
ze	-11.5175
▁gyeongg	-11.5177
▁chest	-11.5178
▁alley	-11.5191
▁weaken	-11.5192
yer	-11.5193
▁couch	-11.5194
▁delet	-11.5196
▁swear	-11.52
▁prohibit	-11.5216
▁bullie	-11.5216
▁vocal	-11.5218
zer	-11.5231
▁realistic	-11.5234
ize	-11.5238
▁reduc	-11.5246
▁hospitali	-11.5246
▁excite	-11.5249
▁arrang	-11.5252
minute	-11.5252
rium	-11.5252
▁motion	-11.5259
▁critical	-11.5259
▁conclude	-11.527
have	-11.5273
▁den	-11.5278
▁swi	-11.5283
aller	-11.5286
▁relations	-11.5296
▁greeting	-11.5312
▁stead	-11.5315
necessar	-11.5326
well	-11.5334
▁bold	-11.5336
▁explore	-11.5338
▁nav	-11.5338
▁bul	-11.5362
▁beneficia	-11.5363
▁bless	-11.5374
sa	-11.5381
▁formal	-11.5385
▁erase	-11.5385
▁authoriz	-11.5387
▁adventure	-11.5389
▁referr	-11.5393
▁dealer	-11.5424
▁twentie	-11.5433
▁recycl	-11.5438
▁hous	-11.5444
istic	-11.5447
▁hill	-11.5456
▁uk	-11.5464
▁bak	-11.5478
▁struggl	-11.5488
▁convert	-11.5501
erial	-11.5506
ward	-11.5513
▁chore	-11.5527
▁investigate	-11.5533
▁eliminate	-11.5535
▁lg	-11.5542
▁troubles	-11.5559
▁grad	-11.5568
eel	-11.5582
▁liberal	-11.559
▁famil	-11.5609
▁communicat	-11.5611
bc	-11.5632
▁utiliz	-11.5641
cue	-11.5649
▁bin	-11.5656
aring	-11.5657
lies	-11.5661
▁mot	-11.5661
▁abnormal	-11.5663
▁sk	-11.5676
jeong	-11.5676
oursel	-11.5679
▁lc	-11.5682
▁198	-11.5716
▁wipe	-11.5727
▁execut	-11.5731
▁tank	-11.5732
bel	-11.5732
▁tom	-11.5743
▁sw	-11.5759
▁accord	-11.5779
bang	-11.5782
▁prayer	-11.5792
▁34	-11.5802
no	-11.5812
▁extract	-11.5817
▁wild	-11.5817
▁decreas	-11.5821
ongdo	-11.583
▁elect	-11.5837
ogi	-11.5844
▁dive	-11.5865
evil	-11.5866
impo	-11.587
▁restore	-11.5877
▁princip	-11.5879
▁sneak	-11.5882
▁symbol	-11.5888
▁austria	-11.589
▁nutrient	-11.589
▁persuade	-11.589
▁dispatch	-11.589
▁valentine	-11.589
▁engrav	-11.589
▁summarize	-11.589
▁honeymoon	-11.589
▁prescription	-11.589
▁district	-11.589
▁essence	-11.589
▁athletic	-11.589
▁remote	-11.589
▁salmon	-11.589
▁cruel	-11.589
▁disorder	-11.5891
▁servant	-11.5891
▁eternal	-11.5891
▁circuit	-11.5891
▁flash	-11.5892
▁humorous	-11.5892
▁snowboard	-11.5893
▁variable	-11.5893
▁lamp	-11.5893
▁ancestor	-11.5894
▁inherit	-11.5894
▁moq	-11.5894
▁cutlet	-11.5895
▁tiger	-11.5895
▁false	-11.5895
▁panel	-11.5896
▁threaten	-11.5898
▁marke	-11.5898
▁revenue	-11.5899
ern	-11.5899
▁galbi	-11.5904
▁tube	-11.5912
▁gramma	-11.5913
wear	-11.5915
▁posture	-11.5916
▁loyal	-11.5923
▁criticize	-11.593
▁trail	-11.5935
▁sleeve	-11.5936
▁portion	-11.5937
▁endure	-11.5941
▁warning	-11.5942
▁outcome	-11.5944
▁activate	-11.5944
▁har	-11.5945
▁junk	-11.5953
elling	-11.5956
▁swam	-11.5956
▁hwa	-11.5958
endar	-11.596
▁decorat	-11.5964
op	-11.5965
▁steadi	-11.5968
▁adorabl	-11.597
uisin	-11.5971
▁refreshing	-11.5975
▁32	-11.5979
▁intended	-11.598
▁functional	-11.5986
jeon	-11.599
▁immigrat	-11.5992
▁convers	-11.5998
▁folder	-11.6002
▁enjoyabl	-11.6012
▁housework	-11.6017
▁seung	-11.6017
load	-11.6018
yeong	-11.6018
▁swatch	-11.6028
▁que	-11.6035
▁flaw	-11.6036
▁combine	-11.6042
▁none	-11.6045
▁bab	-11.6046
▁pad	-11.6046
kin	-11.6051
▁supplement	-11.6056
▁innocen	-11.6059
▁grader	-11.6061
nts	-11.6067
rise	-11.6068
▁assemble	-11.6088
jang	-11.6089
ual	-11.6091
▁sunglass	-11.6102
▁stack	-11.6102
bow	-11.6113
▁yeong	-11.6116
▁irritat	-11.6118
sumption	-11.6119
▁curse	-11.6122
▁necessit	-11.6124
thus	-11.6133
runch	-11.6134
▁irritate	-11.6148
▁utilize	-11.6153
▁trap	-11.6162
▁tips	-11.6162
▁specialize	-11.6169
▁stresse	-11.6187
zard	-11.6203
▁endur	-11.6203
▁nerve	-11.6204
ac	-11.6214
ain	-11.622
ification	-11.6228
▁gr	-11.6237
ockey	-11.6244
wide	-11.6261
▁cri	-11.6263
ongdae	-11.6282
▁chain	-11.629
▁mistaken	-11.6304
wave	-11.6307
▁struggle	-11.6308
stair	-11.6311
▁interact	-11.6317
▁organ	-11.632
50	-11.6327
▁royal	-11.633
▁numer	-11.6331
oka	-11.6343
▁ang	-11.6348
ron	-11.6353
▁approv	-11.6368
itis	-11.6386
live	-11.6394
ori	-11.64
▁competen	-11.6407
▁integrate	-11.6408
stic	-11.6408
▁prior	-11.6412
▁preserve	-11.6412
▁remit	-11.6422
hyun	-11.6451
▁memo	-11.6467
▁mysteri	-11.6472
tu	-11.6488
upon	-11.6494
▁tense	-11.65
wi	-11.6518
▁reform	-11.6523
▁compete	-11.6526
▁perm	-11.6529
▁reader	-11.6559
than	-11.6566
▁exchang	-11.6568
▁jim	-11.6576
▁medi	-11.6577
▁spo	-11.6585
▁scal	-11.6588
▁reliev	-11.6591
soo	-11.6592
▁garl	-11.6594
pm	-11.6596
12	-11.6599
▁sim	-11.6599
▁bench	-11.6604
▁roman	-11.6616
▁probab	-11.6617
bb	-11.6627
▁greas	-11.6636
▁nami	-11.6636
pp	-11.6646
sed	-11.6678
▁distribute	-11.6684
▁differentiate	-11.669
▁stimulate	-11.6694
▁admitt	-11.6696
▁dial	-11.6699
operation	-11.6714
▁entertain	-11.6716
▁awake	-11.6727
▁religio	-11.6763
▁recogni	-11.678
▁loose	-11.6787
tang	-11.6788
▁cram	-11.6797
▁cabbage	-11.6799
▁cucumber	-11.6799
▁protocol	-11.6799
▁vocabular	-11.6799
▁zombie	-11.6799
▁samgyetang	-11.6799
▁technician	-11.6799
▁warrant	-11.6799
▁irregular	-11.6799
▁meticulous	-11.6799
▁conscious	-11.6799
▁genetic	-11.6799
▁grocer	-11.6799
▁curtain	-11.6799
▁context	-11.6799
▁automobile	-11.6799
▁delicate	-11.6799
▁interval	-11.6799
▁guardian	-11.6799
▁nepal	-11.6799
▁oyster	-11.68
▁authentication	-11.68
▁consultant	-11.68
▁horizontal	-11.68
▁liquid	-11.6801
▁harbor	-11.6801
▁shelter	-11.6801
▁scatter	-11.6801
▁contribution	-11.6801
▁enforce	-11.6801
▁govern	-11.6802
▁index	-11.6802
▁appeti	-11.6803
▁louis	-11.6803
▁bulk	-11.6805
▁flour	-11.6806
▁identify	-11.6806
phone	-11.6807
▁alert	-11.6809
▁calori	-11.6811
▁accompany	-11.6813
▁earring	-11.6813
▁qm	-11.6814
▁solar	-11.6817
▁patch	-11.6817
▁eiff	-11.6823
▁snail	-11.6825
▁notification	-11.6828
▁api	-11.6828
▁similarit	-11.6831
▁yoko	-11.6832
▁carton	-11.6835
▁fift	-11.6837
hap	-11.6838
▁debate	-11.6839
▁bung	-11.6842
▁assess	-11.6842
▁intense	-11.6842
vin	-11.6844
▁passive	-11.6848
ions	-11.6856
▁reliab	-11.6857
▁substitute	-11.6859
▁plot	-11.6867
▁statue	-11.6873
rid	-11.6874
ifice	-11.6877
▁ban	-11.688
▁correction	-11.6882
▁drug	-11.6883
▁pond	-11.6886
▁mount	-11.6887
▁pol	-11.689
rump	-11.69
▁runner	-11.6901
▁drain	-11.6902
▁triang	-11.6905
▁hunting	-11.6914
▁ham	-11.6914
llen	-11.6945
▁curve	-11.6947
▁turne	-11.696
fw	-11.6962
▁ka	-11.6965
▁purit	-11.6968
▁subscript	-11.6973
▁companion	-11.6978
▁gla	-11.698
▁transform	-11.698
▁cruci	-11.699
20	-11.6999
consider	-11.7006
wa	-11.7014
▁bob	-11.7015
▁motivate	-11.7019
tress	-11.7029
▁ph	-11.7043
▁wool	-11.7047
▁shout	-11.7057
vessel	-11.7062
ix	-11.7064
rday	-11.707
ological	-11.7071
▁copie	-11.7076
▁prime	-11.7079
▁peel	-11.7095
▁partial	-11.7097
▁faste	-11.7105
▁maximize	-11.7107
▁programm	-11.7112
▁sand	-11.7122
▁easter	-11.7136
nam	-11.7137
▁mike	-11.7139
▁liar	-11.7167
▁sink	-11.7172
flower	-11.7181
ja	-11.7185
ella	-11.7186
▁peach	-11.7194
ost	-11.7195
▁abuse	-11.7222
long	-11.7232
▁41	-11.7243
▁cave	-11.7243
atic	-11.7247
power	-11.7262
▁bow	-11.7303
position	-11.7319
▁virtual	-11.7324
rove	-11.735
▁craft	-11.736
▁dye	-11.7364
ke	-11.7365
▁jak	-11.7373
▁swing	-11.7388
ys	-11.7389
viation	-11.7398
▁worn	-11.7404
ons	-11.7409
ep	-11.7421
pin	-11.7426
▁te	-11.7432
▁hook	-11.7448
rage	-11.7471
▁guid	-11.7473
▁onc	-11.7476
seong	-11.7478
nning	-11.7478
ast	-11.7484
▁engage	-11.749
▁regulat	-11.7491
▁researcher	-11.7504
▁inspire	-11.7507
▁mini	-11.7512
wood	-11.7513
▁bark	-11.7543
▁wan	-11.7558
responsibl	-11.7565
▁assure	-11.7578
▁glo	-11.7603
▁sour	-11.7614
cho	-11.7619
▁generate	-11.762
▁auto	-11.7621
▁surround	-11.7624
take	-11.7631
▁5000	-11.7637
▁breast	-11.764
▁idiot	-11.7643
▁cali	-11.7645
hama	-11.7645
friend	-11.7657
▁110	-11.7673
▁vol	-11.7733
ji	-11.7736
▁fellow	-11.7745
▁sha	-11.7758
que	-11.7761
▁mus	-11.7771
▁toast	-11.7778
▁refresh	-11.7788
▁nan	-11.7789
▁hygien	-11.7798
▁journal	-11.7798
▁episode	-11.7799
▁mosquito	-11.7799
▁sophomore	-11.7799
▁stereotype	-11.7799
▁stubborn	-11.7799
▁tournament	-11.7799
▁vegetarian	-11.7799
▁chopstick	-11.7799
▁handicap	-11.7799
▁optimistic	-11.7799
▁discontinue	-11.7799
▁laborator	-11.7799
▁vendor	-11.7799
▁wholesale	-11.7799
▁poison	-11.7799
▁uncertain	-11.7799
▁publishe	-11.7799
▁mutual	-11.7799
▁distress	-11.78
▁occupation	-11.78
▁vibration	-11.78
▁virus	-11.78
▁verification	-11.78
▁portrait	-11.7801
▁backpack	-11.7801
▁earphone	-11.7801
▁sail	-11.7801
▁permanent	-11.7801
▁rapper	-11.7801
▁tha	-11.7802
▁barrier	-11.7802
▁lemon	-11.7802
▁tomato	-11.7802
▁puff	-11.7804
▁bonus	-11.7804
▁suburb	-11.7804
▁valve	-11.7806
▁sector	-11.7807
▁decoration	-11.7807
▁venture	-11.7807
▁kwang	-11.7809
▁bribe	-11.7809
▁oriental	-11.7809
▁freak	-11.781
cuba	-11.781
▁alien	-11.7811
▁overlapp	-11.7814
▁resign	-11.7814
▁paul	-11.7815
▁tender	-11.7816
▁motel	-11.7817
▁milan	-11.7819
▁jelly	-11.782
▁medication	-11.7821
▁firework	-11.7821
▁crop	-11.7822
▁rival	-11.7824
▁75	-11.7825
▁inspiration	-11.7827
tain	-11.7827
▁urban	-11.7829
▁shortcoming	-11.7829
▁syria	-11.7831
▁respectful	-11.7832
▁rhythm	-11.7837
▁commerc	-11.7837
▁drill	-11.784
teokbok	-11.7841
▁99	-11.7844
▁vip	-11.7847
▁border	-11.7847
▁defend	-11.7849
▁reorder	-11.785
▁revision	-11.7852
les	-11.7853
kok	-11.7855
▁glove	-11.7857
▁cit	-11.7859
anger	-11.7862
down	-11.7866
▁jji	-11.7872
▁begg	-11.7874
sticat	-11.7877
▁id	-11.7883
▁photographer	-11.7888
▁scream	-11.7894
▁cla	-11.7894
ire	-11.7895
cc	-11.7908
ux	-11.7913
▁edward	-11.7921
▁measur	-11.7921
▁marinate	-11.7927
ham	-11.7932
▁chopp	-11.7932
▁whale	-11.7932
venue	-11.7936
▁cu	-11.7941
▁scratch	-11.7943
▁timetable	-11.7946
nstruction	-11.7948
▁macb	-11.7956
▁chill	-11.7961
▁stu	-11.7968
▁glu	-11.7969
oda	-11.7973
▁mesh	-11.7979
ka	-11.7989
that	-11.7991
▁mild	-11.7994
▁myster	-11.7996
▁mari	-11.8002
▁spec	-11.8016
yo	-11.802
lic	-11.8026
▁mischie	-11.803
▁wid	-11.8031
▁pronounce	-11.8032
dae	-11.8065
▁slope	-11.8079
▁consum	-11.8083
▁rational	-11.8107
▁shak	-11.8117
hwa	-11.8117
▁cart	-11.8136
audi	-11.8137
ove	-11.8146
vacu	-11.8158
▁matche	-11.8161
▁cro	-11.8171
▁tie	-11.8173
▁violate	-11.8175
▁sympathize	-11.8176
ensive	-11.8185
▁disc	-11.819
▁scan	-11.8197
▁expos	-11.8198
cl	-11.8199
▁admir	-11.8203
rocco	-11.8217
ors	-11.8234
▁matt	-11.8252
▁unite	-11.8254
▁lense	-11.8257
▁repu	-11.8262
▁diplomat	-11.8265
natural	-11.827
bit	-11.8292
born	-11.8293
▁proof	-11.8294
▁observ	-11.8299
▁spit	-11.8302
▁maca	-11.8302
▁chos	-11.8305
▁pursu	-11.8309
▁tang	-11.8333
ik	-11.8362
▁op	-11.8362
▁productiv	-11.8364
ancy	-11.837
bed	-11.837
▁boot	-11.8381
mo	-11.8383
▁pros	-11.8383
▁minkyun	-11.8385
proof	-11.8406
▁grave	-11.841
owner	-11.8417
▁chic	-11.842
▁examin	-11.8422
▁broker	-11.8423
▁increas	-11.8431
kki	-11.8453
65	-11.8463
▁moch	-11.8466
▁58	-11.8467
▁stepp	-11.8472
▁summ	-11.8506
ench	-11.8513
▁butter	-11.8516
▁boo	-11.8517
nic	-11.8518
▁lin	-11.8523
▁hack	-11.8523
road	-11.8543
hearted	-11.8568
▁confusi	-11.8574
▁existe	-11.8577
▁structur	-11.8579
gen	-11.8589
▁chan	-11.8594
zy	-11.8598
▁vot	-11.8602
vr	-11.8608
▁z	-11.861
▁rubb	-11.8619
coin	-11.8641
gain	-11.8654
▁champion	-11.8673
hin	-11.8675
▁36	-11.8681
▁execute	-11.8686
ami	-11.8687
lus	-11.8688
▁inch	-11.8709
▁194	-11.871
▁prov	-11.8713
▁biolog	-11.8718
ches	-11.8719
▁bid	-11.8722
▁propos	-11.8726
▁faci	-11.8747
▁dep	-11.875
▁definit	-11.8752
▁oppose	-11.8756
maze	-11.8758
▁trans	-11.8759
▁producer	-11.8768
sm	-11.8775
sing	-11.8787
hou	-11.8796
▁eba	-11.8798
▁chase	-11.8807
roth	-11.8826
dependent	-11.8837
▁bat	-11.8842
met	-11.8845
▁critic	-11.8853
▁lu	-11.8854
▁sponsor	-11.8854
▁compet	-11.8855
▁accelerat	-11.8858
▁eve	-11.8858
▁mentor	-11.886
▁humid	-11.8863
▁refine	-11.8864
▁concentrati	-11.8876
▁ther	-11.8881
▁chun	-11.8887
▁laws	-11.8887
▁speci	-11.8893
▁egypt	-11.891
▁brilliant	-11.891
▁neglect	-11.891
▁entrepreneur	-11.891
▁jjajang	-11.891
▁marathon	-11.891
▁scaffold	-11.891
▁tanzania	-11.891
▁leisure	-11.891
▁subtitle	-11.891
▁netherland	-11.891
▁rabbit	-11.891
▁anxiet	-11.891
▁glitter	-11.891
▁popcorn	-11.891
▁silicon	-11.891
▁refugee	-11.891
▁webtoon	-11.891
▁synerg	-11.891
▁volley	-11.891
▁transparent	-11.891
▁jamsil	-11.891
▁symbolize	-11.891
▁diabet	-11.891
▁miracle	-11.891
▁politician	-11.891
▁nightmare	-11.891
▁abortion	-11.891
▁energetic	-11.891
▁candidate	-11.891
▁undergraduate	-11.891
▁gangwha	-11.891
▁yell	-11.891
▁vague	-11.8911
▁agenda	-11.8911
▁reception	-11.8911
▁column	-11.8912
▁administrator	-11.8912
▁balloon	-11.8912
▁harvest	-11.8913
▁complement	-11.8913
▁intensive	-11.8913
▁tolerate	-11.8913
▁mineral	-11.8913
▁spin	-11.8914
▁dragg	-11.8915
▁vivid	-11.8915
▁delight	-11.8916
▁coward	-11.8916
▁elegant	-11.8916
▁bruise	-11.8917
▁phase	-11.8917
▁frighten	-11.8919
▁appliance	-11.892
▁reduction	-11.8922
▁wander	-11.8922
▁freelancer	-11.8923
▁dispute	-11.8926
▁quarter	-11.8926
eongdong	-11.8927
▁pirate	-11.8927
▁awful	-11.8932
▁multiple	-11.8933
▁theatre	-11.8934
▁eyelid	-11.8934
▁spill	-11.8935
▁respective	-11.8938
▁shark	-11.8938
▁boast	-11.8939
▁ipad	-11.894
▁alex	-11.8941
▁pickup	-11.8942
▁eleven	-11.8949
▁carrie	-11.895
▁smith	-11.895
▁identifi	-11.8952
▁auction	-11.8956
▁crisp	-11.8957
▁metro	-11.8959
nb	-11.8963
▁vo	-11.8965
▁modest	-11.8969
duct	-11.897
▁harmon	-11.8979
▁expresse	-11.898
▁capt	-11.8987
▁beans	-11.8988
▁notifie	-11.8989
people	-11.8995
▁laughter	-11.8998
▁delivere	-11.8998
▁chemist	-11.9001
lor	-11.9004
▁swo	-11.9005
▁startup	-11.9007
▁canyon	-11.9011
ax	-11.9011
veral	-11.9022
▁nuts	-11.9024
▁bal	-11.9024
ink	-11.9029
face	-11.9029
▁flood	-11.9034
mbodi	-11.904
▁roller	-11.904
▁owners	-11.9042
eth	-11.9049
▁bou	-11.9053
▁avenge	-11.9056
▁vary	-11.9056
ely	-11.9058
pyeong	-11.906
▁educat	-11.906
▁acid	-11.9064
▁soci	-11.9075
▁philipin	-11.9078
▁emp	-11.9079
▁freshm	-11.9103
▁900	-11.9105
will	-11.9105
▁syr	-11.9109
pore	-11.9111
▁minj	-11.9124
▁jet	-11.9126
▁lung	-11.9136
▁shake	-11.9136
aire	-11.9138
▁gyeong	-11.9144
rates	-11.9145
▁trad	-11.9151
▁suppress	-11.9155
▁spaces	-11.9162
▁insult	-11.9167
▁boost	-11.917
▁gay	-11.9182
▁strive	-11.9203
▁gam	-11.9218
▁cycle	-11.9224
▁breez	-11.9228
▁gear	-11.9228
▁hangeu	-11.9233
▁ridicul	-11.9234
▁fu	-11.9236
▁consume	-11.924
▁jud	-11.9243
▁cl	-11.9249
▁shorten	-11.925
▁wit	-11.9259
▁scann	-11.926
▁soak	-11.9267
oes	-11.927
▁bodi	-11.929
▁accumulat	-11.9293
arta	-11.9294
list	-11.9296
▁pos	-11.9299
▁indoor	-11.9334
▁ucc	-11.9344
▁supporter	-11.9354
▁pleas	-11.9357
▁verifie	-11.9368
▁heel	-11.9369
ido	-11.9389
graph	-11.9391
▁peak	-11.9394
adian	-11.9396
40	-11.9404
▁myung	-11.9409
▁bare	-11.9415
▁bei	-11.942
want	-11.9422
ched	-11.9426
▁del	-11.9429
buk	-11.9429
▁smoker	-11.9434
▁beast	-11.9434
▁tab	-11.9441
▁hwang	-11.945
▁tear	-11.9452
▁collapse	-11.9462
cular	-11.9471
▁lane	-11.9492
▁dub	-11.9495
dental	-11.9496
▁urge	-11.9497
▁bel	-11.95
hyeon	-11.9504
esco	-11.9511
▁develope	-11.9519
▁royalt	-11.9521
cake	-11.9525
▁sal	-11.953
obey	-11.9535
▁cheong	-11.9563
▁bio	-11.9584
▁decline	-11.9588
▁allerg	-11.9589
▁analyz	-11.959
pc	-11.9593
ened	-11.9594
▁ze	-11.9602
▁rust	-11.9613
▁gwanghwam	-11.9614
▁tol	-11.9616
▁necessari	-11.9617
▁span	-11.9617
ashim	-11.9618
▁pale	-11.9629
check	-11.9633
stone	-11.9642
▁saun	-11.9651
▁nv	-11.9654
▁kar	-11.9664
▁sur	-11.9669
▁strategi	-11.9669
▁rating	-11.9676
▁val	-11.9683
▁injure	-11.969
▁yoo	-11.9698
df	-11.9706
▁tele	-11.9711
▁ordere	-11.9719
▁bull	-11.9719
▁cleans	-11.9721
▁nationalit	-11.973
▁qc	-11.9745
06	-11.9754
▁baek	-11.9758
▁persisten	-11.9762
▁flexib	-11.9769
▁dough	-11.978
▁imitate	-11.9783
rang	-11.9789
ngnam	-11.9795
ded	-11.9797
▁offende	-11.9813
election	-11.9817
▁95	-11.9822
▁devot	-11.9833
ank	-11.9847
parent	-11.9848
▁cow	-11.9849
▁dre	-11.9849
▁teache	-11.985
▁hae	-11.9854
30	-11.9863
tension	-11.9868
▁lag	-11.9869
itude	-11.989
▁anyt	-11.9907
▁posting	-11.9908
ite	-11.9913
yeon	-11.9919
▁eco	-11.9928
▁lip	-11.9936
▁sav	-11.9944
▁bite	-11.9951
▁mac	-11.9951
coal	-11.9955
oken	-11.9966
▁pil	-11.9967
▁sn	-11.9971
▁div	-11.9981
ach	-11.9982
▁inc	-11.9991
▁skinn	-11.9993
▁nat	-11.9994
lation	-11.9998
03	-12.0011
ours	-12.0029
▁drugs	-12.0046
▁reset	-12.0052
rts	-12.0056
▁retail	-12.0056
▁gaya	-12.0059
▁700	-12.0069
▁slave	-12.007
▁visi	-12.0077
▁magnet	-12.0079
bi	-12.0083
▁expo	-12.0084
nk	-12.009
azz	-12.0096
ggy	-12.0097
▁patt	-12.0111
mes	-12.0111
▁priva	-12.0129
▁updat	-12.0148
▁cutt	-12.0149
▁compensat	-12.0156
▁transport	-12.0158
▁accura	-12.0159
▁reluctant	-12.016
▁arrogant	-12.016
▁ceramic	-12.016
▁compulsor	-12.016
▁cushion	-12.016
▁endeavor	-12.016
▁envelope	-12.016
▁handkerchief	-12.016
▁helicopter	-12.016
▁pharmaceutical	-12.016
▁scissor	-12.016
▁shakespeare	-12.016
▁surrender	-12.016
▁volcano	-12.016
▁bamboo	-12.016
▁cctv	-12.016
▁intellectual	-12.016
▁voucher	-12.016
▁lipstick	-12.016
▁tangerine	-12.016
▁mushroom	-12.016
▁emoticon	-12.016
▁intestine	-12.016
▁disregard	-12.016
▁refrain	-12.016
▁41001	-12.016
▁unreasonabl	-12.016
▁margin	-12.016
▁championship	-12.016
▁revenge	-12.016
▁mandarin	-12.016
▁billiard	-12.0161
▁trigger	-12.0161
▁vaccination	-12.0161
▁keyword	-12.0161
▁disposable	-12.0161
▁unpack	-12.0161
▁abolish	-12.0161
▁pie	-12.0161
▁vomit	-12.0161
▁dumpling	-12.0162
▁confidential	-12.0162
▁renown	-12.0162
▁sentimental	-12.0162
▁illustration	-12.0163
▁squid	-12.0163
▁dizz	-12.0164
▁obligation	-12.0164
▁sunshin	-12.0166
▁turk	-12.0167
▁rob	-12.0168
▁thumb	-12.0169
▁elastic	-12.017
▁kidnappe	-12.017
ladder	-12.017
▁contrast	-12.017
eong	-12.0172
▁injection	-12.0173
▁octo	-12.0175
gara	-12.0181
▁mate	-12.0182
▁infection	-12.0184
▁emission	-12.0184
▁fox	-12.0188
▁orch	-12.0189
▁disconnect	-12.0189
▁feminin	-12.019
▁breed	-12.0193
angsan	-12.0193
▁vibe	-12.0195
▁define	-12.0196
▁affection	-12.0199
▁indirect	-12.02
vous	-12.0201
▁broaden	-12.0203
truck	-12.0206
▁terrace	-12.0208
▁centimeter	-12.021
▁drunken	-12.021
▁horribl	-12.021
▁alumn	-12.021
als	-12.0214
▁intend	-12.0214
▁investor	-12.0214
timate	-12.0215
▁hy	-12.0219
▁85	-12.022
▁deb	-12.0222
▁drought	-12.0231
▁arrangement	-12.0235
▁prank	-12.0239
▁inspir	-12.0254
▁deck	-12.0257
▁charit	-12.0266
▁tissue	-12.0273
▁upgrad	-12.0277
▁emba	-12.0282
kind	-12.0282
▁distan	-12.0284
▁220	-12.0288
▁homeless	-12.0298
▁listener	-12.0302
▁replac	-12.0303
▁bleed	-12.0307
mbass	-12.0311
▁threat	-12.0322
▁francis	-12.0328
▁peter	-12.0329
▁olive	-12.0331
▁purpl	-12.0333
▁presen	-12.0335
▁explode	-12.0346
▁genero	-12.0346
city	-12.0348
pillar	-12.0354
pus	-12.0368
▁glow	-12.0374
▁pag	-12.0377
▁spam	-12.0378
▁mango	-12.038
▁enable	-12.0381
▁robber	-12.0387
▁painter	-12.0389
geum	-12.0389
▁distract	-12.0391
rlin	-12.0397
▁xxx	-12.0402
pa	-12.042
adong	-12.0425
▁linger	-12.0432
▁resend	-12.0436
▁deceiv	-12.0462
av	-12.0478
▁para	-12.0482
▁thi	-12.0488
▁ku	-12.0488
▁vic	-12.049
▁seri	-12.049
▁ensure	-12.0491
▁seal	-12.0491
▁compromis	-12.0493
▁stream	-12.0495
iz	-12.0507
ab	-12.0526
▁defens	-12.0533
▁010	-12.0535
▁ric	-12.0542
▁stance	-12.0548
▁float	-12.0551
ars	-12.0581
▁limo	-12.0583
health	-12.0595
joo	-12.0602
▁dresse	-12.0616
ub	-12.0618
▁thirst	-12.0626
▁contra	-12.0631
▁resist	-12.0634
▁max	-12.0636
neung	-12.0638
▁executi	-12.0653
▁independe	-12.0654
▁separat	-12.0663
kage	-12.0669
▁oz	-12.067
ency	-12.0675
▁geum	-12.068
▁drives	-12.0681
ord	-12.0682
▁65	-12.0689
▁nik	-12.0691
▁atten	-12.0694
ui	-12.0705
easy	-12.0713
etic	-12.0721
ngest	-12.0738
▁cam	-12.0738
▁tomb	-12.0766
ona	-12.0781
▁lim	-12.0783
▁playe	-12.0803
ograph	-12.081
ndon	-12.0815
ema	-12.0816
his	-12.0846
rink	-12.0846
base	-12.0849
▁spe	-12.0849
▁specialt	-12.0851
rea	-12.0854
ging	-12.0862
ction	-12.0867
▁dancer	-12.0868
ike	-12.0888
with	-12.0893
▁possib	-12.09
▁recycle	-12.09
▁psycholog	-12.0907
art	-12.092
▁naeng	-12.0921
ob	-12.0926
▁administrati	-12.0941
▁shell	-12.0955
▁wil	-12.0962
▁insulati	-12.0968
ponent	-12.0971
eric	-12.0975
▁generat	-12.0976
aza	-12.1001
▁sus	-12.1004
▁cage	-12.1016
▁rearrange	-12.1016
ock	-12.1017
test	-12.1018
▁storm	-12.1023
roid	-12.1049
▁stain	-12.1059
▁defin	-12.1063
▁suk	-12.107
▁equi	-12.1073
▁disabilit	-12.1075
▁refus	-12.1078
▁guk	-12.108
▁customiz	-12.109
jae	-12.1098
▁ambitio	-12.1098
▁explor	-12.1121
anish	-12.1121
▁ni	-12.1123
significant	-12.1126
person	-12.1128
▁moo	-12.1128
brush	-12.1128
▁dull	-12.1129
url	-12.1138
▁corn	-12.1142
aving	-12.1148
ters	-12.1175
▁cop	-12.1183
tar	-12.1187
pu	-12.1197
▁heartbr	-12.1197
▁statistic	-12.1205
31	-12.1205
▁geometr	-12.1206
file	-12.1209
▁integrat	-12.1246
boy	-12.126
▁economical	-12.1265
▁advertiser	-12.1271
▁lucki	-12.1271
?	-12.1277
▁advis	-12.1286
ple	-12.1289
▁acro	-12.1293
week	-12.13
▁silk	-12.1316
your	-12.1327
▁kyeong	-12.133
doll	-12.1333
▁undergo	-12.1348
net	-12.1358
▁zip	-12.1364
43	-12.1365
▁130	-12.1367
ua	-12.138
▁jjam	-12.1389
sion	-12.1397
ls	-12.1402
▁roads	-12.1404
▁160	-12.141
che	-12.1416
▁drum	-12.142
▁insufficien	-12.1426
guk	-12.1428
▁dissatisf	-12.1442
▁describ	-12.1444
▁bee	-12.1455
▁joon	-12.1479
▁tur	-12.1485
▁repay	-12.1493
▁herb	-12.1494
▁subscribe	-12.1495
▁comp	-12.1495
▁bomb	-12.1496
▁rins	-12.15
▁scarf	-12.1504
▁chrom	-12.1509
mesh	-12.1511
cou	-12.152
▁qualifi	-12.1526
▁consen	-12.1528
eamwork	-12.1536
▁gyu	-12.1552
bal	-12.1558
elve	-12.1566
chae	-12.1581
▁liqu	-12.1586
▁democra	-12.1588
▁hiccup	-12.1588
▁hochimin	-12.1588
▁mackerel	-12.1588
▁obstacle	-12.1588
▁preliminar	-12.1588
▁privilege	-12.1588
▁repetitive	-12.1588
▁shampoo	-12.1588
▁peculiar	-12.1588
▁attribute	-12.1588
▁squirrel	-12.1588
▁hydrogen	-12.1588
▁malfunction	-12.1588
▁bunker	-12.1588
▁kibera	-12.1588
▁incentive	-12.1589
▁chronic	-12.1589
▁swallow	-12.1589
▁screenshot	-12.1589
▁kanghwa	-12.1589
▁etiqu	-12.1589
▁trustworth	-12.1589
▁description	-12.1589
▁fraud	-12.1589
▁parameter	-12.1589
▁crosswalk	-12.1589
▁splendid	-12.1589
▁autonomous	-12.159
▁railway	-12.159
▁diagram	-12.159
▁flesh	-12.159
▁procure	-12.159
▁copper	-12.159
▁distort	-12.159
▁prosper	-12.1591
▁delightful	-12.1591
▁bundle	-12.1591
▁copyright	-12.1591
▁unlock	-12.1591
▁coexist	-12.1592
▁collage	-12.1592
▁technological	-12.1593
▁drawback	-12.1593
▁bullet	-12.1594
▁demonstration	-12.1595
▁disgust	-12.1595
▁pluck	-12.1595
▁plac	-12.1596
▁unlimited	-12.1597
▁hostel	-12.1597
▁ambula	-12.1597
▁hangover	-12.1597
▁consequence	-12.1598
▁availability	-12.16
▁burger	-12.16
▁shatter	-12.1604
04	-12.1605
▁sequence	-12.1605
▁reissue	-12.1606
▁flirt	-12.1606
▁possession	-12.1606
▁arabia	-12.1607
▁plum	-12.1607
▁gimch	-12.1609
▁attentive	-12.161
▁violation	-12.1611
▁bolt	-12.1611
▁slip	-12.1611
▁ballad	-12.1612
▁continual	-12.1612
▁operator	-12.1613
▁editor	-12.1613
▁moderate	-12.1616
▁tumbler	-12.1621
▁diagnosi	-12.1622
▁occupie	-12.1624
zech	-12.1625
▁dramatic	-12.1627
▁nana	-12.1632
mail	-12.1634
▁petal	-12.1636
▁browser	-12.1643
▁wolf	-12.1643
▁adequate	-12.1644
▁dem	-12.1644
▁bias	-12.1648
▁lone	-12.1649
▁sc	-12.165
design	-12.1651
▁vincen	-12.1652
▁distributi	-12.1656
▁goc	-12.1657
▁180	-12.1657
▁habitat	-12.1659
▁qualifie	-12.1663
007	-12.1664
▁carrier	-12.1664
▁faint	-12.1668
▁maple	-12.1671
▁twist	-12.1672
▁unify	-12.1672
▁blast	-12.1676
▁resid	-12.1678
ntorin	-12.168
▁unst	-12.1682
▁steep	-12.1683
▁guam	-12.1687
▁67	-12.1688
▁sel	-12.1689
▁bitter	-12.169
▁motive	-12.1694
woo	-12.1697
▁buff	-12.1707
▁negotiat	-12.1712
ack	-12.1716
▁malaysian	-12.1719
▁55	-12.1723
sense	-12.1729
▁kyoung	-12.1742
▁eng	-12.1745
▁arch	-12.1749
▁doos	-12.1756
▁taxe	-12.1757
▁postpon	-12.176
▁raft	-12.1762
▁strip	-12.1767
▁declar	-12.1773
▁dodge	-12.178
▁nano	-12.178
▁liver	-12.1781
▁melon	-12.1783
▁drone	-12.1787
ago	-12.1787
eliza	-12.1792
▁infinit	-12.1793
▁monet	-12.1793
▁sixt	-12.1794
▁ratio	-12.1797
nee	-12.1803
lding	-12.1808
ngs	-12.1819
032	-12.1819
▁suck	-12.182
press	-12.182
ins	-12.1836
anda	-12.1839
▁grandpa	-12.1839
ameter	-12.184
und	-12.1847
eung	-12.185
▁pregnanc	-12.1858
▁straighten	-12.1867
▁flame	-12.1871
different	-12.1873
ks	-12.1875
▁ent	-12.1878
▁bumpe	-12.1885
hq	-12.1887
▁trim	-12.1896
▁loung	-12.19
ni	-12.191
▁checke	-12.1917
▁ser	-12.1938
▁participati	-12.1942
med	-12.1943
▁pat	-12.1954
▁alter	-12.1956
▁landl	-12.1957
▁gye	-12.1966
wha	-12.1978
cola	-12.1996
▁geun	-12.2019
▁specializ	-12.2025
ber	-12.2027
▁applica	-12.203
▁ea	-12.2038
bar	-12.2049
seng	-12.205
▁hur	-12.2058
mar	-12.206
▁rely	-12.2061
▁configur	-12.2075
zza	-12.208
usine	-12.2086
ina	-12.2092
▁comb	-12.2095
▁collaborati	-12.2095
guks	-12.2099
▁colo	-12.2107
freshmen	-12.2114
diego	-12.213
▁fatal	-12.2133
▁utilit	-12.2139
▁ken	-12.2142
car	-12.2147
west	-12.2155
▁mou	-12.2164
ley	-12.2164
erland	-12.2165
▁restart	-12.217
tton	-12.2181
▁believ	-12.2193
▁accompanie	-12.2197
▁litera	-12.2201
pi	-12.2205
▁uv	-12.2206
ouse	-12.2208
▁yog	-12.2219
look	-12.2219
▁drawer	-12.2225
▁hano	-12.223
▁recharge	-12.2232
▁verbal	-12.2256
▁witch	-12.2263
▁soy	-12.2268
▁messag	-12.2269
▁cre	-12.2278
▁exception	-12.2293
▁finalize	-12.23
thetic	-12.2301
mc	-12.2308
ops	-12.2317
▁allergi	-12.2321
convenient	-12.2324
▁37	-12.2328
▁spice	-12.2328
water	-12.2333
▁mandat	-12.2333
▁mia	-12.2342
▁pretti	-12.2348
after	-12.2351
▁demonstrate	-12.2358
▁seasoning	-12.2358
▁hike	-12.236
away	-12.2362
▁investigat	-12.2364
▁gambl	-12.2371
now	-12.2379
▁racis	-12.2382
▁km	-12.2396
odor	-12.2396
du	-12.2408
▁flo	-12.2418
ille	-12.2419
▁cd	-12.242
▁amus	-12.2429
▁stat	-12.2433
▁originat	-12.2435
▁abus	-12.2436
spect	-12.2442
▁poly	-12.2458
▁collaps	-12.2458
▁reside	-12.2469
ti	-12.2469
allet	-12.2473
▁innovati	-12.2478
els	-12.2482
ct	-12.2483
field	-12.2492
▁flatter	-12.2497
▁simp	-12.2502
acao	-12.2509
▁cas	-12.2526
▁yeo	-12.2528
▁48	-12.2529
05	-12.2532
▁lotter	-12.2539
app	-12.2554
▁bok	-12.2561
stand	-12.2561
▁dedicate	-12.2569
▁latte	-12.2571
▁veg	-12.2577
▁wal	-12.2595
▁thread	-12.2598
due	-12.26
jean	-12.2611
▁eas	-12.2612
▁wante	-12.2614
▁sights	-12.2617
▁reinforce	-12.2622
about	-12.2624
75	-12.2632
io	-12.265
burn	-12.2658
▁engag	-12.2669
visi	-12.2686
▁deficien	-12.2692
pot	-12.2698
zel	-12.2712
▁warn	-12.2726
usion	-12.2726
pleasant	-12.2727
ana	-12.2728
lon	-12.2728
▁judg	-12.2735
▁traveler	-12.2748
phobia	-12.2752
▁evaluat	-12.2752
pool	-12.276
tire	-12.2783
▁indi	-12.2785
▁subsidi	-12.2787
nding	-12.2789
▁cooper	-12.2793
▁shines	-12.2794
stream	-12.2808
▁44	-12.2814
ila	-12.2819
▁inche	-12.2821
▁las	-12.2828
rlock	-12.2832
▁mor	-12.2845
bly	-12.2848
▁snap	-12.2864
▁involv	-12.2866
taek	-12.2872
▁mal	-12.2878
gistic	-12.2891
▁categori	-12.2895
▁33	-12.2912
▁seong	-12.2914
▁guang	-12.2916
jung	-12.2917
hour	-12.2928
95	-12.2935
▁medic	-12.2951
viet	-12.2955
▁frag	-12.2956
▁younge	-12.2962
ler	-12.2966
hn	-12.2972
shi	-12.2979
▁mixe	-12.2984
wan	-12.3001
▁profession	-12.3014
▁topping	-12.3016
64	-12.3019
▁programme	-12.302
▁addicti	-12.302
tra	-12.3022
sent	-12.3022
▁appreciati	-12.3029
onna	-12.304
illusion	-12.3049
▁notic	-12.3055
▁melod	-12.306
▁instruct	-12.306
ell	-12.306
stock	-12.3065
eun	-12.3067
mmer	-12.3074
▁revive	-12.3075
saki	-12.3087
▁bra	-12.3093
lette	-12.3098
89	-12.3101
▁cultivat	-12.3107
▁matern	-12.3107
17	-12.3108
aya	-12.3115
▁triple	-12.3122
▁candles	-12.3131
insula	-12.3133
▁heavi	-12.3142
▁54	-12.3149
▁envi	-12.315
▁terror	-12.3156
▁toleran	-12.3159
▁360	-12.3165
▁moist	-12.317
▁rebuil	-12.3176
▁violat	-12.3176
sufficient	-12.3178
bin	-12.3192
▁digit	-12.3193
▁demo	-12.3195
▁acc	-12.3199
▁surve	-12.32
she	-12.3204
dium	-12.3211
akes	-12.3213
▁diligen	-12.3218
▁boots	-12.3221
tch	-12.3225
▁consequen	-12.3243
▁enthusias	-12.3255
▁algorithm	-12.3255
▁anticipate	-12.3255
▁disinfect	-12.3255
▁elephant	-12.3255
▁kilometer	-12.3255
▁magnificen	-12.3255
▁mudflat	-12.3255
▁overwhelm	-12.3255
▁proportion	-12.3255
▁rehabilitat	-12.3255
▁rehearsal	-12.3255
▁seagull	-12.3255
▁pajama	-12.3255
▁subordinate	-12.3255
▁absurd	-12.3255
▁extinguish	-12.3255
▁george	-12.3255
▁prescribe	-12.3255
▁seorak	-12.3255
▁motorbike	-12.3255
▁enlighten	-12.3255
▁parasol	-12.3255
▁peanut	-12.3255
▁ribbon	-12.3255
▁astonish	-12.3255
▁substance	-12.3255
▁sensuous	-12.3255
▁casino	-12.3255
▁footprint	-12.3255
▁cyber	-12.3255
▁masterpiece	-12.3255
▁assassin	-12.3255
▁sustain	-12.3255
▁ventilat	-12.3255
▁13001	-12.3255
▁pyramid	-12.3255
▁straightforward	-12.3255
▁criteri	-12.3255
▁constrain	-12.3256
▁unconditional	-12.3256
▁ceiling	-12.3256
▁slump	-12.3256
▁spiritual	-12.3256
▁obedien	-12.3256
▁impatient	-12.3256
▁infringe	-12.3256
▁caramel	-12.3256
▁clerk	-12.3256
▁rigid	-12.3257
▁flawless	-12.3257
▁provoke	-12.3257
▁dominica	-12.3257
▁robert	-12.3257
▁blogger	-12.3257
▁java	-12.3258
▁teammate	-12.3258
▁raccoon	-12.3258
▁imitation	-12.3259
▁explosion	-12.3259
▁abundant	-12.3259
▁viewpoint	-12.326
▁kansa	-12.326
▁fiction	-12.3261
zu	-12.3261
▁indicator	-12.3261
▁beacon	-12.3261
▁bulb	-12.3262
▁favo	-12.3262
▁crawl	-12.3262
▁harmoni	-12.3264
▁skewer	-12.3264
▁homep	-12.3264
▁accomplishment	-12.3265
▁pillow	-12.3266
▁remodel	-12.3266
▁brai	-12.3268
▁strategic	-12.3268
▁fiber	-12.327
▁interaction	-12.327
▁sweep	-12.3272
▁adhesi	-12.3275
▁pitcher	-12.3276
▁prediction	-12.3278
▁punch	-12.3279
▁drown	-12.3279
▁digni	-12.3279
▁melb	-12.3284
▁reschedule	-12.3284
▁foster	-12.3284
▁feather	-12.3285
▁panda	-12.3287
▁abstract	-12.3287
gf	-12.3287
808	-12.3288
cp	-12.3296
▁therapist	-12.3297
▁objection	-12.3297
terior	-12.3299
▁acquaint	-12.3299
ppy	-12.3304
▁convincing	-12.3304
▁stab	-12.3308
▁equip	-12.331
▁arab	-12.3313
arious	-12.3314
ctic	-12.3315
▁forwarding	-12.3315
▁1234	-12.3317
▁ital	-12.3322
▁stove	-12.3323
▁instance	-12.3326
▁buddhis	-12.3331
▁impulsive	-12.3331
▁fiance	-12.3335
▁deaf	-12.3335
▁tighten	-12.3337
▁touche	-12.334
▁luc	-12.3342
▁roches	-12.3344
▁edition	-12.3348
▁ankle	-12.3356
▁peso	-12.3357
▁imp	-12.3358
▁robb	-12.3361
▁tteok	-12.3367
▁encourag	-12.3369
▁mobil	-12.3373
▁88	-12.3375
▁jay	-12.338
ston	-12.3384
▁foil	-12.3386
mature	-12.339
▁poop	-12.3391
▁spur	-12.3396
▁reconstruct	-12.3402
wang	-12.3404
ec	-12.3404
▁palm	-12.3406
olli	-12.3407
▁tuber	-12.3407
▁bacteria	-12.3409
▁cliff	-12.3411
▁mural	-12.3415
▁handwrit	-12.3419
▁yuan	-12.3422
hae	-12.3423
▁63	-12.3424
▁col	-12.3429
▁robbi	-12.3433
▁leaders	-12.3438
latin	-12.3439
▁horn	-12.344
▁kwon	-12.344
▁attic	-12.3445
▁loop	-12.3453
▁optic	-12.3455
▁candle	-12.3455
▁therap	-12.3455
▁dome	-12.3459
dding	-12.3461
96	-12.3463
▁mono	-12.3469
ista	-12.3472
ara	-12.348
▁boile	-12.348
▁ctm	-12.3481
▁kyu	-12.3486
▁sanitar	-12.349
lt	-12.3493
▁tires	-12.3499
▁ul	-12.3512
▁gir	-12.3515
elf	-12.3527
uall	-12.3528
uous	-12.3542
rt	-12.355
▁optimiz	-12.3553
▁plain	-12.3554
▁fist	-12.3566
struction	-12.3566
ku	-12.3567
▁recreat	-12.3569
▁constitution	-12.357
▁punctual	-12.3594
ration	-12.3598
wee	-12.3602
▁spelling	-12.3604
▁corps	-12.3609
▁publisher	-12.3613
▁popp	-12.3615
▁sap	-12.3617
▁fragran	-12.3623
die	-12.3623
zon	-12.3625
▁pisto	-12.3635
▁formula	-12.3636
▁obes	-12.3637
anna	-12.3645
▁skipp	-12.3651
▁cheongj	-12.3652
vi	-12.3656
▁gymnas	-12.3668
24	-12.3676
▁specifi	-12.3683
quet	-12.3686
ieve	-12.3687
▁tone	-12.3692
80	-12.3702
▁sto	-12.3705
hara	-12.3706
tal	-12.3721
▁architectur	-12.3729
ppo	-12.373
aehwa	-12.3735
▁budd	-12.3736
▁nia	-12.3738
▁hyo	-12.3747
▁deny	-12.3768
ague	-12.3771
▁cube	-12.3772
▁captiv	-12.3772
▁usi	-12.3773
▁soil	-12.3773
ugh	-12.3793
▁cel	-12.3804
uts	-12.381
▁pickle	-12.3813
ip	-12.3823
emi	-12.3826
runk	-12.3831
fest	-12.3831
▁ano	-12.3835
▁categoriz	-12.384
park	-12.3846
▁promi	-12.3846
bra	-12.3846
ci	-12.3846
gina	-12.385
tamina	-12.3852
bul	-12.3856
▁myeong	-12.3857
cted	-12.386
▁voy	-12.386
pite	-12.386
▁nasa	-12.386
▁gene	-12.3864
earing	-12.3875
sure	-12.388
hrew	-12.3895
rest	-12.3896
ucci	-12.39
▁cere	-12.3901
▁miles	-12.3908
▁kep	-12.391
port	-12.3915
▁stud	-12.3916
▁resistan	-12.3918
entia	-12.3927
▁advanc	-12.393
119	-12.3943
▁freeze	-12.3947
▁affiliate	-12.3952
try	-12.396
cream	-12.3971
▁occasional	-12.3971
▁05	-12.3971
▁rite	-12.3972
▁seash	-12.3979
▁exp	-12.3981
▁focuse	-12.3986
lice	-12.399
ives	-12.3991
▁rubbe	-12.3992
ets	-12.4002
evin	-12.4013
ttle	-12.4042
card	-12.405
rent	-12.4052
▁shocking	-12.4052
▁apps	-12.4054
▁oppos	-12.4055
uki	-12.4056
affe	-12.4057
▁accumulate	-12.4058
wheat	-12.4062
▁torn	-12.4072
story	-12.4072
19	-12.4073
rida	-12.408
itness	-12.4089
▁welcom	-12.4089
▁ancest	-12.4092
▁offend	-12.4098
▁deni	-12.4102
late	-12.4106
▁brun	-12.4115
ova	-12.4121
ordan	-12.4123
▁sprinkle	-12.4126
▁compress	-12.4127
awa	-12.413
girl	-12.413
tes	-12.4132
▁audi	-12.4133
ease	-12.4133
▁ris	-12.4136
tuna	-12.4138
▁stirr	-12.4144
▁hesita	-12.4145
tell	-12.4153
▁bae	-12.4156
▁reverse	-12.4165
▁radi	-12.4171
hief	-12.418
▁wis	-12.4185
mate	-12.4193
▁190	-12.4201
ama	-12.4208
▁kat	-12.421
▁tre	-12.4234
unset	-12.4236
▁wha	-12.424
▁mos	-12.4253
▁wars	-12.4284
ryu	-12.4294
▁pulle	-12.4309
did	-12.431
chun	-12.4311
roll	-12.4323
dual	-12.4324
iled	-12.4326
nda	-12.433
mb	-12.4336
▁viole	-12.4336
▁walt	-12.4337
▁140	-12.4338
mart	-12.4341
▁glanc	-12.4341
▁ec	-12.4343
▁planne	-12.4343
▁duti	-12.4363
▁courte	-12.4364
▁butt	-12.4369
ncy	-12.4371
▁organi	-12.4372
▁papa	-12.438
▁adventur	-12.4388
racle	-12.439
▁prop	-12.4403
▁rap	-12.4408
▁stabilize	-12.4419
▁heung	-12.4422
▁bot	-12.4427
rua	-12.4429
▁jajang	-12.4435
paper	-12.4438
101	-12.4445
ead	-12.4445
ger	-12.4459
▁manda	-12.4461
ming	-12.4462
▁cance	-12.4466
▁hood	-12.4466
count	-12.4471
▁goe	-12.4473
cay	-12.4476
▁immers	-12.449
▁ref	-12.4493
dog	-12.45
▁mud	-12.4504
▁cott	-12.4504
ere	-12.4509
▁verifi	-12.4512
kuk	-12.4518
▁kitt	-12.4519
▁lun	-12.453
ired	-12.4531
▁prom	-12.4534
▁balle	-12.4545
▁sab	-12.4547
ption	-12.4556
cut	-12.4557
▁massag	-12.457
heater	-12.4571
▁holder	-12.4575
was	-12.4577
▁configure	-12.4594
▁shit	-12.46
▁stem	-12.46
eat	-12.4604
▁announc	-12.4606
bong	-12.461
fp	-12.4619
ex	-12.4628
09	-12.4635
▁starr	-12.4643
tail	-12.4647
artial	-12.4649
▁fle	-12.465
break	-12.4659
ph	-12.4667
nction	-12.4671
si	-12.4673
▁sil	-12.4674
▁suite	-12.4675
▁photosho	-12.4677
▁penn	-12.468
ale	-12.4681
▁kings	-12.4688
acco	-12.4705
frai	-12.4708
▁fork	-12.4709
ner	-12.471
▁frie	-12.472
▁vital	-12.4727
▁nak	-12.4733
ran	-12.4736
▁argu	-12.4743
tto	-12.4743
aro	-12.4745
map	-12.4745
▁biograph	-12.4748
airb	-12.475
69	-12.4756
make	-12.4761
▁earning	-12.4761
▁ob	-12.4764
▁motivat	-12.4774
▁bothers	-12.4788
▁needle	-12.4792
stack	-12.4793
▁deceive	-12.4796
▁49	-12.4801
▁silen	-12.4805
asia	-12.4806
store	-12.4818
tooth	-12.4823
sheet	-12.4824
keeper	-12.4829
realistic	-12.483
▁employe	-12.4851
▁def	-12.4853
▁fir	-12.486
▁audio	-12.4863
nlight	-12.4869
▁mock	-12.4877
yong	-12.4892
eep	-12.4892
▁bur	-12.4892
lmen	-12.4896
▁sew	-12.4904
seo	-12.4904
▁bene	-12.4909
▁communi	-12.491
ntal	-12.4914
▁exaggerate	-12.4915
formation	-12.4918
▁exaggerat	-12.4932
▁mon	-12.4934
eta	-12.4934
tan	-12.4941
production	-12.4944
omic	-12.4947
▁manipulat	-12.4951
▁vin	-12.4952
▁pine	-12.4955
▁scratche	-12.4958
▁expire	-12.4968
▁blam	-12.4987
sky	-12.4998
▁dang	-12.5004
▁thr	-12.5006
▁shab	-12.5006
▁vigor	-12.5007
▁closes	-12.5014
▁crie	-12.502
▁ache	-12.5024
▁moisturiz	-12.5025
▁47	-12.5049
▁lap	-12.5049
▁minist	-12.5059
think	-12.5063
▁civili	-12.5064
kate	-12.5078
rite	-12.508
▁overdo	-12.508
finite	-12.5081
▁suspen	-12.5085
▁wri	-12.509
▁grav	-12.5093
▁derive	-12.5098
▁chop	-12.5101
ound	-12.5103
fall	-12.5103
hold	-12.511
▁educate	-12.5112
arita	-12.5114
▁incur	-12.5115
▁gag	-12.5123
▁congest	-12.5125
▁misse	-12.5125
ess	-12.5126
rel	-12.5133
okka	-12.5134
exas	-12.5135
shed	-12.5138
cons	-12.514
stan	-12.5141
ari	-12.5141
sham	-12.5141
▁panic	-12.5147
hoon	-12.5148
di	-12.5165
science	-12.5166
valent	-12.5173
▁zi	-12.5174
▁notifi	-12.5183
stick	-12.5184
iff	-12.5186
utation	-12.5193
▁ste	-12.5195
polit	-12.5195
▁escap	-12.52
▁privat	-12.5223
▁chris	-12.5232
▁205	-12.5234
▁inject	-12.5249
▁currenc	-12.525
▁instinct	-12.5253
▁authentic	-12.5254
▁vulnerab	-12.5255
▁abbreviation	-12.5255
▁aerobic	-12.5255
▁beethoven	-12.5255
▁conviction	-12.5255
▁expenditure	-12.5255
▁ganggangsul	-12.5255
▁indecisive	-12.5255
▁parliament	-12.5255
▁portfolio	-12.5255
▁scenario	-12.5255
▁unconscious	-12.5255
▁watermelon	-12.5255
▁bartender	-12.5255
▁capsule	-12.5255
▁dwarf	-12.5255
▁jjapag	-12.5255
▁prestig	-12.5255
▁alphabet	-12.5255
▁gondola	-12.5255
▁misfortune	-12.5255
▁unbearabl	-12.5255
▁manicure	-12.5255
▁frantic	-12.5255
▁jacob	-12.5255
▁choreograph	-12.5255
▁miniature	-12.5255
▁nourish	-12.5255
▁tanaka	-12.5255
▁unavoidabl	-12.5255
▁navigat	-12.5255
▁fingerprint	-12.5255
▁namdaem	-12.5255
▁iraq	-12.5255
▁kilogram	-12.5255
▁recital	-12.5255
▁kebab	-12.5255
▁maldive	-12.5255
▁barcode	-12.5255
▁nineteen	-12.5255
▁dissolve	-12.5255
▁doughnut	-12.5255
▁default	-12.5256
▁depict	-12.5256
▁coincidence	-12.5256
▁mechanism	-12.5256
▁ornament	-12.5256
▁bankrupt	-12.5256
▁magician	-12.5256
▁penetrat	-12.5256
▁decisive	-12.5256
▁yacht	-12.5256
▁transition	-12.5256
▁restructur	-12.5256
▁dismiss	-12.5256
▁extinction	-12.5256
▁heartbeat	-12.5256
▁interlock	-12.5256
▁piggy	-12.5256
▁despair	-12.5256
▁embrac	-12.5256
▁sprout	-12.5256
▁reckless	-12.5256
▁hamster	-12.5256
▁minimize	-12.5256
▁mongolia	-12.5256
▁ukrain	-12.5257
▁cluster	-12.5257
▁comprehensive	-12.5257
▁tulip	-12.5257
▁drastic	-12.5257
▁pledge	-12.5257
▁cupcake	-12.5257
▁1975	-12.5257
▁conservative	-12.5257
▁trauma	-12.5257
▁jeff	-12.5257
▁comedian	-12.5257
▁prosecution	-12.5257
▁postcard	-12.5257
▁blunt	-12.5257
▁shortcut	-12.5258
▁antique	-12.5258
▁1950	-12.5258
▁pra	-12.5258
elecommunication	-12.5258
▁fandom	-12.5258
▁gentleman	-12.5258
▁gorgon	-12.5259
▁enclose	-12.5259
▁waterfall	-12.5259
▁diaper	-12.5259
▁villain	-12.5259
▁teleport	-12.526
▁spotlight	-12.526
▁cavit	-12.526
▁northeast	-12.5261
▁jok	-12.5261
▁apr	-12.5262
▁jiri	-12.5262
▁alexand	-12.5263
▁injector	-12.5263
▁dip	-12.5264
▁refill	-12.5264
▁phillip	-12.5265
▁beggar	-12.5266
▁pearl	-12.5266
▁blond	-12.5266
▁carpet	-12.5266
▁headset	-12.5267
▁intuiti	-12.5267
▁julie	-12.5267
▁humiliat	-12.5268
▁caution	-12.527
▁remainder	-12.5271
▁glor	-12.5272
▁350	-12.5273
▁persever	-12.5275
▁sneake	-12.5276
▁snob	-12.5276
▁electro	-12.5277
▁geoje	-12.5279
▁devil	-12.5279
▁broth	-12.528
▁detach	-12.5281
▁checklist	-12.5281
▁banner	-12.5281
▁stroller	-12.5282
▁hurried	-12.5285
▁dioxi	-12.5286
▁deliberate	-12.5288
▁abalone	-12.5288
▁cheerlead	-12.5288
▁housekeeper	-12.529
rophy	-12.5292
igh	-12.5294
▁immigrant	-12.5296
▁mimi	-12.5297
▁drows	-12.53
▁render	-12.5301
▁calc	-12.5304
goya	-12.5304
▁invasi	-12.5304
▁uij	-12.5305
▁scorch	-12.5306
▁spray	-12.5307
▁installment	-12.5308
▁flipp	-12.5308
▁pacifi	-12.531
icide	-12.5312
▁purchaser	-12.5317
▁cleanl	-12.5319
▁cour	-12.5321
▁restock	-12.5324
▁vari	-12.5325
▁makge	-12.5327
▁launche	-12.5328
▁knight	-12.5332
temporar	-12.5337
order	-12.5339
eongnam	-12.5344
▁xl	-12.5344
▁autonom	-12.5345
▁paki	-12.5346
▁excellen	-12.5347
▁chungju	-12.5347
ourne	-12.5348
alog	-12.5348
ailed	-12.5355
▁geo	-12.5358
▁attain	-12.536
▁eraser	-12.536
nnel	-12.5363
▁1970	-12.5368
▁auditor	-12.5369
▁almond	-12.5371
cs	-12.5373
▁08	-12.5377
▁77	-12.538
polite	-12.5381
▁certifi	-12.5381
▁login	-12.5382
▁bobb	-12.5383
▁cock	-12.5398
ces	-12.5399
suk	-12.5403
▁clari	-12.5405
▁ip	-12.5414
▁hunch	-12.5416
ining	-12.5422
▁blend	-12.5431
▁suho	-12.544
▁dv	-12.5442
▁ripp	-12.5447
morous	-12.545
ren	-12.545
gon	-12.5451
▁snake	-12.5452
affle	-12.5453
▁carol	-12.5462
▁filth	-12.5467
▁frown	-12.5471
365	-12.5472
▁forci	-12.5479
▁gen	-12.5481
▁sen	-12.5486
▁styl	-12.5488
▁scor	-12.549
▁kangr	-12.549
▁zoom	-12.5492
▁jungle	-12.5497
culo	-12.5498
▁laser	-12.5499
▁stroke	-12.5505
rooms	-12.551
▁munic	-12.5513
▁spong	-12.5513
▁movi	-12.5515
yota	-12.5518
▁hacker	-12.5519
▁murderer	-12.5519
put	-12.5522
rma	-12.5537
▁distinct	-12.5546
anjin	-12.5554
▁tex	-12.5558
▁dave	-12.5573
▁sep	-12.5576
▁invi	-12.5588
▁sor	-12.5591
▁qa	-12.5605
▁lotion	-12.5606
▁keen	-12.5611
▁uni	-12.5616
▁andrea	-12.563
link	-12.5639
▁mic	-12.5643
xis	-12.5649
▁42	-12.5658
▁minds	-12.5667
▁bride	-12.5671
warm	-12.5672
▁surge	-12.5673
▁sci	-12.5684
▁joine	-12.5685
when	-12.5691
▁mama	-12.5691
▁clever	-12.5691
▁strain	-12.57
▁gaug	-12.5704
▁dig	-12.5707
▁iq	-12.5716
sick	-12.5724
▁tonsil	-12.5726
echeon	-12.5735
▁discipline	-12.5739
004	-12.5747
▁savor	-12.5756
liance	-12.5768
▁hyos	-12.5772
▁justifi	-12.5773
▁intr	-12.5775
tual	-12.5778
yung	-12.5782
▁hint	-12.5802
▁kb	-12.5806
tiful	-12.5821
▁whisk	-12.5823
reung	-12.5836
▁statistical	-12.5836
▁ambi	-12.5841
▁repli	-12.5846
assive	-12.5847
▁chul	-12.5849
tv	-12.5854
▁buddh	-12.5855
▁gran	-12.5856
lb	-12.5881
▁43	-12.5887
▁bibl	-12.5887
▁phobia	-12.5906
▁hopeful	-12.5922
arcel	-12.593
usa	-12.5933
▁sq	-12.5946
▁longe	-12.5951
▁prais	-12.596
nent	-12.5964
▁meditate	-12.597
companie	-12.5973
own	-12.5985
▁picket	-12.5985
▁ads	-12.5985
▁tilt	-12.6
▁scrap	-12.6008
▁daeje	-12.6017
deration	-12.6018
▁digest	-12.6021
▁marketer	-12.6027
▁meditati	-12.6032
den	-12.6033
▁dedicat	-12.6036
▁fenc	-12.6046
▁leap	-12.6051
▁searche	-12.6064
▁inconvenien	-12.6068
blew	-12.6083
▁refu	-12.6093
▁livi	-12.6096
▁relay	-12.6099
▁suspens	-12.61
▁hil	-12.6101
▁rang	-12.6104
product	-12.6104
okcho	-12.6105
▁integr	-12.6105
him	-12.6109
▁secur	-12.6111
▁ranke	-12.6112
▁suz	-12.6116
▁yub	-12.612
▁76	-12.6122
▁quitt	-12.6127
▁geographical	-12.6131
▁knit	-12.6145
rum	-12.6152
▁killer	-12.6157
▁kille	-12.6168
▁boundar	-12.6169
▁equ	-12.6173
▁hans	-12.6175
▁sti	-12.6179
▁insul	-12.6179
▁resolv	-12.6183
▁witness	-12.6184
gue	-12.6184
▁salva	-12.6186
▁idle	-12.6188
▁flut	-12.6193
▁immerse	-12.6196
▁sunha	-12.6202
pyung	-12.6203
▁trimme	-12.6204
▁germ	-12.621
▁collaborat	-12.6216
mer	-12.6218
▁melan	-12.6221
soon	-12.623
▁warne	-12.6233
pl	-12.6256
gage	-12.6259
yeol	-12.6264
▁bac	-12.6268
▁innovat	-12.6269
▁nobles	-12.6269
va	-12.6274
▁tal	-12.6281
ateur	-12.6282
▁rear	-12.6288
ashi	-12.6289
hak	-12.629
ek	-12.6296
▁migra	-12.63
▁dispose	-12.6302
urry	-12.6304
▁liveli	-12.6319
▁fasten	-12.632
▁arou	-12.6327
awb	-12.6328
▁dol	-12.6334
ooking	-12.6341
▁stra	-12.6345
▁rip	-12.6345
▁brownie	-12.6349
egu	-12.6354
▁templ	-12.6358
▁cor	-12.6363
▁affiliat	-12.6378
zone	-12.6394
onnai	-12.6413
▁grey	-12.6414
ask	-12.6417
▁gentl	-12.643
▁jisu	-12.6436
mbia	-12.644
dia	-12.6445
▁summar	-12.6451
▁titani	-12.6467
aba	-12.6472
osu	-12.6473
chip	-12.6481
▁kg	-12.649
▁immigra	-12.6494
▁197	-12.6505
act	-12.6507
asso	-12.6516
urt	-12.6525
▁ongo	-12.6543
comfort	-12.6546
pg	-12.6546
od	-12.6547
▁gro	-12.6554
▁nomina	-12.6558
walk	-12.6563
▁widen	-12.6568
▁teen	-12.6569
011	-12.6585
▁exemp	-12.6589
▁pierc	-12.6593
▁bios	-12.6593
▁worsen	-12.6593
▁diploma	-12.6594
casting	-12.6596
hydrat	-12.6602
▁circula	-12.6616
▁tee	-12.6618
ano	-12.6624
fr	-12.6628
▁192	-12.6634
estra	-12.6635
▁heads	-12.6636
▁1500	-12.6639
tc	-12.665
process	-12.6655
ear	-12.6656
▁conceal	-12.6664
som	-12.6669
▁sole	-12.6682
change	-12.6699
▁rep	-12.6701
▁kell	-12.6701
68	-12.6706
mma	-12.6712
86	-12.6727
availab	-12.6729
enni	-12.6733
ced	-12.6737
▁tune	-12.6739
cking	-12.674
▁revers	-12.6747
23	-12.6765
▁congratulat	-12.6779
love	-12.6783
jo	-12.6785
▁02	-12.6785
luff	-12.6791
bank	-12.6803
▁accompani	-12.6804
bre	-12.6808
xx	-12.6817
lre	-12.6828
▁recess	-12.6829
▁meta	-12.6831
shot	-12.6837
hwan	-12.685
▁packe	-12.6853
ged	-12.6855
▁sche	-12.6863
▁condo	-12.6864
ox	-12.6866
▁gin	-12.687
▁mill	-12.6871
▁scrape	-12.6878
▁harmonize	-12.6878
hole	-12.688
hoo	-12.6893
bs	-12.6896
ogur	-12.6901
lease	-12.6912
there	-12.6915
▁fil	-12.6927
▁sik	-12.6941
▁kenn	-12.6942
its	-12.6954
juk	-12.697
▁gal	-12.6972
▁refere	-12.6975
aga	-12.6976
yaki	-12.6988
▁rick	-12.6995
▁ci	-12.6998
▁tai	-12.7
weight	-12.7001
▁imagina	-12.7002
▁195	-12.7003
▁jer	-12.701
▁devi	-12.7011
otic	-12.7013
jong	-12.7013
▁rec	-12.7016
hun	-12.7036
eos	-12.7041
uce	-12.7044
lin	-12.7048
▁trac	-12.7057
icious	-12.7066
erp	-12.7075
▁fol	-12.7076
lls	-12.7078
ric	-12.708
▁settl	-12.7089
inz	-12.7098
but	-12.71
cute	-12.7107
hallow	-12.7112
88	-12.7116
▁monopol	-12.7116
▁swell	-12.7122
yard	-12.7125
human	-12.7126
▁schedul	-12.7128
mos	-12.713
▁cheol	-12.7131
28	-12.7132
▁historic	-12.7139
▁namis	-12.7143
cade	-12.7145
mun	-12.7149
▁robbe	-12.715
▁cant	-12.7155
▁202	-12.7161
suit	-12.7175
▁cra	-12.7182
com	-12.7186
▁hyung	-12.7187
nch	-12.7188
lf	-12.7198
▁flie	-12.7198
guard	-12.7203
eats	-12.7205
70	-12.7207
▁kno	-12.7209
▁mainl	-12.7222
▁recip	-12.7226
▁robin	-12.7237
luck	-12.7239
▁notarize	-12.7241
anua	-12.7252
▁pee	-12.7264
▁accidental	-12.727
▁cc	-12.7273
ey	-12.7285
▁infectio	-12.7294
▁bearing	-12.7295
gyeong	-12.7298
secure	-12.7317
inning	-12.7318
▁mul	-12.7319
▁gent	-12.7329
monica	-12.733
▁employer	-12.7331
▁performer	-12.7337
nze	-12.7342
spoon	-12.7358
laza	-12.7359
▁borrowe	-12.7363
vill	-12.7367
fi	-12.7368
▁funnie	-12.7373
station	-12.7378
▁remark	-12.7378
rot	-12.7392
▁vis	-12.7397
▁trainee	-12.7404
tub	-12.7408
▁ignoran	-12.7415
heung	-12.7415
▁echo	-12.742
eball	-12.742
▁declare	-12.7423
▁contro	-12.7433
ols	-12.7433
▁radioactiv	-12.7462
42	-12.7464
▁tagg	-12.7464
▁hamm	-12.7465
▁magne	-12.7465
▁omit	-12.7467
▁competenc	-12.7471
nes	-12.7477
cu	-12.7478
▁hanger	-12.7479
eath	-12.7484
tape	-12.7486
ncou	-12.749
▁chim	-12.749
former	-12.7495
▁flam	-12.7497
zz	-12.7513
▁patrioti	-12.7517
49	-12.7517
imes	-12.7531
ust	-12.7536
▁julia	-12.7539
▁aroma	-12.7556
▁veil	-12.7563
▁goo	-12.7573
▁39	-12.7591
vers	-12.7592
▁certif	-12.7596
mption	-12.7609
56	-12.7613
▁57	-12.7616
abi	-12.7619
heon	-12.763
▁stimulat	-12.7633
form	-12.766
▁dra	-12.7666
▁diff	-12.7667
▁swap	-12.7677
oc	-12.7677
▁sensitiv	-12.7679
▁estimat	-12.7681
▁sol	-12.7685
▁societ	-12.7686
▁sch	-12.7694
▁roche	-12.7699
▁rac	-12.7705
▁enlarge	-12.7711
▁donga	-12.7712
▁custo	-12.7715
lish	-12.7723
▁56	-12.7734
▁emphasi	-12.7735
▁stroll	-12.7736
▁salvat	-12.7738
▁ove	-12.7741
▁slot	-12.7742
▁housekeep	-12.7745
ketch	-12.7746
▁burdens	-12.7748
▁gand	-12.775
▁sentiment	-12.7752
brid	-12.7753
▁activ	-12.7754
ecutive	-12.7755
▁arbitrar	-12.7755
▁astigmati	-12.7755
▁chrysanthemum	-12.7755
▁conglomerate	-12.7755
▁dermatolog	-12.7755
▁eloquen	-12.7755
▁escalator	-12.7755
▁exfoliat	-12.7755
▁explicit	-12.7755
▁firefighter	-12.7755
▁fluctuat	-12.7755
▁infrastructure	-12.7755
▁irrelevan	-12.7755
▁pesticide	-12.7755
▁revitalize	-12.7755
▁semiconductor	-12.7755
▁snowflake	-12.7755
▁substantial	-12.7755
▁synchroniz	-12.7755
▁unbelievabl	-12.7755
▁assault	-12.7755
▁cigar	-12.7755
▁commodit	-12.7755
▁cylinder	-12.7755
▁eccentric	-12.7755
▁hemispher	-12.7755
▁monument	-12.7755
▁sovereign	-12.7755
▁thunderstorm	-12.7755
▁conquer	-12.7755
▁contraception	-12.7755
▁emigrate	-12.7755
▁eurwang	-12.7755
▁fountain	-12.7755
▁inferior	-12.7755
▁veterinarian	-12.7755
▁wavelength	-12.7755
▁cheekbone	-12.7755
▁ethnic	-12.7755
▁graffit	-12.7755
▁pepero	-12.7755
▁squeeze	-12.7755
▁taebaek	-12.7755
▁transplant	-12.7755
▁cryptocurrenc	-12.7755
▁delegate	-12.7755
▁fracture	-12.7755
▁reservoir	-12.7755
▁jersey	-12.7755
▁panoram	-12.7755
▁reboot	-12.7755
▁jamaica	-12.7755
▁pendant	-12.7755
▁prototyp	-12.7755
▁fossil	-12.7755
▁jeolla	-12.7755
▁rehab	-12.7755
▁illuminati	-12.7755
▁cemeter	-12.7755
▁confuci	-12.7755
▁mermaid	-12.7755
▁vampi	-12.7755
▁wheelchair	-12.7755
▁appetizer	-12.7755
▁expedition	-12.7755
▁fierce	-12.7755
▁reconcil	-12.7755
▁escort	-12.7755
▁pebble	-12.7755
▁puddle	-12.7755
▁deprivation	-12.7755
▁diagonal	-12.7755
▁altruist	-12.7755
▁footstep	-12.7755
▁excess	-12.7755
▁doraemon	-12.7756
▁spiral	-12.7756
▁seperate	-12.7756
▁democratic	-12.7756
▁deoksu	-12.7756
▁sniff	-12.7756
▁quarrel	-12.7756
▁wrestl	-12.7756
▁falsehood	-12.7756
▁garner	-12.7756
▁meokbang	-12.7756
▁cricket	-12.7756
▁seventeen	-12.7756
▁hypothesi	-12.7756
▁1960	-12.7756
evolution	-12.7756
▁scoop	-12.7756
▁scroll	-12.7756
▁lilac	-12.7756
▁affirm	-12.7756
▁proactive	-12.7756
▁skateboard	-12.7756
▁unfold	-12.7757
▁obstina	-12.7757
▁absor	-12.7757
▁evacuat	-12.7757
▁harass	-12.7758
▁jasmin	-12.7758
▁handbag	-12.7758
▁organism	-12.7758
▁sweetheart	-12.7758
▁niece	-12.7758
▁bragg	-12.7758
▁snowfall	-12.7758
eongbu	-12.7758
▁proposition	-12.7758
▁hannah	-12.7759
▁vacant	-12.7759
▁choco	-12.7759
▁shrink	-12.7759
▁profound	-12.776
▁generalize	-12.776
▁sarcas	-12.776
▁helmet	-12.776
▁coordinator	-12.776
▁bluff	-12.776
▁bupyeong	-12.776
▁harv	-12.7761
▁disposal	-12.7761
▁righteous	-12.7761
▁bidding	-12.7761
▁chuck	-12.7761
▁tableware	-12.7762
▁buzz	-12.7762
▁gorilla	-12.7762
▁temperament	-12.7763
▁mcdonald	-12.7763
▁splash	-12.7763
▁shameful	-12.7763
▁clarif	-12.7764
▁macbook	-12.7765
▁dialog	-12.7766
▁provision	-12.7766
▁interven	-12.7766
▁sneer	-12.7766
▁steward	-12.7767
▁berkel	-12.7767
▁cumber	-12.777
▁atmospheric	-12.7772
▁lump	-12.7772
▁columb	-12.7773
▁antib	-12.7773
bell	-12.7773
lades	-12.7776
▁fluid	-12.7776
aneous	-12.7778
ken	-12.7778
▁rotat	-12.7778
▁qualify	-12.7779
▁feasib	-12.778
▁macaron	-12.778
▁oxy	-12.7781
▁offset	-12.7782
liberation	-12.7782
▁sportsman	-12.7784
call	-12.7784
▁hypertensi	-12.7785
▁retro	-12.7785
▁naka	-12.7785
▁coex	-12.7786
▁1900	-12.7786
▁distinction	-12.7787
▁conceit	-12.7787
▁inappropriate	-12.7788
▁astronomer	-12.7788
▁striking	-12.7791
▁documentar	-12.7791
▁conju	-12.7792
▁dubb	-12.7792
▁170	-12.7794
part	-12.7794
▁trek	-12.7795
▁hun	-12.7796
▁joo	-12.7797
▁ripen	-12.7802
▁expressway	-12.7808
▁readjust	-12.7808
▁particle	-12.781
▁retain	-12.781
▁subjective	-12.7811
▁advisor	-12.7816
▁jog	-12.7816
▁grip	-12.7823
▁periodic	-12.7826
▁dvd	-12.7828
▁millen	-12.7829
▁selective	-12.7829
▁inhale	-12.783
▁adolescent	-12.7831
▁sulk	-12.7833
▁terminate	-12.7833
▁piss	-12.7833
▁scout	-12.7834
▁ap	-12.7835
ates	-12.7837
der	-12.7839
▁breeder	-12.7843
▁streamer	-12.7847
▁ours	-12.7848
▁wreck	-12.7848
▁pimple	-12.7849
▁fuck	-12.785
star	-12.7851
▁grammatical	-12.7854
▁warrior	-12.7854
▁freckle	-12.7855
rney	-12.7858
▁1990	-12.7859
▁enrage	-12.786
▁gaze	-12.7862
▁riot	-12.7863
▁wrist	-12.7866
▁slap	-12.7866
▁humidi	-12.7874
▁storybook	-12.7875
▁pony	-12.7876
▁dash	-12.7876
▁offens	-12.7876
▁relic	-12.788
▁unsatisf	-12.7883
▁accelerate	-12.7883
▁neuro	-12.7884
tagon	-12.7885
▁unti	-12.7886
▁cramp	-12.7892
▁epic	-12.7893
▁founder	-12.7896
rhea	-12.7898
efl	-12.7898
plication	-12.7901
garment	-12.7905
▁gif	-12.7909
▁recheck	-12.7911
▁locke	-12.7915
this	-12.7917
▁malfo	-12.7918
▁synd	-12.7919
gal	-12.792
codi	-12.7922
sche	-12.7924
trovert	-12.7924
▁oppress	-12.7927
▁dais	-12.7929
▁philosopher	-12.7934
▁sculpture	-12.7935
▁bent	-12.7935
▁successor	-12.7939
▁creator	-12.7943
ickey	-12.7943
▁paradi	-12.7949
plex	-12.7961
▁swarm	-12.7962
▁balti	-12.7966
kbal	-12.7967
▁deriv	-12.7968
▁highe	-12.7977
urious	-12.7985
▁batch	-12.7991
haku	-12.7992
▁rocket	-12.7998
▁gathere	-12.8002
▁blurr	-12.8011
iance	-12.8012
▁cab	-12.802
▁overwork	-12.8024
▁prints	-12.8024
hill	-12.8027
▁appl	-12.8028
▁acquir	-12.8032
lamb	-12.8032
gic	-12.8033
▁bombing	-12.8042
ulous	-12.8043
thyroid	-12.8045
▁4100	-12.8046
ental	-12.805
▁insight	-12.8052
▁attent	-12.8055
▁rug	-12.8057
▁cord	-12.8057
lass	-12.8064
sban	-12.8064
nuts	-12.807
▁charger	-12.8075
egie	-12.8076
▁lou	-12.8078
▁mont	-12.8079
wo	-12.8089
▁inclin	-12.8091
pines	-12.8091
▁downside	-12.8093
▁baekb	-12.8094
▁fright	-12.81
▁kore	-12.8104
▁noble	-12.8106
▁hoodie	-12.8108
iner	-12.8109
eng	-12.8114
▁disrupt	-12.8114
▁jihye	-12.8115
▁prob	-12.8121
agram	-12.8122
▁troll	-12.8123
▁98	-12.8124
ecd	-12.8126
▁dea	-12.8127
▁continent	-12.8139
mak	-12.814
▁controller	-12.8143
ations	-12.8154
otten	-12.8164
deok	-12.8165
▁jjim	-12.817
wall	-12.8172
▁dal	-12.8173
ital	-12.8175
▁abs	-12.8176
rella	-12.8178
▁dim	-12.818
▁pastor	-12.8181
▁insan	-12.8184
▁armor	-12.8199
▁parti	-12.8202
▁webp	-12.821
▁contaminat	-12.8212
▁follower	-12.8216
▁pur	-12.8216
ditional	-12.8221
▁subtract	-12.8231
▁reuni	-12.8232
▁gat	-12.8234
▁brace	-12.8235
▁zippe	-12.8249
▁clue	-12.8249
rcy	-12.825
▁hyper	-12.8252
▁patrol	-12.8257
nsori	-12.8257
▁kook	-12.8267
▁sigh	-12.827
▁stimul	-12.8272
45	-12.828
stop	-12.8283
▁commut	-12.8285
nyl	-12.8288
mal	-12.8291
▁gri	-12.8298
▁idiom	-12.8299
▁contradict	-12.8302
iotic	-12.831
tropic	-12.8314
▁radiat	-12.8321
▁yoursel	-12.8327
▁vat	-12.8341
ricks	-12.8347
stella	-12.8347
▁harb	-12.8351
▁maint	-12.8351
storm	-12.8359
greed	-12.8361
005	-12.8361
exter	-12.8367
▁needles	-12.8368
▁spectac	-12.837
▁qua	-12.8374
▁dug	-12.8379
▁hwan	-12.8381
▁importa	-12.8385
▁snor	-12.8393
gam	-12.8396
▁listing	-12.8407
▁slippe	-12.8416
▁arrow	-12.8416
▁enhanc	-12.8423
▁reviv	-12.8424
▁overcom	-12.8426
▁bod	-12.8429
▁ru	-12.8441
ei	-12.8452
kyung	-12.8461
doubted	-12.8461
uff	-12.8468
▁accuse	-12.8469
▁discharg	-12.8475
hye	-12.8479
▁damp	-12.8485
▁crafts	-12.8503
▁sunda	-12.8509
just	-12.8513
illion	-12.8515
skin	-12.8516
▁vibra	-12.8517
▁bun	-12.8519
claim	-12.8527
▁collaborate	-12.8534
▁marin	-12.8537
duk	-12.8543
eo	-12.8547
second	-12.8551
oli	-12.8553
▁lett	-12.8558
▁relocate	-12.8562
▁edf	-12.8564
▁fisher	-12.8568
▁daecheon	-12.8569
pine	-12.8577
▁dro	-12.8578
▁whipp	-12.8582
▁flavors	-12.8582
▁hana	-12.8587
▁pac	-12.859
▁consol	-12.8593
▁tub	-12.8606
▁mung	-12.8607
▁mig	-12.861
▁lure	-12.8612
eligi	-12.862
ss	-12.8622
▁flee	-12.8623
▁fertil	-12.8636
zo	-12.8636
▁shade	-12.8636
egar	-12.8638
nghak	-12.8645
hu	-12.8652
stal	-12.8653
▁manipulate	-12.8656
▁worm	-12.866
▁93	-12.8662
▁dys	-12.8664
▁codes	-12.8667
▁trem	-12.8668
tive	-12.8671
big	-12.868
emper	-12.869
▁rab	-12.869
cious	-12.869
sun	-12.8698
▁cheols	-12.8708
vert	-12.8715
▁badge	-12.8716
vas	-12.8718
sappo	-12.8722
▁liter	-12.8723
▁retr	-12.8729
▁shou	-12.8732
▁redis	-12.8754
▁emerge	-12.8759
amyang	-12.8762
▁gyung	-12.8763
▁unde	-12.8763
▁ruler	-12.8764
▁apologi	-12.8767
onju	-12.8772
▁islami	-12.8786
▁xiao	-12.8791
▁kor	-12.8814
53	-12.8821
gur	-12.8822
bab	-12.8826
▁influent	-12.883
▁banne	-12.8832
▁reinforc	-12.8834
▁corne	-12.8835
▁activi	-12.8845
▁forg	-12.8846
▁kama	-12.8859
▁domina	-12.8862
▁cater	-12.8867
▁goose	-12.8873
▁moisturize	-12.8883
▁slo	-12.8897
▁nause	-12.8908
cent	-12.8912
▁vest	-12.8913
elated	-12.8918
▁mist	-12.8927
▁lac	-12.893
▁parad	-12.8934
▁cultivate	-12.8938
▁sym	-12.8953
▁kt	-12.8954
▁surp	-12.8957
▁shap	-12.8962
▁correlat	-12.8966
▁mega	-12.8976
bm	-12.8977
fo	-12.8984
▁pickl	-12.8992
02	-12.9003
▁destroye	-12.9035
▁pops	-12.904
▁curl	-12.9044
▁canc	-12.9045
▁princes	-12.9064
▁fab	-12.9064
▁constitute	-12.9071
▁pf	-12.9073
▁controlle	-12.9073
▁prey	-12.9074
▁minju	-12.9085
▁symbolic	-12.9092
▁exempt	-12.9098
world	-12.9115
▁republican	-12.9116
maker	-12.9118
▁protecti	-12.9124
chroma	-12.9134
ye	-12.9135
▁matur	-12.9138
▁scribble	-12.9144
oba	-12.9146
▁222	-12.9149
urs	-12.9158
▁dia	-12.9165
▁nic	-12.9171
▁jew	-12.9188
▁lid	-12.9196
▁authorize	-12.9197
iation	-12.9217
four	-12.9219
▁trait	-12.9222
ress	-12.9232
inner	-12.9237
og	-12.9243
▁align	-12.9243
▁designat	-12.9246
▁deva	-12.9252
vil	-12.9259
opping	-12.9262
▁grain	-12.9271
raw	-12.9272
▁sevent	-12.9275
▁compassion	-12.9276
▁stabl	-12.9285
▁evo	-12.9287
too	-12.9288
eard	-12.9291
▁condom	-12.9294
▁impli	-12.93
▁intens	-12.93
logical	-12.9305
▁vaccinate	-12.931
▁greg	-12.9312
▁ideolog	-12.9319
▁preach	-12.9319
rio	-12.9325
cheol	-12.9338
▁doors	-12.9351
ewha	-12.936
iage	-12.9366
▁hum	-12.9367
400	-12.9391
▁gan	-12.9403
▁cg	-12.942
▁interfer	-12.9424
▁scam	-12.9435
ola	-12.9441
▁bait	-12.9441
fc	-12.9442
▁zel	-12.9448
nzo	-12.945
▁processe	-12.9452
mia	-12.9459
color	-12.9461
bil	-12.9464
▁arise	-12.9464
rence	-12.9471
pr	-12.9476
▁norm	-12.9488
resting	-12.9491
openha	-12.9498
▁appare	-12.9506
lity	-12.9509
▁pang	-12.9518
▁tasting	-12.9523
thos	-12.953
▁pric	-12.9532
▁galleri	-12.9536
▁wol	-12.9539
▁activat	-12.955
▁marti	-12.9561
▁conc	-12.9569
▁slipp	-12.9572
▁sens	-12.9578
▁112	-12.9581
gok	-12.9587
tial	-12.96
▁raci	-12.9603
▁dy	-12.9609
sco	-12.962
▁transmit	-12.9625
▁kur	-12.9627
dol	-12.9634
▁recharg	-12.965
rope	-12.9654
▁lenien	-12.9674
charge	-12.9678
▁bana	-12.9681
▁swor	-12.9689
egi	-12.9735
▁compli	-12.9755
complete	-12.9763
▁hesitati	-12.9764
▁52	-12.9764
rational	-12.977
▁verb	-12.9776
▁rotation	-12.9789
real	-12.9798
▁brew	-12.9811
lashe	-12.9822
chain	-12.9826
lian	-12.9826
agg	-12.9832
gar	-12.9834
max	-12.9838
▁formation	-12.9844
▁sensib	-12.9847
write	-12.9849
ongsan	-12.9857
child	-12.9864
▁inje	-12.9865
▁influen	-12.9873
att	-12.9876
▁emerg	-12.9893
free	-12.9905
▁troubl	-12.991
ime	-12.9921
▁approache	-12.9921
▁islam	-12.9923
▁ky	-12.9934
sia	-12.9942
eria	-12.9951
int	-12.9951
ibli	-12.9962
▁xia	-12.9963
factor	-12.9974
ag	-12.9975
zi	-12.9981
▁zin	-12.9983
tangle	-13
dp	-13.0001
dollars	-13.0006
moon	-13.0022
▁lis	-13.0028
▁38	-13.0031
amed	-13.0032
989	-13.0035
scar	-13.004
aka	-13.0041
▁duplicate	-13.0042
▁weld	-13.0043
▁illustrat	-13.0045
▁minjun	-13.0049
▁squ	-13.005
▁yeoj	-13.0052
▁pressur	-13.0055
07	-13.0061
▁brea	-13.0062
▁dipp	-13.0069
aly	-13.007
erry	-13.0074
▁associat	-13.0077
vis	-13.0077
▁slit	-13.0081
▁unsol	-13.0086
▁corr	-13.0088
▁batt	-13.0094
▁kara	-13.0096
▁busi	-13.0099
▁entit	-13.0119
lier	-13.012
▁prep	-13.0121
ngwha	-13.0125
▁commemorati	-13.0129
come	-13.0129
▁industri	-13.0136
▁contr	-13.0137
ky	-13.0137
▁coll	-13.0138
vy	-13.0141
▁hesitat	-13.0149
inju	-13.0159
▁din	-13.0165
▁bron	-13.0166
los	-13.0183
lotte	-13.0195
ement	-13.02
nori	-13.0201
▁rod	-13.0215
▁bust	-13.0223
▁suji	-13.0225
▁superma	-13.0226
▁delusi	-13.0231
37	-13.0234
▁preset	-13.0235
0000	-13.0241
▁gods	-13.0241
63	-13.0243
placement	-13.0243
wed	-13.0258
band	-13.026
▁humanit	-13.0275
omni	-13.0287
▁nurtur	-13.0287
space	-13.0292
▁striv	-13.0302
▁marc	-13.0302
mura	-13.0307
▁horri	-13.0308
▁johns	-13.0311
▁merc	-13.0312
▁cheongg	-13.0312
▁visc	-13.0317
▁levi	-13.0328
hop	-13.0329
▁denie	-13.0339
treat	-13.0341
▁kai	-13.0346
rup	-13.0352
▁corp	-13.0356
nocent	-13.0368
agic	-13.0368
ific	-13.0378
▁vice	-13.0378
ntage	-13.0381
unt	-13.0382
▁impose	-13.0388
accurate	-13.0398
▁noun	-13.0399
erge	-13.04
▁mona	-13.0401
ott	-13.0408
60	-13.0409
pri	-13.0412
▁tons	-13.0413
▁flags	-13.0417
▁policem	-13.0419
igan	-13.0421
▁deli	-13.0421
jie	-13.0422
▁vow	-13.0423
▁ignit	-13.0427
▁tablet	-13.0428
nomic	-13.0429
▁bay	-13.0432
▁halla	-13.0442
burg	-13.0447
▁optional	-13.0452
spread	-13.0455
nc	-13.0457
▁merg	-13.0457
▁pep	-13.0458
889	-13.0471
pong	-13.0477
irs	-13.0488
▁rede	-13.0488
cell	-13.049
▁hacke	-13.0496
jindo	-13.0521
sket	-13.0522
submit	-13.0522
▁nest	-13.0531
▁avid	-13.0543
▁ev	-13.0543
comprehensi	-13.0544
kans	-13.0547
cil	-13.0548
trude	-13.0548
ologist	-13.0563
lit	-13.0564
force	-13.0568
▁indulge	-13.0581
ails	-13.0587
▁750	-13.0589
▁cv	-13.0594
▁interes	-13.061
▁tide	-13.0614
▁expel	-13.0619
fication	-13.062
▁rul	-13.0632
paste	-13.0634
▁mole	-13.0639
myeong	-13.0649
▁vet	-13.065
jjim	-13.0655
velo	-13.0655
ient	-13.0656
stroke	-13.0661
▁sulle	-13.0663
rc	-13.0663
▁spoil	-13.0668
▁assum	-13.0675
▁102	-13.0675
▁optimize	-13.0684
▁circu	-13.0686
high	-13.0695
▁specif	-13.0701
kka	-13.0702
got	-13.0721
continent	-13.0724
▁logg	-13.0732
far	-13.0732
ison	-13.0732
lift	-13.0738
▁empath	-13.0741
bus	-13.0744
▁187	-13.0753
rmed	-13.0754
▁logge	-13.0757
▁sic	-13.0774
▁ava	-13.0776
▁juan	-13.0777
bec	-13.0777
▁185	-13.0791
▁001	-13.0793
▁cycl	-13.0793
▁dens	-13.0795
zhe	-13.0802
killer	-13.0816
ura	-13.0819
itz	-13.0826
▁sparkl	-13.0842
▁scholar	-13.0844
▁clo	-13.0846
col	-13.0846
▁varie	-13.0846
▁intentional	-13.0849
▁naga	-13.0851
▁53	-13.0852
▁189	-13.0854
clair	-13.0856
▁substitut	-13.0856
mul	-13.0857
inhabit	-13.0865
set	-13.087
▁crap	-13.0878
▁comprehen	-13.0885
▁nex	-13.0895
hes	-13.0914
▁teenage	-13.0919
▁criticiz	-13.0921
ruc	-13.0927
sourc	-13.0929
▁beau	-13.093
jia	-13.0933
leg	-13.0936
87	-13.0944
▁distincti	-13.0961
oine	-13.0976
anthrop	-13.0977
eum	-13.0983
▁phon	-13.0988
▁hea	-13.0988
▁ease	-13.0992
▁medicin	-13.0992
▁graves	-13.0993
match	-13.0995
▁carbo	-13.0996
▁favorit	-13.0999
mon	-13.1007
▁tumble	-13.1008
▁304	-13.1015
▁influenc	-13.1015
gum	-13.1019
▁scho	-13.1022
oge	-13.1032
▁purifie	-13.1035
▁bann	-13.1036
eller	-13.1041
ick	-13.1041
▁initializ	-13.1042
▁astronom	-13.1043
▁overlap	-13.1046
wind	-13.1056
▁gangseo	-13.1072
amisu	-13.1075
▁stumbl	-13.1078
ise	-13.1078
▁phil	-13.1085
▁intermittent	-13.1088
▁acrobatic	-13.1088
▁antarctic	-13.1088
▁biscuit	-13.1088
▁conscientious	-13.1088
▁delinquen	-13.1088
▁detergent	-13.1088
▁diminishe	-13.1088
▁disrespectful	-13.1088
▁disseminate	-13.1088
▁extravagant	-13.1088
▁fluorescen	-13.1088
▁gabriel	-13.1088
▁glacier	-13.1088
▁hijab	-13.1088
▁incompeten	-13.1088
▁microorganism	-13.1088
▁millimeter	-13.1088
▁mmigrant	-13.1088
▁neanderthal	-13.1088
▁negligen	-13.1088
▁nietz	-13.1088
▁pedestrian	-13.1088
▁persuasive	-13.1088
▁skyscraper	-13.1088
▁smudge	-13.1088
▁spontaneous	-13.1088
▁taegeuk	-13.1088
▁tortoise	-13.1088
▁agitated	-13.1088
▁coconut	-13.1088
▁countermeasure	-13.1088
▁dakgalbi	-13.1088
▁discourte	-13.1088
▁exclamat	-13.1088
▁neutral	-13.1088
▁propriet	-13.1088
▁argentin	-13.1088
▁bipolar	-13.1088
▁cannibal	-13.1088
▁encrypt	-13.1088
▁pineapple	-13.1088
▁unimaginabl	-13.1088
▁demerit	-13.1088
▁elaborat	-13.1088
▁hormone	-13.1088
▁murphy	-13.1088
▁scooter	-13.1088
▁ruthless	-13.1088
▁acquisition	-13.1088
▁intrigu	-13.1088
▁transcend	-13.1088
▁silkscreen	-13.1088
▁napoleon	-13.1089
▁tactless	-13.1089
▁imprison	-13.1089
▁mediocr	-13.1089
▁reenact	-13.1089
▁descendant	-13.1089
curricul	-13.1089
▁ecosystem	-13.1089
▁jjolmy	-13.1089
▁lantern	-13.1089
▁pneum	-13.1089
▁archaeolog	-13.1089
▁bracket	-13.1089
▁grenade	-13.1089
▁quarterfinal	-13.1089
▁bikini	-13.1089
▁dictator	-13.1089
▁ascetic	-13.1089
▁discourag	-13.1089
▁iranian	-13.1089
▁persuasion	-13.1089
▁segment	-13.1089
▁mileage	-13.1089
▁eggplant	-13.1089
▁vandal	-13.1089
▁womanizer	-13.1089
▁zhu	-13.1089
cussion	-13.1089
▁temptation	-13.1089
▁gospel	-13.1089
▁reckon	-13.1089
▁reflex	-13.1089
▁simulation	-13.1089
▁landfill	-13.1089
▁leonard	-13.1089
▁pretzel	-13.1089
▁dazzling	-13.1089
▁muffin	-13.1089
▁implant	-13.1089
▁egyptian	-13.1089
▁disgu	-13.1089
▁condiment	-13.1089
▁distrust	-13.1089
▁scandal	-13.1089
▁interlac	-13.1089
▁slogan	-13.1089
▁unreliab	-13.1089
▁swindle	-13.1089
▁mistreat	-13.1089
▁facult	-13.1089
▁deteriorat	-13.1089
▁veteran	-13.1089
▁lotteria	-13.109
▁superpower	-13.109
▁augment	-13.109
▁chungcheong	-13.109
▁gossip	-13.109
▁earlobe	-13.109
▁olleh	-13.109
▁14007	-13.109
▁sublim	-13.109
▁41002	-13.109
▁rebellio	-13.109
▁stylish	-13.109
▁caucas	-13.109
▁disclose	-13.109
▁briefcase	-13.109
▁fuku	-13.109
▁granddaughter	-13.109
▁journalist	-13.109
▁advent	-13.1091
▁40011	-13.1091
▁gyeongsang	-13.1091
▁vivien	-13.1091
▁yield	-13.1091
▁residue	-13.1091
▁nozzle	-13.1091
▁catalyst	-13.1091
▁samgye	-13.1091
▁campsite	-13.1091
▁pervert	-13.1091
▁saliva	-13.1091
▁cohabita	-13.1091
▁racket	-13.1091
▁overthrow	-13.1092
▁maniac	-13.1092
▁deliberation	-13.1092
▁troop	-13.1092
▁radical	-13.1092
▁shovel	-13.1092
▁pipeline	-13.1092
▁crumb	-13.1092
▁unaccept	-13.1092
▁suprem	-13.1092
▁corpora	-13.1092
▁theoretical	-13.1092
▁busker	-13.1093
▁tibet	-13.1093
▁jebu	-13.1093
▁bathhouse	-13.1093
▁crossroad	-13.1093
▁badmouth	-13.1093
▁radar	-13.1093
▁entrust	-13.1094
▁refreshment	-13.1094
▁coeducation	-13.1095
gogi	-13.1095
▁fertilize	-13.1095
▁wolmi	-13.1096
▁incompatib	-13.1096
▁scott	-13.1096
▁evident	-13.1096
▁invade	-13.1097
▁compound	-13.1097
▁terrain	-13.1097
▁energize	-13.1098
▁jeongdong	-13.1098
▁chalk	-13.1099
▁fluster	-13.1099
▁stumble	-13.1099
▁prolong	-13.1101
▁embodie	-13.1102
▁hazard	-13.1102
precedent	-13.1102
▁verita	-13.1102
▁postgr	-13.1103
▁dragonfl	-13.1103
furt	-13.1104
▁corrosi	-13.1104
▁unload	-13.1105
▁ironic	-13.1105
▁muddle	-13.1106
▁undermine	-13.1106
▁enlist	-13.1106
▁honda	-13.1106
▁cif	-13.1107
▁inefficient	-13.1107
▁parasit	-13.1107
▁pedal	-13.1108
ador	-13.1108
midt	-13.1108
▁173	-13.1109
▁550	-13.1109
▁baptism	-13.1109
▁sulf	-13.111
▁restrain	-13.1111
▁nagg	-13.1111
▁domino	-13.1112
▁dongbang	-13.1112
▁kangwon	-13.1112
▁reinstall	-13.1112
▁shiver	-13.1113
tober	-13.1115
▁obligat	-13.1115
▁hangang	-13.1115
▁gloss	-13.1117
▁ardent	-13.1117
watch	-13.1117
▁chamber	-13.1118
▁dumb	-13.1118
▁courageous	-13.1119
▁eliminat	-13.1119
▁contender	-13.1122
▁oct	-13.1123
▁175	-13.1124
▁gig	-13.1125
▁haiti	-13.1125
hio	-13.1126
▁extremist	-13.1126
enzym	-13.1127
▁butcher	-13.1128
▁cyl	-13.1128
▁educator	-13.1128
▁refuel	-13.1129
▁delica	-13.1129
▁bleach	-13.1132
▁wolve	-13.1133
▁baekje	-13.1134
▁daewoo	-13.1134
▁sebum	-13.1139
▁fransi	-13.114
▁jones	-13.114
udent	-13.1141
▁accommodat	-13.1141
▁keimy	-13.1141
▁purifier	-13.1143
▁gwangan	-13.1144
▁reciev	-13.1145
▁lager	-13.1146
▁merchant	-13.1147
morrow	-13.1147
▁kawa	-13.1147
▁youth	-13.1147
▁populariz	-13.1149
▁jap	-13.115
▁72	-13.115
▁crown	-13.1151
▁ripe	-13.1151
▁wafer	-13.1151
▁enlarg	-13.1153
▁innate	-13.1156
▁damn	-13.1157
▁prophe	-13.1159
▁advancement	-13.1162
▁decade	-13.1162
▁coa	-13.1164
▁ann	-13.1167
jil	-13.117
▁brows	-13.1171
▁104	-13.1173
▁acorn	-13.1173
▁thunder	-13.1174
▁purposeful	-13.1175
ortex	-13.1179
▁ponder	-13.1181
ryeo	-13.1181
▁classifi	-13.1181
aereung	-13.1183
▁264	-13.1185
▁conserve	-13.1185
▁compass	-13.1187
▁780	-13.119
▁konj	-13.119
▁bounce	-13.1199
▁ash	-13.1199
▁deodoriz	-13.12
▁terrifi	-13.1205
▁marion	-13.1208
▁carn	-13.1208
gwar	-13.1209
▁celest	-13.121
uggl	-13.121
▁tando	-13.1212
▁stink	-13.1214
▁212	-13.1216
xel	-13.1218
▁slid	-13.1223
▁optim	-13.1225
▁pixel	-13.1226
▁kkot	-13.1227
tacos	-13.1227
▁73	-13.1227
▁voltage	-13.1229
aster	-13.123
▁daehan	-13.123
▁glori	-13.1231
▁widget	-13.1234
nline	-13.1238
▁perfection	-13.1241
▁carnation	-13.1242
▁assumption	-13.1243
▁trustful	-13.1247
▁bliz	-13.1251
▁chick	-13.1255
▁peep	-13.1255
forma	-13.1261
▁celebrati	-13.1269
▁inst	-13.1275
▁fanci	-13.1278
▁connector	-13.1278
▁req	-13.1281
lief	-13.1282
▁balm	-13.1283
▁scanner	-13.1284
usb	-13.1286
mination	-13.1288
▁frigi	-13.129
▁initiati	-13.1293
▁clamp	-13.1294
start	-13.1298
▁jessi	-13.1305
▁shir	-13.131
▁jaw	-13.1311
▁angelin	-13.1312
▁daff	-13.1312
▁beard	-13.1315
please	-13.1315
▁indicat	-13.1316
▁hoop	-13.1323
duction	-13.1325
▁monk	-13.1325
terran	-13.1327
roupe	-13.1329
▁thorn	-13.133
▁81	-13.1331
ternal	-13.1333
azzi	-13.1334
▁calibrat	-13.1334
▁scholars	-13.1338
▁mitch	-13.1343
▁reminisce	-13.1346
ulation	-13.135
▁coral	-13.1351
▁commercializ	-13.1351
008	-13.1351
▁stunt	-13.1356
▁gwan	-13.1359
▁620	-13.1362
▁induce	-13.1365
▁chapel	-13.1365
▁ethi	-13.1366
▁habitual	-13.1369
▁apologiz	-13.137
▁misjudg	-13.1373
▁gua	-13.1375
utopi	-13.1375
▁quest	-13.1377
▁blush	-13.1378
active	-13.1382
dess	-13.1383
ae	-13.1384
▁accessi	-13.1393
ndang	-13.1402
▁panick	-13.1406
▁coaster	-13.1413
tional	-13.1416
▁underg	-13.1422
013	-13.1429
▁fellows	-13.1431
▁hoist	-13.1434
▁retailer	-13.1435
▁peek	-13.1439
▁jp	-13.1441
▁disk	-13.1444
▁nagan	-13.1449
▁patriot	-13.1452
▁rev	-13.146
▁flourish	-13.1462
▁psy	-13.1465
anage	-13.1466
tw	-13.1477
▁dduk	-13.1477
ali	-13.148
ujang	-13.1483
▁mum	-13.1493
▁pens	-13.1494
▁witted	-13.1496
▁drinker	-13.1497
▁plea	-13.1499
mond	-13.1499
▁sociolog	-13.1508
▁mourn	-13.1508
▁transformer	-13.1511
▁lovel	-13.1512
unning	-13.1514
▁nig	-13.1519
▁shipbuild	-13.1526
▁polytech	-13.1528
▁cpt	-13.1533
▁venu	-13.1533
▁mindful	-13.1533
▁awaken	-13.1544
▁dwell	-13.1545
anism	-13.1545
row	-13.1548
▁speculat	-13.1549
▁percepti	-13.1559
uxe	-13.1561
▁glam	-13.1563
bay	-13.1565
▁calligra	-13.1566
kko	-13.1576
▁clause	-13.158
▁wai	-13.1581
▁affluen	-13.1583
▁revisit	-13.1602
▁melodie	-13.1609
▁dimple	-13.1621
▁publication	-13.1623
leung	-13.1624
880	-13.1636
784	-13.1637
▁void	-13.164
▁nicol	-13.1642
▁broom	-13.1643
je	-13.1646
430	-13.1652
equi	-13.1656
lab	-13.1657
location	-13.1659
them	-13.1663
tor	-13.1663
▁dev	-13.1678
▁fba	-13.1692
ovan	-13.1694
▁insa	-13.1696
▁deok	-13.1715
▁04	-13.1716
▁banqu	-13.1716
▁joking	-13.1717
cture	-13.172
▁dart	-13.1731
▁edg	-13.1732
▁adopti	-13.1733
▁housewi	-13.1736
ined	-13.1752
olish	-13.1753
▁worke	-13.1759
llows	-13.1759
ora	-13.1759
▁oak	-13.1761
cardia	-13.1774
▁brewer	-13.1777
▁seed	-13.1778
▁unconv	-13.1778
anic	-13.178
cow	-13.1782
▁urinate	-13.1782
▁remarkabl	-13.1788
▁nico	-13.1791
▁blade	-13.1794
▁locker	-13.1796
▁evolve	-13.1801
▁gaz	-13.1816
▁manure	-13.182
▁tremble	-13.1836
rat	-13.1838
▁freel	-13.1842
hopper	-13.185
rate	-13.1854
nyeon	-13.1856
lay	-13.1863
holder	-13.1865
▁rig	-13.1872
▁announcer	-13.1874
ace	-13.1876
bai	-13.1882
dj	-13.1889
hed	-13.1899
oxid	-13.1899
▁pore	-13.1905
custom	-13.1905
▁emi	-13.1911
itten	-13.1913
▁champions	-13.1926
▁seol	-13.1932
pher	-13.1933
▁scall	-13.194
▁ger	-13.1944
▁combat	-13.1948
▁eno	-13.195
▁lauren	-13.195
▁virtue	-13.1956
▁robe	-13.1967
▁carri	-13.1978
▁immor	-13.1979
nkin	-13.198
▁furnish	-13.1983
▁catter	-13.1986
▁assert	-13.1993
▁jori	-13.1994
▁addresse	-13.2003
mend	-13.2004
▁vir	-13.2008
tak	-13.2009
▁64	-13.2029
▁eac	-13.2029
▁gener	-13.2031
lux	-13.2036
▁seba	-13.2042
shima	-13.2045
▁casualt	-13.2045
▁cau	-13.2058
▁opti	-13.2062
hire	-13.2074
eon	-13.2085
▁hak	-13.2099
▁prisoner	-13.21
sword	-13.2101
cup	-13.2101
▁rightful	-13.2102
▁roh	-13.2112
▁gall	-13.2113
▁brighten	-13.2127
cid	-13.2129
▁winds	-13.213
▁magneti	-13.2132
▁pp	-13.2134
84	-13.2134
▁uglie	-13.2141
▁mira	-13.2142
▁ppop	-13.2145
▁hangu	-13.2146
▁accumulati	-13.2146
▁interviewee	-13.2148
ometric	-13.216
res	-13.2161
▁sancti	-13.2162
▁sadde	-13.2166
▁nori	-13.218
truthful	-13.218
▁notariz	-13.2183
apo	-13.2187
ven	-13.2189
▁seop	-13.2193
ngsan	-13.2194
▁chas	-13.2201
▁eva	-13.2205
▁selfie	-13.2206
▁contraction	-13.2207
rb	-13.2213
▁picke	-13.2213
▁lodge	-13.2215
▁156	-13.2218
97	-13.2228
▁hitt	-13.223
donald	-13.2235
know	-13.2241
▁nug	-13.2244
ris	-13.2246
▁gim	-13.2246
▁jumper	-13.2251
▁songwrit	-13.2257
nie	-13.2257
▁belated	-13.226
lie	-13.2275
▁vod	-13.2279
▁capab	-13.2282
arm	-13.2295
overt	-13.2297
▁foc	-13.2299
rn	-13.2302
nail	-13.2302
▁hypocrit	-13.2316
▁impa	-13.2317
▁vac	-13.232
▁mil	-13.2324
▁gastri	-13.2324
▁bonn	-13.233
▁disperse	-13.2337
ql	-13.2339
▁kana	-13.2341
▁seonh	-13.2342
sam	-13.2346
▁1307	-13.2346
▁aggravat	-13.2351
▁gram	-13.2354
ctor	-13.2356
ctators	-13.2381
naru	-13.2383
▁daeb	-13.2384
1004	-13.2387
▁aid	-13.2393
crank	-13.2395
sexual	-13.2397
nea	-13.2402
▁zac	-13.2403
▁kum	-13.2405
▁voter	-13.2408
003	-13.2416
inch	-13.2418
aejang	-13.2422
▁reflecti	-13.2434
▁coloni	-13.2435
▁coordinate	-13.2441
view	-13.2445
iting	-13.2446
▁featur	-13.2452
▁196	-13.2454
kura	-13.2456
fel	-13.2457
▁bj	-13.2462
pass	-13.2468
▁iran	-13.2469
▁elli	-13.2476
▁salar	-13.2478
has	-13.2478
▁helpe	-13.2483
yungdo	-13.2493
tro	-13.2506
cation	-13.2507
▁scr	-13.2511
mu	-13.2513
▁eul	-13.2514
ado	-13.252
▁lick	-13.2522
▁seize	-13.2526
▁nag	-13.2528
▁kao	-13.2535
002	-13.2539
▁mai	-13.254
▁defici	-13.2543
sel	-13.2543
ath	-13.2546
▁drumm	-13.2547
vanc	-13.2554
▁polar	-13.2556
eps	-13.2562
▁joong	-13.2565
ela	-13.2567
▁kha	-13.257
▁hetero	-13.2575
▁hap	-13.2579
lan	-13.258
rene	-13.2587
▁mingle	-13.2589
orches	-13.2594
▁coloniz	-13.2598
▁haejangg	-13.2611
balance	-13.2625
▁reg	-13.2626
ind	-13.2633
▁obstruct	-13.2635
▁193	-13.2635
▁winn	-13.2638
size	-13.2641
▁fatt	-13.2659
▁hotte	-13.266
▁snatche	-13.2668
▁socia	-13.267
▁nipp	-13.2673
▁dongwoo	-13.2698
iful	-13.2703
▁walker	-13.2721
cul	-13.2725
lary	-13.2727
play	-13.2732
ste	-13.2734
ssier	-13.2735
cat	-13.2744
adz	-13.2747
rick	-13.2752
▁unus	-13.2758
yeo	-13.277
▁ros	-13.2772
▁suhyu	-13.2773
egan	-13.2773
▁stabiliz	-13.2777
▁fore	-13.2778
ater	-13.278
▁cin	-13.2782
zen	-13.2784
▁compile	-13.2787
▁gta	-13.2789
lue	-13.2791
90	-13.2793
lling	-13.2798
▁liberali	-13.28
▁munh	-13.2801
▁cod	-13.2807
lexi	-13.2811
▁hee	-13.2815
▁hal	-13.2815
▁pati	-13.2816
cuff	-13.2818
hus	-13.2818
rade	-13.2825
▁seren	-13.2833
ega	-13.2843
code	-13.2853
rek	-13.286
▁exc	-13.2862
▁teles	-13.2869
▁tortur	-13.2884
jeok	-13.2885
▁reache	-13.2885
▁steame	-13.2888
agger	-13.2896
▁cosm	-13.2913
rna	-13.2915
▁bibimb	-13.2917
▁administrat	-13.2924
rland	-13.2929
angpa	-13.2931
deed	-13.2935
▁viol	-13.2953
47	-13.2954
▁qu	-13.2955
▁relativ	-13.2962
300	-13.2966
pic	-13.2978
buy	-13.2979
ailan	-13.2982
▁reign	-13.2984
▁cp	-13.2989
hel	-13.2998
▁hostil	-13.3
▁rama	-13.301
ude	-13.301
▁theolog	-13.3015
py	-13.3018
▁sinsa	-13.3018
▁smo	-13.3043
onia	-13.3047
esome	-13.3048
bap	-13.3048
ipe	-13.305
▁vie	-13.305
oodle	-13.3051
state	-13.3058
▁subt	-13.3065
oem	-13.3069
▁jell	-13.3081
gong	-13.3085
988	-13.3086
never	-13.3092
▁poke	-13.3094
word	-13.31
▁narrat	-13.3106
enjoy	-13.3125
▁improvi	-13.3129
▁gae	-13.313
▁nayeon	-13.3135
14	-13.3137
▁swe	-13.3139
▁subsid	-13.3161
▁creati	-13.3165
ider	-13.3166
grams	-13.3178
fa	-13.3188
▁diagnos	-13.3188
ket	-13.3189
▁gy	-13.3191
▁glut	-13.3194
hyang	-13.3202
▁initiate	-13.3202
inera	-13.3209
▁buddi	-13.3216
kai	-13.3218
▁stopper	-13.3219
▁sunh	-13.3221
▁flori	-13.3225
sp	-13.3228
▁oblige	-13.323
▁conservati	-13.3239
oven	-13.3239
▁seon	-13.3252
▁differentiat	-13.3256
▁dar	-13.3257
educe	-13.3261
aying	-13.3266
▁lat	-13.327
▁sup	-13.327
▁sug	-13.3274
nize	-13.3277
▁0000	-13.3277
orph	-13.3288
111	-13.329
▁conci	-13.3291
▁acknowledg	-13.3294
85	-13.3295
shoot	-13.3308
▁miser	-13.3309
▁eps	-13.3322
mation	-13.3322
ference	-13.3331
soft	-13.3334
▁prepa	-13.3336
▁temp	-13.3338
▁whiten	-13.3351
106	-13.3351
uls	-13.3352
▁pile	-13.3384
hik	-13.3393
emul	-13.3393
▁atlant	-13.3399
ipper	-13.3409
nja	-13.3412
▁yeom	-13.3413
chur	-13.3417
▁participa	-13.3427
▁ugli	-13.3439
cific	-13.344
rose	-13.3442
▁num	-13.3448
▁cens	-13.3456
▁jaj	-13.3457
▁distribu	-13.3458
▁cellul	-13.3458
ator	-13.3459
▁spac	-13.346
▁expans	-13.3462
▁reel	-13.3475
▁clone	-13.3479
▁andong	-13.3485
▁tent	-13.3498
▁obs	-13.35
▁emit	-13.3501
hotel	-13.3506
implicit	-13.3512
pens	-13.3514
urin	-13.3525
ils	-13.3526
▁supervise	-13.3527
▁trainer	-13.3531
▁sue	-13.3536
▁looki	-13.354
train	-13.3548
owing	-13.3556
▁scen	-13.3558
ifi	-13.3563
▁finaliz	-13.3571
▁expe	-13.3572
▁symbolical	-13.3584
▁automati	-13.3587
▁tun	-13.3589
rable	-13.3595
▁trus	-13.36
▁xi	-13.3601
▁nec	-13.361
▁compa	-13.3614
ban	-13.3616
ig	-13.3622
▁everyt	-13.3622
▁tens	-13.3623
chuse	-13.3637
▁bong	-13.3642
▁commend	-13.3646
▁mars	-13.3668
air	-13.3688
assure	-13.3692
▁corru	-13.3694
▁fleu	-13.3697
▁1600	-13.3703
sta	-13.3715
▁starv	-13.3716
▁ton	-13.3717
tine	-13.3726
▁hik	-13.373
api	-13.3734
▁apac	-13.3737
▁bind	-13.3738
ealing	-13.3745
ith	-13.3762
▁186	-13.3773
▁seog	-13.3781
yun	-13.3783
jeol	-13.3788
▁recollect	-13.3789
xia	-13.379
sy	-13.3794
angmyeon	-13.38
sc	-13.3807
▁gland	-13.3813
cia	-13.3814
▁duplicat	-13.3819
▁restorati	-13.3821
▁lime	-13.3825
tb	-13.3828
val	-13.3836
deliver	-13.384
▁03	-13.3841
union	-13.3841
▁diver	-13.3855
avid	-13.3868
▁sy	-13.3873
rich	-13.3885
oid	-13.3887
▁stitche	-13.3896
uc	-13.3898
▁desir	-13.39
tted	-13.3904
hwamoon	-13.3911
▁colon	-13.3918
▁legislati	-13.3932
au	-13.3935
lumin	-13.3942
▁snatch	-13.3943
600	-13.3945
olmi	-13.3968
rie	-13.3969
▁lev	-13.3969
tz	-13.3973
ractive	-13.3977
▁cond	-13.399
▁talke	-13.399
▁pd	-13.3992
▁nero	-13.4006
▁reperto	-13.4007
gb	-13.401
51	-13.4011
ief	-13.4012
▁anten	-13.4017
▁lit	-13.4018
▁witnesse	-13.4019
▁mala	-13.4022
attle	-13.4025
▁dam	-13.4073
▁sapp	-13.4074
▁sins	-13.4078
inder	-13.4094
wait	-13.4095
ongmyo	-13.4106
▁cubi	-13.411
nba	-13.4114
stage	-13.4132
rial	-13.4133
▁kinder	-13.414
▁crep	-13.4146
deung	-13.4149
anbi	-13.4153
traction	-13.4159
▁neu	-13.4163
had	-13.4171
sang	-13.4175
▁natur	-13.4176
lp	-13.4177
▁reproduc	-13.4181
▁archi	-13.4183
tale	-13.4187
nation	-13.4187
▁des	-13.4208
pit	-13.4211
▁logic	-13.4212
lla	-13.4223
spend	-13.4236
▁remu	-13.4238
▁showe	-13.4247
▁cultivati	-13.4258
they	-13.4267
run	-13.4276
cad	-13.4277
▁tolera	-13.4284
racious	-13.4294
▁var	-13.4296
885	-13.4296
▁liste	-13.4308
▁rud	-13.4311
▁igua	-13.4312
▁aggravate	-13.4312
front	-13.4321
imed	-13.4326
▁cind	-13.433
▁ol	-13.4345
wich	-13.4345
▁hypocri	-13.4356
rac	-13.4362
▁transmitt	-13.4365
▁jeo	-13.4373
▁electrici	-13.4377
gregor	-13.4388
jami	-13.441
▁kab	-13.4413
tel	-13.442
content	-13.4422
▁emb	-13.4428
ocate	-13.4429
▁irr	-13.4434
▁cope	-13.4442
▁institutional	-13.4447
▁hw	-13.4449
▁ali	-13.4452
iles	-13.4465
mother	-13.4466
data	-13.447
▁prim	-13.4471
post	-13.448
ujin	-13.448
current	-13.4492
▁dongsu	-13.4495
rin	-13.4506
hild	-13.4511
▁allot	-13.4517
mmed	-13.4518
▁catche	-13.4524
▁dongha	-13.4531
few	-13.4532
▁conclud	-13.4535
ruda	-13.4536
rine	-13.4538
mper	-13.4548
▁acce	-13.4552
con	-13.4553
akaya	-13.4555
▁coordinat	-13.4561
▁frei	-13.4567
arch	-13.457
▁origina	-13.4572
▁fed	-13.4575
▁mina	-13.4582
condition	-13.4587
ense	-13.4588
▁46	-13.4618
▁gui	-13.4633
tions	-13.4633
need	-13.4635
ml	-13.4636
▁arti	-13.4645
▁choo	-13.4658
clock	-13.4664
spiration	-13.4672
este	-13.4696
▁gari	-13.4704
ited	-13.4705
ild	-13.4706
▁hyu	-13.4707
vine	-13.4708
enter	-13.4709
street	-13.4709
▁foo	-13.4718
block	-13.4724
ote	-13.4724
▁poo	-13.4726
fro	-13.4729
▁ensur	-13.4729
culture	-13.4731
▁pers	-13.4732
▁gaso	-13.4735
rp	-13.4759
iscal	-13.476
share	-13.4761
▁pronounc	-13.4766
▁gymnast	-13.4769
lection	-13.4771
raz	-13.4802
▁pho	-13.4822
▁poli	-13.4835
▁suppresse	-13.4838
▁minimal	-13.4842
▁seduc	-13.4843
par	-13.4843
▁lighten	-13.4855
▁lux	-13.4857
▁gwanghwa	-13.4863
diment	-13.4873
lar	-13.4881
▁symp	-13.4881
▁rag	-13.4882
tx	-13.489
jan	-13.4903
▁129	-13.4906
manager	-13.4915
▁ninet	-13.4926
dicap	-13.4927
▁kais	-13.4927
patient	-13.493
▁supplementa	-13.4933
lem	-13.4935
▁vine	-13.4943
key	-13.4944
▁1100	-13.4967
rr	-13.4969
▁xm	-13.4972
▁trembl	-13.4976
▁seonm	-13.4978
scription	-13.498
hesitating	-13.4983
▁cru	-13.4984
▁topp	-13.4986
▁bm	-13.4986
34	-13.4987
market	-13.499
nical	-13.4995
▁deform	-13.5
alli	-13.5003
lopp	-13.5007
▁wishe	-13.5011
▁evolv	-13.5024
▁eyeli	-13.5028
rive	-13.5044
behavior	-13.5051
▁pitch	-13.5052
▁digesti	-13.5054
▁analy	-13.5059
▁swan	-13.5062
vast	-13.5071
▁manipulati	-13.508
lent	-13.5082
▁06	-13.5084
▁viola	-13.5084
▁pit	-13.5087
▁undertake	-13.5093
topi	-13.5094
cin	-13.5094
mr	-13.5106
nz	-13.511
▁sonat	-13.5112
▁personali	-13.5115
wing	-13.5123
▁remed	-13.5126
spring	-13.513
grate	-13.5132
▁cooke	-13.5134
cover	-13.5137
▁hypo	-13.5142
ses	-13.5171
▁statu	-13.5182
▁choong	-13.5184
tude	-13.5185
▁trea	-13.5186
ams	-13.5192
company	-13.5196
▁scanne	-13.5202
▁procedur	-13.5204
57	-13.5204
friends	-13.5206
driver	-13.5212
fire	-13.5214
▁constitutional	-13.5226
▁ridicule	-13.5231
pop	-13.5236
drop	-13.5238
▁nae	-13.5239
hr	-13.524
▁poll	-13.5241
meaning	-13.5247
lops	-13.5261
mouth	-13.5265
valuable	-13.5265
plate	-13.5267
hongk	-13.5268
script	-13.5269
▁wriggl	-13.527
▁merge	-13.5277
favor	-13.528
hout	-13.5284
attractive	-13.5286
iterate	-13.529
heck	-13.5293
ruption	-13.5298
▁degrade	-13.5303
print	-13.5306
moji	-13.5306
fective	-13.5308
rasp	-13.531
million	-13.531
last	-13.5311
til	-13.5313
birth	-13.5324
would	-13.5329
990	-13.533
▁conservat	-13.5333
washing	-13.5337
dur	-13.5342
▁ow	-13.5346
▁ben	-13.535
36	-13.535
2017	-13.5352
onji	-13.5353
▁juven	-13.5358
nghyu	-13.536
aku	-13.5363
cloud	-13.5366
organization	-13.5367
▁incorporate	-13.5371
ament	-13.5378
grown	-13.5383
worth	-13.5387
gas	-13.5396
dor	-13.54
lk	-13.5404
▁tommor	-13.5408
yunggi	-13.5408
▁marker	-13.5409
▁bud	-13.5414
▁disassemble	-13.5423
▁prioritize	-13.543
sensitive	-13.5433
▁evas	-13.5449
biograph	-13.547
cula	-13.5471
ngdeok	-13.5472
▁duk	-13.5478
mic	-13.548
▁contribut	-13.5482
bird	-13.5489
english	-13.5489
reservation	-13.5491
generation	-13.5491
nutrition	-13.5495
▁ema	-13.5497
▁unc	-13.5506
▁flourishe	-13.551
rty	-13.5514
cognitive	-13.5517
▁applau	-13.552
gestion	-13.5521
exist	-13.5526
▁victori	-13.5527
lea	-13.5536
▁mobi	-13.5536
castle	-13.5542
ojun	-13.5549
▁coun	-13.5551
cliff	-13.5555
▁consolat	-13.556
▁ug	-13.5562
francis	-13.5562
broke	-13.5566
220	-13.5571
seller	-13.5572
pec	-13.5576
cau	-13.5583
jji	-13.5588
▁sensi	-13.5597
▁retract	-13.56
▁significan	-13.5608
▁resell	-13.5611
chemist	-13.5611
▁dongj	-13.5617
▁daej	-13.5627
▁preci	-13.5629
▁claus	-13.5634
▁litt	-13.5636
eol	-13.5642
chong	-13.565
▁reproduci	-13.565
step	-13.5652
kkan	-13.5654
wen	-13.5656
allow	-13.5662
▁125	-13.5664
flow	-13.5667
▁barb	-13.567
▁trave	-13.5672
▁dot	-13.5681
▁rapp	-13.5682
galbi	-13.5685
▁landscap	-13.5691
bie	-13.5693
▁66	-13.5694
quest	-13.5694
▁purs	-13.5705
▁interpretat	-13.5707
yu	-13.5714
anka	-13.5715
▁forgiven	-13.5716
bone	-13.5719
rocket	-13.572
35	-13.572
dang	-13.572
▁replica	-13.5728
▁positiv	-13.5729
skirt	-13.573
▁sid	-13.5734
▁tan	-13.5734
▁initiat	-13.5735
▁doc	-13.5736
utch	-13.5737
▁clini	-13.5746
spot	-13.5746
▁exa	-13.5758
▁rewrit	-13.5762
cast	-13.5763
laughter	-13.5766
▁gel	-13.5778
caf	-13.5778
section	-13.578
▁civi	-13.5781
tax	-13.5781
unggi	-13.5786
▁udon	-13.5788
▁golfer	-13.5789
bump	-13.5797
kyu	-13.5797
▁mug	-13.5801
phy	-13.5804
▁brigh	-13.5806
▁tables	-13.5812
ojung	-13.5822
ows	-13.5823
ah	-13.5823
woman	-13.5823
mpulsive	-13.5826
achel	-13.5833
rsion	-13.5838
▁bon	-13.5839
good	-13.5863
▁sati	-13.5866
dam	-13.5868
▁admira	-13.5873
▁hub	-13.5874
▁71	-13.5876
wh	-13.5882
rock	-13.5884
nza	-13.5893
jongg	-13.5896
ficial	-13.5897
▁validat	-13.5907
war	-13.5908
razz	-13.5911
▁warehous	-13.5912
rada	-13.5914
kbok	-13.5915
▁adolescen	-13.5917
▁buk	-13.5917
▁modul	-13.5929
wish	-13.5932
hare	-13.5933
kwan	-13.5941
raction	-13.5942
eul	-13.5945
▁songpy	-13.5948
▁dak	-13.5949
▁neon	-13.5949
yuan	-13.5951
▁quart	-13.5952
ungdong	-13.5957
ritis	-13.5962
▁dread	-13.5966
▁fianc	-13.5968
▁optimis	-13.597
ventu	-13.5976
esus	-13.5983
▁abra	-13.5985
ift	-13.5989
cky	-13.599
ilia	-13.5992
arry	-13.5994
custome	-13.5994
esthetic	-13.5995
▁discri	-13.5995
▁suje	-13.5997
▁merchan	-13.5998
fz	-13.6002
▁conta	-13.6003
▁credi	-13.6015
▁cm	-13.6023
van	-13.6024
▁freelance	-13.603
▁spi	-13.603
give	-13.6034
▁bibim	-13.6035
▁240	-13.6037
mala	-13.6037
▁coordinati	-13.6043
akota	-13.6044
▁fulfil	-13.6044
semble	-13.6045
▁proficien	-13.6045
▁performe	-13.6045
▁115	-13.6049
tired	-13.6051
valuation	-13.6056
nonym	-13.606
▁italia	-13.6061
piderm	-13.6061
▁elegan	-13.6065
gakj	-13.6067
▁rememb	-13.607
▁jinw	-13.6071
br	-13.6072
▁ultra	-13.6072
nerate	-13.6076
stian	-13.6076
lle	-13.6081
▁quar	-13.6081
▁accompli	-13.6082
▁prosecut	-13.6083
ungjung	-13.6083
▁flip	-13.6084
▁elevat	-13.6084
▁tempo	-13.6085
ointment	-13.6086
shape	-13.6087
▁splend	-13.6087
▁impuls	-13.6087
spoke	-13.6087
▁bre	-13.6087
▁excavat	-13.6088
▁afflict	-13.6088
▁apgujeong	-13.6088
▁opaque	-13.6088
▁adjective	-13.6088
▁albatros	-13.6088
▁astronaut	-13.6088
▁chaebol	-13.6088
▁chitchat	-13.6088
▁embroider	-13.6088
▁exterminat	-13.6088
▁fancyticon	-13.6088
▁gigabyte	-13.6088
▁grudge	-13.6088
▁hibernate	-13.6088
▁incongru	-13.6088
▁kawaguchi	-13.6088
▁lightbulb	-13.6088
▁metaphorical	-13.6088
▁ophthalm	-13.6088
▁pediatric	-13.6088
▁pennsylv	-13.6088
▁plagiari	-13.6088
▁pompei	-13.6088
▁popsicle	-13.6088
▁rapunzel	-13.6088
▁reimburse	-13.6088
▁resurrecti	-13.6088
▁shuttlecock	-13.6088
▁skeleton	-13.6088
▁subconscious	-13.6088
▁terminolog	-13.6088
▁tranquil	-13.6088
▁tsunami	-13.6088
▁replenish	-13.6088
▁transcript	-13.6088
▁contemplat	-13.6088
▁hemorrh	-13.6088
▁homogene	-13.6088
▁maneuver	-13.6088
▁narciss	-13.6088
▁parachut	-13.6088
▁phosphor	-13.6088
▁scrutin	-13.6088
▁tantrum	-13.6088
▁triumph	-13.6088
▁extempor	-13.6088
ulggot	-13.6088
▁endoscop	-13.6088
▁highbrow	-13.6088
▁nearsighted	-13.6088
▁contempt	-13.6088
▁gemstone	-13.6088
▁meerkat	-13.6089
▁drizzle	-13.6089
▁python	-13.6089
▁miracul	-13.6089
▁dungeon	-13.6089
▁reptile	-13.6089
▁symmetr	-13.6089
▁brussel	-13.6089
▁regenerate	-13.6089
▁syllable	-13.6089
▁fingertip	-13.6089
▁pilgri	-13.6089
▁misbehave	-13.6089
▁hwamun	-13.6089
▁buzzword	-13.6089
▁impersonat	-13.6089
▁decimal	-13.6089
▁enchant	-13.6089
▁predator	-13.6089
▁hysterical	-13.6089
▁bulgaria	-13.6089
▁renovate	-13.6089
▁diaph	-13.6089
▁pioneer	-13.6089
▁convent	-13.6089
scape	-13.6089
▁purify	-13.6089
▁austra	-13.6089
▁notorious	-13.6089
▁shoelace	-13.6089
▁cradle	-13.6089
▁superstitio	-13.6089
▁nurung	-13.6089
▁racoon	-13.6089
▁montreu	-13.6089
▁intercourse	-13.6089
▁troubleshoot	-13.6089
▁unwelcome	-13.609
▁daegwall	-13.609
▁alpha	-13.609
▁myriad	-13.609
▁blueberr	-13.609
▁gyeyang	-13.609
▁13002	-13.609
▁jeongja	-13.609
▁kristi	-13.609
▁rekindle	-13.609
▁carrotian	-13.609
▁emulate	-13.609
▁appraise	-13.609
▁handlebar	-13.6091
▁ultrasound	-13.6091
▁counterpart	-13.6091
▁propaga	-13.6091
▁unnotice	-13.6091
▁nazi	-13.6091
▁dishonest	-13.6091
▁resonate	-13.6091
▁meadow	-13.6091
▁geograph	-13.6091
▁myeongga	-13.6091
▁spuit	-13.6091
▁tinker	-13.6091
▁comprise	-13.6091
▁clums	-13.6091
▁philiphine	-13.6091
▁municipal	-13.6091
▁whistle	-13.6092
▁disgrac	-13.6092
▁excretion	-13.6092
▁coincident	-13.6092
▁changdeok	-13.6092
▁slush	-13.6092
▁rediscover	-13.6092
nguish	-13.6092
▁ballerin	-13.6092
▁muffle	-13.6092
hol	-13.6093
▁rigorous	-13.6093
▁earne	-13.6093
▁unzip	-13.6093
▁undercook	-13.6093
▁preface	-13.6093
▁anesthe	-13.6093
▁orthop	-13.6093
▁newsletter	-13.6094
▁giblet	-13.6094
▁griev	-13.6094
▁implication	-13.6094
▁jungangt	-13.6094
▁charisma	-13.6094
▁gwangz	-13.6094
▁techno	-13.6095
▁prefe	-13.6095
▁ballpark	-13.6095
▁unwind	-13.6095
arbore	-13.6095
commendation	-13.6095
▁discord	-13.6095
▁galacto	-13.6095
▁jackie	-13.6096
▁browse	-13.6096
ival	-13.6096
▁maroon	-13.6096
▁hairband	-13.6096
▁drool	-13.6096
▁fuji	-13.6096
▁namchu	-13.6096
▁sabbat	-13.6097
▁venez	-13.6097
▁budae	-13.6097
▁umeda	-13.6097
▁comrade	-13.6097
▁violinist	-13.6097
imistic	-13.6097
▁pharm	-13.6097
▁simplifi	-13.6097
▁cloak	-13.6098
sultan	-13.6098
▁kyungki	-13.6098
▁1880	-13.6098
▁doctrine	-13.6098
▁111	-13.6098
▁reagent	-13.6098
▁walnut	-13.6098
▁conceive	-13.6099
▁lava	-13.6099
▁indigo	-13.6099
▁infant	-13.6099
garet	-13.61
▁rationalize	-13.61
▁standardiz	-13.61
▁reiterate	-13.61
opic	-13.6101
▁darangc	-13.6101
▁goggle	-13.6102
▁vanish	-13.6102
▁hydro	-13.6103
▁1910	-13.6103
▁daebu	-13.6103
▁senator	-13.6104
▁outcast	-13.6104
▁precede	-13.6105
tis	-13.6106
rizon	-13.6106
▁ador	-13.6106
▁kwai	-13.6107
▁michelin	-13.6107
▁ultraso	-13.6108
▁segre	-13.6108
▁watercolor	-13.6108
parag	-13.6108
▁confrontation	-13.611
▁silvia	-13.6111
▁partici	-13.6111
▁straw	-13.6112
▁gigan	-13.6112
▁macaro	-13.6113
▁tedious	-13.6113
▁proofread	-13.6113
▁lavis	-13.6113
▁caleb	-13.6113
▁clown	-13.6113
▁bureaucrac	-13.6113
▁910	-13.6114
▁majest	-13.6114
ritual	-13.6114
▁squir	-13.6115
▁plunge	-13.6115
▁tachy	-13.6115
▁slick	-13.6116
▁instinctive	-13.6116
▁stiff	-13.6116
▁dongjae	-13.6116
▁overdrink	-13.6116
▁debat	-13.6117
▁joohyu	-13.6117
▁shangri	-13.6117
▁trifl	-13.6118
▁ddu	-13.6118
▁emergent	-13.6118
▁perva	-13.6118
▁jock	-13.6118
▁contributor	-13.6118
seodaem	-13.6119
▁exploit	-13.612
cipl	-13.612
▁somalia	-13.6121
▁dramati	-13.6121
▁dishwasher	-13.6121
▁loaf	-13.6121
▁torrent	-13.6121
▁overturn	-13.6122
▁280	-13.6122
▁overview	-13.6123
▁stereo	-13.6123
▁plump	-13.6124
▁slander	-13.6126
▁171	-13.6126
▁saewoo	-13.6126
▁surname	-13.6127
▁univ	-13.6127
▁deplo	-13.6128
▁yawn	-13.6128
gwan	-13.6129
▁114	-13.613
easant	-13.613
ohra	-13.6131
▁relaxe	-13.6131
▁smear	-13.6131
xic	-13.6132
▁tailor	-13.6132
▁diffuse	-13.6133
▁hannam	-13.6133
▁stunning	-13.6133
▁muji	-13.6133
▁dignif	-13.6133
▁consumable	-13.6134
▁sailor	-13.6134
▁proficient	-13.6136
▁520	-13.6136
▁jinha	-13.6136
▁fizz	-13.6137
▁toenail	-13.6138
08	-13.6139
eans	-13.6139
▁504	-13.614
▁smack	-13.6141
▁hinder	-13.6142
▁storytell	-13.6142
▁synthesi	-13.6142
▁naeil	-13.6143
▁terrorist	-13.6143
aewoon	-13.6144
▁commence	-13.6145
▁shredde	-13.6145
▁hanna	-13.6146
cyclo	-13.6148
▁203	-13.6148
▁perfor	-13.6148
▁vui	-13.6148
assic	-13.6149
▁zealot	-13.6149
pedia	-13.6149
▁morgi	-13.6149
▁retouch	-13.615
▁albin	-13.6152
▁78	-13.6152
▁caption	-13.6154
▁subsequen	-13.6155
▁namhan	-13.6156
▁bryan	-13.6157
456	-13.6158
▁deactivat	-13.6158
▁chanou	-13.6159
▁anchor	-13.6159
polog	-13.6161
angmi	-13.6162
▁rebec	-13.6162
▁230	-13.6164
▁enact	-13.6164
▁marsh	-13.6165
▁shui	-13.6168
▁prese	-13.6168
▁variation	-13.6169
▁depleti	-13.6174
▁smelt	-13.6177
fare	-13.6178
ewol	-13.6179
▁reopen	-13.6181
▁techni	-13.6181
▁trample	-13.6181
▁brood	-13.6183
▁visualiz	-13.6184
▁penta	-13.6185
▁beginner	-13.6186
▁waggl	-13.6188
anhaw	-13.619
▁hedge	-13.6191
sangyo	-13.6192
▁divine	-13.6193
▁portra	-13.6193
tori	-13.6196
▁snowball	-13.6197
▁gala	-13.6197
▁bos	-13.6197
▁incline	-13.6198
▁bypass	-13.6199
▁gimja	-13.6202
6000	-13.6203
▁secretive	-13.621
math	-13.621
settle	-13.621
▁rider	-13.621
▁kayak	-13.6211
rification	-13.6214
▁decompos	-13.6215
alization	-13.6218
▁saddle	-13.6219
▁embark	-13.6219
▁crane	-13.6222
▁sensation	-13.6224
▁chums	-13.6224
▁jara	-13.6225
▁lug	-13.6226
still	-13.6227
▁blaz	-13.6228
▁hyunwoo	-13.623
ajy	-13.6234
asahi	-13.6234
worm	-13.6234
ssion	-13.6236
boat	-13.6236
▁conspi	-13.6239
▁decay	-13.6243
actical	-13.6249
▁nikk	-13.6251
iling	-13.6251
common	-13.6252
▁repent	-13.6252
▁housew	-13.6253
icate	-13.6255
▁excu	-13.6256
▁orig	-13.6259
▁daydream	-13.626
▁janggu	-13.6263
▁infra	-13.6267
▁confi	-13.6269
▁seocho	-13.6273
▁7800	-13.6274
▁hernia	-13.6274
▁corrupt	-13.6279
▁jea	-13.6282
▁mealtime	-13.6288
chondr	-13.6289
▁preacher	-13.6291
▁insider	-13.6294
troyi	-13.6296
▁sepa	-13.6297
▁defi	-13.6301
▁realist	-13.6304
▁barter	-13.6308
hon	-13.6311
▁heath	-13.6315
bla	-13.6319
▁airway	-13.6322
▁coup	-13.6323
▁rowe	-13.6324
▁aesthetic	-13.6326
▁explosi	-13.6326
▁tattle	-13.6327
▁lazar	-13.633
▁fru	-13.6334
▁concu	-13.6335
▁samyang	-13.6336
▁chor	-13.6337
▁hygienic	-13.6338
▁literal	-13.6339
▁node	-13.6339
▁swapp	-13.6341
▁gp	-13.6342
ancer	-13.6342
laddin	-13.6346
▁underestimat	-13.6346
▁prevalen	-13.6347
▁apprehend	-13.6349
▁baekr	-13.6351
uzzle	-13.6351
ords	-13.6353
▁pamp	-13.6355
▁kyun	-13.6361
▁enabl	-13.6361
▁rattl	-13.6362
▁conce	-13.6363
▁pigment	-13.6372
▁psych	-13.6377
ges	-13.6379
▁mfl	-13.6379
▁drag	-13.638
▁skillful	-13.6382
▁128	-13.6382
ront	-13.6383
▁orga	-13.6384
▁mania	-13.6384
bidd	-13.6388
▁marian	-13.639
▁jeongjo	-13.6391
hyangg	-13.6391
gene	-13.6393
▁socializ	-13.6397
bble	-13.6399
▁ktm	-13.6402
eopard	-13.6403
▁ext	-13.6408
bing	-13.6413
▁guin	-13.6413
▁bum	-13.6419
▁intermedia	-13.6419
▁ellis	-13.6424
tification	-13.6431
▁sinc	-13.6434
▁evaporate	-13.6435
▁comple	-13.6436
▁polyg	-13.6436
robe	-13.6444
▁poong	-13.6445
ongguk	-13.6446
▁hou	-13.6447
unblock	-13.6457
balt	-13.6457
▁hosi	-13.647
▁bienn	-13.647
▁650	-13.6471
eunhyu	-13.6472
▁jojo	-13.6475
▁exclusi	-13.648
▁empt	-13.6487
path	-13.6491
▁subscriber	-13.6493
weol	-13.6493
▁hiro	-13.6494
iec	-13.6501
even	-13.6505
▁namju	-13.6511
oil	-13.6519
▁kwan	-13.6521
aps	-13.6521
▁logi	-13.6525
▁juic	-13.6526
▁liberate	-13.6527
▁carib	-13.653
▁resembl	-13.6536
▁hany	-13.6537
pie	-13.6538
angsoo	-13.6538
roach	-13.6539
vapor	-13.6547
nned	-13.6555
▁clap	-13.6556
life	-13.6557
tizen	-13.6564
4200	-13.6572
▁sou	-13.6575
▁realization	-13.6576
148	-13.6582
strap	-13.6584
mike	-13.6585
▁comme	-13.6589
nip	-13.6591
▁hocks	-13.6592
25	-13.6594
▁hoste	-13.6595
▁sled	-13.6596
iden	-13.6599
▁miran	-13.6603
af	-13.6603
▁brach	-13.6606
▁julian	-13.6608
38	-13.6609
core	-13.661
▁unifi	-13.6612
▁hyde	-13.6624
▁shaw	-13.6626
▁comput	-13.6627
▁refin	-13.663
surance	-13.663
▁pret	-13.6631
▁lagg	-13.6632
▁pira	-13.6632
ani	-13.6634
anator	-13.6638
▁manne	-13.6642
▁sobb	-13.6649
▁thoughtless	-13.6649
chul	-13.6653
139	-13.666
▁rack	-13.6664
vili	-13.6667
pet	-13.6667
▁mentors	-13.6667
▁othe	-13.6678
▁intent	-13.6681
▁maga	-13.6685
yojo	-13.6687
▁cardio	-13.6688
▁esp	-13.669
▁pisse	-13.6692
▁nakan	-13.6693
elective	-13.6694
▁defam	-13.6696
700	-13.6696
▁arc	-13.6697
▁boar	-13.6699
▁fabricate	-13.67
▁dense	-13.6706
▁les	-13.6707
▁tribe	-13.671
ubble	-13.6717
▁regulator	-13.6724
▁anthropo	-13.6725
crack	-13.6726
sts	-13.6731
▁glob	-13.6738
▁potentiat	-13.6747
▁monte	-13.6749
▁esper	-13.6751
▁fig	-13.676
itation	-13.677
aj	-13.6772
▁dissatisfact	-13.6772
▁loosen	-13.6774
▁swa	-13.6775
▁lightn	-13.6776
▁chron	-13.6779
▁pip	-13.6783
▁unre	-13.6784
▁jinhye	-13.6785
▁gates	-13.6787
▁conception	-13.6787
▁darts	-13.6791
quin	-13.6793
▁radioactive	-13.6795
▁moonsu	-13.6798
▁gung	-13.6799
▁disassembl	-13.68
hydra	-13.6801
▁glen	-13.6804
descent	-13.6806
▁infield	-13.6807
▁daech	-13.6812
▁jiu	-13.6814
ethos	-13.6821
▁cognitive	-13.6821
▁prioritiz	-13.6823
▁cgm	-13.6836
▁antibod	-13.6842
zan	-13.6854
▁incorporat	-13.686
▁el	-13.6861
▁surg	-13.6862
eunjeong	-13.6869
▁hollow	-13.6869
▁spark	-13.6884
▁guine	-13.6885
▁confesse	-13.689
kat	-13.6891
▁radia	-13.6908
omin	-13.6914
▁unbo	-13.6925
▁geom	-13.6929
eyang	-13.6944
▁degrad	-13.6944
▁napol	-13.6949
▁insur	-13.695
auze	-13.6956
▁tick	-13.6957
uzz	-13.6961
▁mir	-13.6964
nform	-13.6972
erson	-13.6975
▁indulgen	-13.6976
▁rename	-13.6976
▁reunite	-13.6977
▁wriggle	-13.6977
▁voca	-13.6979
nco	-13.6983
▁patter	-13.6992
translate	-13.6995
▁os	-13.6998
▁flake	-13.6999
▁bagel	-13.6999
▁comf	-13.7002
▁spoile	-13.7002
item	-13.7003
▁overreacti	-13.7006
▁overs	-13.7012
▁forgiv	-13.7014
▁strat	-13.7017
▁lengthen	-13.7018
ublin	-13.7026
bine	-13.7028
ntact	-13.7036
▁uninterest	-13.7037
astic	-13.7043
gang	-13.7048
▁kend	-13.7049
▁inhabit	-13.705
bn	-13.705
aebang	-13.7051
tum	-13.7052
776	-13.7057
▁admin	-13.7065
cure	-13.7066
cuttle	-13.7069
26	-13.7073
logram	-13.7073
▁pushe	-13.7074
spens	-13.7079
agne	-13.7081
▁87	-13.7084
▁manu	-13.709
mpa	-13.709
▁jiseo	-13.709
ferre	-13.7096
▁cj	-13.7099
▁vla	-13.71
acci	-13.7106
▁flare	-13.7106
320	-13.7108
affi	-13.7112
vation	-13.7115
cla	-13.713
arn	-13.7135
dilute	-13.7136
▁numeric	-13.714
▁seoga	-13.7145
log	-13.7149
dv	-13.715
jangdo	-13.7152
▁nerd	-13.7152
onsoo	-13.7155
iza	-13.7159
vid	-13.7161
▁shins	-13.7163
▁woong	-13.7164
qualit	-13.7165
▁cherishe	-13.7166
verse	-13.7168
▁jindo	-13.717
eless	-13.7171
hwein	-13.7172
inste	-13.7173
frost	-13.7177
▁speck	-13.7185
lau	-13.719
▁kath	-13.7192
ips	-13.7197
rees	-13.7198
▁responsib	-13.7209
▁kilo	-13.7215
▁burg	-13.7216
▁im	-13.722
▁07	-13.722
unge	-13.7221
▁breasts	-13.7221
▁av	-13.7223
▁crea	-13.7224
dd	-13.7226
▁jjamb	-13.7229
▁mecha	-13.7232
▁cray	-13.7234
▁classif	-13.7234
▁seul	-13.7248
ult	-13.7249
cara	-13.7249
647	-13.7255
rude	-13.7255
▁cli	-13.7259
dise	-13.7267
▁clapp	-13.7268
▁capitalis	-13.727
▁vegetati	-13.7279
12345	-13.728
▁prof	-13.7297
▁graze	-13.7297
escent	-13.7299
▁pier	-13.7303
▁outs	-13.7308
angsul	-13.7309
▁wax	-13.7311
eokbok	-13.7311
cycle	-13.7326
▁snore	-13.7334
ushi	-13.7338
▁qme	-13.7341
▁conf	-13.7345
▁playful	-13.7346
lep	-13.7354
▁pear	-13.736
onghak	-13.7363
uber	-13.7371
▁saf	-13.7373
cine	-13.7374
spirit	-13.7375
unction	-13.7376
▁balwo	-13.738
eparation	-13.7381
pper	-13.7384
ryong	-13.7388
ministr	-13.7389
▁attendan	-13.7395
▁saema	-13.7402
leans	-13.7403
oma	-13.7412
▁comprehensi	-13.7414
▁stif	-13.7415
▁solit	-13.7416
lang	-13.7418
litarian	-13.7418
▁delu	-13.742
▁tickle	-13.7421
▁michi	-13.7422
▁robins	-13.7427
▁stee	-13.7432
▁doze	-13.7439
▁denis	-13.7447
▁kw	-13.745
ungju	-13.7454
gular	-13.7454
▁kneel	-13.7461
angz	-13.7464
▁punctu	-13.7469
imer	-13.7473
▁omi	-13.7474
kukj	-13.7492
▁fib	-13.7492
cre	-13.7496
▁abort	-13.7496
▁doug	-13.7511
▁hyesun	-13.7513
food	-13.7515
▁kee	-13.752
▁lan	-13.7524
▁satir	-13.7535
entional	-13.7539
▁hitter	-13.7541
occ	-13.7546
▁nurture	-13.7551
▁choongj	-13.7555
▁anne	-13.7557
▁typo	-13.7557
▁persia	-13.756
▁fut	-13.7566
ulit	-13.7567
▁nas	-13.7567
500	-13.7574
▁lessen	-13.7578
▁gong	-13.7584
▁hanjeon	-13.7586
▁infirm	-13.7587
▁learner	-13.7587
▁slee	-13.7587
ruff	-13.7589
gil	-13.7589
▁fitt	-13.7591
▁pinki	-13.7597
▁izu	-13.7598
rain	-13.76
▁emm	-13.7602
home	-13.7607
▁wak	-13.7609
▁thu	-13.7613
reas	-13.7617
focus	-13.7627
ool	-13.7628
▁viet	-13.7633
▁radiate	-13.7637
gm	-13.7641
ebi	-13.7642
evaluation	-13.7644
llusion	-13.7644
▁gl	-13.7646
ange	-13.7649
▁communis	-13.7653
off	-13.7663
▁sinner	-13.7681
▁overheat	-13.7685
ret	-13.7687
▁paleo	-13.7688
▁authenti	-13.7689
▁brake	-13.7689
▁beds	-13.7693
▁monopoliz	-13.7708
▁rever	-13.7709
▁nur	-13.7739
▁lega	-13.775
▁juri	-13.775
▁consul	-13.7751
▁olde	-13.7755
▁ram	-13.7756
adoci	-13.7764
uct	-13.7765
ssing	-13.7767
onggi	-13.777
uld	-13.7774
grid	-13.7776
rian	-13.7783
uras	-13.7794
rtm	-13.7796
▁laborer	-13.7799
zine	-13.7807
▁kl	-13.7808
▁tux	-13.7829
▁sangda	-13.7833
▁carbona	-13.785
▁seungh	-13.7854
▁hyer	-13.7856
▁antic	-13.786
▁donat	-13.7861
▁preparat	-13.7871
▁commemorat	-13.788
aepod	-13.7885
▁lectur	-13.7889
lash	-13.7889
rilla	-13.7891
▁composit	-13.7901
luster	-13.7901
see	-13.7912
aki	-13.7913
chat	-13.7913
stp	-13.7918
petit	-13.792
▁seungb	-13.792
rib	-13.792
ngdae	-13.7923
▁kli	-13.7935
▁shinsa	-13.7941
oro	-13.7943
▁ple	-13.7947
▁abnormalit	-13.7954
pelle	-13.7955
ngmyeon	-13.7955
ellen	-13.796
▁reproduce	-13.7962
lace	-13.7967
▁338	-13.7967
oksu	-13.7968
next	-13.7973
▁changho	-13.7977
eup	-13.7981
rav	-13.7982
▁gyoung	-13.7987
anza	-13.7989
▁daejun	-13.799
▁aw	-13.7994
▁315	-13.7997
ictoria	-13.7998
lag	-13.8001
oking	-13.8007
▁teac	-13.802
▁kin	-13.8023
who	-13.8028
▁illustrate	-13.8041
piration	-13.8045
▁kisa	-13.8049
▁cos	-13.8051
▁physi	-13.8056
▁abate	-13.8057
▁elle	-13.8058
▁09	-13.8061
ecent	-13.8062
ole	-13.8063
54	-13.8071
▁kyong	-13.8074
98	-13.8081
elvet	-13.8084
ybe	-13.8086
gloo	-13.8086
cry	-13.8094
ids	-13.8097
uv	-13.81
adin	-13.8101
repari	-13.8116
▁clubb	-13.8125
▁imitat	-13.8133
approve	-13.8133
▁stretche	-13.8134
▁supp	-13.8148
gian	-13.8148
▁extensi	-13.8166
▁hwas	-13.8176
ecu	-13.8186
▁wors	-13.8196
▁librari	-13.8197
dmother	-13.82
▁kaz	-13.82
lew	-13.8204
▁enrich	-13.8216
▁sparro	-13.8225
▁indie	-13.8226
litt	-13.8232
ounge	-13.8234
sik	-13.8238
ocha	-13.8242
▁workin	-13.826
▁exaggerati	-13.8266
▁scra	-13.827
▁tackl	-13.8272
▁dami	-13.8274
▁hospi	-13.828
iji	-13.8291
rip	-13.8295
1600	-13.8296
ubis	-13.8297
▁recorde	-13.83
atz	-13.8303
▁haka	-13.8315
▁persiste	-13.8319
rands	-13.8323
▁synthe	-13.8329
lack	-13.8338
▁720	-13.8345
gno	-13.8357
▁159	-13.8358
bon	-13.836
▁slop	-13.8372
▁pedi	-13.8377
▁ios	-13.8387
ngin	-13.8389
lia	-13.8409
remold	-13.841
▁integrati	-13.8416
tique	-13.8429
anne	-13.8434
▁pus	-13.8436
▁cooki	-13.8437
▁emo	-13.8442
▁gak	-13.8445
▁rou	-13.845
ango	-13.8452
▁wrinkl	-13.8461
▁protec	-13.8462
▁harmoniz	-13.8472
annam	-13.8474
irpin	-13.8484
▁sec	-13.8485
collection	-13.8487
▁nup	-13.849
ngfu	-13.8491
▁clipp	-13.8494
lonel	-13.8494
▁imm	-13.8495
▁veget	-13.8497
▁impos	-13.8499
unds	-13.851
▁customize	-13.8511
▁syn	-13.8521
thought	-13.8525
▁immigrate	-13.8533
▁susp	-13.8537
▁fina	-13.8542
rever	-13.8548
sides	-13.855
▁doo	-13.8559
▁rill	-13.8564
▁kye	-13.8568
▁wat	-13.8574
▁duks	-13.8575
gge	-13.8587
hal	-13.8588
▁noda	-13.8594
seon	-13.8594
▁satisf	-13.8596
▁gelat	-13.8606
alize	-13.8608
▁pup	-13.8609
osa	-13.8622
▁milita	-13.8624
nym	-13.8627
▁birdie	-13.8629
▁rotational	-13.8658
des	-13.8663
noon	-13.8664
nuous	-13.8674
▁mica	-13.8682
▁fif	-13.8688
sk	-13.869
rf	-13.8691
▁ari	-13.8693
▁repertor	-13.8701
estine	-13.8703
ross	-13.8703
▁independ	-13.8718
72	-13.872
▁curt	-13.8728
cheong	-13.8749
oul	-13.8755
iti	-13.8759
awdo	-13.876
▁emph	-13.8766
▁chon	-13.8769
ass	-13.8774
▁balanc	-13.878
wel	-13.8785
tie	-13.8786
tog	-13.8788
ongs	-13.8788
ff	-13.8796
▁cul	-13.8797
▁caps	-13.8799
▁dude	-13.8808
eongsu	-13.881
ceful	-13.8813
▁legislat	-13.8823
ud	-13.8832
▁ce	-13.8836
korea	-13.8837
▁talle	-13.8839
rough	-13.884
number	-13.8849
▁sli	-13.885
elic	-13.8854
▁hurri	-13.8856
embe	-13.8862
▁slic	-13.8875
seokga	-13.8876
send	-13.8883
mw	-13.8886
▁stitch	-13.889
▁geon	-13.8895
▁crosse	-13.8896
▁reexaminati	-13.8903
rad	-13.8906
alo	-13.8916
▁str	-13.8926
▁bagg	-13.8929
opi	-13.8939
▁selia	-13.8956
works	-13.8958
thur	-13.8967
▁punk	-13.8981
inde	-13.899
ulji	-13.8992
▁ey	-13.9006
▁resolut	-13.9006
eeze	-13.901
rush	-13.901
▁loade	-13.9012
▁insure	-13.9014
▁interrogat	-13.9034
▁preventi	-13.9045
pose	-13.9047
▁oliv	-13.9049
▁vaca	-13.906
▁pila	-13.908
orphin	-13.9089
ini	-13.9091
rust	-13.9091
▁saku	-13.9093
anu	-13.9098
fan	-13.9098
▁thrille	-13.91
▁christin	-13.9105
aining	-13.9107
sses	-13.912
▁violi	-13.9122
▁convinc	-13.9131
▁hob	-13.9136
▁koo	-13.9138
▁eliminati	-13.9138
▁conceale	-13.9139
rabi	-13.9144
▁unve	-13.9151
▁sociab	-13.9152
867	-13.9171
▁alleg	-13.9183
▁persi	-13.9183
ddle	-13.9188
geun	-13.919
ker	-13.9198
▁reunifi	-13.9199
uda	-13.9199
▁jumps	-13.9225
vice	-13.9231
▁dishon	-13.9231
thful	-13.9237
imm	-13.9245
▁seokm	-13.9248
▁renewa	-13.9263
▁compl	-13.9264
▁trou	-13.9265
sus	-13.9294
ersion	-13.9298
rway	-13.9326
▁fla	-13.9327
yes	-13.9343
proper	-13.9359
▁pierce	-13.9361
igger	-13.9364
▁withhold	-13.9365
hic	-13.9368
agen	-13.9376
▁wr	-13.9377
▁kon	-13.9388
110	-13.9401
edia	-13.9401
▁fringe	-13.9403
▁disma	-13.9407
▁eb	-13.9409
pia	-13.9427
▁seolle	-13.9428
trick	-13.9428
ungsu	-13.9438
unde	-13.9441
nchon	-13.9456
▁declin	-13.9457
omy	-13.9469
▁justif	-13.9477
▁neung	-13.951
▁rela	-13.9513
tf	-13.9517
ngmyo	-13.9518
▁inqui	-13.952
jaya	-13.9525
▁bart	-13.9535
▁edi	-13.9538
ode	-13.9541
▁sweate	-13.9555
osp	-13.9564
imp	-13.9584
othy	-13.9585
should	-13.9586
nggwa	-13.9595
rupt	-13.9596
▁bast	-13.9607
culation	-13.9611
enade	-13.9611
▁grea	-13.9612
▁psychologi	-13.9612
▁allocat	-13.9622
ightlif	-13.9623
▁theme	-13.9624
636	-13.9625
▁nang	-13.9627
nct	-13.9629
drawing	-13.9633
tox	-13.9634
manu	-13.9634
pen	-13.9637
150	-13.9639
▁dispos	-13.964
▁flor	-13.9645
bmi	-13.9649
201	-13.9651
▁depressi	-13.9656
lock	-13.9661
▁minu	-13.9662
▁dissua	-13.9667
▁oppo	-13.9675
▁legaliz	-13.9675
▁owe	-13.9676
▁outrage	-13.9701
▁virtualiz	-13.9719
mor	-13.972
uid	-13.9745
▁comedie	-13.9763
osit	-13.9768
▁atlanti	-13.977
himi	-13.9773
▁enquire	-13.9774
▁sands	-13.9783
▁kenne	-13.9784
▁hanmi	-13.9794
tom	-13.9799
▁scot	-13.9805
▁soothe	-13.982
▁gyong	-13.9829
▁tripp	-13.9837
firm	-13.9846
lateral	-13.986
▁seu	-13.9865
vat	-13.9865
▁opportuni	-13.9878
78	-13.989
▁sterilize	-13.9899
xt	-13.9901
arate	-13.9905
mba	-13.9911
olence	-13.9927
▁hierarch	-13.9931
▁diagnose	-13.9935
▁animate	-13.9938
gate	-13.9954
lif	-13.9955
▁oblig	-13.9963
rier	-13.9964
▁pursui	-13.997
▁hierarchi	-13.9972
important	-13.9975
gress	-13.9984
▁sul	-13.9992
▁ideologi	-13.9994
▁jum	-13.9998
▁steriliz	-14.0005
▁reci	-14.0011
acious	-14.0022
▁exer	-14.0024
▁intensi	-14.004
iffi	-14.0042
eces	-14.007
holding	-14.0071
rted	-14.0077
▁booksh	-14.0078
▁demonstrat	-14.0079
▁ghi	-14.0082
mong	-14.0082
▁titan	-14.0083
issue	-14.0085
▁stan	-14.0089
ula	-14.0091
▁bookkeep	-14.0092
tech	-14.0094
▁tvi	-14.0099
alter	-14.0108
62	-14.0132
▁enquir	-14.0132
ati	-14.0141
▁arr	-14.0147
occupy	-14.0151
arriage	-14.0152
▁sund	-14.0158
▁dema	-14.017
uji	-14.0174
▁ico	-14.0177
▁ignite	-14.0188
rator	-14.0196
neral	-14.0198
dic	-14.0199
rous	-14.0205
goch	-14.0205
48	-14.0212
▁aug	-14.0219
▁plast	-14.0224
merci	-14.023
ening	-14.0255
mpt	-14.0257
rm	-14.0268
650	-14.0285
maid	-14.0308
▁unco	-14.031
▁sprinkl	-14.0333
▁dimm	-14.0338
date	-14.034
▁ela	-14.0342
rageous	-14.0343
▁buster	-14.0352
dream	-14.0353
▁ov	-14.036
▁scribbl	-14.0362
▁circulat	-14.0366
▁penni	-14.0378
ib	-14.0381
omes	-14.0394
tec	-14.0404
tomorrow	-14.0418
▁dau	-14.0418
gin	-14.0433
298	-14.0443
rief	-14.0461
shu	-14.0463
▁firew	-14.0481
rism	-14.0493
uro	-14.0494
▁bestsell	-14.0514
▁pacif	-14.0518
▁scro	-14.0524
ongchon	-14.0525
▁poe	-14.0526
▁ou	-14.0544
▁automat	-14.0545
▁highl	-14.0546
▁moles	-14.0551
uyeon	-14.0565
▁ward	-14.0572
ute	-14.0578
▁tease	-14.0587
▁imag	-14.0589
ication	-14.0591
▁moderat	-14.0592
▁fest	-14.0594
ean	-14.0598
ional	-14.0605
lence	-14.0607
▁exert	-14.0611
kang	-14.0617
gra	-14.064
▁adver	-14.0642
gyu	-14.0651
ev	-14.0654
▁econ	-14.0682
▁missi	-14.0699
▁anime	-14.0725
▁martia	-14.0732
ravel	-14.0733
▁relia	-14.0736
▁showcas	-14.0753
mmy	-14.0758
▁rearrang	-14.0767
▁grac	-14.0779
▁146	-14.0793
stral	-14.0794
lved	-14.0796
bac	-14.0809
lai	-14.0812
teacher	-14.0845
▁exh	-14.0846
▁dine	-14.0847
▁equali	-14.085
▁procla	-14.0855
leas	-14.0856
show	-14.0865
injeong	-14.0866
▁lif	-14.087
equal	-14.0871
▁harden	-14.088
▁rin	-14.0893
ptic	-14.09
sit	-14.0904
▁olle	-14.0914
urst	-14.0917
▁els	-14.0917
▁dok	-14.0921
kuri	-14.0923
yeop	-14.093
ebs	-14.093
▁ot	-14.0947
▁capa	-14.0953
▁interrogati	-14.0956
▁loo	-14.0971
▁prod	-14.0971
▁jeond	-14.0978
yeom	-14.0978
unes	-14.0982
▁dominate	-14.0985
81	-14.0987
▁cer	-14.1004
▁relocat	-14.1016
mean	-14.1021
building	-14.1028
ubric	-14.1032
▁unforg	-14.1033
909	-14.1044
azu	-14.1046
77	-14.1068
▁trag	-14.1069
orts	-14.107
hroom	-14.1071
▁rel	-14.1073
▁daze	-14.1078
▁potion	-14.108
ouv	-14.1092
▁som	-14.1097
bey	-14.1113
▁fre	-14.1115
actual	-14.1116
experience	-14.1121
▁clu	-14.1129
▁seas	-14.1144
▁geographic	-14.115
▁bach	-14.1156
uel	-14.116
▁zhe	-14.1175
▁researche	-14.1205
doors	-14.1253
▁jag	-14.1264
bling	-14.1264
▁forth	-14.1267
ien	-14.1269
▁vitalize	-14.127
▁008	-14.1284
lli	-14.1301
hoe	-14.1312
▁jumu	-14.1312
▁seongs	-14.1324
lov	-14.1345
ats	-14.1374
mad	-14.1392
▁haejang	-14.1393
▁bend	-14.14
▁hitti	-14.1401
▁leon	-14.1405
tte	-14.1409
▁melani	-14.1409
ection	-14.1412
hard	-14.1427
awk	-14.1438
▁sympathiz	-14.1438
▁swims	-14.1439
gwa	-14.1445
ita	-14.1449
93	-14.1451
▁restor	-14.1465
▁infer	-14.1467
speak	-14.1479
waldo	-14.1488
▁niko	-14.1509
▁vitaliz	-14.1512
olo	-14.1514
▁narr	-14.1528
▁vowe	-14.1534
zoo	-14.1545
main	-14.1546
under	-14.1547
▁weary	-14.1562
102	-14.1575
ungsan	-14.1582
▁dilut	-14.1583
▁candi	-14.1586
▁det	-14.1589
fam	-14.1595
enova	-14.1613
▁chae	-14.1621
▁accus	-14.1634
▁gilb	-14.1639
▁obe	-14.1653
lines	-14.1664
ondo	-14.1675
cos	-14.1686
435	-14.1694
▁indis	-14.1698
▁kc	-14.1702
▁bori	-14.171
caus	-14.1715
▁mistak	-14.1719
tone	-14.1726
▁sca	-14.1727
▁sham	-14.1733
▁voc	-14.1742
▁seiz	-14.1744
tr	-14.1755
ase	-14.176
vacation	-14.1763
▁loneli	-14.1763
▁68	-14.1773
iga	-14.1773
▁meddl	-14.1774
owe	-14.1777
odle	-14.1782
▁maximiz	-14.1791
▁patri	-14.1792
▁ui	-14.1795
▁beneficiar	-14.1803
▁pola	-14.1805
▁maker	-14.1822
lleung	-14.1832
▁bush	-14.1836
▁zen	-14.186
purchase	-14.1862
pace	-14.1866
706	-14.1883
▁ir	-14.1885
▁transmitte	-14.1891
▁ins	-14.1894
find	-14.1896
▁belittle	-14.1899
▁vita	-14.1903
▁centraliz	-14.1922
▁vm	-14.1925
spice	-14.1932
been	-14.1944
▁eg	-14.1957
fla	-14.1964
▁blesse	-14.1965
resent	-14.1968
inten	-14.1974
▁tackle	-14.1975
▁internationaliz	-14.1982
bish	-14.1984
271	-14.1985
irsty	-14.1986
▁advers	-14.1987
dr	-14.1996
▁restro	-14.1998
valu	-14.2
open	-14.2004
▁lowe	-14.2007
▁spra	-14.2011
verb	-14.2014
rious	-14.2019
▁enriche	-14.204
▁dispers	-14.2047
▁gill	-14.2054
▁mag	-14.2062
▁567	-14.2073
▁144	-14.2074
▁pays	-14.2074
pac	-14.2075
grade	-14.2083
ondol	-14.2095
▁clar	-14.2107
00001	-14.2124
final	-14.2124
ribo	-14.2153
nix	-14.2156
▁validati	-14.2165
chaser	-14.2203
▁smalle	-14.2204
▁jooy	-14.2209
pover	-14.222
writer	-14.2221
▁kaba	-14.2222
▁carp	-14.2226
gwang	-14.2237
▁disbelie	-14.2242
▁rework	-14.2245
▁humili	-14.225
▁physio	-14.2259
eas	-14.226
▁vanil	-14.2283
daughter	-14.2286
▁cleane	-14.2286
▁mod	-14.2297
▁cong	-14.23
▁hanw	-14.2316
national	-14.2316
diction	-14.2334
ellan	-14.2339
cost	-14.2342
▁sandsto	-14.2367
nder	-14.2372
▁qual	-14.2373
▁infl	-14.2379
ht	-14.2381
ull	-14.2382
found	-14.2412
▁reco	-14.2413
holly	-14.2434
▁capitalist	-14.244
▁compil	-14.2462
tin	-14.2487
▁vibrat	-14.2489
eviation	-14.2493
▁ai	-14.2503
▁agon	-14.2506
airs	-14.2508
▁licens	-14.251
beca	-14.2513
▁za	-14.2513
▁snowm	-14.2516
dress	-14.2525
aunt	-14.2531
blem	-14.2549
ebb	-14.2557
wada	-14.2563
▁harde	-14.2569
explain	-14.258
nnot	-14.2581
arrangement	-14.2595
computer	-14.2609
summer	-14.2609
▁tomo	-14.261
eld	-14.2615
heir	-14.2624
▁int	-14.2648
▁rampa	-14.2652
rus	-14.2677
xi	-14.269
▁iris	-14.2713
decided	-14.2719
▁reunif	-14.272
▁opposi	-14.2735
▁overca	-14.2744
thin	-14.2749
vious	-14.2751
▁urin	-14.2753
hot	-14.2758
▁01	-14.2763
itted	-14.2763
▁regist	-14.2776
weather	-14.2777
njeol	-14.2788
kak	-14.2806
raepo	-14.2819
ogram	-14.2832
▁qing	-14.2833
every	-14.2836
▁prot	-14.2843
▁abduct	-14.2844
medic	-14.2846
confirm	-14.2848
inding	-14.2866
bot	-14.2871
lee	-14.2872
▁inconsisten	-14.2881
ticket	-14.2881
oung	-14.2883
jun	-14.2884
▁daug	-14.2889
shin	-14.2892
wid	-14.2914
system	-14.292
▁virtu	-14.2921
nsive	-14.2927
authoriz	-14.2931
corn	-14.2942
▁technologi	-14.2957
▁initialize	-14.2957
▁toy	-14.2966
▁meditat	-14.298
▁erect	-14.2988
eg	-14.2994
rbi	-14.2996
hyund	-14.2996
▁1400	-14.3027
plann	-14.3038
ones	-14.3039
erin	-14.3047
▁disciplin	-14.3048
popular	-14.3058
▁muse	-14.307
rospect	-14.3086
irl	-14.3088
difference	-14.3088
▁eyeba	-14.3091
ders	-14.3111
▁tagge	-14.3125
▁critici	-14.3137
einsa	-14.3137
894	-14.3142
▁knitt	-14.3158
ittle	-14.3163
▁mint	-14.3175
payment	-14.3182
▁appea	-14.3195
abl	-14.3199
group	-14.3203
tron	-14.3206
paring	-14.3212
▁pia	-14.3228
sin	-14.3234
eal	-14.3238
alyze	-14.3238
▁minate	-14.3242
▁hyeon	-14.3247
▁ddeok	-14.3258
ading	-14.326
posit	-14.3268
follow	-14.3272
▁gangh	-14.329
itarian	-14.3291
▁laure	-14.3293
leep	-14.3304
▁singi	-14.3307
ided	-14.3308
ppies	-14.3317
▁dongdae	-14.3321
annel	-14.3327
▁undertak	-14.3333
▁jest	-14.3339
rewd	-14.3339
eba	-14.3342
roque	-14.3352
nyeo	-14.3353
▁1111	-14.3361
dn	-14.3361
tobac	-14.3366
robot	-14.3372
sen	-14.3373
udy	-14.3381
yi	-14.3384
▁discriminate	-14.3391
▁devaluati	-14.3396
▁sla	-14.3409
touch	-14.3412
▁sty	-14.3412
▁slav	-14.3414
eather	-14.342
▁housewar	-14.3422
▁justifie	-14.3424
▁asserti	-14.3435
inse	-14.344
▁hir	-14.3446
alt	-14.3452
guan	-14.3453
▁enco	-14.3457
strong	-14.346
zin	-14.3461
▁hwap	-14.3466
obin	-14.3471
▁wip	-14.348
▁multipli	-14.3494
▁wangs	-14.3495
▁reveren	-14.3502
build	-14.3506
kakao	-14.3516
▁ox	-14.3533
▁furnishe	-14.3558
nese	-14.3559
via	-14.3565
▁bru	-14.3567
▁remova	-14.3574
▁mas	-14.3575
dish	-14.3577
join	-14.3578
true	-14.358
fluent	-14.3592
▁auth	-14.3603
▁bindi	-14.3604
▁shor	-14.3605
eve	-14.3611
221	-14.3625
▁680	-14.3633
avil	-14.3644
appear	-14.3649
gest	-14.3649
iv	-14.3658
▁jih	-14.3665
▁financi	-14.3676
▁beyo	-14.369
laws	-14.3698
▁fantastical	-14.3699
ports	-14.3704
depend	-14.3713
ots	-14.3718
▁brac	-14.3719
▁opt	-14.3719
sue	-14.3733
ngbok	-14.3742
▁62	-14.3744
76	-14.3745
normal	-14.3745
▁cann	-14.3747
poke	-14.3748
▁operati	-14.3751
morphi	-14.3764
▁anim	-14.3765
sai	-14.3766
▁youngmi	-14.3767
ckle	-14.3779
shipment	-14.3784
▁accessar	-14.3784
ungmu	-14.3802
image	-14.3811
las	-14.3826
▁recreate	-14.3849
pro	-14.3854
▁porn	-14.3855
could	-14.3863
egal	-14.3864
▁kk	-14.3873
▁lingeri	-14.3878
▁acu	-14.3884
▁lands	-14.3907
effect	-14.3911
cing	-14.3923
▁philip	-14.3942
▁vik	-14.3944
▁lib	-14.3948
lc	-14.395
▁travell	-14.3958
▁pharmaci	-14.3961
wis	-14.3962
later	-14.3963
hope	-14.3972
▁fas	-14.3979
transfer	-14.398
ubb	-14.3981
▁containe	-14.3982
▁hyoj	-14.3998
which	-14.4006
sweet	-14.4016
▁jeer	-14.4019
danger	-14.4024
again	-14.4028
tle	-14.4036
books	-14.4036
tp	-14.4043
onkey	-14.4044
▁machin	-14.4051
▁fami	-14.4063
technolog	-14.4064
connected	-14.4065
ope	-14.4066
esq	-14.4066
tta	-14.4072
fact	-14.4079
season	-14.4082
▁beauti	-14.4094
▁258	-14.4096
graduate	-14.4106
lead	-14.4115
▁golds	-14.4116
ession	-14.4121
employee	-14.4123
draw	-14.4123
▁samcheo	-14.4126
▁ful	-14.4128
fix	-14.4129
▁overse	-14.4133
sive	-14.414
gua	-14.4142
▁ant	-14.4144
piece	-14.4147
▁logis	-14.4153
emen	-14.416
▁participatin	-14.4161
anta	-14.4163
iable	-14.4166
lts	-14.4176
▁camb	-14.4176
gui	-14.4192
lion	-14.4194
idential	-14.4194
concern	-14.4205
▁gh	-14.4214
church	-14.4216
▁pres	-14.4222
gie	-14.4224
advantage	-14.4226
▁conver	-14.4227
▁boso	-14.4227
were	-14.4244
▁59	-14.4247
imc	-14.426
official	-14.4277
studie	-14.4282
today	-14.4284
rill	-14.4286
▁downs	-14.4297
▁soph	-14.4304
package	-14.4311
fruit	-14.4311
▁liz	-14.4316
▁tempora	-14.432
▁libr	-14.432
utiful	-14.433
camp	-14.4337
focal	-14.4349
tt	-14.4353
▁perch	-14.4354
bad	-14.4374
fight	-14.4375
▁reuse	-14.4378
rms	-14.4381
nful	-14.4402
▁prag	-14.4403
physical	-14.4418
erci	-14.4422
▁behav	-14.4425
ension	-14.4426
▁inactiv	-14.4432
▁bossa	-14.4438
ception	-14.4438
nu	-14.4439
▁stutt	-14.4444
gye	-14.4457
lve	-14.446
eop	-14.4468
▁explod	-14.447
▁orientat	-14.448
▁bib	-14.4488
▁significa	-14.4493
aged	-14.4499
bet	-14.4499
▁inti	-14.4506
ators	-14.4515
▁specifie	-14.4518
bath	-14.4523
▁impe	-14.4531
▁preside	-14.4544
▁defec	-14.4545
ehin	-14.4561
beaut	-14.4574
cle	-14.4575
▁classificat	-14.4591
source	-14.4594
sauce	-14.4597
xter	-14.4597
frequent	-14.4605
abo	-14.4609
agon	-14.461
▁92	-14.4613
▁amaze	-14.462
ett	-14.4624
▁haw	-14.4625
▁clas	-14.463
allen	-14.4631
energ	-14.4631
▁maxim	-14.464
chair	-14.4642
▁friendl	-14.4646
33	-14.4648
njin	-14.4653
▁allegi	-14.4656
mitt	-14.4664
song	-14.4685
fer	-14.4686
rti	-14.4704
eks	-14.4704
▁exi	-14.472
constant	-14.4731
▁rese	-14.4733
ulle	-14.4736
▁refreshe	-14.4739
namdo	-14.4742
lands	-14.4742
track	-14.4745
ump	-14.4749
degree	-14.4762
▁tunic	-14.4763
screen	-14.4773
throw	-14.4774
▁opp	-14.4783
▁insiste	-14.4789
expens	-14.4793
▁shu	-14.4794
kyun	-14.4802
▁bacteri	-14.4806
▁changi	-14.4806
collect	-14.4807
attack	-14.4808
aeda	-14.4809
pple	-14.4811
esting	-14.4813
▁obsessi	-14.4817
nim	-14.4821
hong	-14.4821
1234	-14.4832
pack	-14.4836
▁mea	-14.4837
eri	-14.4839
ims	-14.4842
aliz	-14.4846
nces	-14.4855
unjeong	-14.4855
potato	-14.4857
▁hinge	-14.4859
pressure	-14.4862
staff	-14.4867
foot	-14.4868
▁rot	-14.4875
vel	-14.4879
▁donggu	-14.4881
creat	-14.4883
▁eras	-14.4885
▁strang	-14.4896
aware	-14.4896
bett	-14.4897
ungdo	-14.4902
quisit	-14.4903
▁abou	-14.4903
first	-14.4904
limit	-14.4905
▁dulle	-14.4905
▁dori	-14.4906
▁spici	-14.4916
▁respirat	-14.492
matic	-14.492
loud	-14.4922
▁scarie	-14.4928
perform	-14.495
▁emer	-14.4954
27	-14.4958
▁unisex	-14.4964
▁deco	-14.4967
peace	-14.4974
meal	-14.4976
▁unp	-14.4997
ience	-14.4997
gone	-14.4997
contractor	-14.4997
▁polishe	-14.5001
employ	-14.5003
▁poc	-14.5019
suppose	-14.5022
▁disti	-14.5027
▁geol	-14.5032
tti	-14.5033
ample	-14.5038
blin	-14.5041
porosi	-14.5043
pencil	-14.5043
bro	-14.5045
container	-14.5045
▁nee	-14.5054
60000	-14.5058
lid	-14.5059
bowl	-14.5062
concert	-14.5066
toric	-14.5067
▁namy	-14.5072
▁disco	-14.5074
▁reminisc	-14.5077
allas	-14.5078
▁conven	-14.5078
▁poin	-14.508
▁1001	-14.508
▁grana	-14.5082
▁blushe	-14.5083
▁kal	-14.5083
▁reevaluat	-14.5089
▁regi	-14.509
holes	-14.5094
ign	-14.5098
▁sculptur	-14.5101
nse	-14.5106
bottle	-14.5109
horse	-14.5118
full	-14.5119
mis	-14.5122
▁frustrati	-14.5122
▁wea	-14.5123
ongji	-14.5133
▁sag	-14.5134
▁bil	-14.5138
meter	-14.5138
okin	-14.514
pocket	-14.5149
hl	-14.5149
bt	-14.5149
3456	-14.5154
▁ligh	-14.5169
▁truste	-14.5174
por	-14.5174
blade	-14.5178
▁sms	-14.5185
▁appropriat	-14.519
omi	-14.5191
coordinat	-14.5191
fulfill	-14.5193
▁liber	-14.5193
ford	-14.5195
▁pum	-14.5195
▁habitua	-14.52
ckup	-14.5201
▁nong	-14.5204
coat	-14.5206
feel	-14.5211
modern	-14.5221
▁parter	-14.5226
enthusiastic	-14.523
▁gem	-14.5235
author	-14.5236
activate	-14.5241
angwon	-14.5245
▁clot	-14.5248
▁overspe	-14.525
▁atom	-14.5252
ering	-14.5253
mbre	-14.5253
▁infini	-14.5258
▁masc	-14.5259
▁evaporat	-14.5259
typical	-14.526
▁rubbi	-14.5262
▁progressi	-14.5262
▁univer	-14.5263
divide	-14.5269
marry	-14.527
citizen	-14.5271
commission	-14.5273
raft	-14.5275
rows	-14.5275
mechanic	-14.5277
▁adj	-14.5281
population	-14.5288
capacit	-14.529
eshadow	-14.5291
lex	-14.5292
contaminat	-14.5305
rtz	-14.5312
emergenc	-14.5314
afford	-14.5315
67	-14.5319
▁yor	-14.5321
▁alm	-14.5325
▁loca	-14.5325
rod	-14.5331
▁brow	-14.5335
▁everla	-14.5335
coloniz	-14.5339
jongwo	-14.5341
urge	-14.5343
qualification	-14.5347
dimension	-14.535
surger	-14.5352
emp	-14.5353
▁integra	-14.5362
▁artic	-14.5364
▁jav	-14.5364
asian	-14.5365
1300	-14.5369
▁410	-14.5377
shirt	-14.5387
▁hangi	-14.5389
flutter	-14.5393
owl	-14.5394
▁177	-14.5396
shift	-14.5399
faithful	-14.5408
winner	-14.541
punctual	-14.5412
▁marina	-14.5413
▁holl	-14.5429
ocks	-14.5434
reveal	-14.5439
dani	-14.5445
kno	-14.5448
capture	-14.5451
apprehend	-14.5452
2000	-14.5454
functional	-14.5456
apri	-14.5469
alle	-14.5472
pipe	-14.5477
tica	-14.548
cro	-14.5486
centimeter	-14.5489
pigment	-14.5492
▁pilla	-14.5493
hygienic	-14.5494
zeal	-14.5496
resolve	-14.5498
loyal	-14.5502
euro	-14.5502
surf	-14.5503
commerc	-14.5504
▁126	-14.5504
rhythm	-14.5505
adequate	-14.5509
128	-14.5516
voluntar	-14.5517
jjamb	-14.5518
shock	-14.5522
voltage	-14.5524
widget	-14.5524
istance	-14.5525
terrace	-14.5527
warrior	-14.553
grammatical	-14.5532
pixel	-14.5536
▁adapte	-14.5536
1990	-14.5538
speaker	-14.554
wolf	-14.5544
logist	-14.5544
▁muge	-14.5546
360	-14.5549
illin	-14.555
burst	-14.5552
juven	-14.5553
bomb	-14.5554
kyeong	-14.5558
▁joj	-14.5558
batch	-14.556
analyz	-14.5561
▁secre	-14.5562
▁unfor	-14.5565
rail	-14.5567
wreck	-14.5567
carnation	-14.5572
complicat	-14.5573
sine	-14.5582
constitutional	-14.5589
304	-14.559
airy	-14.5592
jungle	-14.5596
▁eyel	-14.5601
finger	-14.5607
jaga	-14.5608
eleven	-14.561
venu	-14.5612
ected	-14.5619
dduk	-14.5622
packag	-14.5626
poong	-14.5628
hamburg	-14.5633
ckey	-14.5634
sophi	-14.5636
▁deodor	-14.5642
kkot	-14.5645
kles	-14.5649
ennial	-14.5653
ould	-14.5653
▁purp	-14.5657
▁peac	-14.5658
195	-14.5659
whale	-14.5664
crum	-14.5665
460	-14.5677
▁roo	-14.5678
▁keun	-14.5679
itive	-14.5679
acquaint	-14.5683
▁hamd	-14.5689
ez	-14.5691
identifi	-14.5693
jaw	-14.5702
emerge	-14.5705
specifi	-14.5706
mode	-14.5709
bass	-14.5714
conception	-14.5714
▁supposit	-14.5715
therapist	-14.5715
gy	-14.5715
▁tactic	-14.572
measur	-14.5721
nec	-14.5721
▁defecat	-14.5725
▁futur	-14.5726
21	-14.5726
joong	-14.5728
locate	-14.573
▁stimulati	-14.5731
▁choonch	-14.5731
gr	-14.5732
▁intima	-14.5733
smith	-14.5739
▁femini	-14.5739
▁haya	-14.5741
plug	-14.5746
replace	-14.5749
dramatic	-14.575
panic	-14.5751
potion	-14.5754
▁technic	-14.5755
educat	-14.5755
intentional	-14.5757
info	-14.5761
▁indent	-14.5761
▁effectiv	-14.5762
▁typica	-14.5762
▁yuk	-14.5765
applica	-14.5766
help	-14.5766
doze	-14.5766
numer	-14.5768
▁kil	-14.5774
181	-14.5774
kara	-14.5779
uz	-14.5781
▁desperat	-14.5782
blog	-14.5784
▁fancie	-14.5786
since	-14.5787
▁cognitiv	-14.5787
▁wiz	-14.579
myung	-14.5791
verifie	-14.5799
viole	-14.5801
▁poppin	-14.5801
rides	-14.5808
▁prote	-14.5811
indicate	-14.5814
microbi	-14.5816
nds	-14.5817
▁annu	-14.5817
amo	-14.5818
▁jiyo	-14.5828
jima	-14.583
▁hab	-14.5831
coun	-14.5833
▁calcul	-14.5837
▁acqui	-14.5841
anggeum	-14.5843
▁externa	-14.5843
▁brazi	-14.5857
▁neighbo	-14.5863
proc	-14.5867
▁kyungbo	-14.5874
comp	-14.5877
particle	-14.5878
▁disput	-14.5883
▁161	-14.5883
gger	-14.5889
antas	-14.59
duri	-14.59
▁inhibit	-14.5904
compar	-14.5906
▁baekj	-14.5908
▁bounc	-14.591
fuel	-14.591
cide	-14.591
hibition	-14.5913
▁kita	-14.5914
▁comfor	-14.5916
stitution	-14.5925
discriminate	-14.5925
▁middl	-14.5925
uni	-14.5927
▁gril	-14.5927
ational	-14.5933
nova	-14.5934
eport	-14.5935
generat	-14.5937
sea	-14.5937
▁reelect	-14.5937
▁induc	-14.594
crow	-14.5943
▁postur	-14.5945
daeb	-14.5947
phic	-14.5959
▁jj	-14.5963
ully	-14.5965
▁recap	-14.5967
▁posses	-14.5968
▁kidnap	-14.597
▁unwr	-14.5974
▁prec	-14.5983
▁evalu	-14.5986
▁distracti	-14.5986
▁simplif	-14.5986
stitute	-14.5988
gmyeon	-14.599
ferment	-14.5996
▁sele	-14.5996
oming	-14.5998
▁absorbe	-14.5999
folk	-14.5999
8100	-14.6
magn	-14.6002
orac	-14.6002
▁baptis	-14.6004
bl	-14.6007
▁recla	-14.6013
▁vaccin	-14.6018
▁geumj	-14.6019
aejoo	-14.6023
▁bureaucra	-14.6026
▁particula	-14.6027
yeongtae	-14.6035
flap	-14.6035
arted	-14.6037
▁perio	-14.6038
▁travele	-14.6038
▁vivi	-14.6039
spection	-14.6041
▁confront	-14.6042
▁flex	-14.6049
▁furthe	-14.6049
▁capita	-14.605
onghae	-14.6053
▁repack	-14.6057
▁tattl	-14.6058
▁raccoo	-14.6058
▁bol	-14.6059
▁nutritio	-14.606
▁transf	-14.606
▁filipin	-14.6061
doctrin	-14.6064
▁discov	-14.6066
▁horizon	-14.6067
74	-14.6068
▁surrou	-14.6068
biolog	-14.607
▁abstr	-14.6071
culate	-14.6073
▁skewe	-14.6073
ilvia	-14.6074
▁discipl	-14.6074
▁implicat	-14.6079
▁villa	-14.6079
▁mongol	-14.608
ctomy	-14.6081
▁municip	-14.6082
▁extinct	-14.6082
gayan	-14.6082
▁coincide	-14.6083
▁bupyeon	-14.6083
601	-14.6083
caps	-14.6084
▁situat	-14.6084
▁excret	-14.6084
▁muk	-14.6084
▁refrigerat	-14.6084
nta	-14.6084
bloc	-14.6085
▁explanat	-14.6085
▁pyram	-14.6087
nosaur	-14.6087
nflict	-14.6088
nunciation	-14.6088
mplifi	-14.6088
▁certi	-14.6088
▁intellect	-14.6088
▁telecommu	-14.6088
▁veterinar	-14.6088
▁bureau	-14.6089
▁descend	-14.6089
▁proje	-14.6089
dolph	-14.6089
▁hysteri	-14.6089
▁enlig	-14.609
▁disgr	-14.6091
ragm	-14.6091
tronic	-14.6092
otrop	-14.6094
egret	-14.6094
▁revol	-14.6094
▁guaran	-14.6094
modation	-14.6095
scribe	-14.6096
ncip	-14.6096
017	-14.6097
acito	-14.6098
eople	-14.6098
stinate	-14.6099
voir	-14.61
daeja	-14.6101
▁abundan	-14.6103
brella	-14.6104
▁recor	-14.6107
nounce	-14.6107
ilippin	-14.6108
▁substituti	-14.6112
▁alternat	-14.6114
egna	-14.6114
▁permanen	-14.6114
blur	-14.6115
agonal	-14.6116
plash	-14.6116
vo	-14.6116
holic	-14.6117
▁administ	-14.6119
akjeo	-14.6127
94	-14.6128
▁psycho	-14.613
▁funni	-14.6131
ggang	-14.6132
ungsa	-14.6132
▁ensu	-14.6133
▁popul	-14.6133
xtend	-14.6135
▁artific	-14.6135
▁uniq	-14.6136
▁automo	-14.6136
▁bubb	-14.6137
▁crick	-14.6137
▁leeman	-14.6138
▁kwa	-14.6138
phra	-14.614
▁bipo	-14.6141
hoven	-14.6142
ungboo	-14.6145
▁camer	-14.6145
nches	-14.6145
lution	-14.6146
▁mirr	-14.6147
▁quota	-14.6148
▁robo	-14.6148
▁fasci	-14.615
mburse	-14.6151
jangg	-14.6159
disco	-14.6161
▁config	-14.6162
ensation	-14.6169
▁champ	-14.6169
unjeon	-14.6172
rdian	-14.6175
constru	-14.618
▁soc	-14.6181
ltip	-14.6181
bug	-14.6183
ombie	-14.6186
▁modu	-14.6186
wrap	-14.619
▁cogn	-14.6192
▁unreali	-14.6192
ash	-14.6193
▁chilli	-14.6193
genre	-14.6195
avior	-14.6196
▁advert	-14.6197
gold	-14.6198
▁condu	-14.6199
▁craw	-14.6201
storia	-14.6202
otel	-14.6203
usica	-14.6203
109	-14.6203
780	-14.6207
cura	-14.6207
ciation	-14.6207
▁nev	-14.6208
▁dynami	-14.6209
yetang	-14.6209
illia	-14.621
aej	-14.6211
▁420	-14.6214
▁61	-14.6217
cessor	-14.6221
▁affo	-14.6224
onomi	-14.6224
mstance	-14.6225
roxi	-14.6226
oretic	-14.6226
ribbl	-14.6228
nstru	-14.6228
ippi	-14.6229
rogen	-14.623
korean	-14.623
versati	-14.623
▁crypto	-14.6231
gerie	-14.6234
lific	-14.6237
rophe	-14.6238
hil	-14.6238
ddler	-14.6239
▁82	-14.6246
▁honk	-14.625
▁circum	-14.6254
vestig	-14.6254
controll	-14.6255
amaic	-14.6261
tern	-14.6266
chimi	-14.6267
odil	-14.6269
▁ortho	-14.6269
▁10000	-14.6272
lugg	-14.6273
atula	-14.6274
▁suff	-14.6282
erous	-14.6283
ginal	-14.6284
▁insid	-14.6284
fait	-14.6286
▁brag	-14.6296
quisition	-14.6302
▁ultr	-14.6304
333	-14.6308
▁dav	-14.6313
aract	-14.6314
saw	-14.6316
incidence	-14.6316
wheel	-14.6317
zzling	-14.6322
pate	-14.6322
oubles	-14.6326
aste	-14.6327
akge	-14.6329
dresse	-14.6333
▁303	-14.6334
gj	-14.6336
▁stru	-14.6336
enari	-14.6342
▁designe	-14.6343
lis	-14.635
omen	-14.635
▁ryan	-14.6353
▁impr	-14.6359
amche	-14.636
▁dinos	-14.6366
▁essent	-14.6367
anggang	-14.6368
▁enviro	-14.6369
dcast	-14.6369
braz	-14.637
▁keb	-14.637
gree	-14.6382
anti	-14.6384
▁depre	-14.6384
▁coff	-14.639
tinent	-14.6392
▁estee	-14.6396
iolog	-14.6396
hedule	-14.6407
▁indivi	-14.6409
mgye	-14.6417
▁barri	-14.6421
▁alpi	-14.6425
▁sway	-14.6429
lder	-14.6431
▁bitc	-14.6434
haus	-14.6445
angle	-14.6445
▁310	-14.6452
oje	-14.6452
▁coul	-14.6453
clusive	-14.6453
▁mechani	-14.6457
ello	-14.6461
pound	-14.6462
win	-14.6463
chemi	-14.6463
wit	-14.6464
jose	-14.6469
▁resum	-14.6474
▁hamburg	-14.6478
▁seco	-14.6479
▁michel	-14.648
▁cand	-14.6483
meyon	-14.6486
yasa	-14.6489
▁excha	-14.6489
▁rende	-14.6494
jou	-14.6496
▁crow	-14.6496
eratin	-14.6497
▁taeba	-14.6504
▁kaya	-14.6506
helm	-14.6506
▁dishwash	-14.6508
▁sugge	-14.6509
▁backry	-14.6516
names	-14.6519
zia	-14.6525
unsa	-14.6526
agai	-14.6533
▁sourc	-14.6535
orship	-14.6536
muff	-14.654
ngu	-14.6541
▁precio	-14.6543
▁macar	-14.6553
meric	-14.6554
▁unse	-14.6558
147	-14.6568
sales	-14.6574
vinci	-14.6577
umul	-14.6585
printer	-14.6587
▁maj	-14.6587
riod	-14.6593
▁picker	-14.6598
host	-14.6605
mage	-14.6605
▁proc	-14.6606
▁troy	-14.6611
icken	-14.6616
▁dino	-14.6617
▁hig	-14.6618
▁mario	-14.6619
inting	-14.6628
▁annou	-14.6633
▁kata	-14.664
defin	-14.6649
flu	-14.665
7800	-14.6651
▁namha	-14.6657
signe	-14.6669
len	-14.6686
rais	-14.6687
believe	-14.6688
chin	-14.6695
gard	-14.6695
▁jac	-14.6699
oraemo	-14.6704
▁hom	-14.6704
▁hose	-14.6714
elief	-14.6719
apple	-14.6723
cru	-14.6728
soil	-14.6734
ristian	-14.6736
belt	-14.6739
▁admi	-14.6742
kr	-14.6745
▁bathro	-14.6748
phi	-14.6751
▁bran	-14.6754
motic	-14.6758
▁tro	-14.6762
nded	-14.6764
interns	-14.677
▁misde	-14.6776
▁uncha	-14.6778
ales	-14.6784
acid	-14.6785
▁stripe	-14.6786
izar	-14.6796
marin	-14.6797
ens	-14.6802
▁extremis	-14.6805
seung	-14.6809
▁dige	-14.6811
ulk	-14.6836
eek	-14.6838
coordinate	-14.6838
▁healt	-14.6839
▁underwe	-14.6842
▁optimist	-14.6848
▁reinsta	-14.6852
fit	-14.6855
▁lak	-14.6868
sibl	-14.6876
goo	-14.6877
appy	-14.6879
▁prope	-14.6879
29	-14.6883
ackage	-14.6889
cdonald	-14.6893
▁bestie	-14.6897
▁sponsors	-14.69
chap	-14.69
▁galbij	-14.6909
▁fuk	-14.6918
ksun	-14.692
▁carpe	-14.6926
ser	-14.6931
▁psyc	-14.6932
ica	-14.6932
▁pas	-14.6933
▁boa	-14.6936
ont	-14.6938
pho	-14.6948
rtp	-14.6955
▁1300	-14.6962
▁murd	-14.6962
harmoni	-14.6969
prese	-14.6971
ongju	-14.6972
pole	-14.6976
mini	-14.6978
rita	-14.6981
▁fri	-14.6985
okyun	-14.6988
gart	-14.6991
▁signif	-14.6999
hell	-14.6999
ubm	-14.7
role	-14.701
metic	-14.7015
ewon	-14.7015
▁ado	-14.7018
limo	-14.702
estro	-14.7026
▁dism	-14.7029
▁adv	-14.7029
opher	-14.7031
▁wav	-14.7063
peso	-14.707
ggle	-14.7077
▁pist	-14.7081
▁94	-14.7093
▁anton	-14.7104
sorb	-14.711
yuki	-14.7111
cats	-14.712
abul	-14.7134
216	-14.7135
kes	-14.7136
▁bamb	-14.7139
rvi	-14.7142
ngjeon	-14.7142
▁nons	-14.7146
▁cataly	-14.7147
pow	-14.7148
rashi	-14.7148
sapp	-14.715
▁amen	-14.7182
▁exha	-14.7184
▁terroris	-14.7191
▁cardi	-14.7191
stine	-14.7193
wol	-14.7216
actu	-14.7216
tomati	-14.7221
999	-14.7223
nami	-14.7237
▁att	-14.7242
earning	-14.7245
▁rape	-14.7259
gramm	-14.7274
▁provi	-14.7282
angel	-14.7286
cooperati	-14.7287
slip	-14.7296
▁nervo	-14.7303
▁hos	-14.7308
ngdong	-14.7315
ature	-14.7318
onggye	-14.7319
▁subs	-14.7331
gats	-14.7333
▁ment	-14.7345
uction	-14.7348
agoni	-14.7349
tau	-14.7361
▁005	-14.7366
▁clea	-14.737
shadow	-14.7377
▁sparkle	-14.738
nsan	-14.7382
gran	-14.7393
amil	-14.7394
▁pota	-14.7402
611	-14.7403
kyeon	-14.7406
▁aesthe	-14.7411
▁celebr	-14.7421
▁rout	-14.7425
vessels	-14.7425
uman	-14.7433
rbon	-14.7448
▁somewh	-14.7448
shio	-14.7449
ext	-14.7455
▁coc	-14.7465
izi	-14.7466
bor	-14.7466
acula	-14.7467
▁chall	-14.7468
oyanc	-14.7473
unting	-14.7483
▁compat	-14.7484
dols	-14.7492
terio	-14.7492
pum	-14.7499
▁geno	-14.7501
▁trai	-14.7511
▁stre	-14.7527
olks	-14.7529
copter	-14.7529
sle	-14.7532
nemi	-14.7552
▁mack	-14.756
▁uplo	-14.7576
xe	-14.7578
▁shred	-14.7581
confiden	-14.7584
▁saem	-14.759
345	-14.7595
rik	-14.7597
▁mille	-14.7603
▁empa	-14.7608
shell	-14.7609
ercis	-14.761
▁puri	-14.7617
▁nationali	-14.7623
ongdong	-14.7627
ngjong	-14.7629
sper	-14.7633
▁exper	-14.7637
▁stoma	-14.7643
yub	-14.7644
▁overla	-14.7648
▁pyr	-14.7654
▁incre	-14.7661
▁southe	-14.7662
servation	-14.7663
▁telegra	-14.7669
orted	-14.767
▁mosqu	-14.7671
mpathize	-14.7674
alway	-14.7683
340	-14.7685
review	-14.7689
▁fishe	-14.7693
umption	-14.7697
▁acti	-14.7697
earths	-14.7702
sual	-14.7707
▁carve	-14.7708
▁disse	-14.7713
illus	-14.7715
iksu	-14.7726
▁rar	-14.7728
▁nip	-14.7732
ania	-14.7733
▁geong	-14.7736
▁esta	-14.7736
stern	-14.7738
▁peri	-14.7744
▁presiden	-14.7744
qm	-14.776
▁esti	-14.7761
▁speciali	-14.7764
▁beggin	-14.7769
▁assas	-14.7769
▁bla	-14.7771
ups	-14.7774
edict	-14.7776
▁robbin	-14.778
▁instructi	-14.7789
dition	-14.7808
▁ancho	-14.7809
▁lau	-14.7822
heat	-14.7822
zzle	-14.7823
icial	-14.7827
unica	-14.7829
▁ic	-14.783
380	-14.7832
rical	-14.7833
▁alco	-14.7834
avoi	-14.7836
mega	-14.7845
edication	-14.7854
crac	-14.7863
▁charmi	-14.7864
miner	-14.7875
ogury	-14.7875
aken	-14.7876
gda	-14.789
▁smi	-14.7893
▁chungch	-14.7899
isa	-14.7899
didn	-14.7914
▁autop	-14.7914
▁eur	-14.7916
▁plat	-14.7918
kwon	-14.7934
▁plank	-14.7936
rning	-14.7943
▁obst	-14.7947
divo	-14.7966
▁conne	-14.7981
▁quarr	-14.8005
era	-14.8012
utter	-14.8019
eongbok	-14.802
kk	-14.8029
hail	-14.803
iva	-14.8037
▁erro	-14.8046
▁51	-14.8047
tribu	-14.8051
two	-14.8053
licious	-14.8066
dna	-14.8066
ppe	-14.809
sitive	-14.8093
family	-14.8102
▁stronge	-14.813
▁inputt	-14.814
lapse	-14.814
unders	-14.8143
artin	-14.8146
▁appre	-14.815
wer	-14.8155
▁padd	-14.816
tella	-14.8167
tran	-14.818
▁deci	-14.8185
action	-14.8189
ibu	-14.8197
▁trav	-14.8219
▁wont	-14.8223
guns	-14.8228
▁ascen	-14.8229
ythi	-14.8241
yeongsang	-14.8264
chie	-14.8265
▁precis	-14.8266
▁preserv	-14.8271
ucin	-14.828
hlet	-14.8285
▁micros	-14.8285
▁devo	-14.8294
hwam	-14.8306
wort	-14.8311
▁gwangy	-14.8314
bridge	-14.8322
ogy	-14.8323
before	-14.8325
drum	-14.8327
cit	-14.8336
▁nave	-14.8343
▁suj	-14.8345
pad	-14.8345
▁dex	-14.8353
ugs	-14.8356
▁formali	-14.8358
mok	-14.8359
sound	-14.8377
▁spil	-14.8387
dela	-14.839
suitabl	-14.8393
lbin	-14.84
gne	-14.8405
▁sanita	-14.8407
opl	-14.8415
nv	-14.8423
considerat	-14.8427
▁quarte	-14.8436
amic	-14.8441
ctu	-14.8445
▁depriv	-14.8446
▁effe	-14.8449
▁dose	-14.8449
currenc	-14.8457
troye	-14.8464
say	-14.8469
partment	-14.8474
▁intel	-14.8488
rri	-14.8489
metric	-14.8502
▁echoe	-14.8509
▁kits	-14.8512
▁chops	-14.8512
▁conditional	-14.8525
▁crum	-14.8526
tated	-14.8528
orous	-14.8528
sperate	-14.8534
oth	-14.854
omatic	-14.8545
wal	-14.8554
▁prog	-14.857
▁thor	-14.8575
ugu	-14.8579
demi	-14.8585
bean	-14.8597
▁clic	-14.8608
▁trop	-14.8611
ines	-14.8616
pink	-14.8619
value	-14.8623
▁conv	-14.8624
▁ridge	-14.8655
▁patro	-14.8658
▁moth	-14.866
etch	-14.8671
ril	-14.8672
▁corro	-14.8673
cles	-14.8673
countr	-14.8678
shine	-14.8695
aseless	-14.8697
▁disa	-14.8698
▁traine	-14.8725
ccin	-14.8728
udde	-14.8735
▁430	-14.8744
eak	-14.8755
rl	-14.8769
▁composi	-14.8774
cam	-14.8787
▁regula	-14.8788
▁vent	-14.8788
▁magn	-14.88
eling	-14.8823
umm	-14.8838
oya	-14.884
▁gaeu	-14.8843
▁affiliati	-14.8845
▁colleg	-14.8859
edge	-14.8862
▁reins	-14.8865
▁86	-14.8867
aint	-14.8871
aries	-14.8886
▁moto	-14.8896
eok	-14.8902
rgen	-14.8906
▁baekh	-14.8916
▁chees	-14.8926
lerk	-14.8926
▁til	-14.893
ckin	-14.8937
rob	-14.8939
▁gama	-14.8945
authorize	-14.8953
▁udo	-14.8975
study	-14.898
ray	-14.8996
ya	-14.9017
ianji	-14.902
anz	-14.9047
dere	-14.9053
ozo	-14.9073
▁ly	-14.9074
reserve	-14.9075
spar	-14.9077
▁ukr	-14.9089
▁painte	-14.9115
▁ration	-14.9148
▁perce	-14.9154
neous	-14.9158
scence	-14.9167
tru	-14.9172
▁alo	-14.9176
▁kuk	-14.9181
▁doz	-14.9188
▁imped	-14.9195
igat	-14.9231
their	-14.9232
22	-14.9236
▁jon	-14.9244
▁jos	-14.9256
▁pitche	-14.9271
pay	-14.9278
▁endura	-14.9283
magi	-14.9283
▁hote	-14.9299
possibl	-14.9308
▁horr	-14.9321
emun	-14.9323
scle	-14.9333
wled	-14.9359
meet	-14.9361
orrie	-14.9362
apes	-14.9374
▁qin	-14.9381
chan	-14.9389
▁desp	-14.9402
▁allie	-14.9426
curre	-14.9436
igorous	-14.9439
determine	-14.9454
mons	-14.9456
yl	-14.9468
lates	-14.9486
▁preservati	-14.9507
mple	-14.9509
▁interr	-14.9537
eni	-14.9539
▁lyn	-14.9541
▁wel	-14.9554
▁flue	-14.9558
sir	-14.9561
consistent	-14.9612
inent	-14.9628
eno	-14.965
immed	-14.9653
212	-14.9661
arms	-14.9667
▁kyungb	-14.9674
money	-14.9677
▁prem	-14.9678
ngdo	-14.9691
gji	-14.9705
fun	-14.9716
▁unma	-14.9727
▁gems	-14.9748
▁silks	-14.9765
lasses	-14.9784
kseon	-14.9811
aca	-14.9836
▁fra	-14.984
▁backb	-14.984
▁switche	-14.9841
epi	-14.9843
ssi	-14.9847
ffe	-14.9847
insu	-14.9849
▁stam	-14.9857
ima	-14.9869
oin	-14.9877
▁tid	-14.989
▁scu	-14.9895
lg	-14.99
▁fals	-14.9901
▁samb	-14.9904
▁broo	-14.9905
uma	-14.9933
▁tes	-14.9961
▁devoti	-14.9966
hit	-14.9967
invite	-14.9974
▁reme	-14.9977
pira	-14.998
▁cub	-14.9985
into	-14.9988
women	-15.0007
gle	-15.001
cool	-15.0018
andar	-15.0027
ngbu	-15.0043
ugg	-15.0043
▁bea	-15.0045
fee	-15.0046
gio	-15.0062
▁sara	-15.0076
nick	-15.0085
wool	-15.0088
▁184	-15.0089
tribution	-15.0093
▁dampe	-15.0104
mont	-15.0111
▁polis	-15.0116
▁appe	-15.012
▁gongy	-15.013
onda	-15.0141
hem	-15.0144
▁rema	-15.0155
▁policewom	-15.0163
usi	-15.018
▁pate	-15.0181
▁soya	-15.0196
200	-15.0198
laps	-15.0202
▁phar	-15.0212
▁sprin	-15.0213
▁folde	-15.0225
ngpyeon	-15.0225
ooyeo	-15.0237
iral	-15.0247
▁humanita	-15.0256
wif	-15.0276
▁gove	-15.0276
urat	-15.0282
▁jen	-15.0288
▁detai	-15.0306
ortion	-15.0313
wic	-15.0348
oss	-15.0348
lip	-15.0351
▁burne	-15.037
fter	-15.0375
ifor	-15.0376
dem	-15.0378
boss	-15.0382
▁shel	-15.0387
▁len	-15.0388
▁ya	-15.0413
▁moti	-15.0413
▁hoc	-15.0415
elici	-15.0416
▁mudd	-15.0448
skill	-15.0457
visit	-15.0459
hinki	-15.048
knowing	-15.0487
saf	-15.0493
▁apol	-15.0497
colo	-15.0551
▁brewe	-15.0572
ashima	-15.0584
▁ut	-15.0588
bli	-15.059
dut	-15.0591
scream	-15.0601
sting	-15.0606
uilt	-15.061
▁lar	-15.0619
atter	-15.0639
980	-15.0652
▁kko	-15.066
mbar	-15.0662
lower	-15.0663
ngwon	-15.0685
ulg	-15.0695
ffective	-15.0697
▁divi	-15.0703
tomo	-15.0711
▁sill	-15.072
▁alt	-15.0721
repa	-15.0733
▁farthe	-15.0741
▁forc	-15.0779
rtation	-15.0811
terest	-15.0811
qui	-15.0846
▁acco	-15.0847
tailed	-15.0873
917	-15.0874
eonggi	-15.0927
nde	-15.0941
▁comed	-15.0985
problem	-15.0993
▁daugh	-15.1001
▁completi	-15.1015
▁differe	-15.102
▁answere	-15.1021
epl	-15.1023
seonh	-15.1046
▁torch	-15.1052
chu	-15.107
nju	-15.1076
ngseo	-15.1079
onal	-15.1092
▁bows	-15.11
meri	-15.1103
ipp	-15.1108
interpret	-15.1114
bris	-15.1116
▁thou	-15.1128
dde	-15.1139
dan	-15.1151
graphical	-15.1154
fron	-15.1166
iss	-15.12
▁eins	-15.1218
▁hairta	-15.1231
soul	-15.1231
▁ret	-15.1234
▁resi	-15.1239
butt	-15.1279
essing	-15.1297
hman	-15.1313
▁scru	-15.1317
movie	-15.1319
prio	-15.1326
asan	-15.133
▁bory	-15.1347
through	-15.1353
dging	-15.137
▁skir	-15.1374
inqui	-15.1395
▁sued	-15.1397
fold	-15.1429
nal	-15.1432
umor	-15.1435
trie	-15.1448
lowing	-15.1449
▁kimb	-15.1461
▁burs	-15.1462
izen	-15.15
▁camel	-15.1518
bings	-15.1525
▁waite	-15.1544
kill	-15.1547
tenn	-15.1559
fli	-15.1573
ager	-15.1578
alk	-15.1589
trip	-15.159
ndows	-15.1596
decorate	-15.1623
▁sanda	-15.1623
yungsan	-15.1645
▁broadcaste	-15.1648
▁ita	-15.1649
▁crowds	-15.1669
omb	-15.1682
keep	-15.1687
melts	-15.1696
163	-15.1701
▁conge	-15.1707
wei	-15.1743
edic	-15.1766
acqu	-15.1775
haos	-15.1795
eongdo	-15.1811
pyeon	-15.1819
▁acup	-15.1824
ukg	-15.1824
bows	-15.184
umi	-15.1867
▁gol	-15.1878
▁whip	-15.1879
ffi	-15.1892
▁rive	-15.1901
def	-15.1912
▁defe	-15.1914
ark	-15.1918
hear	-15.1941
abs	-15.1953
myun	-15.1953
xy	-15.1963
▁vitali	-15.1972
rst	-15.1979
▁massa	-15.1988
vern	-15.199
ranch	-15.1993
▁candid	-15.2001
▁chri	-15.2057
rela	-15.2089
achment	-15.2127
634	-15.2131
59	-15.2131
coa	-15.2132
bras	-15.2136
ardi	-15.2141
nila	-15.2156
▁hardene	-15.2165
inger	-15.2168
alr	-15.2198
scent	-15.2199
▁rum	-15.2226
akura	-15.2254
▁kak	-15.226
rgo	-15.2268
800	-15.2306
whi	-15.2307
▁succ	-15.2311
kata	-15.2335
arl	-15.2358
▁cultur	-15.2369
evitabl	-15.2377
oman	-15.2379
▁melo	-15.2388
gins	-15.242
▁pete	-15.2426
bee	-15.2436
nggi	-15.245
pire	-15.246
▁colla	-15.2465
▁fis	-15.2476
lain	-15.2476
▁habi	-15.2492
▁extr	-15.2504
ener	-15.2522
ads	-15.2532
▁inf	-15.2535
▁gue	-15.2544
▁clima	-15.2551
logger	-15.2553
shing	-15.2566
uli	-15.2577
▁pans	-15.2628
ect	-15.2639
▁bij	-15.264
ata	-15.2696
▁wom	-15.27
dmi	-15.2718
401	-15.2721
▁assur	-15.2737
llet	-15.274
enda	-15.2769
phon	-15.2795
evie	-15.2807
slim	-15.2813
haki	-15.2814
▁sock	-15.2816
ebr	-15.2835
▁fella	-15.2854
kit	-15.2891
alian	-15.2893
ards	-15.2984
posi	-15.2988
terial	-15.2991
tles	-15.3006
▁mento	-15.3042
lting	-15.3049
ngcheon	-15.3072
ify	-15.308
rly	-15.3101
tyl	-15.3105
add	-15.3136
ige	-15.3137
mom	-15.3147
ables	-15.3173
onghyu	-15.3179
tol	-15.3222
▁chewi	-15.3227
▁legi	-15.323
rep	-15.3244
▁gard	-15.3247
acte	-15.3248
moo	-15.3264
▁eunj	-15.3266
pok	-15.3272
▁gangr	-15.3277
▁wer	-15.3281
alys	-15.3284
▁prose	-15.3336
tanding	-15.3339
▁gara	-15.3344
jangs	-15.3353
nate	-15.3376
55	-15.3379
setti	-15.3393
▁rece	-15.3405
ejang	-15.3421
▁unh	-15.347
▁rom	-15.3473
aft	-15.3484
▁gras	-15.3501
▁amid	-15.351
urban	-15.3515
▁rach	-15.3526
▁atm	-15.356
angr	-15.3563
pect	-15.357
tart	-15.3585
▁centi	-15.3588
nive	-15.3589
nne	-15.3599
▁coolin	-15.3604
lks	-15.3611
▁uns	-15.3625
▁depe	-15.3628
▁tradi	-15.3639
▁tar	-15.3643
pression	-15.3647
tri	-15.3716
▁sau	-15.3724
dongj	-15.375
hams	-15.3752
▁nar	-15.3787
best	-15.3791
evic	-15.3792
▁attende	-15.38
▁overpa	-15.3809
▁vill	-15.381
class	-15.3813
678	-15.3817
▁informati	-15.382
meon	-15.3822
▁pir	-15.3822
andong	-15.3873
ounce	-15.3882
uks	-15.3883
hav	-15.3889
▁babys	-15.3896
vement	-15.3897
imi	-15.3922
▁jeongw	-15.3924
ego	-15.3926
robbe	-15.3927
pola	-15.3962
aji	-15.3963
assess	-15.3965
▁jia	-15.4004
ype	-15.4011
▁gott	-15.4024
iety	-15.403
nit	-15.4062
reason	-15.4069
rish	-15.4071
boo	-15.4085
div	-15.4144
▁reas	-15.415
▁gongs	-15.4153
▁org	-15.4164
▁rivers	-15.4187
▁fooli	-15.4207
esd	-15.4234
▁hers	-15.4257
starte	-15.426
▁musc	-15.4268
rement	-15.4281
hieve	-15.433
ographical	-15.4353
oster	-15.4374
includ	-15.439
stro	-15.4393
itc	-15.4416
▁jooyo	-15.4441
mped	-15.4453
ucc	-15.448
aver	-15.4485
elli	-15.4486
icha	-15.4487
▁moc	-15.449
othe	-15.4503
rave	-15.4537
▁hanbi	-15.4542
▁ur	-15.4547
▁presenta	-15.4594
amin	-15.4628
ssive	-15.4641
▁mobili	-15.4659
▁casu	-15.4666
▁spri	-15.4672
may	-15.4719
reath	-15.4784
erlock	-15.4787
ule	-15.4801
tended	-15.4814
▁siz	-15.4817
▁rop	-15.4818
▁hyunj	-15.4835
jam	-15.4871
astes	-15.4879
jeo	-15.4879
mill	-15.4883
include	-15.4895
oto	-15.4909
▁blan	-15.4911
umb	-15.4915
▁billi	-15.4921
▁restroo	-15.4937
does	-15.494
remen	-15.4948
ologis	-15.4949
▁nationalis	-15.4952
ssen	-15.4982
lvin	-15.4999
108	-15.5014
absorb	-15.5015
▁smarte	-15.5029
orta	-15.5061
kama	-15.507
▁sist	-15.5083
ecr	-15.5096
asion	-15.5106
▁sooj	-15.5113
calculate	-15.5117
essa	-15.5117
▁una	-15.513
isi	-15.5135
iny	-15.5144
oi	-15.5164
mps	-15.5188
▁eater	-15.5204
▁jess	-15.521
▁ah	-15.5228
dge	-15.5239
[...]
