<pad>	0
<s>	0
</s>	0
<unk>	0
▁	-2.60606
>	-2.981
▁<	-2.98182
▁the	-3.25799
s	-3.28705
.	-3.5065
,	-3.55951
eos	-3.67418
sos	-3.67572
▁to	-4.14177
▁a	-4.16024
ed	-4.22931
▁of	-4.23732
▁in	-4.31256
▁and	-4.4018
ing	-4.51281
y	-4.53119
d	-4.88021
▁s	-4.95284
▁said	-5.17986
▁on	-5.2056
▁for	-5.26529
▁that	-5.30609
▁be	-5.35553
ly	-5.48522
▁is	-5.50148
▁was	-5.55578
▁with	-5.59711
▁it	-5.70338
▁he	-5.80453
▁at	-5.82092
e	-5.82983
▁from	-5.90611
▁an	-5.9262
▁by	-5.94524
▁as	-5.95441
▁has	-5.96888
▁his	-6.05223
n	-6.05535
▁have	-6.05822
▁are	-6.18252
▁year	-6.20937
▁but	-6.24034
▁were	-6.25369
▁will	-6.29171
▁not	-6.35768
▁who	-6.36745
▁after	-6.44123
▁had	-6.47519
en	-6.5052
▁u	-6.53593
▁president	-6.56266
▁this	-6.57463
▁t	-6.58978
ies	-6.60615
▁people	-6.60853
▁their	-6.61603
▁i	-6.64716
▁more	-6.64948
▁its	-6.65384
about	-6.67467
▁two	-6.68253
▁say	-6.68659
t	-6.69454
▁we	-6.70013
▁new	-6.71402
es	-6.74191
▁korea	-6.75056
▁which	-6.76889
▁one	-6.79172
st	-6.79315
▁up	-6.79757
▁her	-6.79831
▁official	-6.80508
a	-6.80568
▁government	-6.81108
▁would	-6.82634
▁north	-6.89818
▁she	-6.89866
▁or	-6.90174
▁time	-6.90626
▁than	-6.91878
also	-6.93753
▁over	-6.9512
▁out	-6.95142
▁other	-6.97349
▁cnn	-6.98054
▁last	-6.98279
▁police	-6.9886
▁first	-7.02557
▁when	-7.03449
▁south	-7.05384
an	-7.0661
▁al	-7.07585
▁day	-7.08693
r	-7.09268
▁there	-7.12808
▁some	-7.13683
▁into	-7.14582
on	-7.14897
▁all	-7.14951
o	-7.15081
▁man	-7.15668
▁korean	-7.169
▁no	-7.18359
er	-7.19317
▁report	-7.2356
▁world	-7.23715
l	-7.23752
▁200	-7.2572
▁week	-7.26529
day	-7.26894
▁percent	-7.28528
▁us	-7.2987
▁state	-7.30186
▁month	-7.31078
▁m	-7.31693
▁you	-7.32182
▁again	-7.33781
▁000	-7.34275
▁can	-7.34936
▁united	-7.36081
▁could	-7.36121
▁according	-7.37352
▁country	-7.40353
▁if	-7.4063
in	-7.41217
▁three	-7.41697
▁go	-7.42708
▁party	-7.43349
▁1	-7.43856
▁tuesday	-7.44221
▁million	-7.44356
▁minister	-7.44562
▁iraq	-7.4479
▁call	-7.46283
▁national	-7.47324
▁militar	-7.47578
ce	-7.48034
▁w	-7.48452
▁them	-7.49893
al	-7.50164
▁group	-7.51631
▁monda	-7.51896
▁what	-7.52066
▁obama	-7.52487
▁him	-7.53381
▁states	-7.53879
▁before	-7.54381
▁attack	-7.55232
▁sunday	-7.55397
▁japan	-7.55745
▁most	-7.55769
▁since	-7.55877
▁china	-7.58157
▁now	-7.59074
▁b	-7.59083
▁down	-7.59719
▁bush	-7.59764
▁old	-7.60219
i	-7.60443
▁force	-7.60996
▁nuclear	-7.61433
▁like	-7.61747
▁where	-7.62542
▁home	-7.62951
▁show	-7.63063
cause	-7.63483
▁city	-7.64868
ld	-7.65155
▁may	-7.65524
▁so	-7.65651
▁thursday	-7.65696
▁2	-7.65915
▁back	-7.66329
▁off	-7.66954
▁high	-7.67166
▁under	-7.67551
▁former	-7.68218
▁securit	-7.68579
▁reported	-7.68949
▁re	-7.69407
▁includ	-7.69649
▁just	-7.70119
▁house	-7.70465
▁four	-7.70978
▁near	-7.71559
tween	-7.71889
▁how	-7.72603
▁made	-7.72806
▁dur	-7.73348
ese	-7.74026
▁any	-7.74335
▁american	-7.74744
▁un	-7.7671
▁part	-7.76808
▁being	-7.7794
▁through	-7.78225
▁war	-7.7828
▁whil	-7.79507
▁plan	-7.79569
▁do	-7.79575
▁news	-7.80133
▁10	-7.8045
th	-7.80551
▁nation	-7.81008
▁election	-7.81738
▁want	-7.82417
▁take	-7.82831
▁get	-7.84405
▁bee	-7.84719
▁end	-7.85046
▁3	-7.85079
▁international	-7.87852
▁long	-7.87915
▁did	-7.88168
▁right	-7.88216
▁found	-7.89051
▁statement	-7.89729
▁help	-7.90188
▁six	-7.90936
ers	-7.91364
▁second	-7.91447
h	-7.91882
▁troop	-7.91947
▁won	-7.92089
▁20	-7.94107
▁next	-7.95086
▁our	-7.95359
▁five	-7.95478
ish	-7.95515
▁work	-7.95844
other	-7.97125
round	-7.97216
▁death	-7.97599
ary	-7.97692
▁foreign	-7.97755
▁court	-7.97799
▁still	-7.97958
▁5	-7.98127
ial	-7.98916
▁talks	-7.98991
▁make	-7.99703
▁leader	-8.00252
▁spokesm	-8.0125
▁my	-8.01303
m	-8.01799
▁prime	-8.02645
▁office	-8.02818
▁late	-8.02913
▁release	-8.03071
▁issue	-8.03183
ity	-8.03577
▁kill	-8.04316
▁number	-8.05892
▁hour	-8.06157
▁need	-8.06265
able	-8.06454
▁agenc	-8.06466
▁seoul	-8.06806
▁recent	-8.0702
▁fire	-8.07658
ember	-8.0772
▁start	-8.08092
▁market	-8.088
▁area	-8.09107
▁public	-8.09329
▁set	-8.10222
early	-8.10409
▁top	-8.1059
out	-8.11034
▁authorit	-8.11146
▁ministr	-8.11211
▁come	-8.1165
▁lead	-8.12546
▁program	-8.12763
▁p	-8.12941
▁4	-8.12975
▁clinton	-8.13515
▁follow	-8.13701
▁point	-8.13742
c	-8.1391
▁6	-8.14179
▁return	-8.14627
▁washington	-8.14633
▁meeting	-8.14752
▁site	-8.15938
ion	-8.16302
▁support	-8.16423
▁place	-8.16722
▁every	-8.16892
esday	-8.16905
▁iraqi	-8.17205
company	-8.17303
▁close	-8.17908
▁case	-8.17983
▁way	-8.18473
▁see	-8.18633
▁chief	-8.1927
▁well	-8.1931
▁children	-8.19396
ty	-8.1958
▁bank	-8.20035
▁look	-8.20054
▁even	-8.20261
▁arm	-8.20459
▁service	-8.20528
▁york	-8.21031
▁visit	-8.21045
▁use	-8.21164
▁died	-8.21218
▁billion	-8.21257
▁press	-8.21263
▁charge	-8.21272
expected	-8.2175
▁open	-8.2192
▁both	-8.21932
ment	-8.22079
such	-8.22142
▁should	-8.22426
▁earlie	-8.22493
▁afghan	-8.22891
▁head	-8.22972
very	-8.23219
▁saturday	-8.23358
▁political	-8.2374
man	-8.2385
ry	-8.24143
▁members	-8.24198
▁wed	-8.24399
▁white	-8.2452
▁price	-8.25061
▁30	-8.25603
▁campaign	-8.25707
▁vote	-8.26241
▁general	-8.2662
▁friday	-8.26756
▁believe	-8.26799
▁human	-8.27307
▁th	-8.28026
▁economic	-8.2824
▁think	-8.28549
is	-8.2873
▁large	-8.28753
▁n	-8.2879
▁brit	-8.28813
▁came	-8.28813
▁women	-8.29195
▁kim	-8.29566
▁claim	-8.29671
▁remain	-8.29722
▁democratic	-8.29885
▁team	-8.30095
▁health	-8.3016
▁car	-8.30193
▁took	-8.30512
▁7	-8.30906
▁move	-8.30921
▁among	-8.31178
▁family	-8.31514
?	-8.31563
▁air	-8.31867
▁good	-8.3239
▁power	-8.32869
▁change	-8.32917
▁play	-8.33063
▁capital	-8.33083
▁center	-8.33152
▁later	-8.33177
le	-8.33362
▁base	-8.33504
▁left	-8.34825
▁k	-8.34853
▁life	-8.35529
u	-8.35643
▁lee	-8.3588
▁know	-8.36235
▁face	-8.36392
▁night	-8.36421
2	-8.36873
▁kille	-8.37158
▁deal	-8.37499
▁major	-8.37771
ve	-8.38437
▁name	-8.38908
▁hit	-8.39046
▁ago	-8.39176
▁john	-8.40185
▁continue	-8.40314
▁run	-8.40435
ther	-8.40637
▁order	-8.4079
▁pakistan	-8.4088
5	-8.41158
▁co	-8.41554
▁secretar	-8.42099
▁arrest	-8.42258
▁allow	-8.42618
▁system	-8.43696
▁local	-8.44116
▁econom	-8.44131
▁iran	-8.44356
▁leaders	-8.44487
▁countr	-8.44888
▁men	-8.44891
▁held	-8.45108
▁hospital	-8.45159
▁same	-8.45693
▁oil	-8.46055
▁soldier	-8.46247
▁student	-8.46255
▁8	-8.46379
▁test	-8.46429
▁universit	-8.46522
▁department	-8.46711
▁business	-8.46918
▁result	-8.47954
▁put	-8.48231
▁concern	-8.48503
▁effort	-8.48577
▁record	-8.48596
▁opposition	-8.48915
▁media	-8.49051
▁f	-8.49052
▁militant	-8.49125
▁third	-8.4923
▁appear	-8.49318
▁school	-8.49328
▁past	-8.49463
▁count	-8.49593
▁minute	-8.49906
▁morning	-8.49919
▁fight	-8.49959
▁problem	-8.50027
▁own	-8.50133
▁19	-8.50229
▁me	-8.50327
▁don	-8.50442
▁dead	-8.50535
▁half	-8.50616
▁province	-8.50687
▁protest	-8.50895
▁15	-8.51042
▁roh	-8.51357
▁worker	-8.51482
▁few	-8.51612
▁win	-8.51806
▁100	-8.51831
▁london	-8.52302
▁candidate	-8.5236
▁your	-8.52911
▁law	-8.53021
▁11	-8.53162
ready	-8.53305
8	-8.53523
▁main	-8.53723
▁demand	-8.53975
▁taliban	-8.53979
f	-8.53989
▁sign	-8.54083
▁mean	-8.54701
▁50	-8.54861
een	-8.5498
▁final	-8.55145
▁space	-8.55151
▁defense	-8.55152
▁financial	-8.55156
▁ask	-8.55226
hose	-8.55603
▁beijing	-8.55652
▁film	-8.5569
old	-8.55979
▁question	-8.56175
▁train	-8.56339
▁free	-8.56739
▁decision	-8.56868
▁c	-8.57011
▁turn	-8.57211
▁region	-8.5738
▁de	-8.57393
▁leas	-8.5763
▁killing	-8.57647
▁weapon	-8.57714
▁palestinian	-8.57723
▁german	-8.57994
▁eight	-8.58046
▁water	-8.58069
▁per	-8.5824
▁baghdad	-8.58946
▁money	-8.58996
▁administration	-8.59483
est	-8.59566
to	-8.59603
self	-8.59651
▁suspect	-8.59872
▁building	-8.59891
ally	-8.60234
p	-8.60244
▁clear	-8.60247
ever	-8.60291
▁does	-8.6058
▁severa	-8.61195
▁mccain	-8.61251
us	-8.61343
▁199	-8.61392
▁real	-8.61407
7	-8.61856
▁source	-8.61883
land	-8.6193
ation	-8.62007
▁central	-8.62036
ic	-8.62224
ng	-8.62253
▁park	-8.62336
▁try	-8.62389
▁these	-8.62483
▁along	-8.6261
▁cut	-8.6275
▁control	-8.62913
head	-8.63209
▁video	-8.63439
gan	-8.63591
▁march	-8.63717
ednes	-8.64
one	-8.64082
▁bomb	-8.6418
▁miles	-8.64878
▁level	-8.64883
▁big	-8.64982
▁thousand	-8.65297
▁far	-8.65333
▁officer	-8.65682
each	-8.65685
▁best	-8.65691
▁wound	-8.65761
▁agreement	-8.65893
▁young	-8.66003
▁rule	-8.66098
▁operation	-8.66152
▁french	-8.66304
▁seven	-8.66342
▁trade	-8.66426
▁give	-8.6671
▁small	-8.6674
▁12	-8.66887
▁current	-8.6708
▁bill	-8.67088
▁star	-8.67345
▁israel	-8.67469
uch	-8.67593
▁conference	-8.6763
▁become	-8.67811
▁israeli	-8.67971
▁ap	-8.67975
yang	-8.68006
▁keep	-8.68331
▁strong	-8.68677
▁southern	-8.68747
▁hope	-8.69136
▁term	-8.69296
▁confirm	-8.69441
istan	-8.69497
▁increase	-8.69515
▁fund	-8.69592
▁announce	-8.69623
▁station	-8.69743
▁food	-8.69876
3	-8.70153
▁travel	-8.70159
▁40	-8.70528
▁barack	-8.70699
▁possibl	-8.70759
▁attempt	-8.71483
▁reach	-8.7202
▁great	-8.72052
▁add	-8.72158
▁web	-8.72417
▁h	-8.72891
▁consider	-8.72898
ose	-8.72926
▁injur	-8.72928
known	-8.73055
▁gas	-8.73186
▁european	-8.73373
▁russia	-8.73386
▁live	-8.73425
▁line	-8.73532
▁post	-8.73648
▁border	-8.7371
taken	-8.73755
▁global	-8.74057
▁25	-8.75025
coming	-8.75067
▁woman	-8.7514
▁safe	-8.75236
te	-8.75928
▁9	-8.76101
▁person	-8.76217
▁east	-8.7622
▁article	-8.76612
▁committee	-8.76945
▁northern	-8.77035
▁condition	-8.77233
▁union	-8.77407
▁offer	-8.7747
▁town	-8.77545
▁internet	-8.77746
▁include	-8.77891
▁cause	-8.77959
▁full	-8.78093
▁led	-8.78211
▁qa	-8.78351
▁investigation	-8.788
formation	-8.78875
▁ye	-8.78883
um	-8.79613
▁action	-8.79643
▁federal	-8.80045
away	-8.80302
▁california	-8.80414
▁director	-8.80699
▁sen	-8.80911
▁airport	-8.81122
▁hill	-8.8145
▁total	-8.81903
▁aid	-8.81958
▁here	-8.81993
4	-8.82053
▁victim	-8.82072
▁peace	-8.82099
▁alleged	-8.82099
▁unti	-8.82197
▁hundred	-8.82496
▁chin	-8.82565
▁outside	-8.82632
▁grow	-8.82685
▁join	-8.82812
▁pyong	-8.82868
▁emergenc	-8.83151
▁target	-8.83541
▁18	-8.83707
▁immediate	-8.83772
▁republican	-8.83835
▁comment	-8.83895
▁d	-8.84152
▁lea	-8.84421
▁island	-8.84588
g	-8.8461
▁congress	-8.84636
▁never	-8.85053
▁research	-8.85353
▁might	-8.85374
▁cris	-8.85623
▁violen	-8.8586
▁anti	-8.85937
taking	-8.8628
▁working	-8.86347
▁reporter	-8.86384
▁went	-8.86408
▁2006	-8.86526
go	-8.86526
across	-8.86561
▁talk	-8.86564
▁500	-8.8665
▁spokes	-8.86726
▁com	-8.86887
▁girl	-8.87123
▁cost	-8.87263
▁watch	-8.87554
▁member	-8.87597
▁interview	-8.87678
▁must	-8.87691
▁little	-8.87782
▁france	-8.87851
▁22	-8.87937
▁fall	-8.88004
▁game	-8.88193
▁stock	-8.88521
▁olympic	-8.88619
▁ban	-8.88727
▁16	-8.8888
▁organization	-8.88887
▁key	-8.88894
▁senior	-8.89092
▁agree	-8.89534
▁prosecutor	-8.89583
▁shot	-8.89717
▁rate	-8.89727
▁provide	-8.89749
▁g	-8.89844
▁stop	-8.90114
▁got	-8.90521
▁find	-8.90524
▁energ	-8.90579
▁newspaper	-8.90796
▁hold	-8.90858
▁brita	-8.90935
▁e	-8.91251
▁study	-8.91433
cy	-8.91553
▁side	-8.91555
▁civilian	-8.91761
▁body	-8.9216
▁sea	-8.92548
▁sept	-8.92569
▁west	-8.92591
▁race	-8.92777
▁victor	-8.92881
▁14	-8.93019
▁june	-8.93055
▁council	-8.93211
▁previous	-8.93222
▁russian	-8.93383
ether	-8.93439
▁hyun	-8.93446
▁suicide	-8.93501
▁whe	-8.93567
▁child	-8.93637
▁share	-8.93707
▁jan	-8.9404
▁further	-8.94467
or	-8.94592
▁england	-8.94718
▁ma	-8.94857
as	-8.94899
▁13	-8.95125
thing	-8.9534
▁toward	-8.95342
▁speak	-8.95406
▁future	-8.95535
▁coast	-8.95615
▁plane	-8.9606
▁ve	-8.96086
▁event	-8.96273
▁hard	-8.96352
▁mak	-8.96722
▁search	-8.9676
▁gaza	-8.96776
▁weekend	-8.9678
▁dec	-8.96809
▁due	-8.97129
▁meet	-8.97248
▁short	-8.97266
▁storm	-8.97458
▁damage	-8.97476
▁heart	-8.97492
woman	-8.97493
▁george	-8.9754
▁america	-8.97568
9	-8.97608
age	-8.97761
▁couple	-8.97832
▁list	-8.9787
▁movie	-8.97932
▁carry	-8.97976
▁policy	-8.9811
▁ruling	-8.98544
▁scientist	-8.98833
▁launch	-8.98853
▁project	-8.98854
▁hostage	-8.98863
▁television	-8.99099
▁process	-8.99225
▁measure	-8.99323
▁judge	-8.99437
▁phone	-8.99694
▁street	-8.99815
▁black	-8.99972
os	-9.00356
▁poll	-9.00367
▁tell	-9.00594
▁medical	-9.00709
▁less	-9.00936
sterda	-9.01071
▁parliament	-9.0114
▁lot	-9.01188
▁pay	-9.018
▁pro	-9.02351
▁interest	-9.02435
▁lawmaker	-9.02567
▁communist	-9.02644
▁hav	-9.03052
▁grand	-9.03228
▁ever	-9.03236
▁break	-9.03425
▁dollar	-9.03435
▁fuel	-9.03442
▁develop	-9.03454
▁0	-9.03865
▁serious	-9.03939
though	-9.04054
▁mother	-9.04281
▁elect	-9.04284
▁24	-9.04317
▁cha	-9.04393
▁father	-9.04527
▁60	-9.04607
▁goal	-9.04763
▁light	-9.05123
▁role	-9.05226
re	-9.05268
▁incident	-9.05563
▁executive	-9.05612
▁sent	-9.05623
▁sex	-9.05825
ough	-9.05916
▁threaten	-9.06124
bc	-9.06142
▁industry	-9.06194
▁missile	-9.06222
▁terrorist	-9.06284
▁tol	-9.06295
▁mission	-9.06479
▁apri	-9.06549
ness	-9.06637
▁strike	-9.06653
hind	-9.06876
▁suggest	-9.07028
▁better	-9.07044
▁hand	-9.07138
k	-9.0729
▁hotel	-9.073
▁threat	-9.0739
▁cell	-9.07439
▁tv	-9.07521
▁prison	-9.07774
▁estimate	-9.07915
▁calle	-9.07938
▁stay	-9.07959
▁direct	-9.0818
▁computer	-9.08223
ous	-9.08279
▁nine	-9.083
▁season	-9.08323
▁tour	-9.08811
▁plann	-9.08836
w	-9.08859
▁vehicle	-9.09028
▁yet	-9.09362
▁inside	-9.09487
▁europe	-9.0949
▁doctor	-9.09567
▁wide	-9.09701
▁red	-9.10204
▁act	-9.10498
▁important	-9.10519
▁thing	-9.10642
▁soon	-9.10652
▁flight	-9.107
▁job	-9.10889
1	-9.11033
▁ground	-9.11036
▁disease	-9.11079
▁wall	-9.11109
▁western	-9.1135
ties	-9.11529
▁amid	-9.11555
▁round	-9.11569
▁expert	-9.12062
▁seek	-9.12158
▁resident	-9.1235
▁asia	-9.12379
▁los	-9.12498
▁chairman	-9.1258
▁despi	-9.12659
▁se	-9.12676
▁age	-9.12701
▁given	-9.12748
▁announc	-9.12824
ber	-9.13062
▁too	-9.13198
▁complete	-9.132
▁bas	-9.13449
▁august	-9.13467
se	-9.13516
▁india	-9.13665
ought	-9.13713
▁involv	-9.13775
▁david	-9.13799
▁o	-9.13868
na	-9.13915
▁r	-9.13966
▁commission	-9.14418
▁17	-9.14466
▁land	-9.14519
▁room	-9.14591
▁front	-9.14663
rice	-9.14721
▁special	-9.14865
▁seat	-9.14908
▁cross	-9.1494
▁detail	-9.15072
▁rebel	-9.1522
▁discuss	-9.15396
▁accept	-9.15453
▁middle	-9.15533
▁voter	-9.15601
▁democrat	-9.15797
wide	-9.15942
▁figure	-9.15958
▁technolog	-9.16063
ting	-9.1622
▁player	-9.16229
▁step	-9.16423
▁different	-9.16643
▁pass	-9.16763
▁crash	-9.16778
son	-9.16794
ester	-9.16873
▁decade	-9.1688
▁private	-9.16898
▁islam	-9.16953
lost	-9.17129
▁receive	-9.17179
▁animal	-9.17235
▁met	-9.1733
▁district	-9.17821
▁evidence	-9.17821
▁mark	-9.17884
▁son	-9.18235
▁ju	-9.18261
▁negotiation	-9.18299
▁australia	-9.18433
▁dozen	-9.18468
▁development	-9.18616
▁boy	-9.18719
▁exchange	-9.18848
▁conduct	-9.1889
▁foot	-9.18921
▁pressure	-9.19077
▁brown	-9.19127
▁church	-9.1917
▁mo	-9.19215
▁fell	-9.19508
▁crew	-9.19797
▁thought	-9.19952
▁form	-9.20223
eda	-9.20259
▁ship	-9.20422
▁leave	-9.20609
ar	-9.20613
▁board	-9.20828
▁message	-9.20909
▁activit	-9.21165
▁serie	-9.21278
▁tax	-9.2128
▁san	-9.21432
▁trip	-9.21432
vez	-9.21567
▁supporter	-9.21645
▁protect	-9.2166
▁heavy	-9.21829
▁lower	-9.21838
▁compani	-9.21934
▁situation	-9.22032
▁mu	-9.22219
▁survey	-9.22371
▁involve	-9.22481
▁passenger	-9.22697
▁lawyer	-9.22718
▁address	-9.22828
▁pakistani	-9.22875
▁push	-9.22917
▁link	-9.23163
▁rival	-9.23323
▁spend	-9.23547
▁fail	-9.23549
▁analyst	-9.2357
▁illegal	-9.23818
▁expect	-9.24115
▁bad	-9.24167
▁word	-9.24386
▁protester	-9.24474
▁though	-9.24474
▁risk	-9.24663
▁send	-9.24825
▁delegate	-9.25091
▁senator	-9.25095
▁summer	-9.25411
▁walk	-9.25458
▁parent	-9.25633
▁hama	-9.25649
▁road	-9.25668
▁happen	-9.25758
▁communit	-9.25859
▁let	-9.26401
▁cover	-9.26405
▁accuse	-9.2641
▁summit	-9.26417
▁request	-9.26419
▁raise	-9.26612
▁l	-9.26628
▁match	-9.27037
▁create	-9.27166
▁begin	-9.27236
▁cup	-9.27245
▁crime	-9.2729
▁wif	-9.27312
▁bus	-9.27389
biggest	-9.27476
▁tokyo	-9.27478
▁bring	-9.27593
▁stage	-9.27644
▁speech	-9.27809
▁crowd	-9.27877
▁product	-9.28018
▁intelligen	-9.28193
▁growth	-9.28224
▁florid	-9.28246
less	-9.28254
▁missing	-9.28294
at	-9.28377
▁low	-9.2841
▁enter	-9.28427
side	-9.28462
▁accus	-9.28493
▁labor	-9.28535
▁position	-9.28597
▁paris	-9.2872
▁daughter	-9.2877
▁discover	-9.28821
▁justice	-9.28964
▁something	-9.29018
▁leban	-9.29104
▁mid	-9.29157
▁coalition	-9.29224
▁attorney	-9.29224
▁host	-9.29402
▁relations	-9.29404
▁online	-9.29442
▁hong	-9.29515
▁league	-9.29569
▁muslim	-9.29573
▁23	-9.29611
▁am	-9.29639
▁associate	-9.29645
▁vice	-9.29688
way	-9.29704
▁en	-9.29708
▁moo	-9.29715
▁consumer	-9.29762
▁prevent	-9.29837
▁eastern	-9.29939
▁quick	-9.30141
▁popular	-9.30231
he	-9.30392
▁games	-9.30446
▁sentence	-9.30526
▁view	-9.30609
▁octo	-9.30633
▁cit	-9.30934
▁account	-9.30934
▁apparent	-9.31019
▁assembly	-9.31093
▁nov	-9.31369
rs	-9.31426
▁affect	-9.31453
▁warning	-9.31549
▁histor	-9.31553
▁decided	-9.31868
ive	-9.31959
▁j	-9.32
▁bombing	-9.32004
▁attend	-9.32015
▁battle	-9.32025
▁rescue	-9.32034
co	-9.32066
▁rise	-9.32186
▁primar	-9.32443
▁network	-9.32473
▁gen	-9.32836
▁sarkozy	-9.32837
▁la	-9.32908
ey	-9.32976
▁chance	-9.33054
▁loss	-9.33085
▁saw	-9.33185
▁21	-9.33367
▁treat	-9.33391
▁feel	-9.33415
▁democrac	-9.33429
▁buy	-9.3376
▁bid	-9.33972
▁nomination	-9.33992
▁love	-9.3415
▁27	-9.34208
▁schedule	-9.34235
▁scene	-9.34418
▁serve	-9.34494
▁inter	-9.34531
so	-9.34648
ance	-9.34681
▁award	-9.34694
▁stand	-9.34729
▁quarter	-9.348
▁polls	-9.3482
▁pull	-9.34828
▁legal	-9.35116
▁drug	-9.35223
▁liv	-9.35558
▁focus	-9.35633
id	-9.3567
▁credit	-9.3578
▁gold	-9.3603
▁friend	-9.36274
ves	-9.363
▁staff	-9.36356
most	-9.36446
▁joint	-9.36505
▁music	-9.36572
▁texas	-9.36619
▁angel	-9.36634
▁jail	-9.36658
▁blast	-9.36832
▁australian	-9.37013
▁asian	-9.37235
▁turkey	-9.37375
ard	-9.37518
▁kind	-9.37731
▁fan	-9.37883
▁blood	-9.37939
z	-9.37999
▁pick	-9.38052
▁letter	-9.38247
▁murder	-9.38303
▁matter	-9.38339
▁pen	-9.38818
▁population	-9.38954
ri	-9.39022
▁seem	-9.39065
▁198	-9.39618
x	-9.39665
by	-9.39734
ton	-9.39762
▁title	-9.39914
▁sales	-9.39924
▁deput	-9.40104
▁river	-9.40293
▁jobs	-9.40308
▁image	-9.40385
▁camp	-9.40426
▁rock	-9.40571
using	-9.40696
▁flood	-9.40703
▁iranian	-9.409
▁paul	-9.4102
▁document	-9.41209
▁radio	-9.41249
▁green	-9.41375
▁embass	-9.41689
▁delay	-9.4187
▁appeal	-9.41997
▁robert	-9.42085
▁ba	-9.42181
▁average	-9.42412
0	-9.42661
▁trial	-9.42807
▁firm	-9.42949
▁store	-9.43111
▁larges	-9.43119
▁similar	-9.43281
▁association	-9.43346
ver	-9.4335
chines	-9.43514
▁reason	-9.43773
mar	-9.43879
▁why	-9.43931
▁airline	-9.44011
whil	-9.44205
▁royal	-9.44226
▁governor	-9.44282
▁lives	-9.44283
▁deep	-9.44288
▁journalist	-9.44312
▁production	-9.44315
▁reject	-9.44391
▁initial	-9.44429
▁recover	-9.44524
▁husband	-9.44544
▁rose	-9.44672
▁debate	-9.44708
▁story	-9.44986
▁book	-9.44991
▁plant	-9.4503
▁doing	-9.45109
once	-9.45176
led	-9.45359
▁sanction	-9.45486
▁fee	-9.45569
▁sell	-9.45655
▁resolution	-9.45802
▁earth	-9.45848
▁shooting	-9.46085
▁fear	-9.46098
▁researcher	-9.46126
▁date	-9.46255
▁investigator	-9.46752
▁poor	-9.47047
▁contain	-9.47079
▁field	-9.4722
▁ra	-9.47347
ways	-9.47368
▁employee	-9.4737
▁effect	-9.47478
▁pound	-9.47557
▁gav	-9.47626
▁express	-9.47652
▁accident	-9.47688
▁care	-9.47811
▁difficult	-9.47916
▁tourist	-9.47943
▁gain	-9.48397
ch	-9.48475
▁300	-9.48853
▁africa	-9.48873
▁wa	-9.48943
▁done	-9.49008
raf	-9.49072
▁ceremon	-9.49099
▁hear	-9.49101
▁pa	-9.49137
▁runn	-9.49427
▁facilit	-9.49505
▁club	-9.49723
▁kong	-9.50027
▁idea	-9.5017
▁neighbor	-9.50175
truck	-9.50266
▁wait	-9.50536
▁cars	-9.50735
ted	-9.50762
▁commander	-9.509
▁fe	-9.50961
▁moment	-9.51055
▁transport	-9.51135
it	-9.5119
▁african	-9.51295
▁afternoon	-9.51406
▁unit	-9.51693
ll	-9.51702
▁michael	-9.51878
▁centur	-9.51906
▁beat	-9.51993
▁prince	-9.52032
▁dow	-9.52182
▁ambassador	-9.52296
▁annual	-9.52327
▁certain	-9.52327
▁movement	-9.52365
▁sever	-9.52491
▁reform	-9.52737
▁ha	-9.52886
ship	-9.52921
▁manager	-9.52996
▁muc	-9.5305
▁paper	-9.53065
▁increasing	-9.53079
▁dispute	-9.53203
▁investment	-9.53258
▁education	-9.53278
▁kilometer	-9.53284
▁senat	-9.53457
▁limit	-9.53712
▁sexual	-9.53794
▁approv	-9.53919
wood	-9.54002
▁personal	-9.5407
▁cat	-9.54153
▁brother	-9.54183
the	-9.5431
▁bodie	-9.54346
▁holding	-9.54354
▁broke	-9.54427
▁block	-9.54525
▁cabinet	-9.54551
and	-9.54741
hua	-9.54743
▁contract	-9.5475
▁describe	-9.54882
ra	-9.54901
came	-9.54902
▁period	-9.54982
▁affair	-9.55009
▁opening	-9.55014
▁potential	-9.55014
▁contact	-9.55037
▁fact	-9.55055
▁pe	-9.55081
▁rally	-9.55087
▁patient	-9.55273
▁tog	-9.55466
▁urg	-9.55556
▁wor	-9.55566
▁marine	-9.55583
▁dr	-9.55819
▁citi	-9.55976
▁draw	-9.56048
▁drive	-9.562
▁80	-9.56264
▁29	-9.56274
▁english	-9.56865
▁treatment	-9.5703
▁saudi	-9.5734
ful	-9.57352
▁announcement	-9.57411
▁remark	-9.57592
▁present	-9.57626
stan	-9.57641
▁majorit	-9.57662
▁islami	-9.57677
▁broadcast	-9.57825
▁70	-9.5805
▁dail	-9.5806
▁huge	-9.58066
▁track	-9.58203
▁indian	-9.58285
▁collapse	-9.58328
▁progress	-9.5835
▁burn	-9.58464
▁village	-9.58547
▁mon	-9.58551
giving	-9.5873
▁ki	-9.58747
▁taiwan	-9.58754
▁challenge	-9.58879
▁rest	-9.58895
▁secret	-9.58897
▁course	-9.58957
▁suspend	-9.59006
za	-9.59131
▁chi	-9.59187
▁leav	-9.59207
▁check	-9.59212
▁material	-9.59237
▁interior	-9.59266
▁learn	-9.59622
▁square	-9.59747
▁spoke	-9.5977
▁civil	-9.59789
▁access	-9.59811
▁streets	-9.59987
ne	-9.60128
▁hearing	-9.60168
▁conservative	-9.60208
▁arrive	-9.60424
▁raid	-9.60515
!	-9.60558
▁independent	-9.60672
time	-9.60978
▁single	-9.60981
▁26	-9.61141
night	-9.61263
▁critical	-9.61312
▁common	-9.61616
▁index	-9.61673
▁trad	-9.61769
▁ll	-9.61784
▁sure	-9.61849
king	-9.62068
▁response	-9.62233
▁gett	-9.62286
▁nothing	-9.62366
▁releas	-9.62366
▁35	-9.62453
▁professor	-9.62655
▁deliver	-9.62695
▁session	-9.62727
▁warn	-9.62802
▁reduce	-9.62849
▁blame	-9.62966
▁separate	-9.63009
▁size	-9.63226
▁thai	-9.63292
▁prisoner	-9.63351
▁institute	-9.63362
▁le	-9.63363
▁sa	-9.63473
stead	-9.6353
nato	-9.63599
▁explosion	-9.63656
▁terroris	-9.63683
▁lift	-9.63719
▁investor	-9.63722
▁blue	-9.63771
▁feb	-9.64036
▁31	-9.64216
▁jul	-9.64238
▁require	-9.64283
▁availab	-9.64529
▁associat	-9.64533
▁rain	-9.64548
gnp	-9.64608
insula	-9.64622
▁forward	-9.64623
▁female	-9.64651
▁allegation	-9.64692
▁insurgent	-9.64805
▁weather	-9.64855
▁relationship	-9.65176
putin	-9.6521
▁mov	-9.65353
▁sun	-9.65418
rought	-9.65526
▁italian	-9.65691
▁finish	-9.65721
▁driv	-9.65755
ung	-9.65879
▁musha	-9.65949
sh	-9.65972
▁na	-9.66158
▁shiite	-9.66184
▁helicopter	-9.66189
▁non	-9.66215
▁data	-9.6625
▁winning	-9.66257
▁400	-9.66328
▁king	-9.66465
▁promise	-9.66479
2001	-9.66624
ler	-9.66627
▁citizens	-9.66636
▁diplomatic	-9.66752
▁mexic	-9.66864
▁mayor	-9.66984
▁success	-9.67002
▁avoid	-9.67129
▁natural	-9.67206
▁code	-9.67259
▁actor	-9.67309
rising	-9.67381
▁wh	-9.67427
▁90	-9.67597
▁denie	-9.67653
▁destroy	-9.6771
6	-9.67732
▁smith	-9.67737
▁virginia	-9.6776
▁ja	-9.67771
▁famili	-9.68111
▁tri	-9.68134
▁spread	-9.68288
▁satellite	-9.68293
▁chica	-9.68433
▁carrie	-9.68472
▁factor	-9.68496
▁giant	-9.68805
▁snow	-9.68822
▁responsibilit	-9.6889
▁experience	-9.6898
▁lack	-9.69133
▁friends	-9.6919
aid	-9.69311
often	-9.69421
▁decline	-9.69428
▁finding	-9.69565
▁social	-9.69695
▁convict	-9.69771
▁range	-9.69854
▁xin	-9.69941
el	-9.70086
▁nominee	-9.70384
▁criminal	-9.70389
▁kid	-9.70669
▁relative	-9.7067
▁read	-9.70761
▁probabl	-9.70919
▁earthquake	-9.70926
▁themsel	-9.70927
▁rare	-9.70983
▁export	-9.71024
▁actual	-9.71037
▁vot	-9.71075
construction	-9.7108
harry	-9.71267
▁mass	-9.71272
up	-9.71344
body	-9.71368
▁produce	-9.71484
▁aim	-9.71505
▁worth	-9.71791
▁boat	-9.71901
▁caus	-9.72186
▁amount	-9.72275
ked	-9.72435
▁command	-9.72476
off	-9.72502
▁resign	-9.72538
bi	-9.72872
▁additional	-9.72948
▁supreme	-9.73109
▁28	-9.7312
▁college	-9.73123
▁barrel	-9.73129
▁science	-9.73146
▁winner	-9.73211
▁mail	-9.73231
▁guard	-9.73335
▁sold	-9.73347
▁camera	-9.73406
▁visitor	-9.73431
▁warm	-9.73461
▁45	-9.73568
▁societ	-9.73656
▁born	-9.73936
▁refugee	-9.741
▁beg	-9.74189
▁shut	-9.74272
▁fly	-9.74454
▁prize	-9.74463
▁moon	-9.74475
▁toll	-9.74565
▁eu	-9.74732
▁attention	-9.74778
▁da	-9.74801
▁chung	-9.74847
▁jones	-9.7485
▁massive	-9.74889
ries	-9.75009
▁class	-9.7503
▁zone	-9.75097
▁nasa	-9.75124
▁industrial	-9.75149
ru	-9.75179
▁extend	-9.75188
▁continu	-9.75241
▁honor	-9.75243
▁review	-9.7525
▁condemn	-9.75328
▁dropp	-9.75337
▁peaceful	-9.75345
b	-9.75374
▁particular	-9.75393
▁build	-9.75433
▁truck	-9.75523
▁steps	-9.75667
▁slow	-9.75763
men	-9.75785
▁bomber	-9.75824
▁reactor	-9.7591
▁abuse	-9.75926
▁demonstration	-9.75969
▁urge	-9.7609
▁schools	-9.76092
▁significant	-9.76134
▁ran	-9.76332
ter	-9.76399
▁design	-9.76472
▁super	-9.76486
▁banks	-9.76489
▁resume	-9.76541
▁activist	-9.76703
▁normal	-9.76707
▁arab	-9.76866
ley	-9.76896
▁speed	-9.77005
▁carolina	-9.77048
▁pledge	-9.77104
special	-9.7726
▁evening	-9.77271
▁wear	-9.77369
▁original	-9.77536
▁ready	-9.77542
▁uri	-9.77597
▁investigat	-9.77601
▁maintain	-9.77615
▁receiv	-9.77625
▁aircraft	-9.77661
▁defeat	-9.77669
▁meter	-9.77701
▁mountain	-9.77722
▁rais	-9.77794
where	-9.77973
ither	-9.78016
▁pre	-9.78199
▁cancer	-9.78237
▁partie	-9.78242
▁standard	-9.78324
▁indonesia	-9.78418
dnes	-9.78507
kept	-9.78592
red	-9.78754
▁envoy	-9.7876
▁port	-9.7877
▁represent	-9.78784
▁score	-9.78796
▁color	-9.78802
▁model	-9.7885
▁admitted	-9.78857
▁value	-9.78862
▁terror	-9.78936
▁card	-9.78964
▁driver	-9.79312
▁engineer	-9.79325
▁usual	-9.79428
ware	-9.7966
▁responsibl	-9.79713
▁voice	-9.79902
▁contest	-9.79937
▁monitor	-9.79939
▁marriage	-9.79947
▁regard	-9.7995
▁prosecution	-9.79951
▁suffer	-9.80053
nations	-9.80189
▁nav	-9.80191
ritten	-9.80204
▁quit	-9.80247
▁pennsylvania	-9.80535
▁hu	-9.80558
▁arriv	-9.80628
▁ex	-9.80664
▁operat	-9.80701
▁independen	-9.80828
▁whom	-9.80928
▁su	-9.81021
▁dae	-9.81067
▁ohio	-9.81115
▁prompt	-9.81158
bru	-9.81357
▁establish	-9.81436
▁hands	-9.81455
ia	-9.81499
▁approach	-9.81556
ney	-9.8177
▁brain	-9.81852
▁opportunit	-9.82031
▁sharp	-9.82073
▁guilt	-9.82132
▁boost	-9.82168
ea	-9.82203
hutto	-9.82311
▁alliance	-9.82338
▁beginning	-9.8236
▁hurt	-9.82383
▁territor	-9.82435
▁baby	-9.82522
▁821	-9.82614
▁mad	-9.82682
▁bridge	-9.82825
▁custod	-9.82872
▁uk	-9.82944
▁representative	-9.82945
▁explosive	-9.82946
▁abbas	-9.83114
▁drop	-9.83275
▁tibet	-9.83398
▁mi	-9.83486
▁sale	-9.83512
▁scandal	-9.83542
▁wi	-9.83552
▁performance	-9.83555
▁device	-9.83559
▁customer	-9.83608
▁drink	-9.83757
▁finance	-9.8406
▁holiday	-9.84159
▁criticism	-9.84163
▁politician	-9.84181
▁museum	-9.84203
un	-9.84295
▁produc	-9.84423
▁constitution	-9.84458
▁discussion	-9.84635
be	-9.8467
▁impact	-9.84772
▁mosque	-9.84791
▁bear	-9.8492
▁traffic	-9.84986
▁management	-9.85137
▁benefit	-9.85471
▁severe	-9.85507
▁fill	-9.8554
▁necessar	-9.85556
▁georgia	-9.85638
▁critic	-9.85889
▁peter	-9.85988
▁kar	-9.86022
▁cho	-9.86075
▁ne	-9.86095
rying	-9.86157
▁bit	-9.86177
ni	-9.86342
▁save	-9.86484
low	-9.86582
▁song	-9.86602
▁abo	-9.86696
▁bin	-9.8681
▁st	-9.86843
▁respond	-9.87211
▁intend	-9.8723
▁double	-9.87306
▁communication	-9.8741
▁refuse	-9.87503
▁sides	-9.87533
▁fac	-9.87544
▁tension	-9.87765
▁relat	-9.87855
▁fighter	-9.87963
▁negotiator	-9.87964
▁combat	-9.88004
▁ko	-9.88155
▁career	-9.88199
mber	-9.8823
▁ga	-9.88236
▁republic	-9.88395
▁environment	-9.88444
▁failure	-9.88561
▁declare	-9.88698
▁screen	-9.88702
▁gun	-9.88711
▁reserve	-9.88847
▁assault	-9.89204
▁fifth	-9.89216
▁regime	-9.89367
▁environmental	-9.89557
▁forest	-9.89565
▁afghani	-9.89708
▁provid	-9.89828
▁opinion	-9.89852
▁conflict	-9.89875
▁insist	-9.89993
▁rich	-9.90006
▁ho	-9.90015
▁corp	-9.90035
rote	-9.90084
▁diplomat	-9.90109
▁climat	-9.90223
▁commercial	-9.90326
▁import	-9.90358
▁bak	-9.90411
▁regional	-9.90475
▁domestic	-9.9052
▁brief	-9.90644
ak	-9.90657
▁owner	-9.90847
▁min	-9.90864
▁defend	-9.90929
▁teacher	-9.91067
▁buil	-9.91221
▁32	-9.91239
▁repeated	-9.91407
▁quot	-9.91512
▁bri	-9.9156
▁miss	-9.9156
▁replace	-9.91577
▁electronic	-9.91831
▁panel	-9.91834
▁tom	-9.91864
▁fair	-9.91866
▁route	-9.91932
▁package	-9.91969
ois	-9.92002
▁surprise	-9.92326
▁soft	-9.92416
▁difference	-9.92508
▁disaster	-9.92511
▁herald	-9.92514
▁myung	-9.92529
tion	-9.92593
▁du	-9.92644
▁ice	-9.92668
▁beach	-9.92843
▁fine	-9.92888
aying	-9.92994
▁ca	-9.93001
▁traditional	-9.93029
▁jump	-9.93148
▁wave	-9.93168
▁restaurant	-9.93169
ory	-9.9319
▁recall	-9.93221
▁parliamentar	-9.93343
▁quake	-9.9335
▁arms	-9.9336
▁fresh	-9.93589
▁remove	-9.93761
▁shuttle	-9.93853
▁correspondent	-9.93872
▁proposal	-9.93888
▁fish	-9.93913
▁violent	-9.94021
▁improve	-9.94493
▁illin	-9.94511
▁language	-9.94521
▁astronaut	-9.94522
▁reveal	-9.94524
▁queen	-9.94575
da	-9.94633
▁answer	-9.94681
▁addition	-9.94724
▁arreste	-9.94733
board	-9.94753
▁ben	-9.94786
▁flights	-9.94811
▁tha	-9.94909
▁cash	-9.9502
▁howe	-9.95106
▁sunni	-9.95161
▁37	-9.95163
▁po	-9.95187
▁trigger	-9.95205
▁indicate	-9.95444
▁apple	-9.95472
▁complex	-9.95569
▁lo	-9.95573
▁protection	-9.95639
▁penalt	-9.9578
ays	-9.95793
▁almo	-9.95869
▁shar	-9.95891
▁possibilit	-9.95899
▁powerful	-9.95923
▁james	-9.95959
▁mobile	-9.95994
▁withdraw	-9.96093
▁makes	-9.96294
▁150	-9.96326
▁agre	-9.96348
▁spot	-9.96416
her	-9.96421
▁mine	-9.96544
▁forecast	-9.96612
▁resolve	-9.96666
▁pacifi	-9.96667
▁holly	-9.96786
▁agent	-9.96793
▁trouble	-9.96815
▁sound	-9.96855
▁football	-9.96855
▁option	-9.97003
▁electric	-9.97023
▁ball	-9.9712
▁specific	-9.97147
▁surger	-9.97176
▁advance	-9.97287
▁headquarter	-9.97294
▁yes	-9.97365
▁sleep	-9.97441
▁author	-9.97561
▁canno	-9.97609
▁colombia	-9.97642
▁sh	-9.97697
▁jong	-9.97853
▁showing	-9.9788
▁gates	-9.97913
▁winds	-9.97947
▁neighborhood	-9.98
▁apartment	-9.98063
▁winter	-9.98087
▁francis	-9.98166
▁li	-9.98218
▁fears	-9.98273
▁understand	-9.98318
ster	-9.98425
▁coach	-9.98426
abe	-9.98468
▁creat	-9.98493
▁rocket	-9.98553
▁premier	-9.98565
▁vow	-9.9868
▁dangerous	-9.98711
▁mind	-9.98723
▁welcome	-9.98781
bout	-9.98928
▁jer	-9.99069
▁tree	-9.99144
▁formal	-9.99296
▁magazine	-9.99415
▁chang	-9.99504
▁supply	-9.99565
ts	-9.99708
ism	-10.0003
▁wrong	-10.0014
▁page	-10.0018
▁pilot	-10.0025
▁adviser	-10.0034
▁piece	-10.0039
▁profit	-10.004
▁fast	-10.005
▁telephone	-10.0052
▁brazil	-10.0085
▁mug	-10.0086
▁individual	-10.0086
▁aide	-10.0088
▁confidence	-10.0091
▁die	-10.0093
▁felt	-10.0094
▁appearance	-10.0101
▁600	-10.0105
▁stone	-10.0113
▁gunm	-10.013
▁ii	-10.0143
▁loan	-10.0144
town	-10.0144
▁degree	-10.0159
▁positive	-10.0159
▁richard	-10.0171
▁surge	-10.0179
▁adult	-10.0184
▁identifie	-10.0197
ay	-10.0221
▁fa	-10.0226
▁crude	-10.0232
▁hurricane	-10.0233
▁respect	-10.0233
▁publish	-10.0243
▁planet	-10.0247
▁else	-10.0257
▁bar	-10.0259
▁maker	-10.027
▁capture	-10.0272
▁stress	-10.0275
ur	-10.0298
▁christmas	-10.0307
▁anniversar	-10.0307
▁file	-10.0329
den	-10.0353
▁cold	-10.0354
▁style	-10.0369
▁declar	-10.0376
▁birth	-10.0377
▁deadline	-10.0387
▁800	-10.0389
▁rape	-10.0393
han	-10.0399
▁riot	-10.041
▁flu	-10.0437
▁del	-10.0464
▁nor	-10.0483
▁struggl	-10.0484
▁drugs	-10.0499
▁constitutional	-10.0501
▁choice	-10.0516
▁hi	-10.052
▁exist	-10.0524
▁straight	-10.0532
▁behavior	-10.0543
▁controversial	-10.0545
▁tibetan	-10.0549
▁referr	-10.0553
▁abu	-10.0553
ending	-10.0564
▁govern	-10.0568
▁van	-10.0569
▁content	-10.0583
▁blow	-10.0593
▁cancel	-10.0607
▁successful	-10.0613
▁resort	-10.0614
▁sometime	-10.0622
▁bang	-10.0625
▁rank	-10.0637
▁famous	-10.065
▁virus	-10.0652
▁surrounding	-10.0654
▁pack	-10.0673
ma	-10.068
▁floor	-10.0692
▁touch	-10.0692
▁perform	-10.0694
▁supplie	-10.0697
▁197	-10.0699
▁witnesse	-10.07
aught	-10.0707
▁location	-10.0708
▁tough	-10.0723
▁exile	-10.0726
▁solution	-10.0728
▁true	-10.0742
tish	-10.0746
▁highway	-10.0749
▁spa	-10.076
▁influence	-10.0761
nce	-10.0762
▁36	-10.0771
▁shin	-10.0778
▁feature	-10.0779
▁describ	-10.0784
aking	-10.0789
▁approve	-10.0789
▁mount	-10.0792
▁transfer	-10.0794
▁male	-10.0796
▁row	-10.08
▁highe	-10.0835
▁ky	-10.0839
▁hair	-10.0839
▁abandon	-10.0841
▁refus	-10.0841
▁singer	-10.0855
▁burma	-10.0867
▁predict	-10.0868
▁asp	-10.0884
▁75	-10.0888
<	-10.0898
▁spark	-10.0905
▁champions	-10.0905
ence	-10.0907
ro	-10.0913
▁happy	-10.0917
▁entire	-10.092
▁mosco	-10.092
▁sudan	-10.0921
▁detain	-10.0933
▁christian	-10.0937
▁expand	-10.0938
ding	-10.095
▁regular	-10.0951
▁auto	-10.0955
▁item	-10.0955
▁reut	-10.0966
▁gather	-10.0974
▁escape	-10.098
▁cent	-10.0986
ilbo	-10.0993
▁yo	-10.0993
▁identifi	-10.0995
▁treasur	-10.1
▁competition	-10.1
▁palace	-10.1001
▁ticket	-10.1002
▁display	-10.1002
▁resignation	-10.1003
▁adopt	-10.1005
▁clean	-10.1013
▁determine	-10.1013
▁laws	-10.1035
▁extreme	-10.105
▁duri	-10.1065
▁tech	-10.107
la	-10.107
▁vessel	-10.1078
▁christophe	-10.1079
▁freedom	-10.1079
▁division	-10.108
▁turk	-10.108
▁twic	-10.1083
▁malik	-10.1105
▁bay	-10.1135
▁il	-10.1139
il	-10.1141
▁ocean	-10.1143
▁recession	-10.116
▁festival	-10.116
ten	-10.1167
▁likel	-10.1168
ol	-10.1169
▁dream	-10.1172
▁williams	-10.1181
▁wild	-10.1183
me	-10.1185
▁fo	-10.1198
▁hop	-10.1199
sharra	-10.1207
▁channel	-10.1241
▁politic	-10.1248
▁hot	-10.1255
▁assistant	-10.126
back	-10.128
▁northeast	-10.1282
▁net	-10.1282
10	-10.1284
▁throw	-10.1285
▁propert	-10.1302
▁di	-10.1304
▁zimbabwe	-10.1306
▁type	-10.1308
▁forc	-10.132
▁hussein	-10.1322
▁survivor	-10.1332
adding	-10.1348
▁ar	-10.1353
▁concert	-10.136
▁flow	-10.1372
▁secure	-10.1374
▁kidnapping	-10.1375
tan	-10.138
▁william	-10.1396
▁ital	-10.1397
▁smoke	-10.1399
▁oscar	-10.1406
▁sp	-10.141
new	-10.1443
▁producer	-10.1447
▁art	-10.1447
▁jet	-10.1466
▁active	-10.1467
▁scale	-10.1478
▁33	-10.1486
overall	-10.1487
▁crackdown	-10.1489
▁euro	-10.1494
▁legislati	-10.1497
▁impose	-10.1497
▁dog	-10.1507
▁charles	-10.1511
▁mil	-10.1519
▁doubt	-10.152
▁heavi	-10.1523
▁beyon	-10.1533
▁door	-10.1533
▁qualit	-10.154
▁steve	-10.1541
▁effective	-10.1552
▁signal	-10.1561
▁gay	-10.157
▁kosov	-10.1572
▁kick	-10.1576
▁withdrawal	-10.1581
uar	-10.1586
▁currenc	-10.1598
▁kurdis	-10.1602
pain	-10.1603
▁heat	-10.1606
▁syria	-10.1616
▁nam	-10.1626
▁singapore	-10.1634
▁clashe	-10.1648
eastern	-10.1653
▁ronald	-10.1657
▁tank	-10.1659
▁demonstrator	-10.1665
nese	-10.1676
▁lone	-10.1677
▁shop	-10.1679
▁abe	-10.1681
▁photograph	-10.1683
▁explain	-10.1683
▁38	-10.1688
▁dis	-10.1691
▁enem	-10.17
▁dark	-10.1703
ily	-10.171
▁practice	-10.1711
▁reflect	-10.1718
ie	-10.1721
▁zoo	-10.1722
▁bag	-10.1731
▁stem	-10.1733
▁spen	-10.1741
▁soviet	-10.1742
▁condoleez	-10.1743
▁tournament	-10.1743
▁eventual	-10.1744
▁suffering	-10.1746
▁commitment	-10.1751
▁700	-10.1756
zai	-10.1769
▁42	-10.1774
▁shari	-10.1794
ta	-10.1797
▁box	-10.1799
▁adde	-10.1801
▁setting	-10.1801
▁pope	-10.1808
▁48	-10.1815
▁witness	-10.1815
▁mary	-10.1817
hi	-10.1825
▁opponent	-10.1829
▁hall	-10.1829
nel	-10.1831
▁complain	-10.1837
▁works	-10.1839
well	-10.1846
▁canad	-10.1866
spite	-10.1888
▁farmer	-10.1889
▁sports	-10.1901
atomic	-10.1903
▁culture	-10.1905
▁quote	-10.1907
▁flame	-10.1912
▁probe	-10.1918
ian	-10.1926
▁economist	-10.1926
▁serving	-10.1928
▁jew	-10.1934
▁injure	-10.1936
▁militia	-10.1953
▁pictures	-10.1957
ahoo	-10.1986
▁various	-10.2003
▁implement	-10.2004
▁portug	-10.2004
▁declaration	-10.2007
▁reaction	-10.2014
▁trust	-10.2021
▁whole	-10.2026
▁spring	-10.2029
▁criticiz	-10.2031
▁foundation	-10.2041
ntagon	-10.2043
▁takes	-10.2047
▁hole	-10.2054
▁guy	-10.2067
▁shift	-10.207
▁egypt	-10.2091
▁religious	-10.2099
ny	-10.2105
▁violation	-10.2114
▁losing	-10.2127
▁leg	-10.2134
ling	-10.2139
▁halt	-10.2146
▁sense	-10.2155
▁historic	-10.2156
▁criticize	-10.2159
▁alert	-10.2164
▁cap	-10.2177
▁actress	-10.2181
▁ali	-10.2185
▁sector	-10.2187
▁deploy	-10.2189
▁sub	-10.2196
▁eye	-10.2199
▁trail	-10.2201
▁connection	-10.2202
▁asset	-10.2202
▁journal	-10.2209
▁version	-10.2213
▁waters	-10.2217
▁self	-10.2225
▁prepared	-10.2226
▁planne	-10.2229
▁determined	-10.2233
▁boycott	-10.224
▁roll	-10.2259
▁speci	-10.2268
▁unveil	-10.2271
▁audience	-10.2271
▁las	-10.2272
ried	-10.2291
▁martin	-10.2293
htt	-10.2296
▁income	-10.2328
▁ending	-10.2328
▁philippine	-10.2336
▁arabia	-10.2336
▁suit	-10.2354
▁partner	-10.2354
▁academ	-10.2357
ium	-10.2359
▁chen	-10.2361
▁beckham	-10.2362
▁temperature	-10.2363
▁slight	-10.2364
▁rapid	-10.2364
▁basic	-10.237
▁danger	-10.2371
ball	-10.2375
▁ru	-10.2384
▁scor	-10.2402
▁feder	-10.2404
▁52	-10.2405
▁southeast	-10.2409
▁tens	-10.2412
▁prove	-10.2415
imed	-10.2421
ification	-10.244
▁el	-10.2446
ine	-10.2446
▁enjoy	-10.2453
▁fraud	-10.2454
▁dialogue	-10.2454
▁simpson	-10.2454
▁championship	-10.2456
▁counter	-10.2461
ble	-10.2463
▁orbit	-10.2499
▁picture	-10.2503
▁minor	-10.2505
▁extra	-10.2505
▁44	-10.2508
▁cast	-10.2514
▁liver	-10.2518
▁250	-10.2526
▁deni	-10.2528
▁draft	-10.2532
▁teen	-10.2535
▁1980	-10.2547
▁budget	-10.2548
▁unlike	-10.2548
▁1990	-10.2549
junta	-10.2549
▁alcohol	-10.2551
▁broken	-10.2566
▁torch	-10.2569
▁51	-10.257
olmer	-10.2576
▁register	-10.2585
▁via	-10.259
ham	-10.259
▁schedul	-10.2596
▁virtual	-10.2597
▁34	-10.261
▁tear	-10.2633
▁catholic	-10.264
▁delegation	-10.2644
▁favorite	-10.2652
▁fled	-10.2663
diana	-10.2679
▁kenya	-10.2682
▁vega	-10.2684
▁seed	-10.2689
▁tony	-10.2696
▁speaker	-10.2702
▁bo	-10.2704
▁mile	-10.2707
▁sadr	-10.271
▁standing	-10.2717
▁weight	-10.2721
▁survive	-10.2728
▁plot	-10.2733
▁favor	-10.2733
▁stadium	-10.2734
▁fellow	-10.2743
▁ranking	-10.2744
any	-10.2746
▁whale	-10.2749
▁cruise	-10.275
▁artist	-10.2762
▁rush	-10.2763
▁nicola	-10.2764
▁196	-10.2768
▁generation	-10.2773
▁wonder	-10.2784
ki	-10.2788
▁frank	-10.2789
▁jose	-10.2791
▁publishe	-10.2794
▁ka	-10.2796
▁shock	-10.2805
▁object	-10.2806
▁dress	-10.2811
▁compan	-10.2826
▁vietnam	-10.2829
▁roads	-10.2837
▁exact	-10.2838
▁yang	-10.2842
▁multi	-10.285
▁medicine	-10.2854
▁nove	-10.2855
▁apolog	-10.2856
▁organizer	-10.2857
▁wind	-10.2882
▁casualt	-10.2883
▁55	-10.2884
▁michi	-10.2893
▁stake	-10.2895
▁pain	-10.2901
▁fix	-10.291
▁cuba	-10.2912
▁ways	-10.2914
▁character	-10.2917
▁complaint	-10.2925
▁trillion	-10.2926
▁edward	-10.2928
▁urani	-10.294
▁rallie	-10.2947
▁photos	-10.2964
▁convention	-10.2979
ner	-10.2984
▁climb	-10.2994
▁sky	-10.2994
▁table	-10.3001
▁tape	-10.3016
▁obtain	-10.3022
▁remote	-10.3022
▁ethnic	-10.303
▁machine	-10.3038
▁promote	-10.3041
di	-10.3041
▁edge	-10.3049
cient	-10.3081
live	-10.3084
▁thanks	-10.3093
▁te	-10.3095
▁license	-10.3096
broad	-10.3108
▁decide	-10.3109
▁vi	-10.3114
gone	-10.3117
▁kennedy	-10.3121
ent	-10.3126
▁chair	-10.3129
▁promis	-10.3132
pool	-10.3135
▁regulation	-10.3142
▁gov	-10.3148
▁arizo	-10.3157
▁bu	-10.3171
▁stopp	-10.3175
▁fil	-10.3204
▁detaine	-10.3211
▁saddam	-10.3219
▁purpose	-10.3219
▁unemploy	-10.3221
▁dutch	-10.3221
▁fata	-10.3229
▁hous	-10.3229
▁god	-10.3239
▁mar	-10.3239
▁trapp	-10.3246
▁seize	-10.3265
ning	-10.3268
nuar	-10.3279
▁grant	-10.3291
▁tim	-10.3297
▁pres	-10.3297
▁sister	-10.3299
▁nepal	-10.3302
▁inspector	-10.3329
▁samsun	-10.333
▁surface	-10.3337
ong	-10.3342
▁han	-10.3346
▁narrow	-10.3348
▁physical	-10.3362
▁pair	-10.3366
▁jung	-10.3376
▁wealth	-10.34
▁che	-10.3406
▁equal	-10.341
ville	-10.3412
▁investigate	-10.3417
▁studie	-10.3418
▁mahmoud	-10.342
▁example	-10.342
▁crucial	-10.3421
▁equipment	-10.3421
▁polic	-10.3421
▁bailout	-10.3422
▁offensive	-10.3422
▁subject	-10.3423
▁resource	-10.3428
▁googl	-10.343
▁43	-10.3439
field	-10.3459
▁lose	-10.3462
ntil	-10.3477
▁je	-10.3481
▁globe	-10.3489
nd	-10.3495
▁celebrit	-10.3498
▁handed	-10.3498
▁allie	-10.3511
▁ceo	-10.3512
▁ro	-10.3512
▁magnitude	-10.3523
▁colleague	-10.3523
▁nobel	-10.3524
▁nevada	-10.3524
▁iowa	-10.3533
▁stars	-10.3534
▁speculation	-10.3541
▁entertain	-10.3543
▁traveler	-10.3551
▁santa	-10.3556
pent	-10.3562
▁ahmadi	-10.3563
med	-10.3567
▁dogs	-10.357
ist	-10.3572
▁indicat	-10.3579
▁injuri	-10.3588
▁inc	-10.3595
ring	-10.3596
▁blai	-10.3596
▁gang	-10.3601
▁windows	-10.3607
▁founder	-10.3617
▁exercise	-10.3618
▁outbreak	-10.3628
▁memorial	-10.3628
▁ab	-10.3632
▁perfect	-10.3635
▁anger	-10.3637
▁arrival	-10.364
▁carbon	-10.3641
▁debt	-10.3642
▁champion	-10.3643
▁wake	-10.3647
▁internal	-10.365
▁guest	-10.3658
▁commissioner	-10.3659
▁strateg	-10.3661
▁cb	-10.3678
et	-10.3693
▁patrol	-10.3696
▁foreigner	-10.3704
tory	-10.3707
▁calm	-10.373
▁detention	-10.373
▁agricultur	-10.373
▁jackson	-10.373
▁enrich	-10.3731
▁estate	-10.3737
▁fashion	-10.3738
▁encourage	-10.3742
▁ensure	-10.3743
▁statu	-10.3748
▁strengthen	-10.3752
▁restriction	-10.3756
▁professional	-10.376
▁mike	-10.376
▁meant	-10.3774
▁fi	-10.3774
▁stall	-10.3775
▁ge	-10.3778
▁warne	-10.378
▁relay	-10.3787
▁coup	-10.3792
oft	-10.3794
▁struggle	-10.3796
over	-10.3799
▁chose	-10.3802
▁earn	-10.3804
▁user	-10.3811
▁monk	-10.3817
▁brand	-10.3827
▁attract	-10.3828
▁louis	-10.3835
▁sheriff	-10.3835
▁lawsuit	-10.3835
▁invasion	-10.3835
▁counterpart	-10.3836
▁daniel	-10.3838
▁task	-10.384
▁modern	-10.3848
▁warrant	-10.3855
▁runner	-10.3863
nt	-10.3869
▁worrie	-10.3873
▁assist	-10.3881
▁propose	-10.3888
▁micro	-10.39
▁sport	-10.3911
▁motor	-10.3915
▁guarantee	-10.3942
▁suspicion	-10.3943
▁assassination	-10.3943
▁kidnapp	-10.3945
spread	-10.3949
▁mohamm	-10.395
ez	-10.3954
▁visa	-10.3961
▁rough	-10.3966
▁closer	-10.3966
▁berlin	-10.3966
▁propos	-10.397
▁manch	-10.3971
▁choose	-10.3972
▁53	-10.3975
ned	-10.3977
haps	-10.3977
▁writer	-10.3978
▁joong	-10.3994
▁landing	-10.3996
▁hilla	-10.402
▁62	-10.4034
▁temporar	-10.4035
ami	-10.4043
▁apologize	-10.4046
▁sudden	-10.4049
▁offering	-10.406
▁identify	-10.4079
▁smok	-10.4101
▁broad	-10.4131
▁provinc	-10.4138
space	-10.4138
▁books	-10.4138
▁et	-10.4142
▁freed	-10.4142
ga	-10.4146
▁lake	-10.416
▁spy	-10.4165
▁wolf	-10.4178
geles	-10.418
surance	-10.4187
▁catch	-10.4192
▁evacuate	-10.4194
▁turki	-10.4197
berg	-10.4208
▁leak	-10.4208
▁colombian	-10.4212
ribal	-10.4223
▁venezuela	-10.4229
▁worse	-10.423
abul	-10.4232
ied	-10.4236
itarian	-10.4245
▁compare	-10.4266
▁album	-10.4267
▁reduction	-10.4273
▁remember	-10.4275
▁johnson	-10.4278
▁pirate	-10.4279
▁transition	-10.4285
▁feeling	-10.4287
corporate	-10.4296
▁forum	-10.43
▁exit	-10.4302
▁tiger	-10.4307
▁teenager	-10.4307
▁proper	-10.4307
▁spear	-10.4309
▁occurr	-10.4318
▁strain	-10.432
▁princess	-10.4323
▁none	-10.4324
▁aware	-10.4346
ier	-10.4355
▁liberal	-10.4375
ota	-10.4378
▁mistake	-10.4378
▁cleric	-10.4378
▁46	-10.4379
▁delta	-10.4379
▁advantage	-10.438
▁compound	-10.438
ying	-10.4384
▁engine	-10.4385
▁suburb	-10.4386
▁employ	-10.4393
kok	-10.4398
▁47	-10.4398
▁auction	-10.4404
lso	-10.441
▁oppose	-10.4411
▁willing	-10.4413
east	-10.4415
▁bhut	-10.4422
▁micros	-10.4433
▁alaska	-10.4449
shire	-10.4454
mer	-10.4474
▁ukrain	-10.449
▁veteran	-10.4491
▁volunteer	-10.4491
iland	-10.4492
▁committ	-10.4495
▁split	-10.4497
▁isn	-10.4505
▁purchase	-10.4511
ack	-10.4512
orrow	-10.4513
▁shortage	-10.4513
▁touris	-10.4515
hran	-10.4523
▁rome	-10.4524
▁firefighter	-10.4526
▁froze	-10.4538
▁acknowledge	-10.4539
▁passe	-10.4542
ado	-10.4554
▁committe	-10.4559
▁easy	-10.4567
▁ag	-10.4571
▁malaysia	-10.4573
ated	-10.4575
▁occurre	-10.4587
▁canadian	-10.4605
▁atmospher	-10.4614
▁54	-10.4615
▁potter	-10.4619
▁oppos	-10.462
elling	-10.4625
▁renew	-10.4629
tts	-10.4637
▁recognize	-10.4647
rruption	-10.4689
▁chels	-10.4692
▁detect	-10.4711
▁negative	-10.4719
▁debut	-10.4722
▁divide	-10.4724
▁stoo	-10.4727
▁dub	-10.4729
▁simple	-10.4739
▁mention	-10.4742
▁percentage	-10.4744
▁strip	-10.475
▁fed	-10.476
▁label	-10.476
▁cultur	-10.4769
12	-10.4775
▁easi	-10.4782
▁elder	-10.4782
▁band	-10.4786
▁expectation	-10.4798
▁chemical	-10.48
more	-10.4801
▁heads	-10.4802
▁tight	-10.4808
▁rat	-10.4808
▁path	-10.4813
dna	-10.4819
▁erupt	-10.4825
salem	-10.4835
▁kingdom	-10.4835
▁thomas	-10.4836
▁shelter	-10.484
▁prepar	-10.4852
▁expresse	-10.4856
▁profile	-10.4858
▁violat	-10.4863
▁roman	-10.4867
ilateral	-10.4871
▁section	-10.4877
▁lowest	-10.488
▁guards	-10.4883
nes	-10.4915
▁indiana	-10.4915
▁id	-10.4917
yongbyon	-10.4943
▁conspira	-10.4949
▁batter	-10.495
▁soccer	-10.4953
▁anonym	-10.4954
▁valley	-10.4956
▁scot	-10.496
ana	-10.4966
▁frequent	-10.4969
▁technical	-10.4979
ul	-10.4985
▁ease	-10.4985
▁65	-10.4988
j	-10.4989
am	-10.499
▁khan	-10.5
ang	-10.5004
▁theater	-10.5008
▁compar	-10.5012
▁41	-10.5013
▁km	-10.5023
▁sydn	-10.5033
▁buri	-10.5039
▁closing	-10.5071
▁permanent	-10.5072
▁household	-10.5073
ir	-10.5074
▁principle	-10.5074
▁abdullah	-10.5075
▁emission	-10.5078
▁tons	-10.5079
▁issu	-10.5084
▁execution	-10.5087
mph	-10.5089
▁highlight	-10.5095
ani	-10.5104
▁wedding	-10.5107
▁gap	-10.5131
chi	-10.5158
▁organiz	-10.5166
lady	-10.5173
lew	-10.5174
▁pai	-10.5174
▁birds	-10.5177
▁recommend	-10.519
▁unusual	-10.5192
▁plus	-10.5193
▁agenda	-10.5194
▁assistan	-10.5206
▁remov	-10.5207
v	-10.521
▁nature	-10.5217
▁launche	-10.5225
▁campus	-10.5232
▁institution	-10.5239
▁clinic	-10.5248
▁southwest	-10.5262
▁goods	-10.5279
upper	-10.5288
▁harm	-10.5295
▁gu	-10.5296
▁infect	-10.5307
▁bureau	-10.5307
ional	-10.5312
▁jak	-10.5314
▁mccann	-10.5314
▁tsunami	-10.5314
▁preliminar	-10.5315
▁bullet	-10.5316
aba	-10.5321
▁bird	-10.5346
▁rang	-10.5348
▁eyes	-10.5365
▁corrupt	-10.5372
▁ghaz	-10.5373
▁carri	-10.5381
▁operate	-10.5386
western	-10.5398
▁guns	-10.5401
▁era	-10.5409
▁cia	-10.5412
▁divorce	-10.5436
▁disappear	-10.5437
▁element	-10.5439
▁dramatic	-10.5446
▁edition	-10.5447
▁diamond	-10.5448
oline	-10.546
▁controvers	-10.5463
▁direction	-10.5463
suu	-10.5464
▁collect	-10.5469
▁restore	-10.547
ha	-10.5474
▁inflation	-10.5474
▁manufactur	-10.5476
▁plead	-10.5485
ilton	-10.549
dai	-10.5491
▁writing	-10.5497
▁knee	-10.5507
▁chrys	-10.5508
▁ride	-10.551
of	-10.5513
▁participate	-10.5516
▁dong	-10.5531
▁shape	-10.5538
▁conclude	-10.5539
ican	-10.5545
▁studio	-10.5549
▁marked	-10.5552
alone	-10.5555
▁disappoint	-10.5561
▁journey	-10.5563
rmed	-10.557
▁proud	-10.5575
▁cease	-10.5576
▁crack	-10.5578
▁introduce	-10.5579
▁payment	-10.558
my	-10.5583
▁pop	-10.5586
▁shrine	-10.5588
▁atlant	-10.5602
▁relate	-10.5606
▁procedure	-10.5631
▁overse	-10.5634
▁wing	-10.5639
▁appoint	-10.5648
▁sit	-10.565
▁argu	-10.5655
▁prett	-10.5663
▁hospitaliz	-10.5677
▁ten	-10.5685
▁mortgage	-10.5689
▁captain	-10.569
▁hezb	-10.5691
▁client	-10.5692
▁digital	-10.5701
ju	-10.5701
▁pc	-10.5707
▁farm	-10.5707
▁rail	-10.5713
▁lama	-10.5714
▁clash	-10.5716
▁kang	-10.5717
▁memor	-10.5721
▁yellow	-10.5723
▁bone	-10.5737
▁abilit	-10.5738
▁surround	-10.5745
▁rescuer	-10.5748
▁mix	-10.575
enko	-10.5754
▁y	-10.576
▁charg	-10.5761
▁indonesian	-10.5767
hai	-10.5778
▁recruit	-10.578
▁boss	-10.5785
▁taxe	-10.5785
arta	-10.5799
▁ke	-10.58
▁estimat	-10.5803
▁indict	-10.5813
▁64	-10.5813
ization	-10.5813
▁babi	-10.5814
▁convoy	-10.5817
▁youtube	-10.5817
ev	-10.5818
▁radical	-10.5818
▁alternative	-10.5818
down	-10.5821
▁beating	-10.5821
▁vacation	-10.5821
▁succeed	-10.5822
ick	-10.5823
▁inspection	-10.5824
▁error	-10.5831
▁par	-10.5832
▁zealand	-10.5842
▁observer	-10.5847
▁rockets	-10.5855
▁corner	-10.5858
▁fate	-10.5859
azir	-10.5864
fare	-10.5868
▁listen	-10.5871
▁desert	-10.5872
▁wal	-10.5872
der	-10.5876
▁pet	-10.5883
▁celebrate	-10.5892
▁lad	-10.5896
▁youth	-10.59
▁firing	-10.5904
▁authori	-10.5915
▁belong	-10.5918
▁weigh	-10.5919
▁believ	-10.5927
▁shopp	-10.5927
▁hunt	-10.5929
▁bottle	-10.5933
▁reading	-10.5936
▁identit	-10.5939
▁argentin	-10.5945
▁root	-10.5948
▁method	-10.5948
▁hopeful	-10.5951
▁gallon	-10.5954
▁mars	-10.5954
▁deployment	-10.5955
▁cooperati	-10.5957
▁201	-10.5958
bringing	-10.597
itting	-10.597
▁95	-10.5971
▁pr	-10.598
▁balance	-10.5983
▁dealing	-10.5984
beth	-10.5986
▁select	-10.5987
▁northwest	-10.5988
ain	-10.5988
hip	-10.5991
▁wen	-10.6016
ford	-10.6017
▁delivery	-10.6023
▁cheer	-10.6048
▁destructi	-10.6049
▁yu	-10.6053
▁strength	-10.606
if	-10.6062
▁landslide	-10.6079
▁girlfriend	-10.6079
ious	-10.6081
▁cool	-10.6082
eating	-10.6093
▁ballot	-10.6095
▁metal	-10.6097
▁hung	-10.6099
ad	-10.6106
▁boom	-10.6107
▁span	-10.6112
▁weaken	-10.6132
ersey	-10.6135
▁woo	-10.6154
▁kidnappe	-10.6157
▁suffere	-10.6173
▁engage	-10.6174
▁56	-10.6174
▁sort	-10.6175
house	-10.6176
▁failing	-10.6191
▁flag	-10.6194
▁yard	-10.6194
▁drew	-10.6211
▁darfur	-10.6212
▁gulf	-10.6217
▁declin	-10.6217
use	-10.622
▁ch	-10.6221
▁flee	-10.6222
▁bi	-10.6237
▁ang	-10.6241
▁categor	-10.6244
▁bottom	-10.6245
line	-10.6248
water	-10.6252
▁vat	-10.6271
▁onl	-10.6275
▁waste	-10.6282
▁gonzale	-10.6286
▁turne	-10.6289
▁dismiss	-10.6291
▁stabili	-10.6292
▁pump	-10.6302
▁controll	-10.6304
▁gathering	-10.6321
work	-10.6341
▁meaning	-10.6344
▁initiative	-10.6348
▁argue	-10.6348
▁cloud	-10.6351
▁knowledge	-10.6373
▁venezuelan	-10.6396
▁pal	-10.6402
tiny	-10.6407
▁col	-10.644
▁shout	-10.6441
▁affiliate	-10.6447
▁string	-10.6453
▁length	-10.6453
no	-10.6456
▁barcelon	-10.6484
▁automaker	-10.6484
ehud	-10.6489
▁explode	-10.6491
▁settle	-10.6501
▁jesu	-10.6504
▁typical	-10.6507
▁homeland	-10.6508
▁collection	-10.6513
▁cable	-10.6515
▁absolute	-10.6518
▁invest	-10.652
▁islamist	-10.6523
▁devastat	-10.6524
▁locate	-10.6532
▁experiment	-10.6538
▁thank	-10.654
▁atlantic	-10.6541
▁carrier	-10.6546
▁steel	-10.6553
yone	-10.6556
▁duba	-10.6558
▁glass	-10.6562
▁sean	-10.6563
▁electora	-10.6574
▁bosto	-10.658
▁120	-10.6582
▁sponsor	-10.6584
▁alexand	-10.6591
ran	-10.6602
mi	-10.6605
▁pace	-10.661
▁prospect	-10.6611
▁marri	-10.6615
▁holy	-10.6622
▁1970	-10.6624
▁temple	-10.6625
▁1994	-10.663
▁innocent	-10.6631
▁ta	-10.6633
▁michel	-10.6634
▁defendant	-10.6637
▁birthday	-10.6638
▁194	-10.6656
▁ultimate	-10.6662
ground	-10.6673
▁impos	-10.6682
▁shang	-10.6683
▁structure	-10.6684
gen	-10.6705
▁39	-10.6712
▁palm	-10.6715
▁pregnan	-10.6718
▁pursue	-10.6727
▁tradition	-10.6738
▁haven	-10.6754
▁revenue	-10.6764
▁endanger	-10.6764
▁superdelegate	-10.6764
▁peacekeep	-10.6767
▁130	-10.6769
▁reache	-10.6771
▁sustain	-10.6772
▁corporation	-10.6779
▁relie	-10.6779
▁peru	-10.6779
▁neck	-10.6791
▁margin	-10.6794
▁chain	-10.6795
▁grew	-10.6798
▁sensitiv	-10.6801
▁57	-10.6802
▁achieve	-10.6802
▁dump	-10.6805
ongo	-10.6812
▁basi	-10.6822
▁stoppe	-10.6834
▁bound	-10.6836
▁praise	-10.6852
▁fox	-10.6855
▁serbia	-10.6875
▁vladimir	-10.6876
▁v	-10.6888
▁improv	-10.6889
▁symbol	-10.6903
madeleine	-10.6904
▁abdul	-10.6905
▁wildlife	-10.6907
▁truth	-10.6909
▁illness	-10.6912
▁routine	-10.6915
▁squad	-10.6918
eries	-10.6939
▁vast	-10.6939
▁branch	-10.6943
▁extremist	-10.6943
▁stretch	-10.6944
▁fatal	-10.6947
▁runway	-10.6949
▁blam	-10.696
▁con	-10.6965
▁61	-10.6971
ejad	-10.6988
▁mr	-10.6989
▁joe	-10.699
▁notice	-10.6995
▁bowl	-10.6995
▁reduc	-10.7003
▁gree	-10.7004
▁59	-10.7009
ical	-10.7013
▁torture	-10.7022
▁invite	-10.7025
▁rod	-10.7038
▁airstrike	-10.7052
▁sailor	-10.7053
▁punishment	-10.7054
▁connect	-10.7061
▁boe	-10.7062
▁shirt	-10.7065
▁scott	-10.7065
▁powers	-10.7071
▁briefing	-10.7076
▁emerg	-10.7076
attle	-10.7078
▁restrict	-10.7091
ns	-10.7108
hattan	-10.711
▁handle	-10.7113
▁destroye	-10.7113
▁write	-10.7116
▁commit	-10.7121
▁afford	-10.7122
▁slave	-10.7127
▁battl	-10.7131
▁undergo	-10.7138
▁skin	-10.7139
▁accord	-10.7145
de	-10.7147
▁manage	-10.7156
enate	-10.7167
▁wish	-10.717
▁drama	-10.7173
▁corps	-10.7175
▁ill	-10.7187
▁jordan	-10.7199
▁plastic	-10.7199
▁arsenal	-10.7199
▁eliza	-10.7201
har	-10.7209
▁conversation	-10.7211
▁guide	-10.7213
▁divers	-10.7217
▁crop	-10.7223
daq	-10.7228
nois	-10.7248
▁fit	-10.7256
▁gore	-10.7257
erson	-10.7264
▁wins	-10.7268
▁acre	-10.7272
▁somali	-10.7283
▁kyo	-10.7289
▁wood	-10.7299
▁ray	-10.7313
▁grave	-10.7313
▁weak	-10.7322
▁maxim	-10.7325
not	-10.7328
▁49	-10.7341
▁presiden	-10.7343
▁numer	-10.7345
▁fir	-10.7347
▁sovereign	-10.7348
▁scientific	-10.7348
▁cyclone	-10.7348
▁circumstance	-10.7349
▁install	-10.7353
nhap	-10.7353
▁successor	-10.7359
▁owners	-10.7361
▁morgan	-10.7363
▁oh	-10.7372
▁peak	-10.7373
ice	-10.7374
▁photo	-10.7378
▁shark	-10.7391
owitz	-10.7396
im	-10.74
▁settlement	-10.7406
▁accusation	-10.7406
▁sentenc	-10.7407
▁charit	-10.7426
uri	-10.7428
▁storie	-10.7429
▁kenyan	-10.7431
▁fun	-10.7435
bed	-10.7437
ut	-10.7447
▁veto	-10.7455
hile	-10.746
arah	-10.7464
▁mate	-10.7479
▁athlete	-10.7483
▁inform	-10.7495
▁striker	-10.7498
▁hawaii	-10.7498
ant	-10.7499
▁watchdog	-10.7499
▁buddhist	-10.75
▁brazilian	-10.75
▁coffee	-10.75
▁midnight	-10.7501
▁distance	-10.7505
▁appointment	-10.7506
▁passport	-10.7509
▁whal	-10.7512
stance	-10.7512
▁beef	-10.7519
▁ti	-10.7539
▁excit	-10.7545
▁strict	-10.7554
▁manag	-10.7563
rates	-10.7569
▁82	-10.7575
chuan	-10.7577
▁photographer	-10.7578
▁damag	-10.7578
▁compete	-10.7583
ordon	-10.7584
gun	-10.7593
soft	-10.7597
ok	-10.7601
em	-10.7607
▁bond	-10.7615
▁mental	-10.762
▁sample	-10.7628
▁jim	-10.7635
▁bright	-10.7648
▁televis	-10.7649
▁funeral	-10.7653
▁surrender	-10.7653
▁application	-10.7654
▁chile	-10.7655
▁wreck	-10.7657
▁fortune	-10.7659
▁participant	-10.7662
▁nominat	-10.7663
▁columbia	-10.7664
▁argument	-10.7667
▁hamp	-10.7669
▁operator	-10.7678
witz	-10.768
▁metropoli	-10.7685
▁earning	-10.7686
▁convince	-10.7692
▁fta	-10.7694
▁hiv	-10.7706
▁print	-10.7708
▁stole	-10.772
▁manufacturer	-10.7722
▁wine	-10.7726
ippi	-10.7727
▁58	-10.7729
▁depend	-10.7748
▁shoot	-10.7752
▁cloth	-10.776
▁rom	-10.7784
▁fin	-10.7784
▁brutal	-10.7784
▁acros	-10.7787
▁nas	-10.7793
▁bail	-10.7798
▁genetic	-10.7809
▁egyptian	-10.781
▁mississ	-10.7815
▁jack	-10.7815
wise	-10.7817
▁federation	-10.7817
▁disable	-10.7819
▁promot	-10.7819
▁lung	-10.7823
▁regulator	-10.7824
▁farc	-10.7824
▁priorit	-10.7834
▁crown	-10.7835
▁bob	-10.7836
▁195	-10.7838
▁handl	-10.7845
▁caucuse	-10.7846
▁harsh	-10.7847
▁gmt	-10.7849
▁presen	-10.7856
▁angr	-10.7866
rove	-10.7873
ural	-10.7884
▁advertis	-10.7894
▁moderate	-10.7898
▁commerc	-10.7899
▁acknowledg	-10.79
▁transferr	-10.7905
▁urban	-10.7911
▁tip	-10.7911
▁zar	-10.7914
▁debri	-10.7914
▁sta	-10.7916
▁ji	-10.7918
▁maj	-10.7924
rt	-10.7941
▁jo	-10.7955
iya	-10.7956
light	-10.7961
▁obvious	-10.7967
▁surveill	-10.7968
▁impeach	-10.7968
▁supposed	-10.797
▁concrete	-10.798
▁citizen	-10.7986
▁entry	-10.7988
▁react	-10.7993
▁congo	-10.7995
▁mexican	-10.8002
veral	-10.8008
▁cafe	-10.8013
iana	-10.8015
▁text	-10.8019
▁dominate	-10.8043
▁switch	-10.8048
▁negotiate	-10.8059
▁intention	-10.806
▁surviv	-10.8079
ca	-10.8082
▁seiz	-10.8086
▁osam	-10.8088
▁featur	-10.8096
▁cheap	-10.8102
▁blaze	-10.8108
▁cutt	-10.8128
▁dvd	-10.8128
▁disney	-10.8128
▁fierce	-10.8129
▁dinner	-10.813
llah	-10.813
▁bann	-10.8131
▁multiple	-10.8131
▁false	-10.8132
▁sick	-10.8134
▁castro	-10.8134
▁gul	-10.8135
▁confident	-10.8137
▁bitter	-10.8138
▁wors	-10.8142
▁lay	-10.8144
va	-10.8145
▁intense	-10.8146
▁ordinar	-10.8148
▁window	-10.8158
▁deny	-10.8162
ped	-10.817
kk	-10.8174
▁revolutionar	-10.8176
▁indication	-10.8184
▁gross	-10.8187
▁uh	-10.8201
▁har	-10.8219
▁amnes	-10.8232
▁putt	-10.8239
tt	-10.8255
lin	-10.8257
▁secur	-10.8262
▁dala	-10.8268
▁seal	-10.8278
▁stimul	-10.8285
▁historical	-10.8285
hood	-10.8287
▁broadcaster	-10.8288
▁spirit	-10.8292
▁gar	-10.8292
▁phoeni	-10.8293
▁breakthrough	-10.8294
▁swiss	-10.8296
ught	-10.8301
▁rumor	-10.8305
▁barrier	-10.8305
court	-10.8316
▁overwhelming	-10.8317
▁negotiat	-10.8318
▁bell	-10.8321
ncy	-10.8324
▁musical	-10.8324
▁lab	-10.8325
▁mouth	-10.8329
▁barr	-10.8329
▁steven	-10.8338
▁comfort	-10.8338
▁lock	-10.8338
▁tho	-10.8342
ina	-10.8351
▁venue	-10.8356
▁si	-10.8358
▁primari	-10.8364
▁solve	-10.8372
▁realize	-10.8379
▁saving	-10.8383
▁pitt	-10.8386
▁mourn	-10.8396
▁soar	-10.84
▁whi	-10.8401
▁contribute	-10.8414
▁pose	-10.8415
▁austria	-10.8427
▁cave	-10.8438
▁tire	-10.8442
▁retail	-10.8457
▁czech	-10.8458
▁editor	-10.846
▁sheikh	-10.8461
▁careful	-10.8462
▁shortl	-10.8468
ving	-10.8476
drid	-10.8477
armament	-10.8478
▁preparation	-10.8479
▁socialist	-10.8486
▁coordinat	-10.8502
▁63	-10.8506
cal	-10.8514
▁chun	-10.8514
▁kerr	-10.8518
do	-10.8521
▁copy	-10.8523
▁dick	-10.8525
▁prepare	-10.8528
craft	-10.8528
▁fires	-10.8531
▁ir	-10.8537
rew	-10.8546
lines	-10.8547
▁76	-10.8553
ei	-10.8553
▁toxic	-10.8555
▁shoe	-10.8565
▁tall	-10.8575
put	-10.8578
▁marks	-10.8582
erland	-10.8588
▁pitch	-10.8588
▁clon	-10.86
▁66	-10.8614
▁den	-10.8614
▁celebrat	-10.8625
▁laptop	-10.8628
▁joseph	-10.8628
▁quiet	-10.8629
▁antarctic	-10.8629
▁benchmark	-10.8629
▁punish	-10.8629
▁wage	-10.863
▁vital	-10.8645
▁cargo	-10.8646
▁faith	-10.8646
▁moham	-10.8647
▁stands	-10.8648
▁camps	-10.8654
▁blago	-10.8655
▁jon	-10.8665
▁native	-10.867
▁tool	-10.8682
▁reall	-10.8682
▁mur	-10.8684
▁pursu	-10.869
▁sw	-10.8699
▁newly	-10.87
▁somalia	-10.8703
▁note	-10.8703
burg	-10.8706
▁retire	-10.8712
▁apart	-10.8723
▁shoulder	-10.8726
▁brad	-10.8728
▁crossing	-10.8728
▁br	-10.8731
▁jin	-10.8738
▁mor	-10.8738
mumba	-10.875
abilit	-10.8756
▁generate	-10.8758
▁bull	-10.8772
▁fl	-10.8784
ge	-10.879
▁uniform	-10.8801
▁benedict	-10.8801
▁tennesse	-10.8801
▁referendum	-10.8801
▁departure	-10.8801
▁legend	-10.8802
▁conclusion	-10.8802
▁conservation	-10.8802
▁1950	-10.8803
ks	-10.8807
▁sweep	-10.8808
▁railway	-10.8809
▁medal	-10.8809
▁rating	-10.8819
▁repair	-10.8819
▁unknown	-10.8824
▁advisor	-10.8831
▁inquir	-10.8842
▁await	-10.8865
▁85	-10.887
▁substantial	-10.8871
▁apply	-10.8873
▁outrage	-10.8887
ab	-10.8896
til	-10.8904
▁requir	-10.8921
▁towns	-10.8941
▁dan	-10.8955
▁tie	-10.896
▁68	-10.8965
▁strik	-10.8974
▁jeff	-10.8976
▁typhoon	-10.8977
▁boyfriend	-10.8977
▁chong	-10.8979
▁mccorm	-10.8979
▁zero	-10.8982
▁twin	-10.8984
▁chest	-10.8986
▁wo	-10.8986
om	-10.8987
▁occupation	-10.899
▁custom	-10.8993
▁continent	-10.8999
▁infection	-10.8999
▁im	-10.901
ded	-10.9012
▁conviction	-10.9015
▁pla	-10.9017
gains	-10.9017
▁variet	-10.9019
▁familiar	-10.9038
▁painting	-10.9048
ell	-10.9056
▁rep	-10.9061
▁antoni	-10.9063
▁resist	-10.9064
▁locat	-10.9078
▁beaut	-10.9079
▁classic	-10.9093
▁nad	-10.9098
ah	-10.9098
▁correct	-10.9098
▁clark	-10.9099
▁disrupt	-10.9103
▁please	-10.9105
▁madr	-10.9107
older	-10.9113
▁map	-10.9124
efa	-10.9136
▁volcano	-10.9144
▁graduate	-10.9151
▁drawing	-10.9153
▁verdict	-10.9155
▁platform	-10.9155
▁imprison	-10.9155
▁robot	-10.9155
▁transaction	-10.9155
▁shareholder	-10.9155
▁unfortunate	-10.9155
▁administrative	-10.9155
▁specialist	-10.9158
▁consult	-10.9158
▁attitude	-10.9164
▁sentiment	-10.9168
▁oust	-10.9175
▁chad	-10.918
▁vaccine	-10.9184
▁reference	-10.9196
seas	-10.9199
▁diet	-10.9203
▁tower	-10.9211
▁illi	-10.9212
▁77	-10.9217
▁sung	-10.9225
▁civi	-10.9229
▁rio	-10.9235
▁spani	-10.9237
▁villager	-10.9238
▁massac	-10.9239
▁skill	-10.9243
▁cuban	-10.9248
▁tackle	-10.9248
▁stern	-10.9251
ou	-10.9253
▁paulo	-10.9256
therland	-10.9262
ife	-10.9275
▁dispatch	-10.9288
▁ski	-10.929
▁jane	-10.9293
ept	-10.9298
▁eat	-10.93
▁libya	-10.9301
▁odd	-10.9311
▁participat	-10.9316
▁69	-10.933
▁loyal	-10.9339
▁separatist	-10.9339
▁chart	-10.9341
▁henr	-10.9345
▁lt	-10.9352
▁stephen	-10.9356
▁sweet	-10.9357
▁testimon	-10.937
delphi	-10.937
▁ryan	-10.9377
▁timor	-10.9377
ral	-10.9379
▁kate	-10.9384
▁petition	-10.9385
anish	-10.9387
▁kent	-10.9388
▁carlo	-10.9391
▁retir	-10.9392
ke	-10.94
▁novel	-10.9423
▁motion	-10.9426
▁syrian	-10.9433
▁banner	-10.9435
▁chris	-10.9455
olar	-10.9463
▁polici	-10.9475
▁rebuild	-10.9484
▁bolt	-10.9492
▁900	-10.95
▁float	-10.9501
▁airway	-10.951
▁soil	-10.9513
try	-10.9515
▁appropriate	-10.9516
▁distribut	-10.952
km	-10.9521
▁darwin	-10.9521
▁embryo	-10.9521
▁galax	-10.9521
▁tunnel	-10.9521
▁abortion	-10.9522
▁compensation	-10.9522
▁rifle	-10.9523
▁mis	-10.9523
▁1960	-10.9523
▁relocation	-10.9523
▁retailer	-10.9526
▁contrast	-10.9528
▁liquid	-10.953
▁glacier	-10.9531
▁donald	-10.9531
ko	-10.9538
▁impossibl	-10.9542
▁qualify	-10.9543
ai	-10.9545
▁mel	-10.9545
▁slump	-10.9546
▁doors	-10.9547
▁turnout	-10.9547
erdog	-10.9554
99	-10.9578
▁contender	-10.9584
▁copie	-10.9584
▁72	-10.9589
burgh	-10.959
▁stable	-10.9604
▁prayer	-10.9606
eath	-10.9611
▁chan	-10.9612
▁crush	-10.9612
▁frame	-10.9639
▁bangladesh	-10.9642
ba	-10.9644
huse	-10.965
▁tend	-10.9653
▁dust	-10.9653
▁sha	-10.9669
▁hills	-10.9671
ov	-10.9683
li	-10.9689
▁71	-10.969
00	-10.969
▁shi	-10.9692
▁ring	-10.9693
▁alex	-10.9693
▁except	-10.9696
▁unrest	-10.9696
▁dictator	-10.9705
▁twenty	-10.971
▁dut	-10.971
▁exposure	-10.971
▁priva	-10.9711
▁quarterfinal	-10.9711
▁checkpoint	-10.9711
▁muscle	-10.9712
▁hamid	-10.9717
▁mohammad	-10.9717
tra	-10.9717
▁runoff	-10.9717
▁huck	-10.972
▁confrontation	-10.9722
▁immigrant	-10.9723
▁phila	-10.9724
▁residence	-10.9732
roit	-10.9734
half	-10.9735
▁partners	-10.9736
ho	-10.9736
▁undermine	-10.9738
long	-10.974
▁bankruptc	-10.9752
▁discovere	-10.9754
▁portion	-10.9755
▁essential	-10.9759
▁buyer	-10.9766
▁fleet	-10.9766
▁solid	-10.977
inches	-10.977
▁burst	-10.9781
▁lobby	-10.9785
▁roof	-10.9789
▁gambar	-10.9789
▁feed	-10.9791
▁moore	-10.9793
▁clos	-10.9793
▁stroke	-10.98
▁andrew	-10.9823
▁det	-10.9826
ger	-10.9831
▁phase	-10.9834
▁promotion	-10.9851
▁wel	-10.9853
▁emerge	-10.9857
▁greet	-10.9871
▁capit	-10.9872
▁hwan	-10.9873
oney	-10.9883
▁collaps	-10.9884
fe	-10.9889
▁yong	-10.9894
▁ac	-10.9898
▁enforce	-10.9899
▁dam	-10.9899
capacit	-10.9901
▁hybrid	-10.9902
▁technique	-10.9903
▁wildfire	-10.9903
▁wireless	-10.9904
▁creature	-10.9904
▁roger	-10.9905
▁respective	-10.9906
▁orange	-10.9907
▁monkey	-10.9907
▁shipp	-10.9907
▁outcome	-10.9908
▁toilet	-10.9909
▁controlle	-10.9912
▁unclea	-10.9913
earby	-10.9918
▁consequence	-10.9919
▁caution	-10.9925
▁prior	-10.9929
▁golf	-10.9933
▁robber	-10.9937
▁freeze	-10.9938
▁panda	-10.9938
▁scheme	-10.9946
▁duck	-10.9952
erry	-10.9957
gi	-10.9958
▁luck	-10.9959
▁yoo	-10.996
zed	-10.9962
▁shield	-10.9962
lated	-10.9971
▁davis	-10.9972
▁bigge	-10.9976
▁dai	-10.9986
▁offender	-11
lor	-11.0008
▁athen	-11.0012
▁ahmad	-11.0018
▁massa	-11.0022
▁paint	-11.0024
▁regret	-11.0028
▁garden	-11.0029
▁eric	-11.003
quo	-11.0033
▁stick	-11.0052
▁lanka	-11.0061
▁donor	-11.0063
▁luxur	-11.0063
▁fat	-11.0071
▁shore	-11.0071
▁cow	-11.0074
▁hug	-11.0078
our	-11.0082
▁73	-11.0084
▁panama	-11.0098
▁gift	-11.01
▁aggressive	-11.0101
▁orlean	-11.0103
▁greek	-11.0103
▁clock	-11.0104
▁viole	-11.0113
▁assessment	-11.0114
▁evacuation	-11.0115
▁alarm	-11.0115
▁jungle	-11.0115
▁dawn	-11.0118
▁laugh	-11.0122
▁retain	-11.0125
▁submit	-11.0127
▁rudd	-11.0127
▁gyeong	-11.013
▁bribe	-11.0133
▁hub	-11.0133
bad	-11.0134
▁breath	-11.0136
▁revive	-11.0151
▁engag	-11.0151
▁barbar	-11.0159
▁sri	-11.0159
▁upset	-11.0176
▁warner	-11.0181
sumption	-11.0189
▁motors	-11.0193
▁flash	-11.0194
▁laid	-11.0196
posed	-11.0215
▁koreas	-11.0215
▁tru	-11.0216
ucky	-11.0238
▁knock	-11.0241
mo	-11.0247
chuse	-11.0253
▁160	-11.0257
▁virgin	-11.0259
rd	-11.0259
▁kuwait	-11.0261
ella	-11.0262
▁iron	-11.0262
▁clothe	-11.0268
▁hunter	-11.0268
evich	-11.0271
ove	-11.0274
▁hawk	-11.0275
scow	-11.0283
▁ni	-11.0287
ide	-11.029
bul	-11.0292
▁guerrilla	-11.0298
▁function	-11.0299
▁amendment	-11.0299
▁substance	-11.03
▁aftershock	-11.03
▁greenhouse	-11.03
▁laborator	-11.0303
▁summon	-11.0304
▁fulfill	-11.0305
▁abduction	-11.0305
▁timetable	-11.0306
cau	-11.0307
▁pattern	-11.0308
▁homeless	-11.0319
oil	-11.0329
▁competitive	-11.0331
▁celebration	-11.0333
▁occasion	-11.0334
▁hunting	-11.0336
understanding	-11.0339
▁complet	-11.0343
tarian	-11.0346
▁violate	-11.0347
▁mus	-11.0349
▁trader	-11.0351
aks	-11.0355
▁keb	-11.0369
▁sole	-11.0373
▁proceeding	-11.0374
all	-11.0378
▁fever	-11.0378
▁plunge	-11.0386
rdon	-11.0394
ck	-11.0405
▁minorit	-11.041
▁81	-11.0415
▁jae	-11.0418
▁gathere	-11.0427
▁rafa	-11.0433
▁testify	-11.0441
▁concept	-11.0446
▁revolution	-11.0447
▁evacuat	-11.0451
▁extraordinar	-11.0459
ago	-11.0475
▁oct	-11.0481
fire	-11.0483
▁explod	-11.0484
▁matche	-11.0485
▁worsen	-11.0486
▁74	-11.0487
▁secular	-11.0487
▁pledg	-11.0492
sfeld	-11.0492
▁giuli	-11.0501
▁hero	-11.0502
▁minimum	-11.0502
▁wire	-11.0502
▁elephant	-11.0502
▁curb	-11.0503
▁swimming	-11.0504
▁terminal	-11.0506
▁egg	-11.0508
▁x	-11.0511
iz	-11.0513
▁inquest	-11.0514
▁spill	-11.0516
▁marrie	-11.0529
bus	-11.053
▁clinch	-11.0533
▁anchor	-11.0533
▁polar	-11.0534
▁milita	-11.0536
▁slam	-11.054
mbled	-11.0543
▁efficient	-11.0544
▁sam	-11.0545
rac	-11.055
ions	-11.055
rry	-11.055
▁rum	-11.056
▁organ	-11.0569
▁pray	-11.0571
▁sir	-11.0574
▁gear	-11.0595
ward	-11.0596
▁convert	-11.0596
▁wheel	-11.0596
▁yi	-11.0596
▁trie	-11.0598
ular	-11.0599
▁banne	-11.0605
▁ad	-11.0611
ave	-11.0621
▁soo	-11.0625
iri	-11.0626
▁stuff	-11.0627
ubble	-11.0629
▁gray	-11.063
▁dean	-11.0637
▁liter	-11.0646
▁nice	-11.0649
▁tropica	-11.0649
ping	-11.0654
nforcement	-11.0658
▁coca	-11.0659
▁attacker	-11.0661
▁hang	-11.0666
▁plate	-11.0667
ari	-11.0669
▁breach	-11.0671
clusive	-11.0705
▁67	-11.0706
ka	-11.0708
▁spiritual	-11.0711
▁concession	-11.0711
▁mortar	-11.0712
▁disappearance	-11.0712
▁suspicious	-11.0712
▁frontier	-11.0713
erkel	-11.0715
▁leftist	-11.0717
▁rodrigue	-11.0718
▁submitt	-11.072
▁trend	-11.0721
▁launder	-11.0722
▁traffick	-11.0723
▁torn	-11.0731
▁trick	-11.0737
lum	-11.0742
▁designer	-11.075
▁serb	-11.0756
▁offense	-11.0763
tv	-11.0766
▁malaysian	-11.0768
▁sang	-11.0768
▁reward	-11.0769
olla	-11.0781
▁centre	-11.0784
▁aren	-11.0787
abee	-11.0787
luton	-11.0788
sky	-11.0789
▁restor	-11.0807
▁78	-11.0816
egan	-11.0821
▁olme	-11.0824
▁legs	-11.0828
iro	-11.0834
▁chase	-11.0842
▁gate	-11.0844
▁maria	-11.0853
▁fame	-11.0857
ova	-11.0866
▁realit	-11.0876
▁abou	-11.0876
drew	-11.0881
eo	-11.0887
▁worry	-11.0889
▁richards	-11.0891
▁icon	-11.0893
▁ei	-11.0894
▁mom	-11.0894
ors	-11.0898
▁encourag	-11.0898
▁exhibit	-11.0902
▁coal	-11.0918
▁counsel	-11.0919
▁semifinal	-11.0923
▁tornado	-11.0923
▁oklahoma	-11.0923
▁encounter	-11.0923
▁enterprise	-11.0923
▁consecutive	-11.0923
▁deficit	-11.0924
▁landmark	-11.0924
▁infant	-11.0925
imply	-11.0926
▁blanket	-11.0929
▁140	-11.0931
manuel	-11.0938
▁ballistic	-11.0939
▁kyu	-11.0943
▁viewers	-11.0947
▁tak	-11.0949
▁serv	-11.096
▁persuade	-11.0971
▁87	-11.0973
cia	-11.0973
▁ambition	-11.0984
▁insult	-11.0986
▁rad	-11.0987
▁woods	-11.0987
▁latin	-11.0996
losi	-11.1001
▁tr	-11.1002
▁simon	-11.101
▁replac	-11.1012
▁faye	-11.1014
▁habitat	-11.1015
dc	-11.1017
sed	-11.1023
ze	-11.1023
sa	-11.1024
▁endorse	-11.1024
▁mall	-11.1024
ved	-11.1032
▁inch	-11.1034
▁testif	-11.1034
▁cyber	-11.1044
sburg	-11.1048
▁drill	-11.1067
▁villa	-11.107
▁proof	-11.107
▁murr	-11.1073
▁core	-11.108
▁kansa	-11.1084
▁chole	-11.1094
▁inaugura	-11.1096
▁authoriz	-11.1098
▁pat	-11.1113
▁cleve	-11.1122
ti	-11.1123
lly	-11.1129
baki	-11.1139
are	-11.114
▁fisher	-11.114
▁precaution	-11.1141
▁capabilit	-11.1141
▁salmon	-11.1141
▁constant	-11.1142
▁pipeline	-11.1142
▁strategic	-11.1145
▁background	-11.1146
wa	-11.1148
▁transplant	-11.1149
▁medication	-11.1152
▁hail	-11.1155
▁ambush	-11.1162
▁albert	-11.1166
▁migrant	-11.1174
▁colon	-11.1177
▁mayb	-11.119
▁turm	-11.1197
▁desire	-11.1198
▁overcom	-11.12
ons	-11.1202
▁flat	-11.1203
▁greate	-11.1206
▁rowl	-11.1209
▁cartoon	-11.1211
▁resolv	-11.1216
▁sec	-11.1227
▁minist	-11.1238
▁scar	-11.1241
▁harv	-11.1246
▁compromise	-11.1249
▁brun	-11.1264
▁immigrat	-11.127
tic	-11.1288
▁detonat	-11.129
▁reverse	-11.1293
▁180	-11.1294
▁wrap	-11.1294
wright	-11.1299
▁beer	-11.1308
▁voluntar	-11.1308
▁mont	-11.1309
▁inspire	-11.1311
ood	-11.1318
▁breed	-11.133
▁blog	-11.1333
▁peer	-11.1334
▁pointed	-11.1344
▁bur	-11.1347
▁confront	-11.135
▁grab	-11.135
▁yemen	-11.1354
▁killer	-11.1355
▁pepper	-11.1362
▁chapter	-11.1362
▁disorder	-11.1363
▁expansion	-11.1363
▁relax	-11.1364
▁bodyguard	-11.1364
▁idol	-11.1364
▁amazon	-11.1371
▁gm	-11.1371
▁replacement	-11.1371
▁empty	-11.1373
cut	-11.1375
▁vitamin	-11.138
lo	-11.1389
▁disclose	-11.1394
▁priest	-11.1395
▁uni	-11.1396
▁masters	-11.1402
▁uncover	-11.1403
▁flags	-11.1405
▁expire	-11.1407
▁presumpti	-11.1409
▁ram	-11.141
▁bb	-11.1415
▁cooperate	-11.1415
▁clo	-11.1416
▁stepping	-11.1429
▁tribute	-11.143
arctic	-11.1434
▁execut	-11.1449
▁massacre	-11.1467
▁circle	-11.1467
▁88	-11.1472
▁sch	-11.1473
▁loud	-11.1473
▁thick	-11.1474
ill	-11.1487
▁mac	-11.149
▁maca	-11.1492
▁eve	-11.1493
▁respondent	-11.1495
shore	-11.15
operation	-11.1501
▁kitt	-11.1504
▁miner	-11.1504
▁instance	-11.1504
▁emotional	-11.1515
▁tighten	-11.1519
▁plays	-11.1525
▁captive	-11.1527
▁rul	-11.1531
▁canal	-11.1534
▁euros	-11.1535
viation	-11.1551
▁expens	-11.1556
▁pour	-11.1557
▁insurgenc	-11.1569
▁strand	-11.158
▁ecuador	-11.1589
▁genocid	-11.1589
▁swift	-11.1589
▁autonom	-11.159
▁entrance	-11.159
▁unfair	-11.159
▁ibrahim	-11.1591
▁houston	-11.1592
▁outlook	-11.1594
▁obligation	-11.1594
▁yel	-11.1596
▁prominent	-11.1596
▁faction	-11.1597
▁happening	-11.16
▁musician	-11.1602
▁shipment	-11.161
▁decid	-11.1612
▁traged	-11.1616
▁jur	-11.1622
vin	-11.1627
held	-11.163
▁informati	-11.1631
▁silence	-11.1635
▁moral	-11.1645
▁belief	-11.1647
rey	-11.1648
▁nanc	-11.165
▁statistic	-11.1659
▁missou	-11.166
▁turns	-11.1664
▁definite	-11.1668
▁launching	-11.1678
▁torre	-11.1678
▁dismisse	-11.1679
▁urgent	-11.17
▁publication	-11.1713
▁detainee	-11.1721
▁hol	-11.1721
math	-11.173
▁marking	-11.1733
▁spray	-11.1733
▁teenage	-11.1739
▁hide	-11.1744
▁occur	-11.1746
▁impo	-11.175
▁philip	-11.1755
▁350	-11.1792
ate	-11.1793
iego	-11.1795
▁transform	-11.1799
▁polan	-11.1801
ces	-11.1803
▁hwa	-11.1809
▁confess	-11.181
kovic	-11.1814
▁grass	-11.1818
▁prohibit	-11.1818
▁bars	-11.1819
▁dealers	-11.182
▁125	-11.1821
▁tabloid	-11.1822
▁ambulance	-11.1822
▁telescope	-11.1822
▁religion	-11.1823
▁destination	-11.1823
ren	-11.1828
▁jobless	-11.1828
standing	-11.1835
▁theft	-11.1836
▁tissue	-11.1837
▁lewis	-11.1838
▁dissident	-11.184
▁instant	-11.1841
▁pardon	-11.1843
▁statue	-11.1844
▁snake	-11.1845
▁beca	-11.1847
▁recommendation	-11.1847
▁load	-11.1849
group	-11.185
▁tale	-11.185
▁telecom	-11.1851
precedent	-11.1857
▁deserve	-11.1858
▁deliberate	-11.1861
▁dragg	-11.187
▁steppe	-11.1876
▁lender	-11.1881
▁dropping	-11.1889
opec	-11.1895
▁cooper	-11.1902
▁kath	-11.1904
que	-11.1904
▁contractor	-11.1905
▁compet	-11.1914
▁baham	-11.1914
▁imagine	-11.1929
▁univers	-11.1933
▁qu	-11.1942
▁steep	-11.1947
▁master	-11.1954
▁pol	-11.1957
▁emirate	-11.1964
ew	-11.1968
▁smuggl	-11.1969
▁char	-11.1975
▁nei	-11.1976
▁preserve	-11.1977
▁mart	-11.1981
▁flower	-11.1982
▁abduct	-11.1991
▁shell	-11.1996
▁deadlie	-11.1999
▁meat	-11.2
air	-11.2001
▁abus	-11.2008
agan	-11.2011
▁recording	-11.2011
▁pu	-11.2012
ery	-11.2014
▁donation	-11.2021
▁combine	-11.2026
▁denucleariz	-11.2027
edn	-11.2032
tting	-11.204
▁petra	-11.2043
▁dry	-11.2046
▁universal	-11.2046
▁pilgrim	-11.2058
▁dalla	-11.2058
▁craig	-11.206
▁jolie	-11.206
▁fake	-11.206
▁embarrass	-11.206
▁extensive	-11.206
▁predecessor	-11.206
▁suspension	-11.2061
▁kanda	-11.2062
▁admission	-11.2062
▁billionaire	-11.2064
▁possession	-11.2065
▁bargain	-11.2065
▁resistan	-11.207
fer	-11.2074
▁chamber	-11.208
▁rebound	-11.2081
▁holder	-11.2082
▁brigade	-11.2087
▁overturn	-11.2088
fp	-11.2092
▁milk	-11.2093
▁consistent	-11.2094
▁creation	-11.21
▁whit	-11.2115
▁legitimate	-11.2121
judicial	-11.2121
▁increas	-11.2126
▁unexpected	-11.2134
▁grenade	-11.2138
▁occupie	-11.2162
▁roma	-11.2166
▁sad	-11.2172
▁comed	-11.2173
▁plea	-11.218
▁91	-11.2186
▁ignor	-11.2188
▁brick	-11.2195
▁button	-11.2195
▁rivers	-11.2197
▁diploma	-11.2201
▁designate	-11.2206
▁detonate	-11.2208
▁comfortabl	-11.221
▁discount	-11.2213
▁suggestion	-11.2214
▁tsv	-11.2219
▁becom	-11.2232
▁reconciliat	-11.2245
▁fle	-11.2251
kara	-11.2257
stein	-11.2259
▁nigeria	-11.2269
ich	-11.227
▁diya	-11.2285
min	-11.2297
▁goalkeep	-11.2298
▁vermont	-11.2304
▁monarch	-11.2304
▁infrastructure	-11.2304
▁download	-11.2304
▁registration	-11.2305
▁interrogation	-11.2307
▁endorsement	-11.2307
▁rains	-11.2315
▁guideline	-11.2315
▁chancell	-11.2319
ging	-11.232
▁fatalit	-11.2327
▁walter	-11.2348
▁sao	-11.235
▁chip	-11.2354
tar	-11.2368
▁lord	-11.237
zo	-11.2376
▁grace	-11.2398
▁isolate	-11.2414
▁dece	-11.2414
▁petr	-11.2415
▁adam	-11.2416
▁mal	-11.2426
▁sight	-11.2427
▁melt	-11.2433
▁bloom	-11.2437
russel	-11.2438
les	-11.244
▁posts	-11.2442
▁demonstrate	-11.2458
bow	-11.2459
bs	-11.2469
▁anna	-11.2479
▁dismantl	-11.2485
▁depressi	-11.2486
▁pos	-11.2495
▁mountains	-11.2495
▁kurd	-11.2514
iscons	-11.2517
000	-11.2521
▁orchestra	-11.2524
ot	-11.2526
cation	-11.2529
▁simpl	-11.2533
▁191	-11.2537
ac	-11.2537
25	-11.2543
▁meh	-11.2546
▁skull	-11.2553
▁mirror	-11.2553
▁videotape	-11.2554
▁extension	-11.2554
▁legislature	-11.2554
▁katrin	-11.2554
▁unacceptabl	-11.2554
▁airplane	-11.2554
▁shutdown	-11.2555
▁wilson	-11.2556
▁zawah	-11.2556
▁shatter	-11.2557
▁midfielder	-11.2557
▁organize	-11.2558
▁pornograph	-11.2559
▁desperate	-11.2559
ap	-11.256
▁archaeologist	-11.256
ade	-11.2562
▁ahmed	-11.2563
▁improvement	-11.2563
▁contribution	-11.2567
▁plac	-11.2572
tada	-11.258
▁puert	-11.2581
port	-11.2582
verish	-11.2586
pover	-11.2587
fk	-11.2593
▁burden	-11.2595
can	-11.2607
▁regain	-11.2608
responding	-11.2609
▁vision	-11.2627
ron	-11.263
▁merc	-11.2636
▁em	-11.2636
▁conclud	-11.2638
▁presid	-11.2651
win	-11.2664
▁dirt	-11.2665
▁hindu	-11.2671
pol	-11.2672
▁designe	-11.2677
ailing	-11.2681
▁captur	-11.2684
▁z	-11.2687
▁kun	-11.2692
▁tomb	-11.2694
nmar	-11.2696
▁forget	-11.2701
▁colonial	-11.2702
rbach	-11.2702
ps	-11.2712
▁afterward	-11.2713
▁proceed	-11.2719
iness	-11.2729
▁jets	-11.2753
▁christians	-11.2757
▁industri	-11.2762
▁hasn	-11.2765
shed	-11.2772
▁hint	-11.2776
▁evolution	-11.2778
▁mice	-11.2778
▁inmate	-11.2779
▁86	-11.2788
▁ignore	-11.2791
ppp	-11.2795
▁bow	-11.2803
▁knight	-11.2806
▁curfew	-11.2809
▁depart	-11.281
▁consensu	-11.281
▁component	-11.281
▁cigarette	-11.281
▁distress	-11.281
▁absence	-11.281
▁superior	-11.281
▁incredibl	-11.2811
▁patric	-11.2812
▁poison	-11.2814
▁spaniard	-11.2814
▁unique	-11.2818
▁oversee	-11.2818
▁iphone	-11.282
omar	-11.2825
▁posting	-11.2831
ef	-11.2831
ison	-11.2836
▁landscape	-11.2836
▁stream	-11.2838
gt	-11.2839
▁swede	-11.2839
▁charter	-11.284
▁rac	-11.284
▁steal	-11.284
▁pronounce	-11.2841
prime	-11.2848
▁evil	-11.2848
▁commuter	-11.2852
▁lin	-11.2855
▁refuge	-11.2861
▁mask	-11.2869
▁sheet	-11.2875
▁arrange	-11.2879
▁polluti	-11.2887
▁reopen	-11.2888
▁height	-11.2888
▁trace	-11.2891
vili	-11.2893
▁matt	-11.2896
▁advise	-11.2897
▁tanker	-11.2899
▁nazi	-11.29
▁examin	-11.2905
▁pole	-11.2908
▁publisher	-11.2909
▁signing	-11.2916
▁glas	-11.2941
▁gradual	-11.2945
▁analysi	-11.2946
▁plung	-11.297
▁thin	-11.2973
▁amaz	-11.2984
▁gaz	-11.2986
arachi	-11.2988
▁statistical	-11.2994
▁victoria	-11.2996
fa	-11.3007
▁closure	-11.3007
▁phil	-11.3008
▁pm	-11.3014
ological	-11.3025
ears	-11.3027
▁hye	-11.303
▁famil	-11.3033
▁habit	-11.3044
▁smash	-11.3058
▁denounc	-11.3065
11	-11.3066
▁sin	-11.3067
▁fundamental	-11.3073
▁taxpayer	-11.3073
▁marathon	-11.3073
▁gunshot	-11.3073
▁composite	-11.3074
▁prolong	-11.3075
▁partnership	-11.3076
▁combination	-11.3077
▁fault	-11.3081
▁embrace	-11.3081
tsin	-11.3081
▁outlet	-11.3084
▁burial	-11.3085
▁gender	-11.3087
▁filmmaker	-11.3088
▁slip	-11.309
▁vulnerab	-11.3092
▁pyeong	-11.3093
phy	-11.3095
▁biologist	-11.3098
▁principal	-11.3098
▁drown	-11.31
right	-11.31
▁confirmation	-11.3106
▁parade	-11.3106
▁hid	-11.3107
▁ci	-11.3114
▁astronomer	-11.3123
▁cats	-11.3129
oward	-11.3135
▁gerr	-11.3138
▁hike	-11.314
▁expell	-11.3157
▁riding	-11.3164
▁brook	-11.3165
onna	-11.3166
▁stan	-11.3183
▁minne	-11.3188
▁fift	-11.3199
ants	-11.3204
▁84	-11.3209
won	-11.3212
▁clay	-11.3214
▁joke	-11.3215
person	-11.3216
▁authorize	-11.3217
▁swed	-11.3228
▁entit	-11.3235
▁anticipat	-11.3237
for	-11.3238
▁inde	-11.3238
▁bal	-11.324
▁shake	-11.3242
▁hidd	-11.3255
ioxid	-11.3258
▁permit	-11.3264
▁stag	-11.327
▁repeat	-11.3275
▁taxi	-11.3277
▁penn	-11.328
▁brian	-11.329
ica	-11.3296
▁fence	-11.3297
▁examine	-11.3301
▁gene	-11.3305
▁prestig	-11.3306
▁origin	-11.3312
evin	-11.3322
▁broker	-11.3324
ek	-11.3325
oregon	-11.3326
▁79	-11.3327
▁christ	-11.3327
▁introduc	-11.3328
▁nicole	-11.333
dy	-11.333
▁rev	-11.3332
front	-11.3332
ating	-11.3332
▁volume	-11.3342
▁volatil	-11.3343
▁dolphin	-11.3343
▁lieutenant	-11.3343
▁counterfeit	-11.3343
▁prophet	-11.3343
peace	-11.3344
▁excessive	-11.3344
▁thirty	-11.3344
▁elevator	-11.3344
▁escort	-11.3344
▁teeth	-11.3345
▁chicken	-11.3345
▁harbor	-11.3345
▁indefinite	-11.3346
▁honest	-11.3347
▁examination	-11.3349
▁passage	-11.3354
▁publicist	-11.3355
▁suk	-11.3356
▁equit	-11.3359
▁gesture	-11.3366
▁reconstruction	-11.3369
rid	-11.3374
liberation	-11.3377
▁miller	-11.338
dari	-11.3388
▁cri	-11.3402
mon	-11.3404
▁oxy	-11.3411
▁dismantle	-11.3418
▁pool	-11.3422
▁mercur	-11.3424
▁pregnanc	-11.3432
▁ramo	-11.3439
▁bacteria	-11.3441
▁swor	-11.3444
elite	-11.3446
▁decrease	-11.3447
room	-11.345
▁au	-11.3453
▁whet	-11.3454
004	-11.346
▁plent	-11.3472
▁nurse	-11.3478
ential	-11.3484
▁headline	-11.3485
▁acid	-11.3492
ow	-11.3493
▁coincide	-11.3494
▁magic	-11.3501
irai	-11.3504
cross	-11.3505
ament	-11.3511
▁ruin	-11.3517
▁combin	-11.3518
ook	-11.3519
▁pitts	-11.3528
▁mood	-11.3534
▁zoe	-11.3537
▁110	-11.3541
world	-11.3543
▁admit	-11.3552
▁classifie	-11.3552
▁medic	-11.3571
▁uganda	-11.3576
▁courage	-11.3594
▁ron	-11.36
let	-11.3602
ast	-11.3603
clear	-11.3605
▁judiciar	-11.3606
q	-11.3611
era	-11.3612
▁dinosaur	-11.3621
▁campbell	-11.3621
▁unanimous	-11.3621
▁bolster	-11.3621
▁reputation	-11.3621
▁retreat	-11.3622
▁deadlock	-11.3622
▁probation	-11.3622
▁intervention	-11.3622
▁kidney	-11.3624
ency	-11.3625
▁escalat	-11.3626
▁subway	-11.363
▁lunch	-11.3634
▁academic	-11.3636
▁exclusive	-11.3636
▁burm	-11.3638
▁refusal	-11.3638
▁guess	-11.3639
▁talent	-11.3642
▁installation	-11.3645
▁hanging	-11.3645
▁shrink	-11.3647
▁apologiz	-11.3648
▁luis	-11.3649
▁immun	-11.3651
▁objective	-11.3654
▁opera	-11.3655
▁inspir	-11.3659
▁bel	-11.3661
▁captor	-11.3662
▁yield	-11.3662
▁graham	-11.3664
▁unna	-11.3665
▁audio	-11.3671
▁mrs	-11.3671
ile	-11.3673
▁racial	-11.3673
▁cheong	-11.3675
▁kyung	-11.368
▁assure	-11.3683
▁serbian	-11.3683
▁surprising	-11.3684
how	-11.3689
▁faste	-11.3697
▁sol	-11.3697
▁prov	-11.3698
▁documentar	-11.3703
▁pig	-11.3703
wang	-11.3714
we	-11.3715
▁postpone	-11.3722
▁selection	-11.3729
▁comply	-11.373
▁ear	-11.3741
izu	-11.3749
▁hire	-11.3752
▁appointe	-11.3756
▁rob	-11.3761
bo	-11.3761
▁disc	-11.3764
▁spe	-11.3769
▁fred	-11.377
pa	-11.3788
▁eliminate	-11.3789
stream	-11.379
war	-11.3796
ement	-11.3803
fish	-11.3815
▁finger	-11.3823
egger	-11.3827
▁deepen	-11.383
▁belgi	-11.383
▁sho	-11.3844
▁99	-11.3844
▁endur	-11.3859
▁sand	-11.3861
▁swing	-11.3868
si	-11.3881
ehouse	-11.3889
▁remarkabl	-11.3898
▁intervene	-11.39
▁portray	-11.3904
▁argentine	-11.3905
▁adjust	-11.3905
▁kazakh	-11.3906
▁dakota	-11.3906
▁schwarz	-11.3906
▁benjamin	-11.3906
▁enormous	-11.3906
▁incumbent	-11.3906
▁crocodile	-11.3906
▁motorcycle	-11.3906
▁cautious	-11.3906
▁basket	-11.3907
▁visibl	-11.3909
▁manipulation	-11.391
▁abducte	-11.3911
▁mutual	-11.3912
▁casino	-11.3914
▁animated	-11.3917
▁surf	-11.3918
▁defector	-11.3918
▁shah	-11.3919
▁forecaster	-11.3925
▁albanian	-11.3928
▁romantic	-11.3929
▁disruption	-11.3929
▁engagement	-11.3932
▁challeng	-11.3937
▁83	-11.3938
▁nikk	-11.3944
inho	-11.3944
▁happens	-11.3944
▁meal	-11.3948
▁carac	-11.3951
▁approximate	-11.3955
▁laho	-11.3955
▁prostitute	-11.3959
▁libyan	-11.3962
hoped	-11.3964
harto	-11.3974
▁update	-11.3974
▁exploit	-11.3975
▁automatic	-11.3976
▁optimis	-11.3979
▁connecti	-11.3984
ebay	-11.3984
ington	-11.3994
skirt	-11.4008
▁cape	-11.401
▁freez	-11.4013
▁rodd	-11.4013
cute	-11.4017
▁bei	-11.402
▁radi	-11.4029
▁vien	-11.404
▁advi	-11.4042
weight	-11.4048
kin	-11.405
piece	-11.4066
▁lion	-11.4091
▁armor	-11.4093
▁optimist	-11.4096
▁ally	-11.4108
▁scare	-11.4111
▁ruler	-11.4116
▁defender	-11.4119
▁ranch	-11.4134
sen	-11.4137
▁slipp	-11.4138
▁93	-11.4149
▁cambodia	-11.416
song	-11.4167
af	-11.4168
▁jewel	-11.4168
▁pollut	-11.4168
▁attach	-11.4175
▁permissi	-11.4176
▁medi	-11.4178
iled	-11.4186
▁bet	-11.4188
▁scrap	-11.419
▁nin	-11.4195
▁episode	-11.42
▁crocker	-11.42
▁cathedral	-11.42
▁beautiful	-11.42
▁epicenter	-11.42
▁maritime	-11.4201
▁tripoli	-11.4201
▁unpopular	-11.4201
▁eligib	-11.4202
▁arrangement	-11.4205
▁detective	-11.4205
▁rampage	-11.4206
mond	-11.4207
▁revision	-11.4207
▁denounce	-11.4209
▁jay	-11.4209
remlin	-11.4211
▁truc	-11.4214
sterol	-11.4218
ronto	-11.4219
▁pich	-11.4219
▁strait	-11.4222
▁ethiopian	-11.4222
▁rhetoric	-11.4223
▁cal	-11.4225
care	-11.4227
▁playe	-11.4229
▁revise	-11.4229
▁lend	-11.4232
▁observation	-11.4233
▁legislator	-11.4233
▁moga	-11.4235
mpson	-11.4237
wed	-11.4238
rut	-11.4238
res	-11.4246
▁spur	-11.4253
▁alien	-11.4258
▁manner	-11.4258
ua	-11.426
ila	-11.427
▁venture	-11.4271
cheon	-11.4273
▁expos	-11.4279
▁smart	-11.4281
▁descend	-11.4282
allah	-11.4286
▁balloon	-11.4287
▁pirac	-11.4298
ership	-11.4311
▁stor	-11.4317
lies	-11.4319
▁ok	-11.4323
▁guan	-11.4327
▁opposit	-11.4327
▁kil	-11.4335
bama	-11.4342
▁escap	-11.4351
▁smile	-11.4354
aeus	-11.4358
latter	-11.4363
▁sacrifice	-11.4367
turn	-11.4372
▁rigg	-11.4384
▁castle	-11.4386
mura	-11.44
▁candidac	-11.44
▁taste	-11.4401
▁mainl	-11.4404
▁clue	-11.4414
▁challenger	-11.4417
op	-11.4417
nix	-11.4421
refore	-11.4425
aring	-11.4427
oding	-11.4435
▁expense	-11.4438
▁saint	-11.4441
380	-11.4463
▁lover	-11.4465
dong	-11.4466
children	-11.447
henin	-11.4477
▁hostil	-11.4478
▁partial	-11.4484
▁ultra	-11.4484
▁shara	-11.4486
▁pun	-11.4489
lie	-11.449
▁longe	-11.449
▁considerabl	-11.449
ioc	-11.449
indi	-11.4496
▁carpet	-11.4503
▁symptom	-11.4503
▁random	-11.4503
▁incentive	-11.4503
▁subsequent	-11.4503
▁breakfast	-11.4503
▁wrongdoing	-11.4503
▁classroom	-11.4504
▁battles	-11.4504
▁abolish	-11.4504
▁mammal	-11.4504
place	-11.4505
▁extinction	-11.4507
▁strategist	-11.4508
▁mud	-11.451
▁outdoor	-11.4513
▁hometown	-11.4517
▁requirement	-11.4518
▁knowing	-11.4519
▁foster	-11.4519
▁bruce	-11.4523
▁pension	-11.4523
▁panic	-11.4524
▁useful	-11.4526
▁eruption	-11.4532
▁motive	-11.4547
▁ivor	-11.4548
▁welcom	-11.455
▁silver	-11.4552
like	-11.4555
▁instrument	-11.4557
▁boast	-11.4562
▁sink	-11.4566
▁attraction	-11.4571
▁elaborate	-11.4575
acco	-11.4577
▁jenni	-11.4577
▁ph	-11.458
▁crunch	-11.458
▁nak	-11.4585
▁hamper	-11.4585
▁sevill	-11.4587
ged	-11.4589
▁libert	-11.4593
nday	-11.4624
▁prosper	-11.4626
▁parker	-11.4627
▁rawal	-11.4641
ira	-11.4645
▁empir	-11.4645
▁pan	-11.4646
▁deposit	-11.4656
▁rap	-11.4659
▁wars	-11.4662
▁ideal	-11.4665
▁mos	-11.4668
▁cult	-11.467
▁98	-11.4674
▁starte	-11.4677
▁nationalist	-11.4682
prom	-11.4693
▁ku	-11.4693
▁ones	-11.4695
die	-11.4698
ampa	-11.4699
▁juan	-11.4701
▁noon	-11.4704
▁twist	-11.471
▁lie	-11.4711
▁tactic	-11.4726
▁employer	-11.4735
▁slide	-11.4735
▁clip	-11.4736
▁therap	-11.4738
ture	-11.474
14	-11.4741
▁750	-11.4746
▁atlanti	-11.475
▁assess	-11.4753
its	-11.477
▁shelve	-11.4778
▁preside	-11.4781
▁proliferat	-11.4784
bu	-11.4796
▁als	-11.4798
▁harris	-11.4812
▁sprawl	-11.4815
▁pyramid	-11.4815
▁tumor	-11.4815
▁imminent	-11.4815
▁scenario	-11.4815
▁overhaul	-11.4815
▁incursion	-11.4815
▁automobile	-11.4815
▁equivalent	-11.4815
▁slogan	-11.4815
▁cardinal	-11.4816
▁explanation	-11.4816
▁facebook	-11.4816
▁unsuccessful	-11.4816
▁depth	-11.4816
▁expedition	-11.4817
▁tribunal	-11.4817
▁crater	-11.4818
▁asteroid	-11.4818
▁bernard	-11.4819
▁bold	-11.482
▁autops	-11.4821
▁450	-11.4823
▁merger	-11.4825
akash	-11.4825
▁lifetime	-11.4831
▁prefer	-11.4838
▁fruit	-11.484
▁gibbon	-11.4846
▁graphic	-11.4846
▁divert	-11.4847
98	-11.485
▁accompany	-11.4862
▁depress	-11.4864
oc	-11.4864
ya	-11.4868
horta	-11.4881
▁rea	-11.4884
▁concede	-11.4887
▁objection	-11.4887
▁wayne	-11.4889
▁guild	-11.489
▁89	-11.4895
▁pride	-11.49
▁shooter	-11.4905
▁cry	-11.4908
io	-11.4911
thur	-11.4914
▁stepp	-11.4922
50	-11.4935
▁beatle	-11.4946
ego	-11.4947
▁limb	-11.4952
▁java	-11.4954
▁sympath	-11.4958
▁afr	-11.4961
▁phenomen	-11.4964
▁pleas	-11.4989
▁twel	-11.4989
fall	-11.5
▁isolat	-11.5012
▁recycl	-11.5025
aware	-11.5028
ida	-11.5034
▁chant	-11.5037
hu	-11.5039
▁achiev	-11.5043
▁170	-11.5045
▁alan	-11.5047
▁utilit	-11.5049
aki	-11.5049
▁craft	-11.5052
▁leap	-11.5052
pp	-11.5053
▁slaughter	-11.5056
▁scrambl	-11.5058
cher	-11.5059
▁caucus	-11.506
▁distribute	-11.5063
▁personalit	-11.5067
▁starr	-11.509
▁exam	-11.5106
▁advocate	-11.5111
▁digit	-11.5115
▁haiti	-11.5118
▁drunk	-11.5126
oo	-11.513
▁tragic	-11.5137
▁fossil	-11.5137
▁revenge	-11.5137
▁aquarium	-11.5138
▁diabet	-11.5138
▁margaret	-11.5138
▁bathroom	-11.5138
▁norwegian	-11.5138
▁fingerprint	-11.5138
▁toddler	-11.5138
▁bedroom	-11.5138
▁thorough	-11.5138
▁administrator	-11.5138
▁stronghold	-11.5139
▁website	-11.5139
oprah	-11.5141
▁citizenship	-11.5141
nts	-11.5141
▁implication	-11.5146
▁outpost	-11.5147
hook	-11.5149
▁restructur	-11.5151
▁anonymous	-11.5152
▁belgian	-11.5153
▁laser	-11.5154
droe	-11.5159
▁aspect	-11.5162
▁tu	-11.5162
▁pure	-11.5168
▁consultation	-11.5168
▁hydro	-11.5169
feld	-11.5171
▁protein	-11.5177
▁kofi	-11.5178
▁determin	-11.5181
▁influ	-11.5184
▁mccart	-11.5187
▁teaching	-11.5207
▁grade	-11.5208
mouth	-11.521
▁ri	-11.5211
stone	-11.522
▁survival	-11.5223
▁terribl	-11.5225
▁stabilize	-11.5226
▁steam	-11.523
pec	-11.5231
▁consideration	-11.5235
▁usa	-11.5235
elief	-11.5247
▁mandate	-11.5248
▁bab	-11.525
▁slum	-11.5255
▁patroll	-11.5255
▁borrow	-11.5256
▁zap	-11.5257
▁inaugurat	-11.5259
com	-11.5267
▁divid	-11.5272
▁ver	-11.5281
▁contribut	-11.5285
waz	-11.5288
has	-11.5297
tah	-11.5303
▁kell	-11.5306
bourne	-11.5311
▁lu	-11.5317
companie	-11.532
▁tai	-11.532
▁shia	-11.5324
▁spell	-11.5328
yi	-11.5337
per	-11.5341
▁provision	-11.5341
▁stewar	-11.5344
▁mara	-11.5345
▁tra	-11.5352
▁financ	-11.5357
▁kae	-11.5357
raul	-11.536
▁amy	-11.5372
▁pri	-11.5372
adal	-11.5379
▁endeavo	-11.538
▁observe	-11.5389
trick	-11.5389
▁guang	-11.5399
▁danc	-11.5401
▁refer	-11.5406
▁grounds	-11.5407
▁bonds	-11.5409
▁fortifi	-11.5411
▁bare	-11.5415
▁courts	-11.5427
▁cla	-11.5427
▁nose	-11.5432
▁gran	-11.5432
▁acquire	-11.5441
▁reviv	-11.5441
▁strange	-11.5442
▁ferg	-11.5449
▁enable	-11.5462
▁extinct	-11.5466
▁audit	-11.5467
▁mammoth	-11.547
▁travolta	-11.5471
▁automotive	-11.5471
▁homosexual	-11.5471
▁ceiling	-11.5471
▁copyright	-11.5471
▁samarra	-11.5471
▁physician	-11.5472
▁restart	-11.5472
▁eager	-11.5473
▁falluja	-11.5474
▁invitation	-11.5474
▁fujimo	-11.5478
▁buzz	-11.5478
▁layoff	-11.5482
▁bryan	-11.5483
▁assertion	-11.5484
▁cristian	-11.5485
zhei	-11.5486
▁reluctant	-11.5492
▁modest	-11.5498
▁enhance	-11.55
▁anthem	-11.5501
▁productiv	-11.5503
▁geologic	-11.5517
▁supplier	-11.5524
city	-11.5534
▁screening	-11.5539
▁berna	-11.5543
▁adapt	-11.5555
tanam	-11.5559
▁marry	-11.556
▁expression	-11.5565
▁rash	-11.5569
▁chat	-11.558
▁dad	-11.5581
▁tea	-11.5584
▁troubl	-11.5592
▁rings	-11.5599
▁electrical	-11.5599
▁fay	-11.5601
▁topic	-11.5602
hdi	-11.5604
▁pact	-11.5608
▁pl	-11.5609
▁confine	-11.5613
▁kab	-11.5613
▁menu	-11.5613
ud	-11.5617
▁exporter	-11.5626
▁influen	-11.5629
▁ethic	-11.563
▁johnsto	-11.563
▁dop	-11.5631
▁tenn	-11.5633
▁deadl	-11.5638
▁caps	-11.5644
30	-11.5645
munition	-11.5652
▁measur	-11.5652
▁serge	-11.5652
▁fisherm	-11.5659
▁alter	-11.5661
▁surgeon	-11.5663
band	-11.5665
▁gangs	-11.5671
▁stud	-11.5671
▁assume	-11.5679
▁expose	-11.5681
▁belonging	-11.5684
ased	-11.5686
▁tay	-11.5691
▁showe	-11.5693
▁defin	-11.5698
▁pipe	-11.5699
pt	-11.5704
dn	-11.5705
▁96	-11.5707
▁shame	-11.5709
▁sum	-11.5713
yan	-11.5719
▁sect	-11.5719
erial	-11.5724
▁kidnap	-11.5724
cular	-11.5725
▁populat	-11.5727
▁ambitio	-11.5733
▁captiv	-11.5737
▁cl	-11.5747
sley	-11.5751
heading	-11.5752
▁invit	-11.5758
▁rider	-11.576
▁presum	-11.5762
▁carib	-11.5762
▁christi	-11.5765
au	-11.5771
▁slim	-11.5772
▁formula	-11.5777
▁widow	-11.5782
ega	-11.5782
jiang	-11.5783
▁wrapp	-11.5785
▁uncle	-11.5787
▁rent	-11.5789
▁linds	-11.5792
▁jihad	-11.5794
▁fernand	-11.5797
▁recogni	-11.58
▁med	-11.5805
▁lynch	-11.5813
▁disagree	-11.5813
▁silent	-11.5814
▁mini	-11.5815
▁triumph	-11.5815
▁blind	-11.5815
▁verify	-11.5815
▁okinawa	-11.5815
▁epidemic	-11.5815
▁consortium	-11.5816
▁prescription	-11.5816
▁consent	-11.5816
▁grandfather	-11.5816
▁tentative	-11.5817
▁throat	-11.5817
▁advanc	-11.5818
covering	-11.5818
▁warehouse	-11.5819
▁retirement	-11.5821
▁achievement	-11.5822
▁bishop	-11.5822
▁luc	-11.5824
ming	-11.5826
▁ford	-11.5827
▁setback	-11.5828
▁equipp	-11.5829
▁hormone	-11.5829
▁polish	-11.5832
▁removal	-11.5832
▁fernando	-11.5833
▁wazir	-11.5834
▁briton	-11.5835
lief	-11.5835
▁pursuit	-11.5836
▁judgment	-11.5838
quba	-11.5839
▁dignity	-11.5839
tial	-11.5843
nell	-11.5845
▁epic	-11.5846
some	-11.5848
eus	-11.5849
▁stunning	-11.5851
▁brush	-11.5852
▁hun	-11.5853
▁jean	-11.5854
▁intent	-11.5859
▁jeong	-11.5862
▁stead	-11.5863
bank	-11.5863
▁joy	-11.5864
▁depict	-11.5871
▁gwan	-11.5874
▁af	-11.5881
▁quell	-11.5884
▁croatia	-11.5889
▁purchas	-11.5892
obi	-11.5902
▁smooth	-11.5905
▁ferry	-11.5917
▁dance	-11.5919
▁spott	-11.5931
▁stalin	-11.5934
▁opt	-11.5938
▁soul	-11.5939
▁inspect	-11.594
▁nick	-11.5942
▁aig	-11.5954
hat	-11.5954
▁myster	-11.5956
▁desk	-11.5958
▁scatter	-11.5965
▁cook	-11.5966
will	-11.5974
▁anticipate	-11.5984
07	-11.5986
▁rita	-11.5987
via	-11.599
▁lesson	-11.5993
▁accidental	-11.6
▁marie	-11.6001
▁tropic	-11.6002
eva	-11.6008
ider	-11.6013
▁springs	-11.6018
▁q	-11.6025
nis	-11.6028
▁disarm	-11.6032
reas	-11.6034
▁dense	-11.6039
▁attribute	-11.6045
▁rahm	-11.6048
ean	-11.6056
upon	-11.6058
▁keen	-11.6062
▁heighten	-11.6066
▁outline	-11.6066
ala	-11.6071
▁experienc	-11.6077
▁marc	-11.6078
▁horse	-11.608
rage	-11.6083
▁fare	-11.609
▁rho	-11.6094
▁defect	-11.6099
▁cair	-11.6099
▁slid	-11.6099
▁nu	-11.612
▁moneta	-11.6126
▁practical	-11.6126
▁yasu	-11.6135
▁brave	-11.6138
▁recogniz	-11.6146
aving	-11.6158
ali	-11.6161
▁nat	-11.6164
▁reiterate	-11.6165
identifie	-11.6165
dona	-11.6169
▁sierra	-11.6169
▁knife	-11.617
▁niger	-11.6171
▁applicant	-11.6172
▁crystal	-11.6172
▁gorilla	-11.6172
▁tayyi	-11.6172
▁mitchell	-11.6172
▁artificial	-11.6172
▁railroad	-11.6172
▁sophisticat	-11.6173
▁textbook	-11.6173
▁painful	-11.6174
▁humor	-11.6175
▁laureate	-11.6175
▁disagreement	-11.6175
▁symbolic	-11.6177
▁deteriorat	-11.6179
▁subsidiar	-11.618
▁lure	-11.6182
elecommunication	-11.6182
▁purported	-11.6183
▁echo	-11.6183
▁surpass	-11.6186
nic	-11.6188
▁impression	-11.619
▁disturb	-11.6192
▁convey	-11.6194
▁shopper	-11.6195
▁discriminat	-11.6196
ribe	-11.6197
test	-11.6206
▁sprint	-11.6207
▁trash	-11.6207
▁consum	-11.6208
▁outlaw	-11.621
▁transparent	-11.6211
▁favorable	-11.6214
▁slamm	-11.6219
▁nigerian	-11.622
▁denial	-11.6223
▁drum	-11.6223
nke	-11.6226
▁cor	-11.6229
▁haul	-11.623
▁drought	-11.6231
▁immigra	-11.6231
nfl	-11.6232
▁uprising	-11.6233
08	-11.6235
▁antibiotics	-11.6237
▁austrian	-11.6238
▁mc	-11.6238
llo	-11.6249
▁widen	-11.6251
▁smil	-11.6253
▁cole	-11.6255
▁terr	-11.6256
▁mandat	-11.6267
135	-11.6269
▁sponsors	-11.6273
▁remind	-11.6275
▁sideline	-11.628
▁bern	-11.6282
▁linda	-11.6292
▁levin	-11.6293
▁interpret	-11.6293
▁pastor	-11.6296
▁vo	-11.6296
▁rove	-11.6296
station	-11.6303
bm	-11.6308
▁projection	-11.6312
▁amin	-11.6314
▁emotion	-11.6324
ith	-11.6326
▁lance	-11.6326
▁bro	-11.6327
ore	-11.6332
▁slamme	-11.6334
tuck	-11.6335
▁communicate	-11.6336
▁surg	-11.6352
ola	-11.6356
▁hassan	-11.6367
lain	-11.638
▁legac	-11.6385
tti	-11.6385
▁archive	-11.6406
cc	-11.6408
▁shim	-11.6413
▁sank	-11.6417
singh	-11.6418
furt	-11.6422
▁interesting	-11.6422
ja	-11.6432
lando	-11.6436
toge	-11.6446
▁lit	-11.6452
▁arson	-11.6452
cent	-11.6457
nan	-11.6462
▁exceed	-11.6463
▁stamp	-11.6475
▁insiste	-11.6484
▁transit	-11.6488
▁pf	-11.6489
sul	-11.6493
▁kwang	-11.6508
▁cas	-11.6514
▁matte	-11.6515
bean	-11.6516
▁circulat	-11.652
▁rid	-11.6532
▁hui	-11.6537
▁psycholog	-11.6538
▁paparazz	-11.6538
▁reaffirm	-11.6538
▁shepherd	-11.6538
▁plummet	-11.6538
▁jirga	-11.6538
▁starbuck	-11.6538
▁condolence	-11.6538
▁irregular	-11.6538
▁junior	-11.6538
▁discharge	-11.6539
▁hazard	-11.654
▁johannes	-11.654
▁milestone	-11.654
▁respirator	-11.6541
▁disabl	-11.6544
▁propagand	-11.6544
▁activi	-11.6544
▁fahr	-11.6545
▁ankle	-11.6545
▁conceal	-11.6547
▁sack	-11.6547
▁greenland	-11.6549
▁pink	-11.6549
▁oath	-11.6553
▁mastermind	-11.6553
▁prefecture	-11.6553
ski	-11.6554
▁brothel	-11.6554
▁240	-11.6555
▁creative	-11.6555
▁bonus	-11.6558
▁nelson	-11.6561
▁gi	-11.6564
▁restraint	-11.6566
▁predominant	-11.6566
▁circuit	-11.6571
▁conscious	-11.6575
eland	-11.6575
▁101	-11.6577
rich	-11.6579
▁topple	-11.658
▁phillip	-11.6581
▁sees	-11.6587
04	-11.6588
▁beside	-11.659
▁ftse	-11.6593
▁transmission	-11.6599
▁provider	-11.6602
dom	-11.6603
▁passion	-11.6604
▁disperse	-11.6605
▁mitt	-11.661
ather	-11.6611
▁guin	-11.6612
▁scrapp	-11.6612
ize	-11.6617
▁mediator	-11.662
550	-11.6623
▁poul	-11.6632
▁cub	-11.6636
▁demonstrat	-11.6641
▁concentrate	-11.6646
▁hate	-11.665
nish	-11.6652
▁jint	-11.6654
said	-11.6656
▁follower	-11.6659
▁nair	-11.666
▁dominat	-11.6661
▁revis	-11.6662
▁grim	-11.6662
▁aziz	-11.6664
▁luna	-11.6664
ans	-11.6665
▁susan	-11.6676
▁chos	-11.6677
ise	-11.6678
cliff	-11.6684
cted	-11.6686
own	-11.669
▁substitute	-11.6691
▁irresponsibl	-11.6693
▁matsu	-11.6694
▁rig	-11.6697
▁yankee	-11.6697
▁mode	-11.6705
ello	-11.6708
▁farms	-11.6713
▁applie	-11.6716
ys	-11.6721
rmal	-11.6722
▁bath	-11.6722
▁raw	-11.6723
▁define	-11.6727
▁deck	-11.6729
▁embezzle	-11.673
ullah	-11.6733
▁folks	-11.6734
ruz	-11.6747
▁carl	-11.6763
▁emphasize	-11.6764
▁developer	-11.6779
▁chess	-11.6782
tries	-11.6783
ite	-11.6787
▁scream	-11.6788
col	-11.6789
▁pants	-11.679
ages	-11.6793
▁lope	-11.6794
▁patien	-11.6796
nstead	-11.6798
▁addict	-11.68
▁cooperat	-11.6801
▁jacque	-11.6803
lan	-11.6803
▁aborigin	-11.6809
▁steer	-11.6812
▁punch	-11.6814
▁alon	-11.6815
▁winf	-11.6819
active	-11.6821
▁refiner	-11.6824
▁ethan	-11.6825
eta	-11.6826
▁endors	-11.6829
▁displace	-11.6831
▁resum	-11.6845
▁exhaust	-11.6851
▁excite	-11.6857
▁thre	-11.6864
▁lev	-11.6864
▁tae	-11.6867
val	-11.6868
▁pav	-11.6868
▁hil	-11.6878
▁flick	-11.6893
▁balti	-11.6899
▁visual	-11.6902
rk	-11.6908
▁topp	-11.6913
▁relieve	-11.6917
▁treasure	-11.692
▁wu	-11.6921
▁guitar	-11.6923
▁acquisition	-11.6923
▁penguin	-11.6923
▁pioneer	-11.6923
▁surplus	-11.6923
▁kuznetsov	-11.6923
▁peanut	-11.6923
▁nervous	-11.6923
▁mere	-11.6923
▁nightclub	-11.6923
▁faithful	-11.6924
▁segment	-11.6924
▁cousin	-11.6925
▁carmaker	-11.6925
▁intensive	-11.6926
▁slush	-11.6926
▁thwart	-11.6926
▁parole	-11.6926
▁accompanie	-11.693
▁smell	-11.6931
harra	-11.6933
▁knut	-11.6935
▁inventor	-11.6935
▁mas	-11.6936
vacu	-11.6937
▁ethical	-11.6939
▁nominate	-11.6939
ura	-11.694
▁libb	-11.6943
▁historian	-11.6945
▁evaluation	-11.6945
▁conglomerate	-11.6946
▁bok	-11.6947
▁dementi	-11.6948
▁pocket	-11.6949
▁103	-11.6954
▁martyr	-11.6954
▁allen	-11.6955
▁deutsch	-11.6955
▁shadow	-11.6956
▁monster	-11.6957
▁assign	-11.6959
▁petrole	-11.696
▁capt	-11.6963
▁yea	-11.6964
dale	-11.6965
▁spice	-11.697
▁wan	-11.6971
▁galler	-11.6972
nati	-11.6974
▁swallow	-11.6975
aska	-11.6977
▁presentation	-11.6977
▁decisive	-11.6983
▁fines	-11.6993
▁fif	-11.6995
orry	-11.6997
▁dug	-11.7
▁construct	-11.7001
etting	-11.7006
▁massage	-11.7017
▁swe	-11.703
▁eliminat	-11.7032
▁swim	-11.7033
▁opene	-11.7049
▁mill	-11.7056
▁scan	-11.7058
▁retrieve	-11.7065
dson	-11.7066
teria	-11.7066
▁pulle	-11.707
▁mumm	-11.707
▁hud	-11.7081
istic	-11.7099
span	-11.7099
▁flaw	-11.71
▁thrill	-11.7106
▁decree	-11.7107
▁appreciate	-11.7113
▁petro	-11.7115
▁wheat	-11.7121
▁sto	-11.7124
▁operative	-11.7125
strong	-11.7128
tten	-11.7128
works	-11.713
▁gravit	-11.7139
borne	-11.715
▁feeding	-11.715
erald	-11.7156
▁fertil	-11.7156
▁skeptic	-11.7158
▁coordinate	-11.7158
was	-11.7162
▁inner	-11.7164
kwon	-11.7174
05	-11.7174
▁toy	-11.7176
abao	-11.7198
▁tribes	-11.7198
itis	-11.7203
▁mild	-11.7211
▁joon	-11.7211
▁informal	-11.7219
▁bever	-11.7221
▁minus	-11.7231
▁op	-11.7231
suf	-11.7233
enhei	-11.7234
97	-11.7236
tage	-11.7242
lair	-11.7245
kansa	-11.726
▁tap	-11.7261
▁fu	-11.7262
▁happi	-11.7269
▁prais	-11.7271
▁glori	-11.728
▁grabb	-11.7289
▁choi	-11.7297
▁justin	-11.7299
▁stemm	-11.7302
▁intercept	-11.7305
▁bon	-11.731
ius	-11.7313
▁loose	-11.7318
▁complicate	-11.7321
▁brilliant	-11.7323
▁catastroph	-11.7323
▁obstacle	-11.7323
▁kilogram	-11.7323
▁blockbuster	-11.7323
▁drastic	-11.7323
▁notorious	-11.7323
▁sibling	-11.7323
▁psychologist	-11.7323
▁mcdonald	-11.7323
▁tenure	-11.7324
▁excess	-11.7324
▁excuse	-11.7324
▁pageant	-11.7325
▁tomato	-11.7325
▁disgrace	-11.7325
▁copper	-11.7325
▁weakness	-11.7325
▁pearl	-11.7326
▁donkey	-11.7326
▁robotic	-11.7328
▁logistic	-11.7329
▁bosnia	-11.7331
▁outfit	-11.7331
xvi	-11.7332
▁domain	-11.7332
▁inhabit	-11.7334
▁streak	-11.7335
▁trademark	-11.7342
▁lecture	-11.7344
▁boris	-11.7349
▁breast	-11.7349
▁representation	-11.7349
vice	-11.7352
▁homicide	-11.7354
▁orthodox	-11.7356
rotti	-11.736
ama	-11.7362
▁choos	-11.7363
▁supervisor	-11.7367
ita	-11.7368
▁contestant	-11.7375
▁jam	-11.7377
▁cambodian	-11.7378
▁mechanical	-11.7378
tz	-11.738
▁shap	-11.7383
▁sooner	-11.7383
▁ash	-11.7387
▁zimbabwean	-11.7405
oon	-11.7407
nebr	-11.7407
▁coin	-11.7408
▁muq	-11.7409
▁spotte	-11.7411
▁kiba	-11.7412
his	-11.7419
▁khali	-11.742
titude	-11.7422
▁finishe	-11.7425
gow	-11.7428
uk	-11.743
▁cage	-11.7433
▁cab	-11.7435
▁portal	-11.7437
▁dave	-11.7439
▁exten	-11.7451
▁mob	-11.7457
▁easter	-11.7465
▁pave	-11.7465
▁kiss	-11.7469
▁script	-11.7486
▁gr	-11.7486
shi	-11.749
▁northwester	-11.7491
than	-11.7493
wi	-11.7494
▁bride	-11.7501
dium	-11.7503
ssett	-11.7513
bar	-11.752
▁possess	-11.7521
▁gil	-11.7523
▁assert	-11.7529
▁pile	-11.7538
ervie	-11.7539
▁05	-11.755
pears	-11.7558
▁barry	-11.7559
▁genes	-11.7563
nding	-11.7564
▁bearing	-11.7568
▁rehabilitati	-11.7568
▁comb	-11.7568
mandu	-11.7576
▁worri	-11.7578
▁generat	-11.7582
▁snapp	-11.7586
▁accurate	-11.759
▁ouste	-11.7593
rai	-11.7594
earing	-11.76
▁hom	-11.7601
▁midwest	-11.7608
▁glen	-11.7608
▁sighting	-11.7617
▁boxe	-11.7619
▁coat	-11.7623
▁indoor	-11.7625
▁der	-11.7629
▁arrang	-11.7631
ker	-11.7645
pe	-11.7645
▁dominica	-11.765
▁legislat	-11.7655
▁cycle	-11.7658
tina	-11.766
▁flare	-11.766
kdo	-11.7662
bani	-11.7679
▁spike	-11.7681
▁sway	-11.7688
dev	-11.7694
▁cu	-11.7695
▁lar	-11.7697
▁instruct	-11.77
▁slippe	-11.7706
▁jaz	-11.7711
po	-11.7721
▁acquitt	-11.7724
ft	-11.773
▁filing	-11.7735
▁santi	-11.7735
ara	-11.7735
ters	-11.7737
▁ham	-11.7737
▁genuine	-11.774
▁simultaneous	-11.774
▁kashmir	-11.774
▁refrain	-11.774
▁misdemeanor	-11.774
▁premature	-11.774
▁gadget	-11.774
▁qassam	-11.774
▁bmw	-11.774
▁psychological	-11.774
▁pistol	-11.774
▁curious	-11.774
▁veterinarian	-11.774
▁leonard	-11.7742
▁hatred	-11.7742
▁colonel	-11.7742
▁fortress	-11.7743
fi	-11.7743
▁attractive	-11.7743
▁sensitivit	-11.7744
▁editorial	-11.7744
▁transcript	-11.7744
▁confidential	-11.7745
▁787	-11.7745
▁isolation	-11.7745
▁consist	-11.7745
▁unchang	-11.7746
▁iceland	-11.7747
▁whistle	-11.7747
▁precise	-11.7748
▁overthrow	-11.7748
▁progressive	-11.7748
▁ismail	-11.7749
oming	-11.775
rogge	-11.7753
▁jun	-11.7756
▁harper	-11.7756
▁sacr	-11.7756
▁attribut	-11.7757
▁kara	-11.7757
▁bulgarian	-11.776
45	-11.7762
▁dili	-11.7764
▁lane	-11.7769
▁explorer	-11.7776
▁warship	-11.7776
▁coll	-11.7779
▁blessing	-11.7784
▁vigil	-11.7785
▁devil	-11.7792
▁mer	-11.7793
▁guid	-11.7793
▁sued	-11.7794
ail	-11.7798
▁thi	-11.7809
▁zhang	-11.7819
▁franchise	-11.7821
▁wipe	-11.7823
ada	-11.7825
▁spare	-11.7826
▁neil	-11.7826
sony	-11.7826
▁arena	-11.7826
▁dun	-11.7831
▁nerve	-11.7835
▁92	-11.7835
▁jiang	-11.7836
▁tube	-11.7838
▁impress	-11.7852
▁ranger	-11.7852
▁couch	-11.7853
▁cr	-11.7853
▁uncertain	-11.7855
▁kph	-11.7866
▁julie	-11.787
▁obes	-11.7879
▁comic	-11.788
▁arabi	-11.7884
nshine	-11.789
▁spectac	-11.7891
▁teh	-11.7894
stock	-11.7911
▁foods	-11.7914
▁alleg	-11.7925
▁casual	-11.793
▁tala	-11.7933
▁hallow	-11.7937
▁exhibition	-11.7941
▁lodge	-11.7951
cef	-11.7953
▁finalize	-11.7956
▁suppress	-11.797
▁silv	-11.7977
▁hammer	-11.798
▁shutt	-11.7985
▁trans	-11.7989
ire	-11.799
▁flexib	-11.799
▁rak	-11.799
▁classe	-11.7997
▁ala	-11.8007
ee	-11.802
▁ramad	-11.803
▁trac	-11.8031
rbil	-11.8037
▁karl	-11.8043
▁shocking	-11.8046
▁biolog	-11.8056
▁uncertaint	-11.806
▁spurr	-11.8066
decided	-11.8067
▁cd	-11.8068
point	-11.8068
▁mess	-11.807
▁retaliati	-11.807
stitution	-11.807
▁lat	-11.8078
▁sai	-11.8089
▁swap	-11.8091
▁analyze	-11.8094
bound	-11.8095
▁suv	-11.8099
▁atrocit	-11.81
som	-11.8109
▁speculate	-11.8118
nted	-11.812
▁container	-11.8124
ern	-11.8125
▁sensor	-11.8125
▁steadi	-11.8126
▁nur	-11.813
▁estonia	-11.8137
teen	-11.8139
ched	-11.814
▁territori	-11.8141
▁230	-11.8143
▁dama	-11.8146
▁pric	-11.8153
▁communi	-11.816
▁belt	-11.8167
▁awake	-11.817
ttle	-11.8171
▁bizarre	-11.8174
▁chocolate	-11.8174
▁intellectual	-11.8174
▁tremendous	-11.8174
▁umbrella	-11.8174
▁reckless	-11.8174
▁douglas	-11.8174
▁caretaker	-11.8174
▁tattoo	-11.8174
▁maoist	-11.8174
▁cricket	-11.8174
▁potato	-11.8174
▁monument	-11.8175
▁vault	-11.8175
▁vegetable	-11.8175
▁premium	-11.8175
▁kitchen	-11.8175
▁mysterious	-11.8175
▁signature	-11.8175
▁seizure	-11.8175
▁contentious	-11.8176
penh	-11.8178
▁vista	-11.8179
▁introduction	-11.8179
▁organic	-11.818
▁jamie	-11.818
▁cancellation	-11.8181
▁ledger	-11.8181
▁bounce	-11.8181
▁addiction	-11.8182
▁laura	-11.8183
▁poses	-11.8183
▁satisfie	-11.8183
▁complicat	-11.8183
▁concentration	-11.8183
▁sufficient	-11.8186
▁harvest	-11.8188
▁bloc	-11.8189
▁click	-11.8189
▁sheep	-11.8189
▁avenue	-11.8191
bel	-11.8197
96	-11.8198
▁grammy	-11.82
hal	-11.8203
▁frog	-11.8204
▁ste	-11.8208
▁measurement	-11.8212
▁ken	-11.8212
▁farming	-11.8215
tp	-11.8217
▁injection	-11.8218
▁bicycle	-11.822
▁servant	-11.8221
▁ufo	-11.8223
▁integr	-11.8227
gged	-11.823
▁nasr	-11.8232
▁importan	-11.8232
▁mega	-11.8232
▁powder	-11.8245
▁bulk	-11.8246
▁glimpse	-11.8247
▁roy	-11.8247
▁ward	-11.8247
▁congratulat	-11.8249
▁lenno	-11.825
▁tense	-11.8254
▁spin	-11.8256
▁gib	-11.8258
▁drain	-11.826
him	-11.8262
nmark	-11.8265
scus	-11.827
hasa	-11.8272
▁semi	-11.8275
appropriate	-11.8277
▁permitt	-11.8283
▁infantry	-11.8284
▁collide	-11.8284
▁assassinate	-11.8285
▁format	-11.8293
top	-11.8319
▁aero	-11.8319
▁dresse	-11.8319
▁anim	-11.8322
▁02	-11.8334
▁franc	-11.8335
▁reasonabl	-11.8339
power	-11.8345
ishu	-11.835
lima	-11.8353
sman	-11.8354
udh	-11.8355
▁execute	-11.836
▁attache	-11.8373
▁impass	-11.8374
▁bae	-11.8379
amil	-11.8379
▁premiere	-11.8382
▁neutral	-11.8386
▁gambl	-11.8388
caust	-11.8389
lisa	-11.839
▁tuck	-11.839
▁scholars	-11.8391
▁reign	-11.8394
▁titan	-11.8397
▁uta	-11.8405
▁pin	-11.8405
▁hell	-11.8407
▁rely	-11.8412
▁vers	-11.8417
▁mir	-11.842
▁bench	-11.8421
oursel	-11.8422
▁spitz	-11.8428
▁innocen	-11.8429
▁bread	-11.8432
yama	-11.8435
▁sens	-11.8439
▁loot	-11.8459
▁lotte	-11.8462
ues	-11.8473
▁absent	-11.8484
▁colo	-11.8486
▁contend	-11.8486
aro	-11.849
▁slugg	-11.8492
▁manipulat	-11.8494
▁210	-11.8498
▁prodi	-11.8502
▁appli	-11.8504
aged	-11.8504
▁plott	-11.8507
ix	-11.8514
▁kh	-11.8517
▁roug	-11.8529
shift	-11.8532
▁fla	-11.8532
▁08	-11.8534
▁adequate	-11.8537
▁guarded	-11.8546
▁philli	-11.8548
▁harmon	-11.8551
specifi	-11.8552
▁architect	-11.8554
▁perin	-11.8571
▁harass	-11.8575
▁tent	-11.8576
▁transparen	-11.858
versh	-11.8583
hill	-11.8586
▁salt	-11.8599
003	-11.86
▁till	-11.8604
70	-11.8604
ations	-11.8622
lander	-11.8625
ague	-11.8626
▁ingredient	-11.8629
▁magistrate	-11.8629
▁stomach	-11.8629
▁abrupt	-11.8629
▁sumatra	-11.8629
▁provocative	-11.8629
▁database	-11.8629
▁solomon	-11.863
▁fidel	-11.863
▁ipod	-11.863
▁profound	-11.8631
▁negro	-11.8631
▁blunt	-11.8632
▁coroner	-11.8632
▁competitor	-11.8632
▁contingent	-11.8633
▁holland	-11.8633
▁interstate	-11.8634
▁elector	-11.8634
▁workplace	-11.8636
▁frustration	-11.8637
▁guardian	-11.864
▁imp	-11.8644
▁invade	-11.8644
▁grat	-11.8644
▁collective	-11.8645
▁cabin	-11.8646
▁showdown	-11.8647
▁playoff	-11.8647
▁unt	-11.8648
▁wat	-11.865
▁informant	-11.865
▁generator	-11.8651
▁chunk	-11.8653
▁blogger	-11.8654
▁enact	-11.8658
▁aggressi	-11.8658
▁94	-11.8659
▁rift	-11.8664
▁delight	-11.8669
▁ger	-11.8675
▁counterterroris	-11.8681
▁sep	-11.8681
▁quarte	-11.8683
amount	-11.8684
yodo	-11.8685
▁bible	-11.8686
onia	-11.8687
▁wield	-11.8695
aw	-11.8696
ines	-11.8698
▁procession	-11.8704
▁examiner	-11.8719
▁relevan	-11.872
▁venus	-11.8722
ches	-11.8725
ox	-11.8726
▁cooking	-11.8729
▁grain	-11.8731
▁liu	-11.8735
▁lugg	-11.8735
pping	-11.8738
ord	-11.874
▁bio	-11.8745
▁vanco	-11.8747
▁batch	-11.875
neapoli	-11.875
▁raj	-11.8751
mus	-11.8754
▁rico	-11.8755
▁dedicate	-11.8756
▁pelo	-11.8756
60	-11.8757
▁gunfi	-11.8758
▁array	-11.8771
▁garb	-11.8775
▁belov	-11.8782
▁corn	-11.8792
▁mush	-11.8794
row	-11.8808
▁dire	-11.8809
▁ashle	-11.8813
▁slot	-11.8813
ky	-11.8816
ique	-11.882
▁advis	-11.882
▁pills	-11.8821
castle	-11.8822
otic	-11.8827
▁sars	-11.8831
pei	-11.8834
▁sharon	-11.8837
awi	-11.8843
▁upgrade	-11.8848
▁municipal	-11.8849
ponte	-11.8859
▁interfere	-11.8866
vy	-11.8868
▁fuku	-11.8873
ink	-11.8876
▁pic	-11.8876
shima	-11.888
▁lump	-11.8881
▁horses	-11.8881
▁dock	-11.8887
oma	-11.8887
▁basin	-11.8889
▁orient	-11.8896
▁nori	-11.8899
names	-11.8901
▁stresse	-11.8905
▁recep	-11.8906
rod	-11.8907
▁seeming	-11.8907
▁instruction	-11.8918
▁tipp	-11.8919
▁adventure	-11.8921
▁baker	-11.8923
▁lamp	-11.8924
made	-11.8927
▁stunt	-11.8933
▁tapes	-11.8934
▁aug	-11.8937
roadway	-11.8937
▁capab	-11.894
▁cur	-11.8942
ideas	-11.8943
▁musa	-11.8947
▁tribe	-11.8947
mao	-11.8951
nintend	-11.8961
▁cleaner	-11.8973
▁lim	-11.8975
▁wang	-11.8975
▁sav	-11.898
▁bat	-11.8993
▁emi	-11.8993
kuni	-11.8994
▁ib	-11.8994
▁antho	-11.8995
▁frost	-11.9009
▁wings	-11.9014
▁va	-11.9023
con	-11.9035
wing	-11.9043
tha	-11.9044
▁accelerate	-11.9046
▁kle	-11.9046
▁grip	-11.9048
▁sketch	-11.9048
ible	-11.9049
▁sk	-11.9054
ely	-11.9061
ecame	-11.9063
lash	-11.9063
▁ethiopia	-11.9069
witt	-11.907
▁amend	-11.9073
▁preferr	-11.9074
▁sequence	-11.9074
▁extremis	-11.9079
▁climber	-11.9086
▁digg	-11.9086
uma	-11.9096
▁contradict	-11.9099
▁unite	-11.9102
▁cosmonaut	-11.9105
▁lincoln	-11.9105
▁pharmaceutical	-11.9105
▁battalion	-11.9105
▁quarantine	-11.9105
▁negligen	-11.9105
▁illicit	-11.9105
▁diminish	-11.9105
▁supplement	-11.9105
▁dentist	-11.9105
▁malawi	-11.9106
▁anxiet	-11.9106
▁multinational	-11.9106
▁anxious	-11.9106
▁deportation	-11.9106
▁hispanic	-11.9106
▁merchant	-11.9107
▁reinforcement	-11.9107
▁boulder	-11.9107
▁fragil	-11.9107
▁exploration	-11.9107
▁fantastic	-11.9107
▁handgun	-11.9107
▁definition	-11.9107
▁rehab	-11.9108
▁comedian	-11.9108
▁reception	-11.9108
▁oversight	-11.9109
▁alfred	-11.9109
▁ukrainian	-11.9109
▁separat	-11.911
▁blake	-11.911
▁serena	-11.911
▁hijack	-11.911
▁disappointment	-11.9114
▁derail	-11.9115
▁continuous	-11.9115
▁recess	-11.9115
▁flock	-11.9116
▁overlook	-11.9116
▁column	-11.9116
▁reiterat	-11.9116
▁dodge	-11.9117
▁interaction	-11.9118
▁costume	-11.9119
▁consultant	-11.9121
▁ads	-11.9121
▁certificate	-11.9125
▁siege	-11.9127
▁headache	-11.9129
▁drunken	-11.9129
▁drag	-11.913
▁juror	-11.9135
▁liais	-11.9135
▁strapp	-11.9135
▁yale	-11.9136
▁creator	-11.9137
▁dragon	-11.9139
▁rubber	-11.9141
▁salarie	-11.9142
▁staple	-11.9143
lary	-11.9144
▁gro	-11.9146
tte	-11.9149
maker	-11.9151
ini	-11.9153
▁117	-11.9156
▁helm	-11.916
▁chips	-11.9161
▁rub	-11.9167
▁observ	-11.9171
▁honey	-11.9172
lar	-11.9173
austin	-11.9176
▁bil	-11.9181
ouf	-11.9187
▁ferrer	-11.9188
▁arro	-11.919
▁qualifier	-11.9191
▁fre	-11.9197
nba	-11.92
▁exp	-11.9202
▁brig	-11.9204
▁collins	-11.9205
▁superb	-11.9206
▁choices	-11.9214
▁allege	-11.9215
anbar	-11.9221
▁prediction	-11.9226
break	-11.9229
▁plains	-11.9231
▁xu	-11.9235
▁intel	-11.9242
▁interrupt	-11.9242
▁parti	-11.9252
nder	-11.9252
▁theme	-11.9261
▁winger	-11.9265
state	-11.9268
▁hack	-11.9269
▁dependent	-11.928
terda	-11.9281
unt	-11.9282
▁leone	-11.9282
▁roar	-11.9286
▁gre	-11.9288
etic	-11.9296
▁hacker	-11.93
▁nec	-11.93
▁utter	-11.9305
pollo	-11.9307
mother	-11.9307
nger	-11.9311
▁distributi	-11.9317
▁ridicul	-11.9324
▁manda	-11.9327
▁convene	-11.9327
▁defi	-11.9332
▁hat	-11.9335
saka	-11.9339
▁constitute	-11.9357
▁rick	-11.936
set	-11.936
wear	-11.9363
▁yan	-11.9364
unes	-11.937
▁zu	-11.937
berra	-11.937
▁tooth	-11.9371
▁probab	-11.9373
▁glow	-11.9374
chang	-11.9379
att	-11.9388
▁triple	-11.9389
▁unifi	-11.9392
▁gala	-11.9397
schne	-11.9397
map	-11.9401
▁trailer	-11.9403
▁pian	-11.9404
▁airliner	-11.9405
▁lov	-11.941
▁shak	-11.941
▁solv	-11.9411
scope	-11.9411
▁jumpe	-11.9413
▁picke	-11.9417
lights	-11.9418
athrow	-11.9422
nprofit	-11.9427
lateral	-11.943
▁seller	-11.9438
van	-11.9439
▁pond	-11.9441
▁nail	-11.9443
ket	-11.9445
▁dissolve	-11.9448
wealth	-11.945
▁stalinis	-11.945
▁riders	-11.9458
▁patriot	-11.9479
▁ya	-11.9481
47	-11.9484
▁anne	-11.9485
▁sach	-11.9489
table	-11.9489
▁cart	-11.949
▁intensifie	-11.9492
▁dar	-11.9495
▁prostitut	-11.9496
mark	-11.9499
rado	-11.9501
▁wrappe	-11.9505
▁barak	-11.9508
lton	-11.9509
bon	-11.9511
▁hamburg	-11.9518
rank	-11.952
jo	-11.9522
▁commemorate	-11.9528
pov	-11.9533
▁bla	-11.9534
▁97	-11.9536
▁mikh	-11.9539
▁ann	-11.9546
▁dealer	-11.9556
▁romania	-11.9559
dding	-11.956
▁compile	-11.9566
▁popp	-11.9566
▁algeria	-11.9571
▁easie	-11.9576
mes	-11.9576
▁claus	-11.9577
▁sola	-11.9586
ms	-11.9592
▁bind	-11.9595
gry	-11.9596
▁scrutin	-11.9598
▁spec	-11.9599
▁albatross	-11.9605
▁excerpt	-11.9605
▁prototype	-11.9605
▁tycoon	-11.9605
▁inflict	-11.9605
▁engulf	-11.9605
▁oxford	-11.9605
▁himalaya	-11.9605
▁keynote	-11.9605
▁frontrunner	-11.9605
▁perception	-11.9605
▁implant	-11.9605
ark	-11.9606
▁eleven	-11.9606
▁verification	-11.9607
▁atleti	-11.9607
▁keith	-11.9608
▁workforce	-11.961
▁revelation	-11.961
bhumi	-11.9612
▁850	-11.9613
▁wrist	-11.9616
▁ross	-11.9617
▁memorab	-11.9618
▁snack	-11.9618
▁zheng	-11.9619
▁township	-11.962
▁thriller	-11.9626
▁sla	-11.9631
itz	-11.9631
mates	-11.9632
▁fiber	-11.9633
▁inject	-11.9633
▁dig	-11.9633
▁kiev	-11.9635
▁confession	-11.9636
▁vocal	-11.9637
▁lyric	-11.9638
ensive	-11.9648
▁collar	-11.965
▁trap	-11.9655
▁wash	-11.9658
03	-11.9662
▁fiction	-11.9664
▁bump	-11.9664
that	-11.9672
▁owen	-11.9681
▁za	-11.9681
▁particle	-11.9683
sin	-11.9684
kov	-11.9685
▁djo	-11.9687
▁resemble	-11.9691
▁cannon	-11.9692
▁youngster	-11.9695
▁deem	-11.9695
▁hostilit	-11.9696
▁flin	-11.9702
▁ferrar	-11.9704
▁facial	-11.9706
▁spouse	-11.9706
▁extract	-11.971
chum	-11.9712
ered	-11.9719
ci	-11.972
▁assurance	-11.9724
▁lucas	-11.9726
▁humiliat	-11.9726
▁underscore	-11.9728
hen	-11.9728
wine	-11.9731
▁memo	-11.9733
▁displac	-11.9738
▁manufacture	-11.9738
▁valid	-11.9738
▁quest	-11.9748
▁applaud	-11.975
▁referee	-11.9751
▁caffein	-11.9751
▁phu	-11.9751
▁stat	-11.9754
ux	-11.9757
▁mond	-11.9761
95	-11.9761
▁dorm	-11.9763
gb	-11.9769
▁troubles	-11.977
▁heal	-11.9778
20	-11.9782
▁wheels	-11.9785
▁09	-11.9786
▁fantas	-11.9788
ome	-11.979
▁cartel	-11.979
▁scuffle	-11.9791
▁shwe	-11.9795
26	-11.9796
▁cre	-11.9798
▁motivate	-11.9802
▁glad	-11.9805
▁devote	-11.9807
▁165	-11.9808
▁classifi	-11.9809
▁280	-11.9813
▁harve	-11.9814
▁plume	-11.9816
rative	-11.9818
▁ire	-11.9825
taly	-11.9826
ena	-11.983
zel	-11.9832
▁tender	-11.9834
▁franco	-11.9834
mmy	-11.984
course	-11.9854
▁hip	-11.9855
▁tumble	-11.9857
yo	-11.986
▁bother	-11.9862
▁clone	-11.9871
▁aime	-11.9876
▁horn	-11.9879
ethane	-11.9885
▁agenci	-11.989
gue	-11.9893
▁laute	-11.9895
▁pit	-11.9895
olo	-11.9895
enna	-11.9899
▁blitz	-11.9903
ering	-11.9908
ame	-11.9921
▁behead	-11.9926
mps	-11.9934
folk	-11.9937
▁rattl	-11.9944
▁preserv	-11.9946
angi	-11.9947
onda	-11.9952
▁koo	-11.9957
▁terra	-11.996
▁sat	-11.996
▁bleed	-11.9963
dp	-11.9969
▁nurs	-11.9969
▁ze	-11.997
▁reinstate	-11.9972
say	-11.9974
▁fal	-11.9983
▁193	-11.9985
▁val	-11.9987
▁lakes	-11.9987
▁wander	-11.9993
▁rover	-11.9994
▁chronic	-11.9995
▁frustrat	-11.9998
▁poster	-12.0001
ospi	-12.0002
▁laurea	-12.0005
▁mixe	-12.0008
ilia	-12.0009
hrai	-12.0009
vich	-12.001
▁stockpile	-12.0012
tor	-12.0018
che	-12.0022
identifi	-12.0023
▁assassinat	-12.0024
▁gator	-12.0025
▁hank	-12.003
▁helen	-12.0031
end	-12.0032
cious	-12.0033
cca	-12.0037
▁bron	-12.0037
▁exclud	-12.0041
▁cycl	-12.0045
ayman	-12.0046
▁overwhelm	-12.0053
15	-12.0053
▁capa	-12.007
▁normaliz	-12.0084
▁linger	-12.0085
▁educat	-12.0087
▁followe	-12.009
▁restrain	-12.0093
kia	-12.0094
▁nb	-12.0094
▁jamaica	-12.0096
▁congratulate	-12.01
▁tries	-12.0107
▁gibb	-12.0108
▁taint	-12.0109
▁sugar	-12.0115
▁mobil	-12.0115
▁broadb	-12.0115
▁contra	-12.0118
▁jimm	-12.0123
ssif	-12.0123
▁plain	-12.0124
▁layer	-12.013
▁calendar	-12.0131
▁juvenile	-12.0131
▁artifact	-12.0131
▁gossip	-12.0131
▁wheelchair	-12.0131
▁barricade	-12.0131
▁biofuel	-12.0131
▁lesbian	-12.0131
▁miracle	-12.0131
▁abraham	-12.0131
▁demilitariz	-12.0131
▁external	-12.0131
▁chapel	-12.0132
▁evasion	-12.0132
▁junichi	-12.0132
▁portrait	-12.0132
▁comparison	-12.0132
▁millenni	-12.0132
▁exxon	-12.0132
▁supermarket	-12.0132
▁seafood	-12.0132
print	-12.0132
▁technician	-12.0132
▁persistent	-12.0132
▁furni	-12.0132
▁calorie	-12.0132
▁lifestyle	-12.0132
▁conservationist	-12.0133
▁mislead	-12.0133
▁dictatorship	-12.0133
▁consulate	-12.0134
▁chadian	-12.0134
▁predator	-12.0134
▁monaster	-12.0135
▁basque	-12.0136
▁cameroon	-12.0136
▁spectator	-12.0136
▁cruel	-12.0136
▁helmet	-12.0138
▁1930	-12.0139
▁recount	-12.0139
▁premise	-12.0139
▁brink	-12.0139
▁lugo	-12.014
bright	-12.0142
▁bypass	-12.0142
artill	-12.0143
gh	-12.0143
▁subsidi	-12.0145
▁notifi	-12.0145
▁finalist	-12.0146
▁acceptance	-12.0146
▁metro	-12.0146
▁unofficial	-12.0146
▁coastline	-12.0147
▁constructive	-12.0148
ced	-12.0149
▁unilateral	-12.015
▁establishment	-12.0151
▁trek	-12.0152
sday	-12.0154
▁spiral	-12.0157
▁zan	-12.0158
▁garner	-12.0158
▁steroid	-12.0159
▁cop	-12.016
ario	-12.0161
action	-12.0161
▁wale	-12.0162
▁thunder	-12.0163
▁cordon	-12.0165
▁rhino	-12.0166
▁kasp	-12.0167
▁barrage	-12.0167
▁intensify	-12.0167
▁pretend	-12.0169
▁pancreati	-12.017
sive	-12.0171
▁buyout	-12.0172
▁therapist	-12.0172
▁authentic	-12.0173
rogue	-12.0174
▁trump	-12.0174
▁friendl	-12.0175
▁unbeat	-12.0177
▁chao	-12.0178
▁karim	-12.0178
▁mccon	-12.018
▁manual	-12.0182
▁securi	-12.0184
▁colomb	-12.0184
▁tongue	-12.0186
▁exception	-12.0188
▁beverage	-12.0191
▁efficienc	-12.0193
▁bubble	-12.0193
▁nai	-12.0197
▁nash	-12.0198
▁inspiration	-12.0198
play	-12.0199
▁provoke	-12.02
▁pali	-12.0205
▁bran	-12.0205
▁115	-12.0212
beki	-12.0213
pl	-12.0214
qaw	-12.0215
trophy	-12.0227
▁fitzg	-12.0228
rc	-12.0236
dominant	-12.0238
▁kissing	-12.024
arov	-12.0241
wc	-12.0245
▁seasonal	-12.0245
▁companion	-12.0248
wai	-12.0251
▁tolerate	-12.0257
▁horrifi	-12.0263
▁impressi	-12.0269
what	-12.027
▁attendant	-12.0284
▁swin	-12.0288
▁participati	-12.0296
ff	-12.0297
▁graves	-12.0298
▁org	-12.0303
▁accomplish	-12.0305
zone	-12.031
kat	-12.031
▁galla	-12.0311
hy	-12.0314
▁drift	-12.0329
▁auditor	-12.0336
oli	-12.0337
▁paralyz	-12.0341
▁carla	-12.0349
▁vick	-12.035
▁henri	-12.035
▁bagg	-12.0356
▁underst	-12.0359
▁proven	-12.0367
▁soda	-12.0367
▁cinema	-12.037
▁buck	-12.0372
▁scratch	-12.0374
eera	-12.0374
▁supervis	-12.0374
ndrome	-12.0382
▁explore	-12.0387
▁gonn	-12.0392
▁tob	-12.0404
▁underwe	-12.0404
▁gus	-12.0411
▁skinn	-12.0413
▁comprehen	-12.0419
▁hover	-12.0421
▁infiltrat	-12.0427
▁alma	-12.0436
uc	-12.0436
cha	-12.0437
▁rag	-12.044
▁haniy	-12.0442
▁disk	-12.0443
box	-12.0448
▁bamb	-12.0449
▁speculat	-12.0456
mun	-12.0458
ue	-12.0461
▁vest	-12.0461
scale	-12.0465
▁investigati	-12.0477
▁ratio	-12.0478
▁whipp	-12.048
▁dwindl	-12.0491
▁pad	-12.0493
▁differ	-12.0493
▁sim	-12.0494
▁reserv	-12.0499
claren	-12.05
▁jp	-12.05
lling	-12.0501
▁ideolog	-12.0506
▁swear	-12.0508
easing	-12.0509
▁staffer	-12.0511
▁unhapp	-12.0511
▁erect	-12.0513
▁hurl	-12.0514
gar	-12.052
▁litera	-12.0533
▁keeper	-12.0536
▁slope	-12.0538
▁unle	-12.0538
▁soften	-12.0552
▁employe	-12.0565
▁01	-12.0566
hap	-12.057
▁performer	-12.0578
mz	-12.0579
napoli	-12.0582
ula	-12.0584
▁greg	-12.0584
▁hick	-12.0587
▁designat	-12.0587
gang	-12.0588
▁por	-12.0588
▁significan	-12.0589
ette	-12.059
tive	-12.0598
▁consume	-12.0601
▁fort	-12.0607
▁frighten	-12.0607
▁alli	-12.0607
conscious	-12.0615
ls	-12.0616
▁wii	-12.0618
▁lak	-12.0621
▁guatemala	-12.0623
▁lander	-12.0627
▁doo	-12.0634
amine	-12.064
▁arch	-12.0647
xel	-12.0648
eaten	-12.0653
adilla	-12.0659
▁readers	-12.0661
hang	-12.0663
▁contaminat	-12.0665
▁earl	-12.0668
eful	-12.067
ents	-12.0681
▁relocate	-12.0685
▁veterinar	-12.0686
▁mechanism	-12.0687
▁parallel	-12.0687
cover	-12.0687
▁evangelical	-12.0687
▁fatigue	-12.0687
▁messenger	-12.0687
▁rwanda	-12.0687
▁bahrain	-12.0687
▁machete	-12.0687
▁jacob	-12.0687
▁forensic	-12.0687
▁tikrit	-12.0687
▁nickname	-12.0687
▁robust	-12.0687
▁wholesale	-12.0687
▁confederation	-12.0687
▁disclosure	-12.0687
▁fabio	-12.0687
▁litvin	-12.0687
▁unlawful	-12.0687
▁jefferson	-12.0688
▁translator	-12.0688
▁horror	-12.0688
▁ailment	-12.0688
▁athletic	-12.0688
▁abdel	-12.0689
▁clerk	-12.0689
▁proclaim	-12.0689
▁reprocess	-12.069
▁def	-12.069
▁loya	-12.0691
▁newborn	-12.0693
▁cluster	-12.0694
▁downplay	-12.0695
▁francois	-12.0695
▁lobbyist	-12.0696
mp	-12.0698
▁alcoholic	-12.07
▁meteorologist	-12.07
▁centimeter	-12.07
▁hal	-12.0705
lroo	-12.0706
▁cel	-12.0709
▁toppe	-12.071
▁salary	-12.0712
aga	-12.0714
▁ritual	-12.0719
▁transformation	-12.0721
▁mullah	-12.0725
laying	-12.0725
nu	-12.0725
▁detector	-12.0727
▁valuable	-12.0729
▁soap	-12.073
▁tenor	-12.0732
▁accompani	-12.0736
▁00	-12.0737
▁fur	-12.0738
▁breathe	-12.0738
▁sara	-12.074
▁eas	-12.0741
▁complication	-12.0743
▁composer	-12.0744
▁embark	-12.0744
▁slash	-12.0747
▁blank	-12.0748
▁settl	-12.075
ings	-12.0751
▁librar	-12.0753
▁kor	-12.0753
▁nike	-12.0753
jab	-12.0757
ria	-12.0759
tech	-12.0761
▁kn	-12.0762
otage	-12.0764
▁thu	-12.0767
▁lyon	-12.0768
▁prop	-12.0773
▁interi	-12.0776
▁ivanov	-12.0778
apping	-12.0778
▁mat	-12.0778
16	-12.0779
▁marij	-12.0781
737	-12.0784
▁arts	-12.0786
▁winston	-12.079
▁leather	-12.0792
▁rubb	-12.0795
▁swat	-12.0802
▁reservation	-12.0802
▁convincing	-12.0805
cheong	-12.0806
▁appall	-12.0809
jani	-12.0812
▁robbe	-12.0815
niste	-12.0818
ative	-12.0822
▁aggravate	-12.0822
ides	-12.0826
▁bayer	-12.0828
dullah	-12.0833
▁190	-12.0834
40	-12.0834
▁imperial	-12.0837
▁pus	-12.0837
sm	-12.0838
▁queens	-12.0838
▁tur	-12.0844
▁extraditi	-12.0858
▁explor	-12.0861
▁enhanc	-12.0864
als	-12.0864
▁burg	-12.0869
▁mem	-12.0882
▁sensation	-12.089
▁cough	-12.0898
▁lucian	-12.0903
ston	-12.0904
mission	-12.0908
▁und	-12.0909
arian	-12.0911
▁brake	-12.0915
▁barks	-12.0919
▁squeeze	-12.092
arry	-12.0921
▁plug	-12.0923
▁usher	-12.0923
▁serial	-12.093
oid	-12.0933
▁renounce	-12.0935
worth	-12.0936
▁arabian	-12.0944
dual	-12.0946
▁confus	-12.0947
▁contemporar	-12.095
▁tune	-12.095
▁lp	-12.095
▁worke	-12.0964
▁mori	-12.097
▁cac	-12.0972
▁clap	-12.0986
▁emphasiz	-12.0988
▁melan	-12.0988
▁reconcili	-12.0992
wards	-12.0995
gs	-12.0995
▁scholar	-12.0999
acks	-12.0999
went	-12.1012
▁isle	-12.102
▁forgot	-12.1023
▁picket	-12.1027
erous	-12.1038
▁cinc	-12.104
▁tail	-12.1047
▁physic	-12.1048
▁vary	-12.1049
▁amuse	-12.1056
▁bp	-12.1062
▁ripp	-12.1063
▁chuck	-12.1068
▁substanti	-12.1074
▁gust	-12.1077
▁tal	-12.1086
vi	-12.1087
▁fille	-12.109
▁tw	-12.11
▁proto	-12.1101
▁cream	-12.1106
still	-12.1107
▁smoker	-12.1112
▁berk	-12.1112
▁distan	-12.1129
▁lawn	-12.1131
▁stir	-12.1133
▁accessor	-12.1135
▁programm	-12.1139
▁shed	-12.1142
▁chill	-12.1143
▁attende	-12.1145
kind	-12.115
▁vincen	-12.1151
▁lynn	-12.1156
▁gamba	-12.1157
▁fold	-12.1163
▁seale	-12.1164
hou	-12.1166
▁occasional	-12.117
▁145	-12.1171
▁tam	-12.1174
▁jang	-12.1178
▁debat	-12.118
▁powe	-12.1182
▁studi	-12.1191
iting	-12.1191
▁monte	-12.1195
unch	-12.1197
▁listing	-12.1201
▁bor	-12.1203
zi	-12.1204
▁confusi	-12.1204
hey	-12.1206
▁hari	-12.1206
ato	-12.1207
▁earne	-12.1217
uni	-12.1225
▁kumar	-12.123
▁jams	-12.1234
▁brac	-12.1238
▁ht	-12.1239
▁micke	-12.1242
iers	-12.1242
descent	-12.1245
uous	-12.1251
▁hoon	-12.1256
▁rein	-12.1259
ision	-12.1268
▁sail	-12.1268
luster	-12.1271
▁ports	-12.1272
bert	-12.1272
▁reliabl	-12.1272
▁intelligent	-12.1274
▁emperor	-12.1275
▁pedestrian	-12.1275
▁precinct	-12.1275
▁skyscraper	-12.1275
▁immense	-12.1275
▁stalemate	-12.1275
▁filipino	-12.1275
▁hectare	-12.1275
▁quebec	-12.1275
▁humpback	-12.1275
▁adjourn	-12.1275
▁bipartisan	-12.1275
▁unconditional	-12.1275
▁embargo	-12.1275
▁yacht	-12.1275
▁foreclosure	-12.1276
▁perspective	-12.1276
▁cemeter	-12.1276
▁curator	-12.1276
▁weird	-12.1276
▁lavish	-12.1276
▁lehman	-12.1276
▁hutchins	-12.1276
▁staunch	-12.1277
▁landfall	-12.1277
▁norris	-12.1277
▁liga	-12.1277
▁rhythm	-12.1278
▁sincere	-12.1279
▁disband	-12.1279
▁armenian	-12.128
▁ancestor	-12.1281
▁splash	-12.1282
▁floodwater	-12.1282
▁luft	-12.1282
▁outrageous	-12.1283
▁bark	-12.1283
▁feud	-12.1283
107	-12.1283
▁sheik	-12.1284
▁clown	-12.1285
▁installment	-12.1285
▁cope	-12.1285
▁davyd	-12.1285
▁instructor	-12.1286
▁hardship	-12.1287
▁defence	-12.1289
▁interfer	-12.1292
▁scientolog	-12.1294
▁waiver	-12.1294
▁festiv	-12.1295
▁unrel	-12.1295
▁courthouse	-12.1296
▁porn	-12.1297
▁canyon	-12.1297
idf	-12.1299
▁spree	-12.13
▁policymaker	-12.1301
▁126	-12.1304
▁defiant	-12.1304
▁hen	-12.1306
yushch	-12.1307
▁heaven	-12.1307
ock	-12.1307
▁stint	-12.1307
▁buffet	-12.1308
▁jerem	-12.1311
▁brent	-12.1312
▁absorb	-12.1315
▁capitalist	-12.1315
▁dimension	-12.1316
▁magnetic	-12.1316
▁ensur	-12.1317
▁fritz	-12.1318
▁maneuver	-12.1319
ww	-12.1322
tact	-12.1322
▁106	-12.1324
▁samba	-12.1327
▁fore	-12.1334
plane	-12.1344
▁118	-12.1346
▁carriage	-12.1347
▁spat	-12.1348
▁chimp	-12.135
hand	-12.135
▁nichols	-12.1351
▁cure	-12.1353
▁sultan	-12.1354
▁gripp	-12.1365
▁bias	-12.1367
▁flip	-12.1371
▁destabilize	-12.1381
▁inche	-12.1383
egu	-12.1383
uana	-12.1384
aly	-12.1395
▁marin	-12.1397
▁fried	-12.1398
▁burne	-12.1403
yuz	-12.1404
▁electrici	-12.1411
▁johans	-12.1412
▁conscien	-12.1414
▁barre	-12.1416
▁stripp	-12.1425
▁passionate	-12.143
▁fledg	-12.1431
▁sacred	-12.1432
iora	-12.1436
▁morocc	-12.1438
▁warhead	-12.1441
24	-12.1441
▁spann	-12.1442
▁evans	-12.1448
▁kook	-12.1449
▁yoko	-12.1449
rren	-12.1453
grade	-12.1453
▁approache	-12.1453
riza	-12.1455
▁snatch	-12.1464
orenst	-12.1464
▁privilege	-12.1467
▁eta	-12.1479
▁applau	-12.1484
▁neal	-12.1486
fication	-12.1487
▁backward	-12.1488
▁graz	-12.1488
cantil	-12.1491
▁pas	-12.1493
▁sampl	-12.1495
▁lag	-12.1497
▁rem	-12.151
▁trauma	-12.1516
▁gon	-12.152
▁pacif	-12.1527
ilit	-12.1527
take	-12.1528
bane	-12.1537
▁seeker	-12.1539
▁unauthori	-12.1543
▁infringe	-12.1548
▁deb	-12.1557
ax	-12.1557
▁scam	-12.1562
▁pub	-12.1564
▁kg	-12.1564
position	-12.157
nc	-12.1571
▁merit	-12.158
▁embezzl	-12.1581
iving	-12.1581
logo	-12.1582
owing	-12.1586
▁facto	-12.1588
▁comet	-12.1593
▁str	-12.1596
spoke	-12.1601
▁philosoph	-12.1605
ino	-12.1605
▁tag	-12.1606
▁liqu	-12.1609
rous	-12.1612
▁planner	-12.1617
▁realiz	-12.1619
▁woke	-12.1623
mm	-12.1629
77	-12.1632
▁focuse	-12.1635
▁bog	-12.1637
ives	-12.1643
ared	-12.1645
▁rear	-12.1653
▁flo	-12.1654
▁avert	-12.1658
▁males	-12.1658
▁polit	-12.1661
▁viol	-12.1664
▁dedicat	-12.1665
▁craz	-12.167
▁doom	-12.167
rkele	-12.1677
beat	-12.1687
▁ramp	-12.1688
▁conventional	-12.1694
▁humanit	-12.1697
▁governors	-12.1707
▁cove	-12.1707
▁duk	-12.1708
▁tick	-12.1713
elf	-12.1715
▁chic	-12.1716
▁publicize	-12.1725
▁canoe	-12.1726
▁pill	-12.1733
▁forbidd	-12.1734
hem	-12.1734
▁skip	-12.1736
▁dignitar	-12.1737
uver	-12.1747
▁rescu	-12.1755
▁dell	-12.1758
▁dat	-12.1759
▁butter	-12.1763
▁fisc	-12.1764
▁amo	-12.1765
▁mour	-12.1765
▁peni	-12.1771
▁mili	-12.1774
▁hyper	-12.1775
oka	-12.178
▁seminar	-12.1793
▁nud	-12.1794
▁fr	-12.1798
▁costa	-12.1798
continent	-12.18
nnan	-12.1802
rin	-12.1805
▁distinct	-12.1806
▁cake	-12.1808
▁facilitate	-12.1816
▁nichol	-12.1821
▁riches	-12.1823
▁reunifi	-12.1832
ush	-12.1832
▁julia	-12.1833
art	-12.1834
▁cana	-12.1835
▁eva	-12.1845
eet	-12.1863
ulous	-12.1864
▁dies	-12.1867
▁bl	-12.1871
▁defuse	-12.1873
▁correction	-12.1875
▁harr	-12.1876
pi	-12.1882
▁columb	-12.1883
ik	-12.1884
oing	-12.1887
▁blade	-12.1895
▁ivan	-12.19
ph	-12.19
▁archbishop	-12.19
▁archipelag	-12.19
▁compatriot	-12.19
▁explicit	-12.19
▁nutrient	-12.19
▁subpoena	-12.19
▁temblor	-12.19
▁kangaroo	-12.19
▁parachute	-12.19
▁diarrhea	-12.19
▁delicate	-12.19
▁dormitor	-12.19
▁mosquito	-12.19
▁sculpture	-12.19
▁meltdown	-12.1901
▁overshadow	-12.1901
▁hurdle	-12.1901
▁defensive	-12.1901
▁mogul	-12.1901
▁surname	-12.1901
▁provocation	-12.1901
▁eagle	-12.1901
▁rooftop	-12.1901
▁robinson	-12.1901
▁skeleton	-12.1901
▁unearth	-12.1901
▁gauge	-12.1902
▁disturbance	-12.1902
croft	-12.1902
▁siberia	-12.1902
▁wizard	-12.1902
▁heavyweight	-12.1902
▁advertisement	-12.1903
▁dav	-12.1903
▁renown	-12.1903
▁darling	-12.1904
▁vendor	-12.1905
▁technological	-12.1906
▁estrange	-12.1906
morning	-12.1906
rasmus	-12.1907
▁breakdown	-12.1907
▁ia	-12.1907
▁antiquit	-12.1908
▁04	-12.1908
▁spider	-12.1909
▁lashe	-12.1909
▁temp	-12.1911
▁commentator	-12.1913
▁checkup	-12.1914
▁moroccan	-12.1915
▁translation	-12.1915
▁reunion	-12.1915
▁mineral	-12.1916
▁cigar	-12.1917
▁falter	-12.1918
▁zambia	-12.1919
▁distributor	-12.1921
▁miserable	-12.1921
▁notify	-12.1924
▁noodle	-12.1929
▁liberia	-12.1929
▁gangster	-12.193
uda	-12.1931
▁vanish	-12.1934
▁firearm	-12.1934
▁capita	-12.1935
trust	-12.1936
due	-12.1936
▁inherit	-12.1937
▁reef	-12.1941
▁homeowner	-12.1947
▁dax	-12.1947
▁walkout	-12.1949
▁sadden	-12.195
▁locke	-12.195
▁console	-12.1957
ram	-12.1959
▁gal	-12.196
▁showcase	-12.1961
▁cecil	-12.1965
lone	-12.1967
▁stronge	-12.1969
▁roller	-12.1973
▁loom	-12.1975
disclose	-12.1977
▁blackout	-12.198
▁kaka	-12.1981
rada	-12.1982
▁sunda	-12.1982
▁qala	-12.1982
bee	-12.1994
▁petrol	-12.1994
▁tremor	-12.1995
esco	-12.1995
▁adopte	-12.1997
italia	-12.1997
▁ditch	-12.1999
▁reconsider	-12.1999
▁rec	-12.2
intend	-12.2001
▁sing	-12.2003
▁sabotage	-12.2005
▁beam	-12.2006
▁valentin	-12.2006
▁boot	-12.201
wn	-12.201
▁kirk	-12.2014
112	-12.2015
▁bobb	-12.2016
▁qualifie	-12.2017
▁assembl	-12.2018
iquit	-12.2018
▁monet	-12.2021
▁plantation	-12.2022
▁abram	-12.2023
▁prim	-12.2027
▁patch	-12.2032
des	-12.2036
ntana	-12.2036
hansa	-12.2042
▁stumbl	-12.2042
▁maha	-12.2044
▁sicken	-12.205
▁provok	-12.2055
ute	-12.2059
▁blackmail	-12.206
▁cliff	-12.2064
four	-12.2066
▁mag	-12.2066
▁bands	-12.2072
▁propelle	-12.2083
▁waterway	-12.2088
▁outage	-12.2088
▁mai	-12.2088
▁chemist	-12.2089
▁lis	-12.2094
▁gerald	-12.2094
▁hawkin	-12.2099
have	-12.21
raged	-12.2101
▁meteor	-12.2101
▁credibl	-12.2103
▁overheat	-12.2106
▁feat	-12.2109
walker	-12.2109
rely	-12.2114
tta	-12.2116
▁stranger	-12.2124
▁rada	-12.2125
▁pandem	-12.2126
▁characterize	-12.2132
▁pul	-12.2134
▁frustrate	-12.2134
▁tumbl	-12.2138
now	-12.2141
▁bot	-12.2153
330	-12.2153
betan	-12.2156
▁baton	-12.2156
▁leaning	-12.2159
eong	-12.2169
oria	-12.217
▁preventi	-12.2174
diaz	-12.2178
▁pi	-12.2179
▁qui	-12.2182
▁oak	-12.2189
▁bernie	-12.2204
yland	-12.2211
▁donate	-12.2222
▁snap	-12.2224
▁reassure	-12.2224
▁qara	-12.2225
▁larr	-12.2226
▁industrializ	-12.2228
yu	-12.2239
▁zay	-12.2247
▁zo	-12.2249
18	-12.2255
▁jaw	-12.2255
safe	-12.2257
▁grandm	-12.2263
▁slaying	-12.2264
▁alvar	-12.2266
▁lighter	-12.2278
▁stoke	-12.2284
▁ris	-12.2291
hkin	-12.2292
▁qua	-12.2304
▁depriv	-12.2306
▁dome	-12.2308
▁esp	-12.2316
▁relation	-12.2321
ylan	-12.2322
▁interprete	-12.2323
▁yell	-12.2329
▁globo	-12.2335
▁schu	-12.2337
dr	-12.2341
▁khala	-12.2342
▁enforc	-12.2343
tun	-12.2344
hn	-12.2359
▁hog	-12.2364
▁xia	-12.2364
▁folk	-12.2367
frame	-12.2368
▁crawf	-12.2369
vian	-12.237
▁yon	-12.2375
▁retract	-12.2376
▁bros	-12.2377
ake	-12.2378
▁peta	-12.2381
▁characteriz	-12.2384
▁griffi	-12.2385
▁assum	-12.2388
▁rampa	-12.2388
iffe	-12.2388
▁watcher	-12.24
model	-12.2401
uci	-12.241
eh	-12.2423
▁kyong	-12.2425
▁pap	-12.2426
constitutional	-12.2428
▁hoi	-12.2441
▁114	-12.2441
▁hacke	-12.2444
▁aut	-12.2444
▁identi	-12.245
▁christin	-12.245
▁warr	-12.2451
▁gra	-12.2454
kawa	-12.2456
ubai	-12.246
morgan	-12.2466
adic	-12.247
▁loh	-12.247
nded	-12.2472
▁gigg	-12.2472
▁yog	-12.2473
▁default	-12.2477
▁valen	-12.2482
▁ugl	-12.2486
▁hee	-12.2492
▁popul	-12.2492
fda	-12.2504
cco	-12.2504
▁stabb	-12.2506
dal	-12.251
news	-12.2512
13	-12.2514
ition	-12.2522
▁ounce	-12.2523
▁bulgaria	-12.2534
▁pur	-12.2535
▁clemen	-12.2535
▁ruth	-12.2536
▁regulate	-12.2543
▁exceptional	-12.2544
▁interfa	-12.2546
una	-12.2546
▁heath	-12.2551
▁cm	-12.2553
▁merce	-12.2555
▁accelerat	-12.2555
mas	-12.2557
▁distort	-12.2557
lp	-12.2559
▁billy	-12.256
▁roo	-12.2562
▁ark	-12.2563
▁charisma	-12.2567
▁azerbaijan	-12.2567
▁centrifuge	-12.2567
▁jupiter	-12.2567
▁paraguay	-12.2567
▁corridor	-12.2567
▁malfunction	-12.2567
▁reshuffl	-12.2567
▁barclay	-12.2567
▁pneum	-12.2567
▁fragment	-12.2567
▁paramilitar	-12.2567
▁submarine	-12.2567
▁sanctuar	-12.2567
▁tariff	-12.2567
▁dissatisf	-12.2567
▁vomit	-12.2567
▁sherpa	-12.2567
▁roadblock	-12.2567
▁definitive	-12.2567
▁rebuke	-12.2567
▁hanaro	-12.2568
▁unnecessar	-12.2568
▁improper	-12.2568
▁coffin	-12.2568
▁hamilton	-12.2568
▁bystander	-12.2568
▁forthcoming	-12.2568
▁excellent	-12.2568
▁blacklist	-12.2569
▁grocer	-12.2569
▁orphanage	-12.2569
▁lawrence	-12.2569
▁accomplishment	-12.2569
▁memoir	-12.2569
▁foul	-12.257
▁dmitr	-12.2571
▁safeguard	-12.2572
▁textile	-12.2572
▁olive	-12.2572
▁battlefield	-12.2572
▁rejoin	-12.2574
▁deterrent	-12.2574
▁insect	-12.2575
▁colli	-12.2575
▁orientation	-12.2575
ined	-12.2575
▁collaboration	-12.2576
▁maure	-12.2576
▁spacewalk	-12.2576
▁luther	-12.2577
▁barney	-12.2578
▁hideout	-12.2579
▁stump	-12.2579
shmi	-12.2583
▁martial	-12.2585
▁kean	-12.2586
illa	-12.2587
▁classmate	-12.2587
▁matchup	-12.2587
▁gloom	-12.2588
atic	-12.2589
▁verbal	-12.2593
vinci	-12.2593
▁inhal	-12.2595
▁swamp	-12.2596
bly	-12.2596
▁horribl	-12.2597
▁lawless	-12.2599
▁jacket	-12.2601
▁cramp	-12.2602
▁max	-12.2603
▁periodic	-12.2604
▁dismissal	-12.2605
▁milit	-12.2606
▁annul	-12.2607
▁receiver	-12.2608
▁valeri	-12.261
▁algerian	-12.2614
▁mong	-12.2618
▁litter	-12.262
▁smashe	-12.2622
▁dynamic	-12.2623
▁fog	-12.2629
och	-12.263
▁slapp	-12.263
▁glove	-12.2633
▁tenth	-12.2635
▁motivation	-12.2637
nzo	-12.2639
ig	-12.2641
▁calculate	-12.2643
▁scout	-12.2647
awa	-12.265
▁maru	-12.2652
dorf	-12.2655
▁dynast	-12.2656
▁dem	-12.266
▁pupp	-12.2663
mont	-12.2663
▁brewer	-12.2665
▁beck	-12.2666
▁exaggerat	-12.2668
▁wil	-12.2672
nmen	-12.2672
with	-12.2676
nom	-12.2677
▁bod	-12.2678
▁architectur	-12.2678
44	-12.2679
▁accommodate	-12.268
▁swam	-12.2682
▁hart	-12.2685
pression	-12.2691
rua	-12.2693
▁freezer	-12.2695
▁leve	-12.2696
▁des	-12.2702
exico	-12.2702
▁diagnose	-12.2703
ets	-12.2704
atero	-12.2708
▁solo	-12.271
tu	-12.2714
▁kc	-12.2714
worker	-12.2719
dysse	-12.2719
▁campaigner	-12.272
▁walke	-12.2722
lene	-12.2723
▁pleasure	-12.2728
▁levi	-12.2733
ji	-12.2741
▁destruct	-12.2745
▁todd	-12.2745
▁tut	-12.2753
▁bureaucrat	-12.2754
▁knocke	-12.276
mann	-12.2761
▁cox	-12.2764
▁pesh	-12.2764
ido	-12.2764
▁stockhol	-12.2772
▁ameli	-12.2772
cna	-12.2773
idential	-12.2775
▁maul	-12.2777
tober	-12.2785
oval	-12.2787
dish	-12.2788
▁pillar	-12.2788
▁robin	-12.2791
▁patrioti	-12.2792
▁arise	-12.2795
comprehensi	-12.2797
lena	-12.2798
▁prey	-12.2799
alai	-12.2804
49	-12.2805
▁exclude	-12.2806
22	-12.2808
▁hinder	-12.2813
▁marr	-12.2814
▁mari	-12.2819
▁kt	-12.2819
▁smuggle	-12.283
▁integrate	-12.2831
▁kam	-12.2839
▁provisional	-12.284
▁nano	-12.284
▁admitt	-12.2841
▁papa	-12.2847
▁marshal	-12.2848
speci	-12.2851
sha	-12.2862
▁ser	-12.2869
▁scorch	-12.287
▁persist	-12.2872
▁gram	-12.2873
environmentalist	-12.2879
▁thorn	-12.2881
aker	-12.2883
alkati	-12.2883
▁felon	-12.2885
rosa	-12.2889
quid	-12.289
wick	-12.2891
▁retaliat	-12.2896
▁bore	-12.2904
▁stricke	-12.2904
53	-12.2907
ess	-12.2908
▁elde	-12.2912
▁diagnos	-12.2913
▁bra	-12.2914
▁kwan	-12.2919
▁bruis	-12.2921
ett	-12.2923
▁pine	-12.2929
▁assur	-12.294
▁pot	-12.2941
▁coupon	-12.2943
ober	-12.2948
▁nest	-12.295
umi	-12.2953
inous	-12.2954
▁interviewer	-12.2955
▁gue	-12.2957
eba	-12.2961
▁poet	-12.2963
▁precedent	-12.2965
ano	-12.2967
fax	-12.2969
▁cheon	-12.297
▁dependenc	-12.2971
uz	-12.2975
▁ignite	-12.298
▁addresse	-12.2984
▁rath	-12.2986
▁indecen	-12.2994
▁lap	-12.2996
260	-12.3001
eval	-12.3003
enberg	-12.3007
hk	-12.3007
▁saga	-12.3011
▁watche	-12.3018
▁vic	-12.3021
▁formation	-12.3024
ateur	-12.3027
inawa	-12.3029
voi	-12.303
here	-12.3032
▁doll	-12.3034
awar	-12.3035
▁roam	-12.3036
▁romanc	-12.304
▁reinforce	-12.3046
▁poste	-12.3051
▁champ	-12.3054
▁kay	-12.3058
▁mandel	-12.3062
je	-12.3074
▁cheng	-12.3075
lined	-12.3081
▁320	-12.3083
tember	-12.3086
▁eli	-12.3087
suzu	-12.3087
▁incorporate	-12.3089
▁offset	-12.3094
▁tier	-12.3107
▁peters	-12.3109
▁gamble	-12.3109
boy	-12.3114
▁cardi	-12.312
▁resurgen	-12.3123
sang	-12.3125
▁stimulate	-12.3125
phis	-12.3127
▁doming	-12.3131
log	-12.3131
▁budd	-12.3141
▁stabiliz	-12.3141
▁stair	-12.3146
soo	-12.315
▁teach	-12.3151
▁mali	-12.3152
ound	-12.3159
▁rout	-12.3162
▁dann	-12.3166
ecd	-12.3169
inal	-12.3181
sud	-12.3181
▁mario	-12.3181
▁evacu	-12.3186
etti	-12.3187
▁175	-12.3194
▁inevitabl	-12.3194
▁intimidat	-12.3197
bn	-12.3203
nk	-12.3212
gomer	-12.3214
reze	-12.3227
▁nep	-12.3239
drop	-12.3241
asha	-12.3241
lt	-12.3254
▁fundrais	-12.3255
life	-12.3256
▁stri	-12.326
▁beak	-12.3263
▁morale	-12.3268
▁dispos	-12.3273
liga	-12.3273
errez	-12.3273
▁orphan	-12.328
▁affidavit	-12.3281
▁lithuania	-12.3281
▁motorbike	-12.3281
▁salvador	-12.3281
▁charlotte	-12.3281
▁jaguar	-12.3281
▁ritchie	-12.3281
▁hajj	-12.3281
▁rainforest	-12.3281
75	-12.3281
▁rendition	-12.3281
▁blanchett	-12.3281
▁frantic	-12.3281
▁precondition	-12.3282
▁expulsion	-12.3282
▁reap	-12.3282
▁gilbert	-12.3282
▁erotic	-12.3282
▁dupre	-12.3282
▁acclaim	-12.3282
▁volley	-12.3282
▁redeployment	-12.3282
▁fundamentalist	-12.3282
riel	-12.3283
▁description	-12.3283
▁malign	-12.3283
▁comput	-12.3283
▁shortfall	-12.3283
▁eduard	-12.3283
▁envision	-12.3284
▁garrison	-12.3284
agen	-12.3285
▁overdose	-12.3285
▁unleash	-12.3285
▁perpetrator	-12.3286
▁pilgrimage	-12.3286
▁enlist	-12.3286
▁nickel	-12.3286
▁betray	-12.3286
▁clarify	-12.3286
cade	-12.3287
▁clamp	-12.3287
▁imam	-12.3288
▁jihadist	-12.3288
▁justify	-12.3289
▁lenient	-12.329
▁adaptation	-12.329
▁email	-12.3291
▁bounc	-12.3292
▁offend	-12.3292
▁rental	-12.3293
▁2030	-12.3293
▁authoritarian	-12.3293
▁rai	-12.3293
▁thumb	-12.3294
▁collaborator	-12.3294
▁chopper	-12.3294
▁necessit	-12.3294
▁elegan	-12.3295
▁swimmer	-12.3295
sing	-12.3296
▁minimiz	-12.3297
▁feather	-12.3298
misunderstanding	-12.33
▁220	-12.3302
zawa	-12.3304
▁racist	-12.3306
▁spaceship	-12.3307
▁envelope	-12.3307
▁baptist	-12.3315
▁paradi	-12.3315
▁crab	-12.332
▁bed	-12.3321
▁stirring	-12.3322
▁hogan	-12.3326
abo	-12.3327
▁jamaican	-12.333
▁dra	-12.333
▁regiment	-12.3335
nstein	-12.334
▁graduat	-12.334
▁wagon	-12.3343
▁reminder	-12.3347
▁yemeni	-12.3353
▁libi	-12.3354
guet	-12.3358
▁sulli	-12.3359
▁crane	-12.3362
▁minimal	-12.3364
▁sci	-12.3372
▁peek	-12.3373
▁quantit	-12.3374
▁coloss	-12.3375
▁combatant	-12.3376
▁sca	-12.3376
▁bucking	-12.3376
▁disposa	-12.3384
▁stunn	-12.3385
▁suite	-12.3389
▁slashing	-12.339
▁cau	-12.3391
▁programme	-12.3393
ds	-12.3395
▁foment	-12.3398
▁cancell	-12.3399
▁adventurer	-12.3401
ites	-12.3402
▁dip	-12.3405
▁bite	-12.3406
▁crest	-12.3411
ause	-12.3411
ins	-12.3419
nica	-12.3419
▁crippl	-12.3423
iling	-12.3425
don	-12.3425
▁swarm	-12.3426
▁commodit	-12.3437
sible	-12.3437
▁dian	-12.3439
▁claudi	-12.3441
cat	-12.3442
▁deter	-12.3446
▁supervisi	-12.3446
▁underline	-12.3452
▁ignit	-12.3457
▁skidd	-12.3458
rra	-12.3459
▁jogg	-12.3465
into	-12.3468
oi	-12.3469
lloy	-12.3471
▁gorge	-12.3472
▁toughe	-12.3472
▁notable	-12.3474
▁cord	-12.3474
hurt	-12.3476
anxi	-12.3476
▁torrent	-12.3478
27	-12.3478
▁ita	-12.3478
lls	-12.3478
▁bless	-12.349
dida	-12.3494
ex	-12.3496
errill	-12.3503
▁bald	-12.3504
▁123	-12.3507
▁naf	-12.3507
▁zahi	-12.3508
▁xiao	-12.3511
fraction	-12.3516
harmonic	-12.3518
▁intens	-12.3523
▁confiscate	-12.3524
▁compa	-12.3525
▁seas	-12.3527
▁fuse	-12.3528
▁exert	-12.3528
sis	-12.353
▁prot	-12.3531
▁server	-12.3533
oul	-12.3536
▁eco	-12.3537
▁naga	-12.3539
▁younge	-12.354
come	-12.3546
▁dive	-12.3551
government	-12.3555
▁mismanage	-12.3558
▁rever	-12.356
eathrow	-12.3562
▁volcani	-12.3565
▁rib	-12.3567
▁dod	-12.3573
▁jitter	-12.3577
▁airb	-12.3579
▁messag	-12.3585
▁salam	-12.3585
coni	-12.3587
mal	-12.3593
▁compensate	-12.3597
▁cle	-12.3598
▁vol	-12.36
fan	-12.3602
▁sword	-12.3611
ken	-12.3613
▁stroll	-12.3617
heim	-12.3617
▁rotat	-12.3619
▁establishe	-12.3635
chen	-12.3636
▁klo	-12.3638
65	-12.3639
▁hon	-12.364
gm	-12.3642
▁ful	-12.3642
▁sc	-12.3643
▁wrestl	-12.3645
rov	-12.3648
abel	-12.365
anma	-12.3651
▁deport	-12.3652
▁clutch	-12.3654
▁smalle	-12.366
▁stre	-12.3664
▁deer	-12.3665
▁tackl	-12.3665
conduct	-12.3665
asia	-12.3665
ven	-12.3667
phere	-12.3668
▁lago	-12.3672
▁zi	-12.3686
had	-12.3689
▁toba	-12.3693
roads	-12.3697
▁hook	-12.3699
▁motivat	-12.3706
▁124	-12.3707
▁extradit	-12.3708
media	-12.3708
alem	-12.3708
▁bre	-12.3708
aewoo	-12.3709
zov	-12.3709
▁gill	-12.3714
ye	-12.3714
▁armis	-12.3715
sion	-12.3716
rap	-12.3718
▁wishe	-12.3719
▁underw	-12.3722
▁rode	-12.3724
▁minded	-12.3725
▁squeez	-12.3733
▁peel	-12.3734
foot	-12.3737
▁juli	-12.3742
nold	-12.3752
▁beard	-12.3752
▁masa	-12.3754
▁nutrition	-12.3756
▁meyer	-12.376
unning	-12.3762
▁norm	-12.3768
▁postpon	-12.3769
▁kha	-12.3769
ure	-12.3771
aq	-12.3774
▁qud	-12.3774
▁enabl	-12.3777
▁benoi	-12.3783
▁hugh	-12.3789
▁neuro	-12.3793
▁zhu	-12.3794
tes	-12.3799
▁jud	-12.3802
uman	-12.3807
▁hood	-12.3812
aria	-12.3813
▁stray	-12.3813
▁barb	-12.3815
▁lux	-12.3818
tearn	-12.3819
▁disciplin	-12.3823
▁lunche	-12.3826
▁hak	-12.3827
iest	-12.3834
▁lean	-12.3842
▁mates	-12.3843
▁abnormal	-12.3846
rek	-12.3855
avaro	-12.3862
87	-12.3865
noble	-12.3865
look	-12.3866
▁buff	-12.388
uan	-12.3884
amed	-12.3886
▁fam	-12.3891
▁zeb	-12.3892
odor	-12.3894
▁rushe	-12.3895
▁vacan	-12.3896
▁trainer	-12.39
▁reli	-12.3905
itness	-12.3906
▁122	-12.3909
bur	-12.391
▁canne	-12.3911
▁persuad	-12.3916
▁thr	-12.3916
▁builder	-12.3918
tiana	-12.3919
rugg	-12.3921
bridge	-12.3927
▁gere	-12.3935
sama	-12.394
▁translate	-12.394
aron	-12.3941
▁bloodie	-12.3943
▁plague	-12.3944
bil	-12.3947
ib	-12.3949
▁blend	-12.395
▁sanch	-12.3955
▁hawa	-12.3956
▁oc	-12.3967
az	-12.3968
▁kaz	-12.3982
▁marco	-12.3983
64	-12.399
▁freight	-12.3991
▁shunn	-12.3993
usan	-12.3996
uck	-12.3999
▁disguise	-12.4003
ovic	-12.4005
▁rack	-12.4014
▁extinguish	-12.4014
zvo	-12.4016
▁ryo	-12.4017
▁emphasi	-12.4022
nie	-12.4023
▁cam	-12.4025
▁partisan	-12.4028
arter	-12.4028
robi	-12.4028
ulu	-12.4029
▁conspir	-12.4034
▁abdulla	-12.4039
▁prosecut	-12.4039
▁plen	-12.4042
▁ros	-12.4043
▁blacks	-12.4046
▁uphold	-12.4049
▁legitima	-12.405
▁aggregate	-12.405
▁chimpanzee	-12.405
▁fugitive	-12.405
▁gondola	-12.405
▁jurisdiction	-12.405
▁mathematic	-12.405
▁upheaval	-12.405
▁neglect	-12.405
▁tarmac	-12.405
▁scooter	-12.405
▁phrase	-12.405
▁smurf	-12.405
▁mauritania	-12.405
▁adolf	-12.405
▁eyewitness	-12.4051
▁anglican	-12.4051
▁ossuar	-12.4051
▁warlord	-12.4051
▁analog	-12.4051
▁bimbo	-12.4051
▁resemblance	-12.4051
▁muhammad	-12.4051
▁mixture	-12.4051
▁emmanuel	-12.4051
▁footprint	-12.4051
▁ultimatum	-12.4051
▁snowfall	-12.4052
▁knox	-12.4052
▁overflow	-12.4052
▁enrollment	-12.4052
▁sindh	-12.4052
▁spotlight	-12.4053
▁pale	-12.4053
▁shells	-12.4053
▁insufficient	-12.4054
▁preference	-12.4054
▁systematic	-12.4054
▁shotgun	-12.4054
▁sermon	-12.4054
▁imagination	-12.4054
▁krug	-12.4054
▁zebra	-12.4055
vang	-12.4056
▁comrade	-12.4056
▁weightless	-12.4057
▁disneyland	-12.4057
▁responde	-12.4058
▁motel	-12.4058
▁abdomen	-12.4058
▁motorist	-12.4058
▁heroic	-12.4058
▁frenz	-12.406
▁bulldozer	-12.406
▁curtain	-12.406
▁delinquent	-12.406
▁quinn	-12.4061
▁farmland	-12.4062
▁kennel	-12.4062
▁jos	-12.4062
▁interpretation	-12.4063
▁bulb	-12.4063
lihood	-12.4064
▁marble	-12.4064
▁desp	-12.4064
▁2020	-12.4064
▁specify	-12.4066
▁shootout	-12.4068
▁ginger	-12.4068
▁cedar	-12.4068
▁portrayal	-12.407
▁adolescent	-12.4071
▁rabbit	-12.4071
▁reptile	-12.4071
▁pak	-12.4072
▁interven	-12.4075
▁wilder	-12.4075
fo	-12.4077
▁nightmare	-12.4078
▁downer	-12.4082
▁flatten	-12.4083
▁aisle	-12.4083
▁calculation	-12.4084
▁roland	-12.4086
▁hallway	-12.4086
▁machi	-12.4088
▁meteorologi	-12.4089
▁laund	-12.4089
▁calder	-12.4089
▁darre	-12.4089
▁collector	-12.4091
▁coun	-12.4092
caul	-12.4092
▁feminin	-12.4094
▁hillside	-12.4096
ars	-12.4097
▁ven	-12.4098
▁nois	-12.4098
▁characteristic	-12.4101
▁fortunate	-12.4104
▁scour	-12.4105
annie	-12.4106
▁evident	-12.4106
▁exercis	-12.4107
▁102	-12.4111
▁startup	-12.4112
▁chef	-12.4112
▁affection	-12.4112
hr	-12.4113
▁desir	-12.4116
▁canister	-12.412
sleep	-12.4127
33	-12.4129
▁grove	-12.4129
▁escalate	-12.4131
▁cheat	-12.4133
▁trench	-12.4136
▁ric	-12.4139
▁tribun	-12.4142
heir	-12.4143
▁russ	-12.4144
▁qin	-12.4146
▁invention	-12.4147
▁theatre	-12.4149
▁dora	-12.4151
▁clause	-12.4151
▁feli	-12.4154
▁belly	-12.4157
▁chil	-12.4157
▁shaky	-12.4158
▁conductor	-12.4159
▁hoop	-12.4159
▁esta	-12.4163
▁gard	-12.4164
▁chae	-12.4165
▁mcc	-12.4165
bilit	-12.4167
▁munic	-12.4176
▁coward	-12.4179
▁administer	-12.4181
▁indirect	-12.4183
▁render	-12.4189
▁lava	-12.419
▁hy	-12.4197
▁archaeolog	-12.4197
▁analyz	-12.4207
▁bidder	-12.4223
▁stevens	-12.4226
phone	-12.423
▁06	-12.4234
▁decent	-12.4237
rom	-12.4238
▁conner	-12.4239
▁kati	-12.4242
▁coerc	-12.4247
▁gown	-12.4247
▁freeway	-12.4248
eb	-12.4253
▁tortur	-12.4257
meter	-12.426
dana	-12.4262
nian	-12.4263
yman	-12.4265
▁observat	-12.4265
▁initiate	-12.4275
▁philipp	-12.428
onto	-12.428
▁rocker	-12.4284
▁versa	-12.4285
▁perceive	-12.429
▁schult	-12.4296
▁camill	-12.4297
nda	-12.4301
▁insight	-12.4305
▁quota	-12.4307
▁spi	-12.431
▁purse	-12.4314
▁overture	-12.4326
rat	-12.433
▁ripple	-12.4331
yah	-12.4339
▁viru	-12.4344
ane	-12.4345
ere	-12.4346
▁roj	-12.4346
▁div	-12.4346
anke	-12.4353
▁dancer	-12.4353
▁mason	-12.4355
88	-12.4359
▁diver	-12.4361
▁consolidat	-12.4363
▁cite	-12.4373
▁thigh	-12.4374
allest	-12.4377
▁ghan	-12.4395
▁multimillion	-12.4404
▁yun	-12.4405
jeon	-12.4413
bala	-12.4414
▁dodg	-12.442
kill	-12.4423
▁annoy	-12.4425
kanit	-12.4426
▁proportional	-12.4426
200	-12.443
jev	-12.4435
ert	-12.4436
▁bund	-12.4449
▁asy	-12.4451
▁migration	-12.4452
nson	-12.4454
ntao	-12.4454
48	-12.4454
abc	-12.4465
eigh	-12.4466
▁conceive	-12.4467
▁pizz	-12.4475
▁proportion	-12.4476
▁duja	-12.4476
▁compos	-12.4482
▁barros	-12.4482
▁realistic	-12.4484
rell	-12.4487
▁alexandr	-12.4488
▁bart	-12.4492
▁berl	-12.4492
were	-12.4496
▁kat	-12.4497
▁silic	-12.4499
▁mobiliz	-12.4502
atus	-12.4503
▁psychiatr	-12.4503
chai	-12.4505
▁ol	-12.4507
▁advoca	-12.4507
week	-12.4509
▁clippe	-12.4511
▁bash	-12.4511
▁commute	-12.4523
▁doubl	-12.4534
▁reminiscen	-12.4542
marked	-12.4543
ends	-12.4544
▁sore	-12.4547
▁tun	-12.455
ott	-12.4553
▁ker	-12.4553
▁paralyze	-12.4556
▁wav	-12.4558
▁xi	-12.456
▁exploitati	-12.4566
▁mp	-12.4582
▁bust	-12.4583
llen	-12.4584
▁biograph	-12.4584
polis	-12.4585
▁syndicate	-12.4588
struction	-12.459
▁corre	-12.4594
▁inju	-12.4594
▁usage	-12.4595
pisco	-12.4595
ited	-12.4596
mb	-12.4603
▁adopti	-12.4605
▁geo	-12.4607
bye	-12.4608
▁burre	-12.4608
united	-12.4608
league	-12.4609
▁borne	-12.4609
▁nabi	-12.461
moto	-12.4613
niya	-12.462
oke	-12.4626
▁replie	-12.4627
▁pushe	-12.4633
tted	-12.4633
▁evaluate	-12.4638
▁disapprov	-12.4642
du	-12.4643
bin	-12.4653
gas	-12.4665
gger	-12.4666
▁ravage	-12.4668
ffer	-12.4668
uez	-12.4677
▁daw	-12.4685
▁inflat	-12.4686
▁schum	-12.4691
▁exchang	-12.4692
plan	-12.4696
▁wise	-12.4699
▁bennet	-12.47
▁forge	-12.4707
tel	-12.4709
law	-12.4713
▁pie	-12.4716
▁dish	-12.4722
▁orchestrat	-12.4723
▁rippe	-12.4725
gne	-12.4732
unting	-12.4744
reva	-12.4751
▁tre	-12.4753
▁escalati	-12.4755
▁irritat	-12.4759
but	-12.4762
lion	-12.4769
gram	-12.477
▁logg	-12.4779
▁gall	-12.478
nate	-12.4781
▁poise	-12.4781
▁vent	-12.4785
▁undermin	-12.4789
ologist	-12.479
▁possib	-12.4801
▁commoditi	-12.4804
▁interrogat	-12.4805
▁whiske	-12.4806
▁void	-12.4809
▁closet	-12.4815
yaho	-12.4816
▁webb	-12.4827
▁reluctan	-12.4828
▁flavor	-12.4829
▁para	-12.4838
▁dose	-12.4841
bbie	-12.4843
ui	-12.4847
▁mechanic	-12.4861
▁vip	-12.4864
▁slice	-12.4867
▁claren	-12.4868
68	-12.4869
izing	-12.4869
▁cubic	-12.4871
▁gabriel	-12.4871
barad	-12.4875
rrow	-12.4878
▁prosecute	-12.4881
▁rockefeller	-12.4884
▁alejandr	-12.4884
▁awkward	-12.4884
▁cantaloupe	-12.4884
▁cockpit	-12.4884
▁juventu	-12.4884
▁memorandum	-12.4884
▁quadruple	-12.4884
▁trinidad	-12.4884
▁avalanche	-12.4884
▁sporadic	-12.4884
▁namdaemu	-12.4884
▁cheetah	-12.4884
▁namibia	-12.4884
▁skyrocket	-12.4884
▁discontent	-12.4884
▁superjumbo	-12.4884
▁turbulen	-12.4884
▁voyage	-12.4884
▁unreasonabl	-12.4884
▁accomplice	-12.4884
▁leopard	-12.4884
▁warrior	-12.4884
▁suitcase	-12.4884
▁desktop	-12.4884
▁embroi	-12.4884
▁backpack	-12.4884
▁columnist	-12.4884
eutic	-12.4885
▁ideological	-12.4885
▁identical	-12.4885
▁prevail	-12.4885
▁freud	-12.4885
▁caesar	-12.4885
▁elbow	-12.4885
▁crouch	-12.4885
▁celtic	-12.4885
▁iceberg	-12.4886
▁creek	-12.4886
▁enthusiastic	-12.4886
▁refrigerator	-12.4886
▁telegraph	-12.4886
▁salute	-12.4886
▁touchdown	-12.4887
▁bigg	-12.4887
▁connor	-12.4887
▁palestin	-12.4888
▁blackberr	-12.4888
▁workshop	-12.4888
▁unfold	-12.4888
▁bachelor	-12.4888
▁downgrade	-12.4889
▁moussa	-12.4889
▁pra	-12.4889
▁hopkin	-12.489
▁turkmen	-12.4891
▁gym	-12.4891
▁preview	-12.4891
▁fabrication	-12.4893
▁specimen	-12.4893
igan	-12.4895
▁leverage	-12.4895
▁commemoration	-12.4896
▁contr	-12.4896
▁outnumber	-12.4897
▁psychiatrist	-12.4898
▁bike	-12.4898
▁discard	-12.4899
▁woodland	-12.49
▁balkan	-12.49
▁physicist	-12.4902
▁billboard	-12.4902
▁djam	-12.4903
▁guti	-12.4904
rie	-12.4904
▁prohibition	-12.4905
▁innovation	-12.4906
▁kenne	-12.4906
ili	-12.4908
▁fou	-12.4909
ukov	-12.4909
▁mountainside	-12.4909
▁parliamentarian	-12.4909
▁jalal	-12.491
▁clint	-12.4912
▁wrestler	-12.4914
▁escalator	-12.4917
▁barber	-12.4921
rel	-12.4921
▁von	-12.4922
▁constituenc	-12.4922
reau	-12.4926
ub	-12.4926
▁persi	-12.4927
▁tyrann	-12.4928
roid	-12.4928
anu	-12.4929
▁timo	-12.4932
▁counselor	-12.4933
▁frig	-12.4934
▁revoke	-12.4936
▁forehand	-12.4938
▁dogged	-12.4938
▁ricard	-12.494
▁veer	-12.4941
▁boo	-12.4942
▁molest	-12.4942
▁coaster	-12.4944
bol	-12.4946
teau	-12.4948
▁qata	-12.4953
▁equalize	-12.4954
▁tele	-12.4955
▁spawn	-12.4959
hew	-12.4961
▁gum	-12.4961
▁128	-12.4964
▁shall	-12.4966
hmer	-12.4967
▁oliver	-12.4968
▁sniper	-12.4969
▁sunny	-12.4976
▁throng	-12.4977
▁spiel	-12.4977
▁arth	-12.4979
▁deaf	-12.4979
▁cheese	-12.4982
▁admire	-12.4983
▁elvi	-12.4983
▁leaf	-12.4985
dwell	-12.499
▁cesar	-12.4991
▁feline	-12.4992
▁refund	-12.4992
ony	-12.4997
▁censor	-12.4999
▁hospitalization	-12.4999
▁clement	-12.5002
▁pois	-12.5008
▁balco	-12.5009
▁primate	-12.501
▁xian	-12.5014
▁geit	-12.5015
▁comprise	-12.5017
▁squi	-12.5024
▁acquir	-12.5024
▁temper	-12.5024
▁specialize	-12.5024
ork	-12.5026
▁disqualifi	-12.5035
▁foil	-12.5035
nutrition	-12.5039
▁soak	-12.5043
▁dash	-12.5043
▁assignment	-12.5044
fayette	-12.5048
taek	-12.5048
ddy	-12.505
▁dynamit	-12.5053
moon	-12.5069
anana	-12.507
▁josh	-12.5071
ao	-12.5075
▁kne	-12.5076
▁stark	-12.5077
▁frequenc	-12.5077
35	-12.5082
▁mcqu	-12.5087
irming	-12.509
▁flush	-12.5098
tly	-12.5098
▁lament	-12.5099
rbala	-12.5099
hard	-12.51
▁happ	-12.5105
chemical	-12.5108
▁feast	-12.5111
lynn	-12.5111
aka	-12.5112
egas	-12.5119
▁endeavor	-12.5121
▁rajas	-12.5122
ymus	-12.5127
lender	-12.5131
shu	-12.514
▁saber	-12.514
▁fab	-12.5143
uke	-12.5146
▁jem	-12.5149
avoid	-12.515
ndra	-12.5152
▁wacho	-12.5154
▁invent	-12.5156
ris	-12.5157
▁crumbl	-12.5159
▁complicit	-12.5162
▁goe	-12.5164
▁upward	-12.5177
▁lari	-12.5178
▁som	-12.5188
▁joan	-12.519
▁processor	-12.5191
▁simulate	-12.5192
ltd	-12.5192
▁asha	-12.5192
▁faint	-12.5192
▁deplor	-12.5194
▁discipline	-12.5196
▁res	-12.5198
▁roche	-12.5199
▁viewing	-12.5202
she	-12.521
▁kerch	-12.5217
▁accumulate	-12.5227
▁pegg	-12.5232
vani	-12.5232
▁harle	-12.5234
mate	-12.5238
▁munition	-12.5241
▁stirr	-12.5242
year	-12.5244
▁skeptical	-12.5248
san	-12.5248
rwin	-12.5249
asahi	-12.5251
▁shau	-12.5256
▁drops	-12.526
▁hijacker	-12.5271
▁stiff	-12.528
etz	-12.5283
▁adel	-12.5286
▁evolv	-12.5286
▁appreciat	-12.5292
▁thrive	-12.5295
▁mujah	-12.5297
▁beache	-12.5302
bali	-12.5308
ates	-12.5308
nction	-12.5311
▁sal	-12.5311
▁undern	-12.5314
▁kan	-12.5315
▁devi	-12.5316
▁commun	-12.5317
▁alme	-12.5325
grid	-12.5327
lusive	-12.5331
roy	-12.5332
▁platin	-12.5333
▁intentional	-12.5335
lit	-12.5335
▁intimidati	-12.534
▁toppl	-12.5342
egun	-12.5343
ollea	-12.5345
▁nis	-12.5346
stair	-12.5349
▁lips	-12.5352
▁tangib	-12.5352
▁boil	-12.5362
▁armi	-12.5364
hafi	-12.5365
▁xp	-12.5369
▁compuls	-12.538
▁diwa	-12.5381
rio	-12.5382
▁forth	-12.5386
▁leno	-12.5392
▁raz	-12.5394
confirm	-12.5395
▁lou	-12.5395
elli	-12.5401
▁math	-12.5403
ici	-12.5404
committee	-12.5406
▁nah	-12.5419
iji	-12.542
▁emitt	-12.5421
▁sid	-12.5425
cini	-12.5431
▁hernan	-12.5431
▁psycho	-12.5432
▁gad	-12.5437
▁memori	-12.5438
▁georgian	-12.5439
▁jia	-12.5446
▁hur	-12.5453
▁worm	-12.5463
ference	-12.5466
eille	-12.5466
▁137	-12.5469
▁anton	-12.5478
▁verifi	-12.5479
▁cull	-12.5484
▁coordinati	-12.5488
gio	-12.5492
▁meghan	-12.5494
▁ascend	-12.5494
▁groom	-12.5499
mu	-12.55
▁jeon	-12.5501
▁firefight	-12.5505
clara	-12.5508
▁scho	-12.551
▁fascinat	-12.551
▁degrad	-12.5511
▁concentrat	-12.5517
▁ele	-12.5517
▁garr	-12.5525
▁perch	-12.5537
scar	-12.5538
61	-12.5539
▁purge	-12.5541
▁taj	-12.5546
▁oakl	-12.5552
yung	-12.5553
▁corpse	-12.5553
▁shower	-12.5556
▁futur	-12.5557
▁jess	-12.5559
afford	-12.5562
steps	-12.5566
▁irra	-12.5566
first	-12.5573
▁fabr	-12.5578
▁ana	-12.5583
itzer	-12.5592
▁hatch	-12.5598
soon	-12.5601
eparation	-12.5602
▁interact	-12.5604
▁shank	-12.5607
▁nasir	-12.5608
▁dia	-12.5615
diane	-12.5617
yong	-12.5618
▁stack	-12.562
tner	-12.5623
▁ridge	-12.563
▁dear	-12.5632
▁candle	-12.5635
▁cram	-12.564
▁pools	-12.5643
help	-12.5647
▁boundar	-12.5648
▁jessi	-12.5649
▁balk	-12.5649
▁hitt	-12.5651
disclos	-12.5655
▁estra	-12.5655
lese	-12.5661
▁edit	-12.5662
▁ump	-12.5665
▁resurrect	-12.5666
umn	-12.5666
rby	-12.568
stabili	-12.5682
▁profession	-12.5685
▁reunit	-12.5686
zio	-12.5687
▁fetch	-12.5698
89	-12.5699
und	-12.5699
rup	-12.5703
▁mock	-12.5704
verage	-12.5705
aved	-12.5712
▁shri	-12.5714
tana	-12.5718
▁replica	-12.5719
hed	-12.5719
86	-12.572
▁highland	-12.5722
▁albania	-12.5722
▁loo	-12.5724
elhof	-12.5725
▁bibl	-12.5727
▁covert	-12.573
ec	-12.5732
▁dani	-12.5734
omi	-12.5739
▁ec	-12.5747
▁worship	-12.5747
▁clan	-12.5747
bun	-12.575
evel	-12.5754
▁bearer	-12.5756
▁busi	-12.5762
nova	-12.5769
yeh	-12.577
▁hel	-12.5773
▁rim	-12.5773
▁bent	-12.5775
▁prai	-12.5776
▁fayya	-12.5778
▁banker	-12.5779
▁innovati	-12.5779
▁raft	-12.578
ffen	-12.5781
▁lind	-12.5783
yongsan	-12.5785
▁cann	-12.5786
▁jeopard	-12.5787
▁prob	-12.5791
▁pediatric	-12.5792
tious	-12.5792
▁appetite	-12.5793
▁autobiograph	-12.5793
▁carnival	-12.5793
▁culprit	-12.5793
▁panmunj	-12.5793
▁plaintiff	-12.5793
▁portfolio	-12.5793
▁yugoslav	-12.5793
▁convenience	-12.5793
▁fowler	-12.5793
▁jetliner	-12.5793
▁leisure	-12.5793
▁pavilion	-12.5793
▁seismic	-12.5793
▁aurora	-12.5793
▁demographic	-12.5793
▁rebuff	-12.5793
▁tanzania	-12.5793
▁steadfast	-12.5793
▁demolish	-12.5793
▁ecosystem	-12.5793
▁paleontologist	-12.5793
▁snapshot	-12.5793
▁loophole	-12.5793
▁hondura	-12.5793
▁souvenir	-12.5793
▁biometric	-12.5793
▁disregard	-12.5793
▁shaha	-12.5793
▁cowboy	-12.5793
▁encrypt	-12.5793
▁brawl	-12.5793
▁antenna	-12.5793
▁charismatic	-12.5793
▁goddess	-12.5793
▁minivan	-12.5793
▁furious	-12.5794
▁superstar	-12.5794
▁mediate	-12.5794
▁preach	-12.5794
▁unwilling	-12.5794
▁fetus	-12.5794
▁vague	-12.5795
▁elliot	-12.5795
▁hosseini	-12.5795
▁crescent	-12.5795
▁bradley	-12.5796
▁edmund	-12.5796
▁surrogate	-12.5796
▁ecsta	-12.5797
▁categorical	-12.5797
▁thankful	-12.5797
▁abn	-12.5797
▁swirl	-12.5798
▁artwork	-12.5799
▁variation	-12.58
▁colorful	-12.5801
▁intimate	-12.5801
▁tanner	-12.5801
▁stam	-12.5801
▁muddy	-12.5801
▁mimic	-12.5802
▁interactiv	-12.5803
ians	-12.5803
▁1940	-12.5804
▁stra	-12.5805
▁bourse	-12.5806
schle	-12.5807
▁interceptor	-12.5808
▁revers	-12.5808
▁flank	-12.5809
▁curtail	-12.5809
▁fertilizer	-12.5811
nin	-12.5811
tain	-12.5812
▁abdom	-12.5812
80	-12.5813
▁tusk	-12.5814
▁birthrate	-12.5814
▁airlift	-12.5816
▁banana	-12.5817
▁satisfact	-12.5817
▁interruption	-12.5819
▁depiction	-12.582
▁inning	-12.582
▁thro	-12.5821
▁electorate	-12.5822
lee	-12.5823
▁housekeeper	-12.5823
▁105	-12.5824
omaha	-12.5824
pin	-12.5824
▁patent	-12.5825
▁jelly	-12.5825
▁unfit	-12.5827
▁qualification	-12.5827
▁fundraiser	-12.5827
▁lieber	-12.5828
▁roth	-12.5829
▁heller	-12.5829
▁sleeve	-12.583
list	-12.5831
▁crawl	-12.5831
ocol	-12.5831
ear	-12.5833
▁communicat	-12.5835
▁airship	-12.5835
hore	-12.5835
93	-12.5836
kova	-12.5842
▁maldiv	-12.5843
▁stunne	-12.5844
▁stil	-12.5845
dic	-12.5845
▁fourt	-12.5849
▁kiku	-12.5849
ritis	-12.585
▁deliberation	-12.5851
▁meadow	-12.5853
▁mortal	-12.5854
▁candid	-12.5856
▁latitude	-12.5856
track	-12.5856
▁intensifi	-12.5858
▁dismay	-12.5858
▁scoop	-12.586
▁resent	-12.586
▁juice	-12.586
▁stretche	-12.5861
ash	-12.5862
wp	-12.5863
nam	-12.5863
after	-12.5864
▁secularist	-12.5864
watch	-12.5868
▁deflect	-12.5869
▁freak	-12.587
▁roberts	-12.587
▁forceful	-12.5872
▁naha	-12.5876
▁sup	-12.5878
▁wealthie	-12.5886
▁rafi	-12.5887
▁185	-12.5888
▁shand	-12.5889
▁downward	-12.589
▁cate	-12.5891
▁askari	-12.5891
▁racket	-12.5892
▁chas	-12.5893
▁cypr	-12.5895
bei	-12.5899
from	-12.59
▁edg	-12.5907
▁geographic	-12.5908
▁valve	-12.5908
▁kampu	-12.5909
smith	-12.5909
▁sake	-12.5911
lula	-12.5913
▁tutori	-12.5914
ussain	-12.5918
crates	-12.5919
▁sreb	-12.5926
▁hammon	-12.5926
▁shui	-12.5931
▁collid	-12.5933
▁sights	-12.5934
▁clever	-12.5936
▁unify	-12.5937
itie	-12.5937
▁patron	-12.5939
▁condon	-12.5941
▁skipp	-12.5942
hwa	-12.5944
▁les	-12.5944
▁bandit	-12.5952
horn	-12.5953
▁controller	-12.5956
parent	-12.5956
▁heroin	-12.5958
▁churn	-12.5959
▁nk	-12.596
rim	-12.5963
cial	-12.5973
▁violator	-12.5974
▁espi	-12.5974
technolog	-12.5975
▁grabbe	-12.5975
ehr	-12.5977
mble	-12.5979
rei	-12.5982
▁indicator	-12.5982
bal	-12.5984
adequate	-12.5984
▁zane	-12.5986
economic	-12.5994
▁zhe	-12.6
awful	-12.6
▁orde	-12.6
pon	-12.6009
▁accessib	-12.6013
hold	-12.6014
▁380	-12.6015
▁wax	-12.6019
eads	-12.6024
rish	-12.6025
▁revel	-12.6027
460	-12.6028
▁solicit	-12.6029
▁verifiabl	-12.6032
▁ceremoni	-12.6035
▁qual	-12.6035
aids	-12.6036
▁ravag	-12.6039
▁ruba	-12.6048
yev	-12.6049
▁patern	-12.605
▁loosen	-12.6054
tter	-12.6055
▁verge	-12.6056
mert	-12.6057
▁greeting	-12.6058
▁julian	-12.6061
▁trib	-12.6063
▁grape	-12.6064
nity	-12.6065
suit	-12.6065
▁disclos	-12.6068
ighting	-12.607
▁holm	-12.607
▁uncomm	-12.607
▁dippe	-12.6072
▁cro	-12.6073
▁mik	-12.6076
jord	-12.6078
▁gh	-12.6078
enos	-12.6079
car	-12.6081
▁initiat	-12.6082
▁flexibilit	-12.6085
▁kraus	-12.6086
▁infra	-12.6089
▁intensi	-12.6089
ath	-12.6099
▁withstand	-12.6103
▁intrigu	-12.6108
▁crashe	-12.6111
porter	-12.6111
tze	-12.6111
▁affiliat	-12.6119
▁gaine	-12.6119
▁nouri	-12.6119
▁shorten	-12.6121
▁fracture	-12.6124
▁gam	-12.6124
▁equalise	-12.613
▁montrea	-12.6131
shin	-12.6134
▁lexi	-12.6135
grow	-12.6142
hail	-12.6142
▁obsess	-12.6145
▁ip	-12.615
eon	-12.6154
▁gotte	-12.616
▁ah	-12.6161
▁hoff	-12.6163
anda	-12.6164
▁perish	-12.6166
gu	-12.6167
su	-12.6167
▁amass	-12.6168
▁bir	-12.6171
▁mcle	-12.6171
21	-12.618
metric	-12.6181
▁boulo	-12.6185
matic	-12.6188
▁painter	-12.6193
325	-12.6195
▁refine	-12.6202
▁porch	-12.6202
▁gag	-12.6204
eij	-12.6212
▁carr	-12.6217
mega	-12.6222
▁nuts	-12.6225
▁batteri	-12.6229
▁fuji	-12.6231
▁299	-12.6231
▁lan	-12.6232
▁mauric	-12.6232
▁fitt	-12.6235
▁unwa	-12.6235
▁fonda	-12.6238
sule	-12.6248
clusion	-12.6248
ntial	-12.6249
▁flagg	-12.625
▁fosse	-12.6253
66	-12.6254
ahn	-12.6256
lmand	-12.6257
closure	-12.627
make	-12.6271
▁insider	-12.6272
420	-12.6272
▁aaa	-12.6273
▁commons	-12.6274
▁snipe	-12.6283
aux	-12.6283
▁collaborat	-12.6285
▁advocat	-12.6288
▁liberaliz	-12.6288
▁keat	-12.6291
fann	-12.6291
dah	-12.6293
▁messi	-12.6296
zak	-12.6298
▁revere	-12.6298
▁gaul	-12.6309
stands	-12.6311
▁nh	-12.6316
▁reproducti	-12.6317
nant	-12.6318
▁sacking	-12.6318
zemi	-12.6326
▁dori	-12.6329
▁extradite	-12.633
▁lapse	-12.6334
▁ratifi	-12.6338
▁una	-12.6338
money	-12.6344
▁181	-12.6347
ature	-12.6348
rough	-12.6349
valent	-12.6351
▁mul	-12.6352
tract	-12.6353
▁rope	-12.6354
▁blanc	-12.6357
ichi	-12.6359
▁infring	-12.6367
▁thriv	-12.637
▁albe	-12.637
▁regulat	-12.6374
khar	-12.638
pine	-12.6381
37	-12.6382
paste	-12.6383
▁elisa	-12.6388
▁chore	-12.6388
▁birdie	-12.639
▁creditor	-12.639
xis	-12.6403
▁yuko	-12.6404
▁burk	-12.6405
▁mobilize	-12.6405
rose	-12.6407
▁dona	-12.6407
▁destroyer	-12.6413
▁jonat	-12.6415
▁terminate	-12.6415
▁keys	-12.6417
gate	-12.6421
eman	-12.6423
▁watt	-12.6437
▁braun	-12.6437
▁propell	-12.6438
▁cater	-12.6441
eu	-12.6442
▁specta	-12.6449
young	-12.6455
ace	-12.6457
otti	-12.6458
▁equ	-12.646
▁genom	-12.6464
▁rupe	-12.6472
▁pierce	-12.6473
▁header	-12.6474
▁qualifi	-12.6474
erran	-12.6476
▁pitcher	-12.6476
▁rage	-12.6477
olence	-12.648
sson	-12.6484
leban	-12.6488
▁haile	-12.649
▁frankl	-12.6493
▁awa	-12.6493
▁allocate	-12.6494
▁tops	-12.6495
▁terrifi	-12.6499
▁bong	-12.6499
ob	-12.6503
▁compell	-12.6503
▁salah	-12.6507
▁masse	-12.6508
▁printer	-12.6511
dick	-12.6513
mak	-12.6514
▁consolidate	-12.6514
▁136	-12.6514
▁infuriate	-12.6515
▁arrow	-12.6516
▁candles	-12.6518
▁donat	-12.652
▁tel	-12.6521
▁thron	-12.6526
▁borg	-12.6527
may	-12.6534
▁ea	-12.6536
saw	-12.6538
▁boon	-12.6541
▁collud	-12.6542
▁aggravat	-12.6549
▁finaliz	-12.655
rty	-12.6551
▁nikol	-12.656
oni	-12.6566
eological	-12.658
▁grad	-12.6585
uart	-12.6586
▁pessimist	-12.6587
▁cosmo	-12.6587
thy	-12.6589
▁entertainer	-12.6594
▁zealander	-12.6595
▁cripple	-12.6595
▁186	-12.6595
▁hamm	-12.6595
▁shu	-12.6599
▁certifi	-12.6604
▁expir	-12.6605
▁belts	-12.6614
▁kinne	-12.6614
▁vibra	-12.6618
▁yeon	-12.6626
afa	-12.663
▁domini	-12.6631
▁forci	-12.6634
tis	-12.6638
▁sham	-12.6644
▁cour	-12.6645
urs	-12.6649
bes	-12.6652
▁fool	-12.6659
lli	-12.666
ports	-12.666
iti	-12.6661
ecker	-12.6661
walk	-12.6665
▁lynd	-12.6679
bola	-12.6679
▁snu	-12.668
▁crist	-12.6682
▁hardline	-12.6685
▁comp	-12.6686
▁activate	-12.6687
▁doug	-12.6688
▁rand	-12.6689
daughter	-12.6696
▁garri	-12.67
people	-12.6702
▁forgiven	-12.6704
▁breez	-12.671
fest	-12.6713
▁contaminate	-12.6713
▁subsid	-12.6715
▁drac	-12.6721
▁downsiz	-12.6724
▁pardo	-12.6725
▁scal	-12.673
vinen	-12.6732
▁grind	-12.6735
pur	-12.6737
▁owne	-12.675
▁restructure	-12.6751
▁owe	-12.6754
▁packe	-12.6755
▁wag	-12.6757
aft	-12.6757
▁brace	-12.6758
▁emb	-12.676
▁cultivat	-12.6761
quet	-12.6767
lept	-12.6771
▁129	-12.6772
antana	-12.6773
▁snub	-12.6781
ption	-12.6782
▁pinn	-12.6785
▁insur	-12.6785
hallow	-12.6787
▁prescrib	-12.6789
▁blizzard	-12.6793
▁dysfunction	-12.6793
▁spontaneous	-12.6793
▁cosmetic	-12.6793
▁erratic	-12.6793
▁fraudulent	-12.6793
▁thirteen	-12.6793
▁audiotape	-12.6793
▁theoretical	-12.6793
▁absurd	-12.6793
▁alligator	-12.6793
▁basilica	-12.6793
▁ayurved	-12.6793
▁belarus	-12.6793
▁indiscriminate	-12.6793
▁landlord	-12.6793
▁senegal	-12.6793
▁anorexi	-12.6793
▁receipt	-12.6793
▁eyebrow	-12.6793
▁kashiwa	-12.6793
▁cambridge	-12.6793
▁surcharge	-12.6793
▁telecast	-12.6793
▁emphatic	-12.6793
▁malicious	-12.6793
▁tgv	-12.6793
▁arraignment	-12.6793
▁mafia	-12.6793
▁itinerar	-12.6793
▁zhao	-12.6793
▁revamp	-12.6793
▁turbine	-12.6794
▁newcomer	-12.6794
▁stymie	-12.6794
▁empower	-12.6794
▁solemn	-12.6794
▁sandbag	-12.6794
▁131	-12.6794
▁pinpoint	-12.6794
▁sidewalk	-12.6794
▁arrowhead	-12.6794
▁screenplay	-12.6794
▁temptation	-12.6794
▁deforest	-12.6795
▁kirch	-12.6795
▁bolivia	-12.6795
▁disabilit	-12.6795
▁wrinkle	-12.6795
▁ordinance	-12.6795
▁yah	-12.6795
▁luz	-12.6795
▁osbourne	-12.6796
▁sweat	-12.6796
▁mitch	-12.6796
▁mudslide	-12.6796
▁effig	-12.6796
▁gwen	-12.6796
▁katz	-12.6796
▁funnel	-12.6797
▁trunk	-12.6797
▁alba	-12.6797
ducat	-12.6797
▁jamestown	-12.6798
▁hamza	-12.6798
▁humid	-12.6798
▁headphone	-12.6798
▁ghost	-12.6799
▁ravine	-12.6799
zy	-12.6799
▁submerg	-12.68
▁tasmania	-12.68
▁marlboro	-12.6801
▁detach	-12.6801
▁condom	-12.6801
▁paek	-12.6801
▁adjustment	-12.6802
▁totalitarian	-12.6802
▁distraction	-12.6802
▁rethink	-12.6802
▁sequel	-12.6803
▁dumpling	-12.6803
▁recharge	-12.6803
▁eurosta	-12.6804
▁ak	-12.6804
▁straw	-12.6804
▁duran	-12.6805
▁1920	-12.6805
▁taunt	-12.6806
▁wei	-12.6807
▁lifeguard	-12.6808
▁jorge	-12.6808
▁luke	-12.6809
▁cadet	-12.6811
▁newsroom	-12.6812
ima	-12.6812
▁wrack	-12.6815
▁heir	-12.6816
▁fluid	-12.6817
▁ironic	-12.6817
▁module	-12.6818
▁perez	-12.6819
▁carol	-12.6822
▁intra	-12.6822
▁cali	-12.6822
▁decoration	-12.6824
▁cogniti	-12.6824
▁ev	-12.6827
dell	-12.6827
▁cred	-12.6828
▁unconscio	-12.683
▁fabric	-12.6831
riyad	-12.6832
▁pinch	-12.6832
▁educator	-12.6833
atorium	-12.6833
▁eun	-12.6834
▁flourish	-12.6836
▁notabl	-12.6836
cheema	-12.6837
▁bashir	-12.6837
▁booth	-12.6839
ght	-12.6841
▁astonish	-12.6843
▁casting	-12.6845
ngchon	-12.6847
▁reneg	-12.6847
lower	-12.6849
enza	-12.6852
▁baek	-12.6853
eller	-12.6855
▁taji	-12.6858
▁stipulate	-12.6859
▁beate	-12.6861
ured	-12.6862
▁conciliat	-12.6862
nders	-12.6862
terrestrial	-12.6862
▁siren	-12.6863
▁stampede	-12.6863
brew	-12.6863
▁elysee	-12.6863
▁enthusiast	-12.6867
▁pelvi	-12.6868
▁riddle	-12.6869
▁endless	-12.6877
▁dweller	-12.6878
lumin	-12.688
▁swelling	-12.6881
wall	-12.6882
▁estonian	-12.6883
▁carolin	-12.6887
▁blazers	-12.6889
▁electro	-12.6889
▁scarce	-12.6889
▁vet	-12.6892
▁sophi	-12.6895
▁127	-12.6896
▁wit	-12.6899
ngue	-12.69
gaz	-12.6901
▁unfreez	-12.6902
▁transmitte	-12.6904
▁fann	-12.6905
▁pluck	-12.6909
gal	-12.691
▁hungar	-12.6911
lock	-12.692
▁113	-12.6921
lley	-12.6924
▁devot	-12.6924
▁kua	-12.6926
bury	-12.6927
nia	-12.6929
stable	-12.6931
▁obstruct	-12.6933
effective	-12.6933
▁khalil	-12.6939
alban	-12.6939
▁173	-12.694
▁murd	-12.694
science	-12.6941
▁offence	-12.6944
▁vigilant	-12.6946
varna	-12.6946
▁seon	-12.6948
▁merck	-12.6948
nna	-12.6949
▁phon	-12.695
kim	-12.6952
▁fier	-12.6952
▁hijacking	-12.6952
nter	-12.6955
▁distincti	-12.6958
▁gymnast	-12.6959
▁giro	-12.6959
▁smithson	-12.696
▁merchandise	-12.6961
▁03	-12.6962
scape	-12.6964
igat	-12.6967
▁hos	-12.6967
▁merv	-12.6969
ammar	-12.6972
▁develope	-12.6976
▁mosc	-12.6976
▁yama	-12.698
▁hans	-12.6981
29	-12.6983
▁log	-12.6985
▁natali	-12.6985
▁tide	-12.6986
tri	-12.6989
nya	-12.6989
iles	-12.699
▁adrian	-12.6994
nsula	-12.6995
▁rework	-12.6998
cific	-12.6999
▁compass	-12.7006
▁dera	-12.7007
▁troph	-12.7008
▁reunite	-12.701
▁lah	-12.7011
▁spectacle	-12.7011
▁sneaker	-12.7012
▁anthropolog	-12.7013
case	-12.7017
▁defy	-12.7017
▁underg	-12.7018
ainst	-12.7019
▁gwang	-12.7022
▁disconnect	-12.7025
tie	-12.7026
▁gry	-12.7026
kong	-12.7026
▁grapple	-12.7027
▁roos	-12.7028
▁deteriorate	-12.7032
▁strippe	-12.7038
▁108	-12.7042
jid	-12.7044
▁intestin	-12.7048
▁trends	-12.7049
▁gir	-12.7054
season	-12.7054
ieve	-12.7056
▁rewrit	-12.7056
vision	-12.7057
▁citation	-12.706
nga	-12.706
▁trev	-12.7062
ussi	-12.7065
▁rud	-12.7068
▁biti	-12.707
cube	-12.7074
▁prof	-12.7076
▁narco	-12.7079
taka	-12.7081
pian	-12.7082
▁tsuyo	-12.7083
▁singaporean	-12.7085
55	-12.7089
▁allergi	-12.7091
▁compris	-12.7094
▁mistaken	-12.7094
cyclist	-12.7095
pulsion	-12.7096
▁invad	-12.7105
▁branc	-12.7105
▁heather	-12.7107
▁boni	-12.711
▁fax	-12.711
eas	-12.7112
dental	-12.7113
320	-12.7114
▁hyo	-12.7114
▁tro	-12.7119
▁adventures	-12.7126
▁consultati	-12.7134
arra	-12.7137
ohn	-12.7139
▁woode	-12.7139
▁residenc	-12.7144
rus	-12.715
▁cj	-12.7153
▁charm	-12.7157
▁ritz	-12.7164
▁deng	-12.7178
asso	-12.7179
▁stoning	-12.7179
▁triang	-12.7181
▁suff	-12.7182
onian	-12.7183
▁cruiser	-12.7185
aiko	-12.7186
wadd	-12.719
158	-12.7194
▁outlin	-12.7194
▁pacify	-12.7197
avy	-12.7198
▁liberate	-12.7199
aden	-12.7201
▁cling	-12.7204
▁192	-12.7207
▁saba	-12.7207
apolitan	-12.7212
cable	-12.7219
bouc	-12.722
erno	-12.7222
lm	-12.7223
▁cement	-12.7225
▁medit	-12.7229
rgis	-12.7229
▁flyer	-12.7229
▁lemon	-12.7231
sense	-12.7233
▁repli	-12.7236
▁sala	-12.7239
▁lonely	-12.724
▁depos	-12.7242
stra	-12.7243
▁cher	-12.7247
▁tig	-12.7248
▁wool	-12.7249
hcr	-12.7251
▁hir	-12.7256
▁psychiatri	-12.7258
▁populate	-12.7261
▁loung	-12.7267
slaughter	-12.7267
▁bidd	-12.7268
ebol	-12.7271
▁evict	-12.7273
▁exo	-12.7278
drome	-12.7278
▁tomo	-12.7282
▁neo	-12.7283
friend	-12.7286
dney	-12.7287
ringing	-12.7288
rjee	-12.7288
jean	-12.7291
▁remed	-12.7292
sch	-12.7292
illionaire	-12.7296
▁zin	-12.7303
zer	-12.7305
▁samuel	-12.7305
believ	-12.7307
oppo	-12.7312
▁helms	-12.7319
mat	-12.7328
oxid	-12.7331
▁mistreat	-12.7332
▁moss	-12.7335
ptive	-12.7337
tilin	-12.7338
comfortabl	-12.7338
diari	-12.7339
dis	-12.734
▁gentle	-12.7341
▁journalis	-12.7351
lett	-12.7355
▁gia	-12.7358
ires	-12.736
book	-12.7362
▁chau	-12.7363
▁manipulate	-12.7363
illian	-12.7372
▁ramme	-12.7373
kfa	-12.7375
▁licens	-12.738
run	-12.7382
▁kb	-12.7386
▁burri	-12.7406
▁claw	-12.741
sushi	-12.7418
rays	-12.7432
▁bully	-12.7433
▁compassion	-12.7433
▁observa	-12.7442
▁notic	-12.7443
lam	-12.7443
fox	-12.7448
pr	-12.7448
▁rip	-12.7451
▁gott	-12.7452
▁germ	-12.7453
nning	-12.7454
▁jeopardize	-12.7466
▁sanit	-12.7469
▁reper	-12.7469
actic	-12.7469
▁footballer	-12.7474
bas	-12.7474
▁devastati	-12.7475
▁carat	-12.7481
▁vera	-12.7486
▁lang	-12.7489
▁relegat	-12.749
▁retriev	-12.7491
▁quant	-12.7491
predictabl	-12.7496
lic	-12.7498
arade	-12.7506
secretar	-12.7506
sche	-12.7507
▁jab	-12.751
arming	-12.7512
anua	-12.7513
lem	-12.7514
▁tread	-12.752
▁lac	-12.7524
dwin	-12.7525
▁geno	-12.7527
▁sur	-12.7532
▁pier	-12.7532
▁suppressi	-12.7536
▁meteorolog	-12.754
▁sue	-12.7542
od	-12.7544
▁intoxicat	-12.7547
82	-12.7548
▁ub	-12.755
▁uneas	-12.755
▁chungchon	-12.7556
▁discourage	-12.7557
▁kana	-12.756
▁pont	-12.7577
▁drinker	-12.7578
▁realign	-12.7578
▁159	-12.7581
▁rus	-12.7582
lick	-12.7587
▁rebuil	-12.7603
▁empti	-12.7606
▁deteriorati	-12.7607
▁blitze	-12.7609
▁lame	-12.761
▁hedge	-12.761
▁fluor	-12.7613
net	-12.7614
▁arsen	-12.7615
▁pew	-12.7615
▁inundate	-12.7615
▁enroll	-12.7617
prio	-12.7617
accessib	-12.7619
▁paw	-12.7627
▁reliev	-12.763
▁nap	-12.7637
▁erode	-12.7638
▁clergy	-12.7642
garve	-12.7646
▁confuse	-12.7648
▁bankrupt	-12.7649
hart	-12.7654
▁jett	-12.7655
roll	-12.7666
▁induce	-12.7666
▁integrat	-12.7672
▁searche	-12.768
▁hugg	-12.7686
▁universi	-12.7688
▁07	-12.7689
▁decorat	-12.7689
▁sands	-12.7694
▁camer	-12.7699
girl	-12.7707
▁robe	-12.7708
vic	-12.7711
rone	-12.7715
▁sag	-12.7717
▁andrea	-12.7721
word	-12.7723
▁capitaliz	-12.7729
▁shel	-12.7737
▁sneak	-12.7746
kar	-12.7747
▁deliberat	-12.7748
▁robbi	-12.7749
▁archaeologi	-12.7749
▁banda	-12.775
▁suicid	-12.775
▁maur	-12.7756
illard	-12.7757
itive	-12.776
▁strick	-12.7762
▁abba	-12.7764
▁incorporat	-12.7765
▁astro	-12.7766
lahor	-12.7767
▁consolidati	-12.7769
19	-12.777
▁piro	-12.7775
▁reconn	-12.7775
▁masha	-12.7779
▁yass	-12.7781
▁stephens	-12.7785
brough	-12.7788
▁eisen	-12.7789
match	-12.7794
▁nativ	-12.7802
▁optim	-12.7804
▁humane	-12.7805
▁americ	-12.7806
tai	-12.781
saki	-12.781
pan	-12.781
lla	-12.7811
▁chew	-12.7811
ule	-12.7812
▁appa	-12.7814
79	-12.7817
▁sik	-12.7818
▁toshi	-12.782
▁rama	-12.7823
uff	-12.7824
hall	-12.7825
vara	-12.7826
▁satisfy	-12.7834
glio	-12.7836
▁sel	-12.7842
▁ensu	-12.7849
mitag	-12.7852
▁lied	-12.7853
▁chiap	-12.7858
spring	-12.7864
nned	-12.7866
▁embrac	-12.7866
lift	-12.7868
veh	-12.787
cock	-12.7873
▁circu	-12.7875
uchov	-12.7878
▁prominen	-12.788
▁justifie	-12.7881
▁taek	-12.7882
▁slap	-12.7883
lb	-12.7888
▁ww	-12.7895
▁lonel	-12.7898
▁lime	-12.79
▁hadn	-12.7902
▁infiltrate	-12.7903
▁buoy	-12.7903
▁abolition	-12.7904
▁cuisine	-12.7904
▁demolition	-12.7904
▁enclave	-12.7904
▁entrepreneur	-12.7904
▁recipient	-12.7904
▁remittance	-12.7904
▁soprano	-12.7904
▁uruguay	-12.7904
▁grizzl	-12.7904
▁derelict	-12.7904
▁detergent	-12.7904
▁immoral	-12.7904
▁daimler	-12.7904
▁dreamliner	-12.7904
▁matthew	-12.7904
▁relentless	-12.7904
▁rupture	-12.7904
▁disadvantage	-12.7904
▁banteng	-12.7904
▁imbalance	-12.7904
▁graveyard	-12.7904
▁vigorous	-12.7904
▁acquaintance	-12.7904
▁avatar	-12.7904
▁twitter	-12.7904
▁wilkins	-12.7904
▁jockey	-12.7904
▁chipmaker	-12.7904
▁alessandr	-12.7904
▁hemorrhag	-12.7904
▁octopus	-12.7904
▁masterpiece	-12.7904
▁rutger	-12.7904
▁pharaoh	-12.7904
▁vulnerabilit	-12.7904
▁grievance	-12.7904
▁caffe	-12.7905
▁downpour	-12.7905
▁organisation	-12.7905
▁purple	-12.7905
▁pupil	-12.7905
▁shrunk	-12.7905
▁mushroom	-12.7905
▁snowstorm	-12.7905
▁quirk	-12.7905
▁unravel	-12.7905
▁manhunt	-12.7905
▁gharial	-12.7905
▁polygam	-12.7905
▁rainbow	-12.7905
▁whirl	-12.7905
▁ventilat	-12.7905
▁minibus	-12.7906
rash	-12.7906
▁incompeten	-12.7906
▁dissent	-12.7906
▁outflow	-12.7906
▁sitcom	-12.7906
▁gaffe	-12.7906
▁haircut	-12.7906
▁organism	-12.7906
▁cont	-12.7907
▁dispel	-12.7908
▁graff	-12.7908
▁accommodation	-12.7908
▁marvel	-12.7908
▁nongovernment	-12.7908
▁idris	-12.7908
iff	-12.7909
▁procure	-12.7909
chon	-12.7909
▁complement	-12.791
▁involuntar	-12.7911
▁lip	-12.7911
▁cremation	-12.7911
▁indigen	-12.7911
▁fioren	-12.7912
▁czar	-12.7912
▁unlock	-12.7913
▁mongolia	-12.7913
▁vander	-12.7913
▁slovakia	-12.7914
▁respectful	-12.7914
▁elevation	-12.7914
▁diaper	-12.7914
▁vill	-12.7914
nthia	-12.7915
▁barbour	-12.7915
lamin	-12.7916
▁sixteen	-12.7916
▁jabal	-12.7916
▁redistribut	-12.7916
▁obeid	-12.7916
▁affirm	-12.7917
▁flour	-12.7917
▁nim	-12.7917
▁playground	-12.7918
▁apprehend	-12.792
▁magnet	-12.7922
▁laurent	-12.7923
▁shrugg	-12.7923
▁560	-12.7924
▁congregation	-12.7925
▁tamper	-12.7926
▁depot	-12.7927
▁stoppage	-12.7927
▁newsweek	-12.7929
▁physiolog	-12.7929
▁classify	-12.793
▁wrangl	-12.793
▁370	-12.793
▁calculat	-12.793
▁aviv	-12.7931
▁traitor	-12.7931
▁oman	-12.7932
▁audition	-12.7933
▁scarlet	-12.7934
rah	-12.7938
▁overpower	-12.794
ouri	-12.7941
▁skylin	-12.7943
▁rubin	-12.7947
▁cynical	-12.795
▁bragg	-12.7951
▁circulati	-12.7957
▁mcclinto	-12.7957
▁lodging	-12.7957
▁contributor	-12.7958
▁trafficker	-12.7958
▁subscriber	-12.7959
▁vik	-12.7962
▁corpora	-12.7964
▁lik	-12.7967
ip	-12.7967
▁moderniz	-12.7968
▁nonviolen	-12.7969
▁baba	-12.7971
▁scanner	-12.7972
▁fringe	-12.7973
▁okay	-12.7975
▁gartner	-12.7976
▁trampl	-12.7976
▁sevent	-12.7977
▁gigabyte	-12.7977
▁worshipper	-12.7978
asser	-12.7978
▁hyde	-12.798
▁pedr	-12.7981
▁crusader	-12.7983
▁boob	-12.7984
nable	-12.7987
▁directive	-12.799
▁adorn	-12.7991
▁conspirator	-12.7994
▁contagio	-12.7994
▁abundan	-12.7995
▁designation	-12.7997
pot	-12.7997
▁corral	-12.8002
▁surpris	-12.8003
▁widower	-12.8004
▁carving	-12.8005
▁marriot	-12.8006
▁injustice	-12.8006
aters	-12.8007
▁nava	-12.8007
hni	-12.8011
▁mukas	-12.8012
rock	-12.8012
▁yuri	-12.8014
▁essay	-12.8014
▁mcnam	-12.8016
▁screw	-12.8017
onic	-12.802
tics	-12.8024
▁giv	-12.8026
71	-12.8031
▁zhi	-12.8033
toff	-12.8033
▁laborer	-12.8035
ges	-12.8037
▁camel	-12.8039
▁atta	-12.8042
▁composition	-12.8042
▁zahar	-12.8042
▁handset	-12.8043
cott	-12.8044
▁visi	-12.8045
kaya	-12.8046
▁astronom	-12.8047
▁rename	-12.8051
▁floren	-12.8051
tractor	-12.8053
▁pir	-12.8054
▁gins	-12.8054
▁stutt	-12.8057
▁maki	-12.8058
rea	-12.806
cker	-12.806
pache	-12.8061
▁weiss	-12.8061
▁premeditat	-12.8063
barak	-12.8063
▁yuca	-12.8075
▁likeness	-12.8075
▁fiji	-12.8076
robe	-12.8077
▁maggi	-12.8078
▁dim	-12.8078
▁fume	-12.808
shot	-12.8085
▁sau	-12.8087
▁adj	-12.8091
▁plagu	-12.8092
▁beau	-12.8094
▁analys	-12.8094
ading	-12.8097
lon	-12.8097
holm	-12.8097
▁defamat	-12.8099
▁embed	-12.81
raft	-12.8103
holes	-12.8105
▁abide	-12.8105
▁santor	-12.811
▁downside	-12.8113
▁transformer	-12.8114
▁bombard	-12.8115
▁shaun	-12.812
▁gregor	-12.8121
▁cardiov	-12.8122
▁jolt	-12.8124
asra	-12.8127
▁dipp	-12.8131
▁inviting	-12.8131
▁stranding	-12.8131
tag	-12.8131
▁waive	-12.8134
▁rena	-12.8138
▁columbi	-12.8142
▁lankan	-12.8145
ight	-12.815
▁exceeding	-12.8153
▁operati	-12.8154
▁compatible	-12.8154
▁lax	-12.8155
▁touche	-12.8155
wha	-12.8156
▁normalize	-12.8157
gher	-12.8157
▁tract	-12.816
battle	-12.8164
▁holz	-12.817
▁pow	-12.8172
ico	-12.8176
▁gravitation	-12.8176
▁schn	-12.8177
choa	-12.8181
▁utilize	-12.8182
▁pause	-12.8186
rine	-12.8188
▁angri	-12.8189
▁relocat	-12.819
▁divin	-12.8192
frost	-12.8192
dahn	-12.8193
▁fury	-12.8194
aah	-12.8196
historic	-12.8196
▁zur	-12.8196
ct	-12.8199
▁walt	-12.8205
▁patter	-12.8206
jaf	-12.8206
ku	-12.8206
▁readi	-12.8209
▁dayton	-12.8213
ito	-12.8213
▁alban	-12.8213
▁dispatche	-12.8214
var	-12.8216
▁tablet	-12.822
quille	-12.8224
▁harde	-12.8226
▁twister	-12.8226
hin	-12.8229
▁satisfactor	-12.8231
werp	-12.8233
billion	-12.8235
▁fol	-12.8237
▁excavat	-12.8242
▁cheape	-12.8243
conception	-12.8247
illy	-12.8249
lissa	-12.825
▁shir	-12.8251
mitt	-12.8256
ridge	-12.8256
▁geu	-12.826
▁knot	-12.8264
roz	-12.8265
▁sift	-12.8266
▁cache	-12.8269
▁unsc	-12.827
brook	-12.827
kes	-12.8274
blaze	-12.8274
▁tactical	-12.8277
▁timeline	-12.8279
▁galv	-12.8291
graduate	-12.8292
tooth	-12.8295
▁lange	-12.8295
wich	-12.8299
▁shaw	-12.8299
▁visitation	-12.8301
▁clima	-12.8301
▁numb	-12.8303
ilja	-12.8305
▁alleviate	-12.831
found	-12.831
load	-12.8316
▁imag	-12.8319
▁santos	-12.832
▁bolsh	-12.832
dolph	-12.8328
accurate	-12.8329
▁regrett	-12.833
▁hats	-12.8333
▁preem	-12.8335
enne	-12.8335
▁legalize	-12.8336
▁butterfl	-12.8341
▁shine	-12.8346
▁kaise	-12.8358
▁funn	-12.8361
niels	-12.8364
qi	-12.8365
▁elb	-12.8369
▁abstain	-12.8369
hawk	-12.8371
▁tril	-12.8372
▁burge	-12.8372
▁complian	-12.8379
▁sar	-12.838
hic	-12.8381
afsha	-12.8382
dog	-12.8384
fielder	-12.8387
▁unl	-12.8389
▁skit	-12.8392
▁wolfe	-12.8399
post	-12.8401
epo	-12.8404
▁parish	-12.8407
▁eavesdropp	-12.8416
fried	-12.8419
jin	-12.8421
style	-12.8421
▁hydra	-12.8423
cotte	-12.8424
▁compli	-12.8424
▁stalk	-12.8433
▁sniff	-12.8433
▁termination	-12.8433
▁lombard	-12.8434
hiko	-12.8435
▁insurer	-12.8438
▁skid	-12.8438
▁fend	-12.8443
arns	-12.8447
▁trea	-12.8448
eat	-12.8449
▁chok	-12.8451
ashi	-12.8452
wer	-12.8453
acio	-12.8455
▁chick	-12.8456
stice	-12.8459
angzh	-12.8462
choles	-12.8466
elmand	-12.847
▁behave	-12.8471
▁quo	-12.8476
▁rattle	-12.8476
▁dj	-12.8477
mitted	-12.848
tland	-12.848
▁molecul	-12.8484
▁divisi	-12.8491
▁tzi	-12.8494
call	-12.8496
president	-12.8497
▁shre	-12.8497
▁cott	-12.8499
▁defian	-12.8502
cla	-12.8506
▁inconvenience	-12.8507
▁shann	-12.8508
▁tracker	-12.8513
force	-12.8516
▁mv	-12.8523
▁glo	-12.8524
▁alga	-12.8524
rown	-12.8534
▁existe	-12.8535
▁secre	-12.854
▁solan	-12.8542
▁shan	-12.856
libu	-12.8566
121	-12.8571
▁sein	-12.8572
▁joo	-12.8576
▁adversari	-12.8577
▁undertake	-12.858
ses	-12.8582
▁dare	-12.859
▁shutter	-12.8592
kto	-12.8592
lis	-12.8592
▁berger	-12.8595
midt	-12.8597
▁bruise	-12.8597
▁thaw	-12.8599
joy	-12.86
▁judd	-12.8602
▁swell	-12.8603
▁patt	-12.8607
▁hashim	-12.8607
▁wald	-12.8612
▁diari	-12.8612
▁anthr	-12.8614
▁bodi	-12.8618
sco	-12.8622
wind	-12.8624
kers	-12.8627
usa	-12.8632
▁conven	-12.8637
acent	-12.8638
▁compil	-12.864
achi	-12.8641
ubs	-12.8646
▁plu	-12.8649
▁khi	-12.8649
stic	-12.8651
▁turna	-12.8651
▁eac	-12.8652
▁prima	-12.8654
▁swo	-12.8657
stroke	-12.8658
ighter	-12.8658
jong	-12.8659
▁presente	-12.8663
▁vil	-12.8674
▁cos	-12.8676
▁marul	-12.8677
▁eclipse	-12.8678
▁tame	-12.869
▁convinc	-12.8691
keeper	-12.8697
▁recorder	-12.8698
sea	-12.8698
rick	-12.87
▁prioriti	-12.87
dian	-12.87
▁dangl	-12.8701
▁slick	-12.8702
lai	-12.8703
▁cou	-12.8708
▁fractur	-12.8709
▁lau	-12.871
lov	-12.8712
▁modifie	-12.8714
shing	-12.8716
▁217	-12.8723
▁scarf	-12.8725
incin	-12.8728
▁ira	-12.8731
▁washing	-12.8735
▁arou	-12.8737
▁vid	-12.8737
face	-12.8746
los	-12.8746
100	-12.8757
wage	-12.8763
max	-12.8768
▁khal	-12.8768
▁bend	-12.8769
▁robes	-12.8769
▁154	-12.8769
▁277	-12.8773
ellen	-12.8775
▁bac	-12.8779
▁inflammat	-12.8781
nds	-12.8783
alaba	-12.8785
nberg	-12.8785
jax	-12.8786
▁audi	-12.8788
▁giz	-12.8788
▁breeder	-12.8792
▁huddle	-12.8793
▁benze	-12.8793
dez	-12.8796
▁corners	-12.8799
ndell	-12.8805
▁liber	-12.8808
▁drumm	-12.8809
▁structur	-12.8817
joya	-12.8836
▁bells	-12.8843
▁paralysi	-12.8844
▁outspen	-12.8844
▁underscor	-12.8847
▁bait	-12.8854
mir	-12.8856
escent	-12.8857
▁mona	-12.8861
umbling	-12.887
▁nova	-12.887
▁pontif	-12.8872
yub	-12.8876
clips	-12.8876
▁depose	-12.8877
▁gila	-12.888
▁269	-12.8881
▁derive	-12.8883
gay	-12.8884
eston	-12.8902
▁logic	-12.8904
oster	-12.891
▁syn	-12.8918
master	-12.8918
speak	-12.8919
emi	-12.8924
cho	-12.8926
took	-12.8927
urance	-12.8927
pal	-12.8932
embe	-12.8937
▁hiker	-12.8949
gues	-12.8949
▁shade	-12.8952
▁trinit	-12.8965
fair	-12.897
▁christo	-12.8976
▁beast	-12.8981
▁assemble	-12.8982
erman	-12.8983
▁consequent	-12.8984
▁venet	-12.899
tin	-12.9002
▁tar	-12.9006
▁ende	-12.9007
▁nawa	-12.9007
▁burt	-12.9013
▁ce	-12.9021
doubted	-12.9029
riq	-12.9031
▁dou	-12.9035
▁sharpen	-12.9035
iding	-12.9046
▁elevat	-12.9046
23	-12.905
▁grill	-12.9051
kins	-12.9054
▁enthusias	-12.9057
▁blu	-12.9057
onga	-12.9059
mela	-12.9064
▁bugg	-12.9064
uro	-12.9065
▁kingsto	-12.9066
din	-12.9068
▁piled	-12.9071
▁ble	-12.9081
▁zub	-12.9082
▁moai	-12.9083
vac	-12.9084
get	-12.9085
▁educate	-12.9091
auvin	-12.9093
igh	-12.9095
agoni	-12.9097
irna	-12.9097
ppe	-12.9098
mine	-12.91
rovers	-12.9103
▁scrub	-12.9114
▁precede	-12.9115
▁hano	-12.9117
▁stu	-12.9118
▁chai	-12.912
▁tenzin	-12.9122
sef	-12.9123
▁dart	-12.9136
▁celesti	-12.9136
▁deadli	-12.9139
▁bun	-12.9142
▁olympia	-12.9143
comm	-12.9144
▁distract	-12.9146
▁fist	-12.9147
rdin	-12.9148
▁pressur	-12.915
▁susceptib	-12.9154
▁aeronautic	-12.9154
▁dilemma	-12.9154
▁encroach	-12.9154
▁handcuff	-12.9154
▁kilowatt	-12.9154
▁liechtenstein	-12.9154
▁linguistic	-12.9154
▁montenegr	-12.9154
▁nanotube	-12.9154
▁orangutan	-12.9154
▁pesticide	-12.9154
▁precarious	-12.9154
▁prejudice	-12.9154
▁reprimand	-12.9154
▁scapegoat	-12.9154
▁torchbearer	-12.9154
▁unpleasant	-12.9154
▁dharams	-12.9154
▁rheumato	-12.9154
▁tumult	-12.9154
▁stupid	-12.9154
hygien	-12.9154
▁microwave	-12.9154
▁entrench	-12.9154
▁mahmud	-12.9154
▁uninhabit	-12.9154
▁pervasive	-12.9154
▁friction	-12.9154
▁subtitle	-12.9154
▁euthanize	-12.9154
▁brazen	-12.9154
▁shroud	-12.9154
▁picnic	-12.9154
▁kiosk	-12.9154
▁pablo	-12.9154
▁ivanko	-12.9154
▁vivid	-12.9154
▁mattress	-12.9154
▁horizontal	-12.9154
▁bombardier	-12.9155
▁archeologist	-12.9155
▁postcard	-12.9155
▁bookstore	-12.9155
▁gunbattle	-12.9155
▁flawless	-12.9155
▁slaughterhouse	-12.9155
▁bikini	-12.9156
▁tirade	-12.9156
▁submission	-12.9156
▁cavalier	-12.9156
▁disast	-12.9156
▁modify	-12.9156
▁glitch	-12.9156
▁conversion	-12.9157
▁remorse	-12.9157
▁undervalue	-12.9157
▁pleasant	-12.9157
▁electrocut	-12.9157
▁entail	-12.9158
▁schoolgirl	-12.9158
▁fountain	-12.9158
▁lizard	-12.9158
▁novelist	-12.9159
extraterrestrial	-12.9159
▁euthan	-12.9159
▁discord	-12.9159
▁pharmacist	-12.9159
▁reschedul	-12.916
▁hoax	-12.916
▁hou	-12.916
▁clarifi	-12.916
▁harmless	-12.916
▁lauder	-12.916
▁exhaustive	-12.9161
▁exemption	-12.9162
▁smear	-12.9163
▁nullify	-12.9164
▁neural	-12.9164
▁tailor	-12.9164
▁orchard	-12.9164
▁annex	-12.9165
▁curricul	-12.9165
▁deception	-12.9166
▁chechen	-12.9166
rogba	-12.9166
▁humbert	-12.9166
▁secularis	-12.9166
▁excavation	-12.9166
▁ernest	-12.9166
▁sauer	-12.9166
▁incorrect	-12.9167
▁chinook	-12.9167
▁piercing	-12.9169
▁mulia	-12.9169
▁frederic	-12.9169
▁rapper	-12.917
▁justifi	-12.917
▁cylinder	-12.917
▁selloff	-12.9171
▁grasp	-12.9171
▁calif	-12.9171
▁reversal	-12.9171
▁worthless	-12.9172
▁reclaim	-12.9172
▁acr	-12.9172
▁oleg	-12.9172
▁socialite	-12.9172
▁backhand	-12.9174
▁advers	-12.9174
▁dealership	-12.9174
▁showroom	-12.9176
▁wiretapp	-12.9176
▁mountaineer	-12.9176
▁keyboard	-12.9177
▁spillway	-12.9177
▁ovation	-12.9177
▁euph	-12.9181
abi	-12.9182
etcher	-12.9183
▁attire	-12.9187
▁bachel	-12.9187
ych	-12.9189
wf	-12.919
▁entice	-12.919
▁levee	-12.9194
▁tenet	-12.9195
lu	-12.9195
▁functional	-12.9195
▁walton	-12.9195
▁cutback	-12.9196
▁hendri	-12.9196
▁snagg	-12.9196
▁chech	-12.9197
▁councilor	-12.9198
andel	-12.9199
▁tweak	-12.92
▁clover	-12.9201
▁decorate	-12.9201
▁sander	-12.9202
funct	-12.9203
olog	-12.9204
▁shortcoming	-12.9205
▁flor	-12.9206
▁beneficiar	-12.9206
▁acquittal	-12.9208
▁balanc	-12.9209
▁nye	-12.9213
▁carli	-12.9213
▁eradicat	-12.9213
▁kristin	-12.9213
▁giovan	-12.9214
▁voic	-12.9215
▁recreation	-12.9217
▁earnest	-12.9217
▁endure	-12.9217
▁pedophile	-12.922
▁tasting	-12.9221
▁rightist	-12.9222
▁alternate	-12.9224
▁hiroshi	-12.9226
▁timber	-12.923
▁allowance	-12.9231
habi	-12.9233
▁defection	-12.9235
▁siddiq	-12.9235
▁generous	-12.9242
▁bundle	-12.9243
▁perve	-12.9243
▁perma	-12.9243
tro	-12.9247
▁claud	-12.9248
▁emitter	-12.9249
▁wro	-12.925
▁rightful	-12.925
▁francesc	-12.9252
▁111	-12.9253
▁beekeeper	-12.9254
▁wobble	-12.9256
▁midland	-12.9256
ternate	-12.9256
54	-12.9256
▁financier	-12.9258
▁unfor	-12.926
▁guse	-12.9261
▁herman	-12.9262
▁ansa	-12.9271
ctic	-12.9275
84	-12.9277
▁sitter	-12.9277
▁disput	-12.9279
zar	-12.9282
▁amber	-12.9283
zan	-12.9285
▁huang	-12.9286
▁haq	-12.9286
▁wolve	-12.9287
▁mala	-12.9287
▁convenient	-12.9288
▁bestsell	-12.9289
▁outsourc	-12.929
imeter	-12.929
nov	-12.9292
▁volcan	-12.9293
▁roast	-12.9295
▁distr	-12.9296
▁chal	-12.9297
sour	-12.9299
ori	-12.9304
sibilit	-12.9304
amba	-12.9305
▁protestant	-12.9305
blood	-12.9306
eira	-12.9307
▁salad	-12.9314
▁toxin	-12.9318
▁assumption	-12.9319
▁tapp	-12.9321
▁pharmac	-12.9321
▁cellar	-12.9326
▁torri	-12.9327
▁fertili	-12.9328
▁recit	-12.9329
▁invoke	-12.9332
zing	-12.9334
▁makeover	-12.9336
▁salvage	-12.9336
▁skier	-12.9338
▁keller	-12.9338
▁chilling	-12.9339
▁freighter	-12.9339
▁hoard	-12.9339
ugher	-12.934
▁filter	-12.9341
▁verifie	-12.9342
▁duch	-12.9343
▁glue	-12.9346
▁grader	-12.9347
▁humble	-12.935
▁casa	-12.935
▁fig	-12.9351
▁labe	-12.9354
▁alegr	-12.9355
▁jai	-12.9356
ep	-12.9357
▁grue	-12.9361
▁mwan	-12.9364
hab	-12.9365
tagon	-12.9365
dler	-12.9366
▁hollow	-12.9367
▁fri	-12.9367
▁revol	-12.9367
aiss	-12.9371
sted	-12.9376
▁retest	-12.9381
stage	-12.9382
▁vene	-12.9384
▁brisk	-12.9387
▁siz	-12.9387
▁subversi	-12.9392
ucinic	-12.9396
electric	-12.9401
ols	-12.9401
ika	-12.9402
▁aeros	-12.9404
iii	-12.9405
▁sche	-12.9407
▁abductee	-12.941
▁hut	-12.9411
account	-12.9411
▁gravel	-12.9413
▁yoshi	-12.942
ult	-12.9421
cing	-12.9425
▁rug	-12.9427
▁stab	-12.9427
▁naka	-12.9429
anga	-12.9432
▁pains	-12.9432
▁reeve	-12.9433
real	-12.9433
▁yasuhi	-12.9438
▁amir	-12.9439
▁kurt	-12.944
▁stereo	-12.9446
▁stride	-12.9447
▁reveren	-12.9451
▁horm	-12.9455
▁clogg	-12.9457
▁bjor	-12.9459
▁rosen	-12.9461
▁outg	-12.9462
▁etc	-12.9465
▁defaulter	-12.9466
▁robb	-12.947
▁underwa	-12.947
▁paddle	-12.9473
▁thirst	-12.9475
ahab	-12.9477
▁beneficia	-12.9482
▁overtake	-12.9483
▁cervi	-12.9486
aikon	-12.9486
hry	-12.9486
▁activ	-12.9488
▁jian	-12.9488
mur	-12.949
▁clai	-12.9491
gura	-12.9492
tice	-12.9493
▁oz	-12.9494
dica	-12.9497
nage	-12.9503
▁varie	-12.9503
tian	-12.9509
usnes	-12.951
▁lookout	-12.9511
▁registr	-12.9511
link	-12.9512
▁mello	-12.9513
▁eject	-12.9515
▁marian	-12.9517
▁sheer	-12.9522
▁weake	-12.9524
▁fiance	-12.9525
vo	-12.9525
▁aston	-12.9529
▁resettle	-12.953
▁divulge	-12.9533
▁relian	-12.9536
▁converge	-12.9537
▁admir	-12.9538
▁politicize	-12.954
▁fest	-12.9541
▁persecut	-12.9544
ards	-12.9545
▁forbid	-12.9548
▁veil	-12.9552
▁cer	-12.9552
xi	-12.9552
gers	-12.9552
▁coo	-12.9553
fc	-12.9553
itu	-12.9554
▁spurt	-12.9557
gner	-12.956
▁culminate	-12.9562
ag	-12.9566
arcia	-12.9568
▁kwa	-12.9568
famous	-12.9568
izzed	-12.957
▁loft	-12.9573
▁realtor	-12.9575
▁dissolv	-12.9575
▁meddl	-12.9576
▁krist	-12.9577
▁rust	-12.9578
▁preced	-12.9579
onym	-12.9583
▁qing	-12.9584
▁278	-12.9584
73	-12.9593
▁rational	-12.9594
▁bras	-12.9595
▁mot	-12.9596
▁cru	-12.96
▁leon	-12.96
▁merge	-12.9601
els	-12.9604
▁afar	-12.9606
▁polk	-12.9608
sure	-12.961
▁chery	-12.9612
▁categori	-12.9614
▁oppress	-12.9615
▁compose	-12.9623
▁repatriat	-12.9624
gawa	-12.9627
broken	-12.9636
pick	-12.9636
▁spoil	-12.9638
▁myth	-12.9644
▁witch	-12.9645
▁eras	-12.9649
▁rok	-12.9663
wo	-12.967
chrys	-12.9671
▁hum	-12.9676
utt	-12.9676
▁stru	-12.9677
▁arche	-12.968
▁isabell	-12.9682
ril	-12.9684
elman	-12.9687
▁wanna	-12.9688
▁converter	-12.9691
▁slavi	-12.9696
▁alab	-12.9705
▁atom	-12.9708
proof	-12.9713
▁mend	-12.9714
▁coral	-12.9714
▁worrying	-12.9715
▁chamb	-12.9717
▁avian	-12.9721
poon	-12.9723
▁jona	-12.9728
▁inclu	-12.9731
▁ventur	-12.9734
cin	-12.9734
▁barn	-12.9734
▁slee	-12.9735
▁jenn	-12.974
▁writ	-12.9744
▁curti	-12.9747
▁glor	-12.975
idah	-12.975
▁circula	-12.975
chu	-12.9751
lg	-12.9755
▁holi	-12.9756
aken	-12.9756
▁adhere	-12.9756
▁parma	-12.9759
▁reg	-12.9761
afe	-12.9762
▁gallu	-12.9766
▁candleli	-12.977
▁178	-12.9773
otherap	-12.9773
▁marcos	-12.9777
▁reuni	-12.978
▁prest	-12.9783
▁seri	-12.9783
▁bol	-12.979
stopp	-12.9794
▁deco	-12.9795
oui	-12.9796
ilo	-12.9799
retz	-12.9799
ema	-12.9801
meyer	-12.9801
iano	-12.9802
realistic	-12.9805
eau	-12.9805
▁surre	-12.9806
▁borough	-12.9807
riano	-12.9808
erie	-12.9809
esi	-12.981
▁exclusi	-12.9813
▁economi	-12.9817
▁beta	-12.9818
bourg	-12.9828
▁kings	-12.9829
▁mint	-12.9829
nz	-12.9829
▁dishe	-12.9831
ache	-12.9835
▁veni	-12.9835
367	-12.9844
tsuo	-12.9845
lace	-12.9846
ach	-12.9865
yres	-12.9865
▁equaliz	-12.9872
▁chon	-12.9872
▁expecta	-12.9873
▁treate	-12.9877
▁bec	-12.9879
▁matri	-12.988
▁polite	-12.988
▁reconstruct	-12.988
31	-12.9886
▁540	-12.9887
wat	-12.9889
▁164	-12.9889
▁transmitt	-12.9892
▁practic	-12.9892
rna	-12.9892
▁extort	-12.9896
▁rehabilitat	-12.9902
▁conscript	-12.9913
▁humiliate	-12.9915
▁hindus	-12.9917
kistan	-12.9923
mphan	-12.9925
▁housewi	-12.9926
▁foresee	-12.9927
▁pitche	-12.9928
ust	-12.9928
▁evolve	-12.9931
▁gasp	-12.9931
inner	-12.9931
▁fond	-12.9932
▁cons	-12.9932
ncer	-12.9935
▁impersonat	-12.9936
▁smog	-12.9936
aj	-12.9937
▁unha	-12.9943
ougher	-12.9945
ric	-12.9946
▁vin	-12.995
iyad	-12.996
▁defende	-12.9962
▁zem	-12.9965
17	-12.9967
▁volk	-12.9975
▁pits	-12.9975
▁vonn	-12.9976
▁eit	-12.9983
▁intimidate	-12.9988
nnah	-12.9992
unker	-12.9998
▁eldor	-12.9998
allen	-13.0002
▁youn	-13.0009
▁factori	-13.0023
volv	-13.0023
▁expo	-13.0024
▁bug	-13.003
▁plow	-13.003
▁mri	-13.0032
fold	-13.004
thma	-13.0043
▁alg	-13.0044
▁wow	-13.0045
▁hono	-13.0049
680	-13.0052
▁monro	-13.0056
rave	-13.0057
▁glea	-13.006
▁abound	-13.0063
▁emm	-13.0067
▁mau	-13.0071
▁hasten	-13.0074
pat	-13.0076
two	-13.0079
38	-13.008
▁jok	-13.0081
▁mani	-13.0087
▁overreact	-13.0088
▁greens	-13.009
rshad	-13.0091
▁intrigue	-13.0094
▁apologi	-13.0094
▁emer	-13.0095
ems	-13.0096
ells	-13.0103
▁sund	-13.0106
▁arn	-13.0108
kka	-13.0109
wal	-13.0112
▁tee	-13.0119
▁adulter	-13.012
▁dine	-13.013
ected	-13.0131
▁russe	-13.0138
▁poach	-13.0139
hit	-13.014
story	-13.0142
▁cabo	-13.0143
▁shina	-13.0146
▁tran	-13.0146
endo	-13.0147
46	-13.0148
doo	-13.015
▁credi	-13.015
▁stephan	-13.0155
▁decreas	-13.0157
▁natal	-13.0157
villa	-13.0158
▁bury	-13.0161
politan	-13.0163
user	-13.0166
▁sy	-13.018
▁lal	-13.0181
rang	-13.0183
hamel	-13.0184
eats	-13.0185
ug	-13.0187
enter	-13.0189
▁avail	-13.0191
▁seo	-13.0192
▁camero	-13.0204
▁incur	-13.0222
tia	-13.0223
text	-13.0224
▁ber	-13.0227
▁baku	-13.0228
ogy	-13.0231
▁yush	-13.0231
bro	-13.0234
▁kma	-13.0235
▁revitaliz	-13.0235
acher	-13.0243
ona	-13.0244
kel	-13.0248
▁grappl	-13.025
▁163	-13.0251
nnie	-13.0253
▁puzzle	-13.0255
eppel	-13.0255
nawa	-13.0257
▁metha	-13.0258
▁dri	-13.0261
▁carve	-13.0264
lana	-13.0266
▁intern	-13.0267
under	-13.0273
resident	-13.0274
tions	-13.028
ole	-13.0282
▁wada	-13.0285
▁143	-13.0289
▁duo	-13.0299
lage	-13.0299
storm	-13.0301
part	-13.0301
rimp	-13.0316
▁fran	-13.0318
▁chante	-13.0327
▁encircl	-13.0327
tique	-13.0336
enstein	-13.0336
▁samp	-13.0342
▁mound	-13.0351
▁hashem	-13.0355
bah	-13.0357
bergen	-13.0358
aten	-13.0363
▁roadway	-13.0368
500	-13.0368
lay	-13.037
▁mama	-13.037
▁zaina	-13.0373
▁highl	-13.0382
reach	-13.0388
▁damp	-13.0388
this	-13.0391
▁legg	-13.0401
nze	-13.0403
▁trim	-13.0404
▁enlarge	-13.0404
pc	-13.0408
mill	-13.0413
hoe	-13.0414
67	-13.0417
▁wade	-13.0417
▁oceans	-13.0421
amo	-13.0427
dka	-13.0428
▁ferre	-13.043
imes	-13.043
▁wrest	-13.0438
▁189	-13.0438
▁wong	-13.0442
▁soothe	-13.0444
▁pix	-13.0445
▁thrust	-13.0447
▁demo	-13.0448
▁cran	-13.0454
▁144	-13.0457
nta	-13.0458
▁shuk	-13.0459
▁battlegrou	-13.0459
▁updat	-13.0461
etsk	-13.0464
agliar	-13.0471
▁prod	-13.0471
ister	-13.0471
elberg	-13.0472
gel	-13.0474
▁lick	-13.0476
elipe	-13.0478
▁perk	-13.0478
▁kisse	-13.0479
lude	-13.048
▁nobu	-13.0482
▁mwa	-13.0483
guel	-13.0485
▁sou	-13.0488
▁tarnish	-13.0494
▁insert	-13.0497
▁douse	-13.0498
▁renovate	-13.05
oom	-13.05
▁dot	-13.0501
85	-13.0501
▁favorabl	-13.0507
iv	-13.0508
▁ancest	-13.051
▁reno	-13.0512
▁hunke	-13.0526
ety	-13.053
▁piz	-13.0531
medic	-13.0532
▁booking	-13.0534
▁nico	-13.0538
cilia	-13.0546
ief	-13.0547
adja	-13.0549
ugh	-13.055
linda	-13.0555
bagh	-13.0556
spi	-13.0558
▁oba	-13.056
▁gut	-13.0565
whi	-13.0567
mor	-13.0567
▁manifest	-13.0568
ales	-13.0569
▁morris	-13.0569
▁pod	-13.0569
iscal	-13.057
▁151	-13.057
little	-13.0572
▁surroga	-13.0577
▁helpe	-13.0577
▁latino	-13.0578
▁fabricat	-13.058
lman	-13.058
▁anaconda	-13.0582
▁avocado	-13.0582
▁blasphem	-13.0582
▁caricature	-13.0582
▁cocktail	-13.0582
▁greyhound	-13.0582
▁insomnia	-13.0582
▁instinct	-13.0582
▁limousine	-13.0582
▁nostalgi	-13.0582
▁pamphlet	-13.0582
▁semiconductor	-13.0582
▁unmistakabl	-13.0582
▁transgender	-13.0582
▁trespass	-13.0582
▁blissitt	-13.0582
▁doctrine	-13.0582
▁dungeon	-13.0582
▁jealous	-13.0582
▁leicester	-13.0582
▁succumb	-13.0582
▁aberdeen	-13.0582
▁curiosit	-13.0582
▁piccolo	-13.0582
▁schwartz	-13.0582
▁maverick	-13.0582
▁embolden	-13.0582
▁mishandl	-13.0582
▁python	-13.0582
▁rigorous	-13.0582
▁thunderstorm	-13.0583
▁anguish	-13.0583
▁magellan	-13.0583
▁questionnaire	-13.0583
▁shantytown	-13.0583
▁shockwave	-13.0583
▁allegiance	-13.0583
▁exonerat	-13.0583
▁mothball	-13.0583
nuptial	-13.0583
▁megawatt	-13.0583
▁cochran	-13.0583
▁disgust	-13.0583
▁vehement	-13.0583
▁encompass	-13.0583
▁boutique	-13.0583
▁hotspot	-13.0583
▁blatant	-13.0583
▁futile	-13.0583
▁necklace	-13.0583
▁minaret	-13.0583
▁elicit	-13.0583
▁wreath	-13.0583
▁horizon	-13.0583
▁sapien	-13.0583
▁discredit	-13.0583
▁rookie	-13.0583
▁habitual	-13.0583
▁assailant	-13.0583
▁perennial	-13.0583
▁payroll	-13.0584
▁siphon	-13.0584
▁vertical	-13.0584
▁xavi	-13.0584
▁irreversibl	-13.0584
▁kindergarten	-13.0584
▁reprisal	-13.0584
▁unwelcome	-13.0584
▁inherent	-13.0584
▁sculptor	-13.0584
▁adamant	-13.0584
▁homepage	-13.0584
▁guitarist	-13.0584
▁pediatrician	-13.0584
▁stylish	-13.0584
▁livelihood	-13.0584
▁mortem	-13.0584
▁straddl	-13.0584
▁notebook	-13.0585
▁bracket	-13.0585
▁subdue	-13.0585
▁galile	-13.0585
▁neutralize	-13.0585
ssi	-13.0585
▁arrogan	-13.0585
▁uproot	-13.0585
▁variable	-13.0585
▁pumpkin	-13.0585
▁newsletter	-13.0586
▁bancroft	-13.0586
▁meditation	-13.0586
▁enslav	-13.0586
▁turtle	-13.0586
▁outburst	-13.0586
slaught	-13.0587
▁constituent	-13.0587
▁backyard	-13.0587
▁appliance	-13.0587
pena	-13.0587
▁breathtaking	-13.0588
▁ferment	-13.0588
▁admiral	-13.0588
▁headscar	-13.0588
▁blunder	-13.0589
▁neighbour	-13.0589
▁harrod	-13.0589
▁overcrowd	-13.0589
▁culver	-13.0589
zad	-13.059
▁drench	-13.0591
▁zogb	-13.0592
▁angola	-13.0592
▁streamline	-13.0592
▁waheed	-13.0592
cussion	-13.0592
▁rehearsal	-13.0592
▁kolk	-13.0593
▁mcew	-13.0593
▁ventilator	-13.0593
▁koala	-13.0593
▁flagship	-13.0593
▁crematori	-13.0594
▁surgical	-13.0595
▁cereal	-13.0595
▁fabian	-13.0595
▁stringent	-13.0595
▁mobster	-13.0595
▁suck	-13.0596
▁navigat	-13.0596
▁wrongful	-13.0596
▁obscure	-13.0597
▁auctioneer	-13.0597
▁zombie	-13.0597
▁astrophysic	-13.0598
▁rapist	-13.0599
▁grassland	-13.0599
▁tub	-13.0599
▁cheek	-13.06
▁silk	-13.06
▁quail	-13.06
▁emir	-13.06
rou	-13.0601
▁snarl	-13.0601
▁morrison	-13.0602
▁peddl	-13.0602
kagi	-13.0602
▁wreak	-13.0603
▁clump	-13.0603
▁contaminant	-13.0603
rain	-13.0604
▁ardent	-13.0604
▁knockout	-13.0604
venir	-13.0605
▁640	-13.0606
▁ghana	-13.0606
▁ascertain	-13.0607
▁hinck	-13.0608
▁vegeta	-13.0609
eur	-13.061
▁distortion	-13.0611
▁coax	-13.0611
▁aguil	-13.0611
▁impatient	-13.0611
▁1800	-13.0613
▁siem	-13.0613
fu	-13.0613
▁occurrence	-13.0614
▁partition	-13.0614
▁disparit	-13.0616
▁medina	-13.0616
hanna	-13.0616
▁underdog	-13.0619
ourage	-13.062
▁gersh	-13.062
zhu	-13.0621
▁beards	-13.0622
▁kwak	-13.0622
▁paranoi	-13.0623
osexual	-13.0625
gart	-13.0625
▁gadda	-13.0626
▁saucer	-13.0626
▁halper	-13.0626
▁idiot	-13.0627
▁misuse	-13.0629
▁tian	-13.0629
▁handler	-13.0629
▁simmon	-13.0629
ktra	-13.0631
▁jamm	-13.0632
▁interception	-13.0632
▁dro	-13.0632
▁irving	-13.0633
▁pristin	-13.0636
▁cra	-13.0638
▁yazidi	-13.0638
▁homo	-13.0638
▁spearhead	-13.0638
▁dictate	-13.0638
▁pil	-13.0639
▁kass	-13.0639
▁hopeless	-13.064
▁arlen	-13.0641
▁lexus	-13.0641
▁hurried	-13.0641
▁motorway	-13.0642
▁evangelist	-13.0645
▁kit	-13.0646
▁potts	-13.0646
▁marti	-13.0647
hor	-13.0648
▁sparse	-13.065
▁unfavorabl	-13.0652
990	-13.0652
tacean	-13.0653
▁raven	-13.0655
▁horde	-13.0655
▁institutional	-13.0655
▁waterboard	-13.0655
igger	-13.0657
▁twi	-13.0657
▁zhong	-13.0657
▁brandish	-13.066
wan	-13.0661
▁regroup	-13.0661
▁delete	-13.0663
▁khar	-13.0663
▁jol	-13.0666
▁optical	-13.0666
▁proficien	-13.0666
▁wesley	-13.0667
▁spam	-13.0667
▁sor	-13.067
▁semiti	-13.067
▁intruder	-13.067
▁reside	-13.067
▁distinguish	-13.0672
▁disguis	-13.0674
ining	-13.0676
complete	-13.0678
▁forger	-13.0682
▁saf	-13.0683
gly	-13.0686
▁hypothes	-13.0687
▁abductor	-13.0687
wenge	-13.0688
elein	-13.069
▁devastate	-13.0691
▁inscription	-13.0692
▁inexperience	-13.0694
sel	-13.0695
▁elevate	-13.0695
▁runaway	-13.0696
▁broade	-13.0701
▁kup	-13.0707
▁sanja	-13.0708
building	-13.071
▁arc	-13.0713
▁indic	-13.0715
ynov	-13.0716
egis	-13.0718
▁kiri	-13.0718
▁komo	-13.0721
▁foam	-13.0726
▁fraz	-13.0729
dience	-13.073
▁prudent	-13.0734
rance	-13.0735
▁christen	-13.0736
▁microbe	-13.0738
▁relic	-13.0739
▁oxf	-13.074
anti	-13.0741
▁heft	-13.0741
intende	-13.0741
▁slur	-13.0742
▁ponder	-13.0742
oda	-13.0744
▁downsize	-13.0747
▁joking	-13.0747
▁resonat	-13.0748
▁murderer	-13.0751
wire	-13.0752
ocks	-13.0754
▁strive	-13.0757
▁lett	-13.0757
gia	-13.0758
▁hanky	-13.0766
measure	-13.0767
lanta	-13.0768
▁presume	-13.0769
▁obstructi	-13.0774
▁seren	-13.0778
uca	-13.0779
▁payout	-13.0784
▁karr	-13.0791
▁geoffr	-13.0792
slow	-13.0796
▁saeed	-13.0798
▁doctorate	-13.0802
▁frightening	-13.0804
▁destin	-13.0805
tholog	-13.0806
elbar	-13.0813
▁corte	-13.0816
▁peril	-13.0817
▁aga	-13.0818
zhn	-13.082
rried	-13.0821
▁propeller	-13.0829
▁bah	-13.0829
▁gome	-13.0831
▁toda	-13.0834
del	-13.0834
lyn	-13.0835
sign	-13.0836
▁lumina	-13.0837
▁penal	-13.0837
int	-13.0841
▁implicat	-13.0844
▁maximize	-13.0847
▁gong	-13.0847
▁technologi	-13.085
kevi	-13.0852
950	-13.0857
▁parasite	-13.0859
▁vaccinat	-13.0859
▁notori	-13.0865
▁sprinter	-13.0868
▁curve	-13.0868
▁kuwaiti	-13.0868
▁overrun	-13.0872
arro	-13.0872
rate	-13.0873
zzy	-13.0875
▁sl	-13.0876
lom	-13.0876
▁occupy	-13.0878
▁toleran	-13.0879
▁whip	-13.0883
▁doura	-13.0883
▁performe	-13.0884
▁strangle	-13.0888
▁lamb	-13.0894
born	-13.0895
▁reconvene	-13.0896
▁credib	-13.0898
ratify	-13.0898
oir	-13.0904
cap	-13.0905
▁kel	-13.0905
opping	-13.0907
▁nutritional	-13.0908
urin	-13.0908
▁conrad	-13.0909
▁tama	-13.0913
▁jaip	-13.0914
▁ecolog	-13.0914
flation	-13.0919
▁thoms	-13.0919
▁cramm	-13.0922
▁svet	-13.0922
xter	-13.0924
▁feasibl	-13.0924
ader	-13.0925
thle	-13.0927
▁pelt	-13.0928
▁reggi	-13.0928
sma	-13.0929
▁hoist	-13.0934
▁hander	-13.0938
▁wy	-13.0938
zburg	-13.0944
ike	-13.0948
▁ter	-13.0949
▁puzzl	-13.0951
emic	-13.0957
istance	-13.0958
▁atkins	-13.0959
▁kum	-13.0963
ban	-13.0966
▁reorganize	-13.0966
einstei	-13.097
ska	-13.0972
▁reset	-13.0978
burn	-13.0983
▁khaz	-13.0985
▁originate	-13.099
▁whisk	-13.0994
cuz	-13.0995
▁glid	-13.0997
▁ou	-13.1002
awat	-13.1002
hips	-13.1003
forward	-13.1006
▁cliffs	-13.1009
▁illustrate	-13.1013
natural	-13.1016
675	-13.1017
cks	-13.1019
56	-13.1021
▁bagh	-13.1022
ounding	-13.1022
▁kl	-13.1026
pb	-13.1027
mmer	-13.1032
heddin	-13.1033
▁crim	-13.1033
▁movi	-13.1035
▁bono	-13.1037
▁roc	-13.1038
iq	-13.1039
▁flopp	-13.1042
▁mcde	-13.1043
▁scramble	-13.1046
▁alerts	-13.1051
kah	-13.1053
tenberg	-13.1054
aster	-13.1054
▁fey	-13.1055
teacher	-13.1057
▁anima	-13.1057
76	-13.1059
▁ida	-13.1064
lot	-13.1064
▁affordab	-13.107
nnis	-13.1071
yanni	-13.1071
▁inflamma	-13.1072
isman	-13.1073
▁angle	-13.1078
prk	-13.1079
ggy	-13.1081
▁kazu	-13.1084
xon	-13.1084
▁retiree	-13.1085
▁glamor	-13.1086
ldp	-13.1086
ounds	-13.109
market	-13.1094
▁sagg	-13.1098
▁loch	-13.1098
mid	-13.11
▁gua	-13.1105
284	-13.111
malia	-13.1116
▁commence	-13.1117
▁honorabl	-13.1119
▁ellis	-13.1125
uts	-13.1128
▁riche	-13.1128
▁prese	-13.1128
▁prag	-13.1131
▁crumble	-13.1132
▁fluctuat	-13.1132
ublin	-13.1136
▁mutilat	-13.1136
▁lurk	-13.1143
▁appreciati	-13.1146
▁skippe	-13.1147
hoo	-13.1147
▁mold	-13.1148
▁sarco	-13.1148
▁scow	-13.1152
▁digest	-13.1154
skies	-13.1154
▁bangladeshi	-13.1154
▁unnerv	-13.1158
ests	-13.1161
bras	-13.1163
wau	-13.1163
▁lagg	-13.1165
▁limon	-13.1166
▁penetrat	-13.1166
rump	-13.1167
▁chua	-13.1167
▁lens	-13.117
availab	-13.1171
▁villar	-13.1172
fford	-13.1173
bao	-13.1175
▁fray	-13.1179
ign	-13.118
▁roan	-13.1181
▁congest	-13.1181
▁agitat	-13.1182
▁alaskan	-13.1187
▁benit	-13.1192
ellwe	-13.1195
▁refuel	-13.1195
pinning	-13.1197
▁const	-13.1198
▁raf	-13.1199
▁padd	-13.1202
▁brass	-13.1204
▁mute	-13.121
▁brow	-13.1211
xing	-13.1216
▁info	-13.1217
▁indulge	-13.1218
▁hijacke	-13.1218
▁civ	-13.1218
tty	-13.1218
pace	-13.122
unset	-13.122
achel	-13.1221
idi	-13.1222
uli	-13.1225
▁wie	-13.1226
float	-13.1229
▁imagin	-13.123
iden	-13.1231
lia	-13.1232
mman	-13.124
▁172	-13.1241
▁hurle	-13.1245
▁diagnosi	-13.1251
nne	-13.1251
vuit	-13.1252
urge	-13.1254
tical	-13.1259
▁bonsa	-13.126
▁transmit	-13.1261
▁stumble	-13.1269
rusal	-13.1271
▁gase	-13.1275
▁daej	-13.1277
▁kamp	-13.1282
▁disco	-13.1283
vern	-13.1284
36	-13.1284
▁marque	-13.1286
▁loser	-13.1298
▁integrati	-13.1302
▁chul	-13.1304
rence	-13.1305
▁arme	-13.1314
▁geopolitic	-13.1317
▁shahr	-13.1319
▁sour	-13.132
cursor	-13.1325
system	-13.1331
ury	-13.1334
act	-13.134
kee	-13.1344
aine	-13.1344
hbo	-13.1346
smo	-13.1347
tisa	-13.1357
▁socio	-13.1361
hara	-13.1364
▁rex	-13.1364
gra	-13.1366
▁spar	-13.137
▁verse	-13.137
glass	-13.1376
villain	-13.1383
▁batt	-13.1383
key	-13.1384
▁extorti	-13.1385
hofst	-13.1387
▁rancher	-13.139
▁reassur	-13.139
▁trumpet	-13.139
kma	-13.1393
▁dior	-13.1396
mature	-13.14
▁iris	-13.14
elson	-13.1401
uku	-13.1403
icker	-13.1403
▁flore	-13.1409
▁gener	-13.1409
▁mukh	-13.141
guo	-13.1413
▁stitche	-13.1421
▁coache	-13.1422
ethical	-13.1426
borough	-13.1427
▁labo	-13.1428
▁len	-13.1428
▁esper	-13.1429
rest	-13.143
termination	-13.1435
▁municipalit	-13.1436
▁badge	-13.1438
▁buckle	-13.1438
▁kad	-13.1448
▁majest	-13.1452
▁slo	-13.1452
▁upgrad	-13.1461
akat	-13.1462
▁tir	-13.1462
▁hae	-13.1464
insurgenc	-13.1465
▁compromis	-13.1466
irs	-13.1467
780	-13.1467
fre	-13.1469
▁cruis	-13.1472
02	-13.1481
▁celest	-13.1482
▁boj	-13.1491
ened	-13.1494
ind	-13.1498
▁gha	-13.1502
▁tan	-13.1504
▁denn	-13.1505
rred	-13.1505
▁icr	-13.1509
nott	-13.151
▁py	-13.1511
burger	-13.1513
▁underlin	-13.1514
opoul	-13.1514
▁sac	-13.1514
▁kur	-13.1515
who	-13.1517
▁porto	-13.1525
▁caste	-13.1526
▁pk	-13.1527
▁gat	-13.1528
▁liar	-13.153
artz	-13.153
▁ferrie	-13.1532
uddin	-13.1534
rop	-13.1537
▁hartl	-13.154
anz	-13.1544
ngdu	-13.1549
sk	-13.155
▁yank	-13.1553
▁traumati	-13.1567
▁loren	-13.157
▁racis	-13.1571
▁tone	-13.1572
flet	-13.1576
▁285	-13.1577
90	-13.1579
▁iq	-13.1579
elo	-13.158
▁sant	-13.1581
▁disma	-13.1582
spray	-13.159
▁reput	-13.1597
▁satan	-13.16
inson	-13.1606
▁circl	-13.1609
▁prosperi	-13.1617
34	-13.1618
▁brighten	-13.1619
china	-13.1622
▁businessm	-13.1623
dne	-13.1626
▁sco	-13.1633
christ	-13.1635
▁cuddl	-13.1639
▁laure	-13.1639
kham	-13.1639
mitrov	-13.1641
yar	-13.1643
common	-13.1645
▁goul	-13.1655
▁malt	-13.1659
▁meg	-13.1665
macho	-13.1669
ude	-13.1672
▁erik	-13.1675
▁confiscat	-13.1684
▁judg	-13.1688
▁domin	-13.169
aho	-13.1694
▁automat	-13.1695
▁schill	-13.17
nile	-13.1703
▁swath	-13.1714
rst	-13.1719
np	-13.1722
▁spik	-13.1724
▁rhe	-13.1724
▁emba	-13.1727
terra	-13.1729
63	-13.173
▁perceiv	-13.1732
▁notion	-13.1734
▁refin	-13.1741
▁spect	-13.1745
▁alta	-13.1745
ween	-13.1746
▁brasil	-13.1747
▁polariz	-13.1749
▁gwa	-13.1749
▁corr	-13.175
▁alt	-13.1752
▁importer	-13.1757
zine	-13.176
▁cascade	-13.1761
report	-13.1763
shan	-13.1764
▁tata	-13.1764
dump	-13.1766
▁162	-13.1766
ii	-13.1768
▁aspir	-13.177
▁heli	-13.1771
ime	-13.1771
▁brew	-13.1778
rray	-13.1779
tle	-13.1786
▁vie	-13.1787
▁conced	-13.1789
▁impe	-13.179
arif	-13.1801
tight	-13.1802
mara	-13.1807
▁backs	-13.1807
ashkar	-13.181
elve	-13.181
▁kin	-13.1811
ext	-13.1811
▁shum	-13.1812
▁rene	-13.1816
rday	-13.1817
rum	-13.1823
▁kadi	-13.1823
▁jen	-13.1829
▁gem	-13.1834
rkus	-13.1834
▁lazi	-13.1835
▁nationalize	-13.1835
uil	-13.1838
▁dir	-13.1841
ual	-13.1844
till	-13.1848
apo	-13.1856
▁gonu	-13.1858
▁lith	-13.1861
ull	-13.1862
kyle	-13.1862
▁commemorat	-13.1868
reconcil	-13.1874
cu	-13.1875
aimi	-13.1878
▁hea	-13.1882
▁bustl	-13.1885
tick	-13.1886
▁align	-13.189
▁132	-13.1894
▁espan	-13.1894
ehan	-13.1896
cer	-13.1906
▁mirr	-13.192
▁stun	-13.1923
▁rar	-13.1931
▁antibiotic	-13.1934
▁jima	-13.1935
▁parkin	-13.1938
scot	-13.1939
tomed	-13.1939
▁aviat	-13.194
▁azim	-13.1952
▁teres	-13.1955
▁canc	-13.1959
haka	-13.1964
▁haas	-13.197
▁mesh	-13.1972
▁sig	-13.1976
▁corne	-13.1978
last	-13.1978
decent	-13.1979
▁shocke	-13.1979
▁illuminate	-13.1981
lund	-13.1986
▁queue	-13.1988
akeover	-13.1989
▁viag	-13.1998
▁lafa	-13.2004
▁jubila	-13.2005
ders	-13.2012
alindo	-13.2014
[...]
