<pad>	0
<s>	0
</s>	0
<unk>	0
▁.	-3.20032
을	-3.6093
는	-3.72385
의	-3.79292
은	-4.04496
▁	-4.07472
를	-4.08495
가	-4.40273
▁,	-4.44178
이	-4.56148
에	-4.57822
고	-4.63292
한	-5.22783
에서	-5.2472
로	-5.2572
▁이	-5.25836
인	-5.30715
일	-5.32737
▁그	-5.33235
으로	-5.43404
▁있다	-5.45663
과	-5.5524
▁고	-5.6163
와	-5.67814
▁수	-5.69194
도	-5.70519
▁밝혔다	-5.71654
▁말했다	-5.74011
년	-5.85366
할	-5.88093
▁있는	-5.94423
▁2	-6.05806
다	-6.06526
▁1	-6.07326
하고	-6.16591
지	-6.21757
▁대한	-6.23506
으며	-6.23543
▁전	-6.24212
▁위해	-6.2479
▁3	-6.29407
▁이번	-6.29541
▁전했다	-6.30255
▁한	-6.32589
월	-6.33408
▁미국	-6.33801
며	-6.35836
▁지난	-6.38426
▁현지시간	-6.40015
만	-6.40664
던	-6.45315
▁대해	-6.50625
했다	-6.5235
▁것으로	-6.56534
▁중	-6.57078
▁며	-6.59554
▁미	-6.59998
명	-6.60006
▁것	-6.62303
▁것이라고	-6.62351
에게	-6.62975
명이	-6.63609
▁4	-6.64173
된	-6.64616
나	-6.65912
▁정부	-6.69057
▁있다고	-6.69327
▁5	-6.69768
▁그러나	-6.70123
하는	-6.70476
▁6	-6.71047
▁것을	-6.73279
▁이라크	-6.78558
▁더	-6.78638
히	-6.81951
기	-6.843
▁10	-6.84331
▁다른	-6.85221
해	-6.85811
게	-6.87475
s	-6.89376
▁대통령	-6.92526
자	-6.93157
▁한편	-6.94754
▁중국	-6.95111
들은	-6.96649
하게	-6.98223
▁또	-6.9924
운	-6.99249
▁약	-6.99395
지만	-7.00685
▁이라고	-7.01448
▁북한	-7.0164
▁경찰	-7.02262
▁오바마	-7.03224
이다	-7.03826
▁대변인	-7.06367
▁총리	-7.07482
▁7	-7.09014
명의	-7.0912
▁후	-7.0955
▁8	-7.1042
▁등	-7.10456
▁에	-7.10595
▁많은	-7.12706
▁위한	-7.13332
▁이후	-7.13466
▁통해	-7.1366
▁부시	-7.14501
▁우리	-7.14771
들이	-7.15611
▁대통령은	-7.15638
▁가장	-7.18261
▁같은	-7.21661
▁영국	-7.2221
▁동안	-7.22494
▁것이다	-7.22933
▁않았다	-7.23033
▁내	-7.23782
까지	-7.25503
▁12	-7.25823
스	-7.26694
▁9	-7.2739
▁두	-7.27726
하며	-7.28124
될	-7.29381
적인	-7.29672
▁한국	-7.3015
▁주	-7.31684
시	-7.32333
▁주장했다	-7.33584
▁11	-7.33732
▁현재	-7.35357
▁또한	-7.36548
▁한다	-7.36591
하지	-7.36599
▁세계	-7.37111
▁될	-7.37915
▁할	-7.38094
▁관련	-7.39052
하기	-7.39252
▁것은	-7.39313
▁문제	-7.4009
▁했다	-7.42277
▁덧붙였다	-7.43375
▁때	-7.43447
▁보도했다	-7.43867
▁일부	-7.44667
▁이상	-7.44695
▁있었다	-7.44721
▁최근	-7.45364
▁말	-7.46177
▁있	-7.46291
▁the	-7.46472
서	-7.46628
▁가	-7.46937
▁지역	-7.47341
▁이들	-7.47515
▁경우	-7.47559
으나	-7.4789
및	-7.4925
▁20	-7.50051
▁자신의	-7.51434
▁알	-7.51735
▁바	-7.52582
▁영화	-7.53334
▁모든	-7.53364
▁새로	-7.5367
▁후보	-7.5509
▁것이	-7.55295
▁당시	-7.55416
▁함께	-7.56292
▁라고	-7.56388
개	-7.56751
대	-7.58259
▁미군	-7.58626
면	-7.60782
했던	-7.60873
세	-7.61393
▁그리고	-7.61397
▁일본	-7.62332
▁30	-7.62879
리	-7.63063
▁예정이다	-7.63292
▁cnn	-7.63868
▁없다	-7.63882
▁뒤	-7.64352
▁있습니다	-7.64998
에따르면	-7.65259
주	-7.65979
▁설명했다	-7.67403
▁계획	-7.675
▁모두	-7.67525
▁결과	-7.68
했	-7.68829
▁러시아	-7.68928
▁있으며	-7.69004
▁수도	-7.69439
▁처음	-7.69884
거	-7.6989
▁몇	-7.70036
▁to	-7.70054
라고	-7.70172
▁아직	-7.70448
▁에서	-7.7058
▁당국	-7.70948
▁프랑스	-7.71269
▁조사	-7.72663
도록	-7.72699
▁경제	-7.73042
▁2005	-7.7395
▁하는	-7.74949
▁큰	-7.75658
▁파키스탄	-7.75813
▁유엔	-7.76467
상	-7.76803
▁이스라엘	-7.77013
때문에	-7.77203
▁이란	-7.77466
보다	-7.77719
▁지난해	-7.78022
드	-7.78122
▁사실	-7.78159
야	-7.7826
▁공격	-7.78634
▁s	-7.79051
▁그녀	-7.79103
▁사고	-7.7942
▁회담	-7.79931
▁올해	-7.80396
라	-7.80487
▁대통령이	-7.81614
▁15	-7.82035
▁19	-7.8227
억	-7.83675
▁국가	-7.84306
▁08	-7.84547
▁민주당	-7.85293
▁열린	-7.85441
▁이날	-7.85487
▁클린턴	-7.8583
▁않을	-7.86082
▁사건	-7.86397
▁경기	-7.86815
▁발표했다	-7.87897
어	-7.88546
▁의	-7.88692
▁발생한	-7.88879
습니다	-7.89018
▁사람들	-7.89211
됐다	-7.89424
▁계속	-7.89448
면서	-7.89521
▁받았다	-7.89567
▁로	-7.90145
▁성명	-7.90304
▁하고	-7.90336
해야	-7.90719
▁달러	-7.91134
▁관계자	-7.91271
▁받고	-7.91343
했습니다	-7.92217
▁16	-7.92249
트	-7.9264
들을	-7.9316
▁여성	-7.93479
▁다시	-7.9414
▁사망했다	-7.94166
▁제	-7.94628
이라고	-7.95951
▁존	-7.96227
▁된다	-7.96241
입니다	-7.96522
▁이에	-7.96705
▁미국의	-7.97168
했다고	-7.9737
▁of	-7.97813
▁가운데	-7.9797
진	-7.98065
었다	-7.98455
▁됐다	-7.98638
▁2006	-7.99041
▁사람들이	-7.99436
▁18	-7.99584
▁테러	-8.00278
▁일	-8.01075
분	-8.01182
▁2008	-8.01501
▁25	-8.01591
▁라	-8.02121
▁사람	-8.02691
▁있을	-8.02731
▁이라	-8.02755
▁13	-8.028
▁주요	-8.02808
▁a	-8.03179
▁나	-8.03381
▁의해	-8.0345
▁정부가	-8.03993
▁지원	-8.04107
부터	-8.04213
▁핵	-8.04821
▁대부분	-8.04889
성	-8.05822
하여	-8.05823
▁인해	-8.0594
▁시위	-8.06006
에따라	-8.06138
▁장관	-8.06555
▁50	-8.0678
▁거	-8.07797
▁14	-8.07947
▁첫	-8.07957
▁않은	-8.08066
▁지	-8.08569
▁발표	-8.08742
▁조치	-8.08835
▁혐의로	-8.08857
▁있었	-8.09172
▁보고	-8.09773
에도	-8.09964
▁데	-8.10167
▁비	-8.10199
이나	-8.10521
▁관계	-8.10704
한다	-8.10747
▁이미	-8.10937
처럼	-8.11768
▁tv	-8.11875
수	-8.12527
▁국제	-8.12789
▁반	-8.1303
위	-8.13154
간	-8.1317
▁22	-8.13214
▁위치한	-8.13304
▁선거	-8.13474
▁지금	-8.13614
▁아프간	-8.13674
에는	-8.14508
달러	-8.1459
km	-8.14783
▁이슬람	-8.1528
▁?	-8.16764
하지만	-8.17396
▁매우	-8.17508
▁17	-8.1757
사	-8.17865
▁지도자	-8.17991
▁달	-8.18354
길	-8.18495
시간	-8.18995
▁시간	-8.19734
차	-8.20454
▁의원	-8.2058
하다	-8.20899
▁연구	-8.21029
▁승리	-8.21122
▁시	-8.21206
▁기록	-8.21478
▁없는	-8.21577
▁팔레스타인	-8.21597
로부터	-8.2163
▁피해	-8.21747
▁기자	-8.21826
적	-8.21893
▁회사	-8.2192
즈	-8.22353
▁유럽	-8.22438
이며	-8.22494
▁하지	-8.22495
▁해	-8.225
▁오늘	-8.22557
▁채	-8.2261
적으로	-8.22883
▁추가	-8.22934
▁조지	-8.23293
번	-8.23698
▁한다고	-8.23769
하면서	-8.23873
르	-8.24259
▁총	-8.24263
▁안	-8.24292
▁뉴욕	-8.24775
▁줄	-8.24892
▁24	-8.25031
▁100	-8.25086
▁joins	-8.25358
▁혐의	-8.25947
▁in	-8.26266
▁않고	-8.26294
▁지적했다	-8.26386
▁명의	-8.26416
▁여러	-8.26596
▁어떤	-8.26763
▁대선	-8.26867
▁잘	-8.2696
▁탈레반	-8.26974
▁원문기사보기	-8.27169
라는	-8.27184
▁정보	-8.27287
▁정도	-8.27334
▁우려	-8.27357
▁인터넷	-8.27377
▁21	-8.27389
아	-8.27397
▁군	-8.27477
▁시장	-8.27513
▁활동	-8.27697
le	-8.27851
▁27	-8.27917
원	-8.28396
▁방문	-8.28445
되어	-8.28481
용	-8.28564
▁40	-8.28594
▁아이	-8.28745
▁새	-8.28784
▁인도	-8.28847
▁초	-8.28902
▁독일	-8.29016
선	-8.29225
▁소속	-8.29523
ing	-8.29632
▁포함	-8.29664
였	-8.29976
▁발생했다	-8.29998
▁호주	-8.30309
▁있다는	-8.30452
▁오	-8.30454
▁감독	-8.30818
▁비난	-8.30828
당	-8.31038
▁없다고	-8.31136
▁프로그램	-8.31246
m	-8.31396
▁받은	-8.315
년간	-8.31974
▁상원의원	-8.32293
니	-8.32447
▁못했다	-8.32468
▁23	-8.32648
비	-8.32694
였다	-8.32783
▁예정	-8.32797
▁2007	-8.33304
합니다	-8.33626
▁보고서	-8.34646
▁내용	-8.35059
▁관리	-8.3522
▁않는다	-8.3527
▁올림픽	-8.35538
▁대표	-8.3628
▁최고	-8.36294
했지만	-8.36661
▁매케인	-8.36684
▁협상	-8.36714
치	-8.36819
▁26	-8.36829
▁부상	-8.37047
▁차	-8.37128
크	-8.37143
▁의회	-8.37186
▁결정	-8.37305
e	-8.37413
▁오후	-8.3781
▁0	-8.38211
▁폭탄	-8.38332
▁주장	-8.38463
▁w	-8.388
▁된	-8.38862
부	-8.38939
▁간	-8.39397
▁지지	-8.39719
▁남자	-8.40214
▁모습	-8.40747
▁대학	-8.41234
▁자동차	-8.41317
▁언론	-8.41801
▁많	-8.42108
돼	-8.42163
소	-8.42248
▁사	-8.42501
▁북한이	-8.42701
▁나는	-8.43379
▁있어	-8.43382
▁전쟁	-8.4339
▁이러	-8.43782
▁인터뷰에서	-8.43905
▁미얀마	-8.44203
에서는	-8.44426
▁경찰이	-8.45302
▁아	-8.4535
▁준비	-8.4544
▁현지	-8.45444
▁앞으로	-8.45446
▁병원	-8.45637
▁차량	-8.45676
▁것에	-8.45958
▁입장	-8.46496
▁떨어진	-8.46543
▁컴퓨터	-8.46838
▁마지막	-8.46852
d	-8.47008
▁세	-8.47066
개월	-8.47097
▁비난했다	-8.47321
▁강조했다	-8.47381
▁요구	-8.47492
▁29	-8.47514
▁다	-8.47525
질	-8.47669
▁노	-8.47878
▁단체	-8.47907
▁터키	-8.48081
▁기자회견	-8.48108
▁공화당	-8.48148
▁오는	-8.48208
▁가진	-8.48282
▁보도	-8.48299
▁앞서	-8.48348
▁시작	-8.48384
▁인쇄	-8.48598
ed	-8.48654
되었다	-8.4866
▁갖고	-8.48704
개의	-8.48958
▁ap	-8.49334
▁남부	-8.49685
▁28	-8.49984
▁미국과	-8.50294
이었다	-8.50363
▁힐러리	-8.50367
함	-8.5048
조	-8.50529
▁의사	-8.50603
▁강	-8.5062
▁버락	-8.50632
▁오전	-8.50897
▁자신이	-8.51015
▁독해	-8.51415
▁않았	-8.51457
▁백악관	-8.51545
▁반대	-8.51659
▁지난달	-8.51986
▁변화	-8.52606
설명	-8.52659
▁대	-8.5291
하는데	-8.53053
▁상태	-8.5309
하	-8.53165
▁없었다	-8.53224
▁때문	-8.53521
▁주지사	-8.53612
▁규모	-8.5363
▁무샤라프	-8.53761
우	-8.53841
▁우주	-8.53843
▁사이	-8.54203
▁아시아	-8.5421
▁폭발	-8.54358
▁인근	-8.54457
▁좋은	-8.54558
▁지역에서	-8.54811
▁상황	-8.55062
▁원문	-8.55094
▁검찰	-8.55848
▁교수	-8.56412
▁석방	-8.5658
타	-8.5659
▁이탈리아	-8.56735
y	-8.56756
▁미국이	-8.56897
▁이어	-8.56898
▁사망	-8.57022
▁이런	-8.5708
▁보인다	-8.57126
▁합의	-8.57274
▁최소	-8.57537
들	-8.57766
▁있지만	-8.57898
▁사망자	-8.57936
릴	-8.58141
점	-8.58525
▁성	-8.58599
▁방송	-8.58644
▁않	-8.58791
여	-8.58833
▁평화	-8.58992
▁만에	-8.59038
▁전문가들	-8.59157
▁없이	-8.59179
▁아무	-8.59205
▁기술	-8.5934
▁도시	-8.59344
디	-8.5936
▁이를	-8.59478
▁관한	-8.59612
▁스페인	-8.59675
▁않다	-8.59755
▁artic	-8.59765
▁다음	-8.59971
▁사용	-8.60136
전	-8.60143
▁가능성	-8.60264
2005	-8.60356
▁밤	-8.60412
▁그들	-8.60474
년에	-8.60519
▁가족	-8.60611
번째	-8.60732
으로부터	-8.60755
려	-8.6085
▁투표	-8.60873
▁발생	-8.60929
▁치료	-8.60955
▁영향	-8.60957
▁정책	-8.61058
▁못하	-8.6124
화	-8.61449
▁미국은	-8.61595
▁중요한	-8.61848
▁상	-8.62433
▁미사일	-8.62435
▁공식	-8.6256
1	-8.6271
▁조	-8.62824
▁까지	-8.6312
▁하	-8.63174
됐	-8.63196
▁이름	-8.63254
▁야당	-8.63301
▁이전	-8.6339
▁힘	-8.63531
▁검사	-8.63841
▁최초	-8.63872
▁알려졌다	-8.64093
▁보다	-8.64131
들에게	-8.64326
는데	-8.6439
▁노력	-8.64449
든	-8.64659
산	-8.64668
▁명	-8.64668
살	-8.65254
▁점	-8.6555
▁부	-8.65662
▁정치적	-8.65685
▁하나	-8.65856
▁비행기	-8.65919
▁볼	-8.65921
▁말했습니다	-8.65982
식	-8.66063
▁용의자	-8.66093
▁60	-8.66228
▁연방	-8.66236
데	-8.66331
▁행사	-8.66497
▁법원	-8.66713
▁해결	-8.66757
▁사망한	-8.66795
오	-8.66831
프	-8.6705
▁000	-8.67057
온	-8.67078
린	-8.67238
▁것입니다	-8.67329
▁생산	-8.67346
▁반면	-8.67447
▁불법	-8.67643
레	-8.67712
▁개발	-8.67949
▁대통령과	-8.68071
▁가격	-8.68088
▁날	-8.68108
▁와	-8.68158
▁for	-8.68221
▁부토	-8.68598
▁사태	-8.68639
▁여행	-8.69121
▁불구하	-8.69177
▁판매	-8.69239
▁전에	-8.69416
▁박사는	-8.6942
▁돈	-8.69434
되지	-8.69469
▁인질	-8.69815
▁주민들	-8.69966
▁대해서	-8.70222
▁자신	-8.70448
▁김	-8.70524
▁관심	-8.71239
▁개	-8.7127
보	-8.71318
▁런던	-8.71346
미	-8.71386
▁방법	-8.71488
▁생각	-8.71727
▁도	-8.71806
▁씨	-8.71818
제	-8.71891
▁물	-8.72181
2	-8.72264
▁마	-8.72394
▁상승	-8.72404
안	-8.7244
▁서비스	-8.72493
▁지난주	-8.72517
▁바그다드	-8.72637
사전	-8.72682
▁북부	-8.72865
▁안전	-8.72924
▁논의	-8.72943
▁회장	-8.72959
▁의하면	-8.73036
▁주둔	-8.73081
▁자금	-8.7315
▁건물	-8.73208
▁팀	-8.73368
▁자신들	-8.73695
▁알카에다	-8.73871
▁저	-8.73962
▁최대	-8.74057
▁보	-8.74114
▁한나라당	-8.7429
▁불	-8.74549
▁발언	-8.74871
▁반군	-8.75044
▁금융	-8.75372
되는	-8.75566
▁높은	-8.7558
▁출신	-8.75597
▁코리아	-8.75613
난	-8.75618
▁가능성이	-8.7567
▁원	-8.75722
▁인용	-8.75756
▁연기	-8.76152
▁왔다	-8.76156
세의	-8.76312
▁강력	-8.76587
▁것이라는	-8.76593
국	-8.76781
▁학교	-8.77053
▁필요	-8.77431
▁이와	-8.77551
▁2004	-8.77583
▁지역에	-8.77766
▁이용	-8.77841
마	-8.78092
▁아니다	-8.78107
▁집	-8.78112
▁피	-8.78258
호	-8.78297
토	-8.78336
▁무기	-8.78641
▁벌이	-8.7875
▁그것	-8.78819
구	-8.7885
▁시위대	-8.79022
▁은행	-8.79042
▁시작했다	-8.79175
했었다	-8.79449
▁관계자들	-8.79473
만달러	-8.79711
▁지구	-8.79847
▁결국	-8.79962
▁번째	-8.80131
▁소식	-8.80133
▁하루	-8.80548
▁없	-8.80595
▁더욱	-8.80652
▁위협	-8.80782
▁이야기	-8.80807
▁역할	-8.80811
▁이제	-8.80814
코	-8.8082
▁수사	-8.80865
▁korea	-8.80916
내	-8.80974
▁산	-8.80992
▁위험	-8.81353
▁역사	-8.81362
▁알고	-8.81372
▁자살	-8.81579
▁뜻	-8.81582
바	-8.81587
▁곳	-8.8163
▁공동	-8.81684
▁핵무기	-8.81693
▁200	-8.81711
▁적	-8.81764
▁병력	-8.81871
▁31	-8.81932
▁아이들	-8.82005
▁법안	-8.82038
▁아침	-8.82047
▁동영상	-8.82139
▁군사	-8.82181
▁아들	-8.82294
마리	-8.8239
하도록	-8.82435
▁아버지	-8.82446
▁com	-8.82486
▁필요한	-8.82606
▁리	-8.82643
▁부족	-8.8272
▁어제	-8.82767
▁것이며	-8.82925
들의	-8.82946
▁티베트	-8.83017
▁위기	-8.83104
되고	-8.83206
▁이같	-8.83209
박	-8.83326
▁우승	-8.83355
▁라이스	-8.83473
티	-8.8352
직	-8.8355
▁카	-8.83583
▁하마스	-8.837
▁사르코지	-8.83776
▁증가	-8.83777
시킬	-8.83829
하기로	-8.83832
▁전화	-8.84075
▁국경	-8.84143
▁않는	-8.84189
▁외	-8.84217
▁보였다	-8.84323
▁행위	-8.84352
▁여부	-8.84394
▁폭탄테러	-8.84543
▁타고	-8.84596
카	-8.84608
▁관련된	-8.84732
▁양	-8.84771
▁선수	-8.84836
억원	-8.84948
▁위해서	-8.85155
▁올	-8.85202
▁독립	-8.85641
▁앞	-8.85772
▁직접	-8.85975
▁eu	-8.85996
중	-8.8604
▁무	-8.8606
이자	-8.86127
▁시신	-8.8622
▁부인	-8.86328
▁아니라	-8.8635
▁노무현	-8.86354
▁언급	-8.86849
▁열	-8.8714
와의	-8.87168
▁자	-8.87321
▁기업	-8.87379
▁공항	-8.87456
▁브라운	-8.87466
▁특	-8.87628
▁당	-8.87801
▁조직	-8.87812
▁열리는	-8.87898
▁게임	-8.88105
▁2003	-8.88219
▁되는	-8.88284
월에	-8.88379
▁e	-8.8841
년까지	-8.88412
▁la	-8.88474
▁사람이	-8.88538
▁and	-8.88594
▁충돌	-8.88813
▁한국인	-8.88844
▁고위	-8.88959
▁숨졌다	-8.89156
파	-8.89262
▁역시	-8.89355
▁구	-8.8965
씨	-8.89743
▁행동	-8.89771
▁워싱턴	-8.89926
▁나라	-8.89984
친	-8.90113
▁재	-8.90137
▁받을	-8.90208
▁기간	-8.90243
▁건강	-8.90522
천	-8.90629
▁베이징	-8.907
▁곧	-8.909
노	-8.90969
▁이유로	-8.91042
▁사건에	-8.91081
회	-8.91085
▁콜롬비아	-8.91127
▁캘리포니아	-8.91131
▁살해	-8.91166
▁어떻게	-8.91242
차례	-8.91259
▁문제에	-8.91356
러	-8.91387
▁판결	-8.91408
▁뉴스	-8.9141
브	-8.91642
▁이유	-8.91676
포인트	-8.91894
▁대화	-8.92047
n	-8.92285
▁받았	-8.92375
▁정	-8.92495
▁국방부	-8.92538
▁서울	-8.9261
▁말하는	-8.92611
▁있고	-8.92761
▁확인	-8.92855
▁일이	-8.92943
▁국무부	-8.93189
▁신	-8.9328
일간	-8.9333
▁500	-8.93382
요	-8.93708
이라는	-8.93859
▁공급	-8.93938
▁발견했다	-8.93949
▁호텔	-8.93981
▁매	-8.94102
년대	-8.9433
▁특별	-8.94623
▁손	-8.95156
▁정치	-8.95159
▁과학자들	-8.95292
더	-8.95309
▁파	-8.95397
▁같다	-8.95745
▁요구했다	-8.95832
정	-8.95955
▁변호사	-8.95989
▁했다고	-8.96003
종	-8.96024
▁대사	-8.96026
▁친구	-8.96314
법	-8.96362
▁양국	-8.96389
▁대선후보	-8.96431
만명	-8.96454
▁예정이라	-8.96479
날	-8.966
런	-8.96672
▁각	-8.96767
▁철수	-8.96924
▁법	-8.9696
▁너무	-8.97067
▁내년	-8.9708
만원	-8.97182
▁대규모	-8.97199
▁기회	-8.97224
하겠다고	-8.9734
▁빌	-8.97445
▁증거	-8.97465
▁2000	-8.97473
해서	-8.97507
▁약어표	-8.97606
시켰다	-8.97672
▁에너지	-8.97688
▁회의	-8.97778
▁범죄	-8.97837
▁운동	-8.9796
▁보호	-8.97999
▁협력	-8.98123
▁아프가니스탄	-8.98127
▁자유	-8.98195
하면	-8.98203
▁신문	-8.9826
▁교육	-8.98421
▁거래	-8.9852
▁있게	-8.98577
▁주변	-8.98615
▁사망하	-8.98627
al	-8.9865
▁화재	-8.98831
▁나타났다	-8.98889
▁장	-8.98971
들과	-8.98999
▁훈련	-8.99036
▁중단	-8.99109
계	-8.99131
▁앞두고	-8.99264
▁타임즈	-8.99311
배	-8.99347
▁관할	-8.99361
▁위원회	-8.99838
명과	-9.0008
권	-9.00185
▁비행	-9.0022
▁있기	-9.0027
▁생각한다	-9.00409
▁생활	-9.00521
측	-9.00561
▁음악	-9.00653
▁건설	-9.0079
▁태국	-9.00823
3	-9.00835
▁n	-9.00962
▁안에	-9.01105
▁수술	-9.01167
▁기	-9.01268
관	-9.01429
신	-9.01579
▁사회	-9.01639
▁포함한	-9.01703
▁승인	-9.01751
▁투자	-9.01836
▁판사	-9.01841
▁상원	-9.01842
장	-9.01901
▁드	-9.01954
▁인구	-9.0206
▁남성	-9.02136
단	-9.02158
5	-9.0219
▁저장	-9.02286
▁연설	-9.02287
▁주택	-9.02334
▁인도네시아	-9.02355
▁문	-9.024
긴	-9.02529
▁전세계	-9.02579
임	-9.02591
형	-9.02898
▁데이비드	-9.02977
다고	-9.02993
▁여전	-9.03104
▁2009	-9.03213
▁진행	-9.03243
▁심각한	-9.03281
▁정상	-9.03394
▁전망	-9.03505
▁것이라	-9.03506
▁개인	-9.03526
▁눈	-9.03754
▁어린이	-9.03937
▁레바논	-9.04096
▁금지	-9.04145
▁재판	-9.04148
▁경기에서	-9.04171
▁폴	-9.04325
▁석유	-9.04391
▁2002	-9.04423
▁촉구했다	-9.04524
으로써	-9.04569
석	-9.04878
▁폐쇄	-9.04924
▁그들의	-9.04927
▁보안	-9.04939
▁요청	-9.05041
▁박	-9.05048
▁배우	-9.05245
▁아니	-9.05263
▁도로	-9.05601
▁입었다	-9.05621
▁발사	-9.05686
▁대신	-9.0572
하자	-9.05748
▁헬기	-9.05752
▁작은	-9.05908
▁이상이	-9.06106
▁비롯	-9.06138
▁일을	-9.06203
▁전체	-9.06271
▁가지고	-9.06278
▁인	-9.06446
▁임무	-9.06537
▁수준	-9.06548
▁푸틴	-9.06625
▁명이	-9.06628
▁밝혀졌다	-9.06647
▁co	-9.06649
▁길	-9.0668
▁규정	-9.06693
▁납치	-9.06815
▁사진	-9.06839
▁여객기	-9.06858
▁배	-9.07016
▁06	-9.07052
▁당신	-9.07163
▁열차	-9.0717
▁us	-9.07233
억달러	-9.07287
▁출전	-9.07305
▁결혼	-9.07477
▁해외	-9.07502
▁가지	-9.0778
▁말한다	-9.07794
▁로버트	-9.07941
▁입은	-9.08105
▁아기	-9.08198
▁온	-9.08209
▁수치	-9.08212
▁대회	-9.08253
▁딸	-9.08287
▁전투	-9.08352
▁타	-9.08438
▁재개	-9.08449
▁현	-9.08478
▁제재	-9.08492
츠	-9.08587
▁살고	-9.08702
▁선	-9.08805
▁심	-9.08871
▁메시지	-9.08911
▁작전	-9.08925
▁경고했다	-9.09129
▁바로	-9.09181
▁사업	-9.09185
▁시설	-9.0928
▁필요하다	-9.0963
▁이라크에서	-9.09876
▁비디오	-9.0988
▁받아	-9.09945
▁아닌	-9.10045
감	-9.10325
▁마을	-9.10418
▁중인	-9.10484
▁의견	-9.10568
▁마이클	-9.10754
▁통신	-9.1083
▁수입	-9.10864
▁이것	-9.10969
▁대의원	-9.11232
▁못	-9.11259
▁하락	-9.11561
▁비해	-9.11836
▁최종	-9.12053
▁제안	-9.12091
▁밝힌	-9.12169
▁라디오	-9.12242
▁벌였다	-9.1233
루	-9.12363
▁발견	-9.12366
한다고	-9.12497
▁안보	-9.12564
터	-9.12728
▁민간인	-9.12825
▁골	-9.12851
모	-9.13009
▁증시	-9.13011
▁무장	-9.13134
퍼센트	-9.13343
▁남편	-9.13412
▁스타	-9.13435
▁코	-9.13586
▁온라인	-9.13626
란	-9.13632
▁동물	-9.13769
▁성공	-9.13782
er	-9.13854
▁관계자가	-9.13939
▁아프리카	-9.13954
▁기록했다	-9.14006
▁즉	-9.1406
▁그들이	-9.14104
▁지도자들	-9.14117
▁서로	-9.14208
력	-9.14263
▁측	-9.14272
▁경고	-9.14508
▁목표	-9.14524
▁대사관	-9.14572
▁난	-9.14713
발	-9.14779
▁방안	-9.14853
▁도움	-9.14935
▁의장	-9.14976
▁멕시코	-9.15045
▁책임	-9.15129
▁외국인	-9.15141
▁환경	-9.15164
▁80	-9.15233
▁감소	-9.15251
됐다고	-9.15301
▁경선	-9.15328
▁인권	-9.15332
▁행정부	-9.15369
▁만약	-9.15558
▁유	-9.15589
▁그런	-9.15627
▁발표한	-9.15672
져	-9.1574
▁발	-9.15774
군	-9.15844
▁총선	-9.15991
▁각각	-9.16047
▁스미스	-9.1605
▁시스템	-9.16074
▁없을	-9.16136
▁p	-9.16354
▁항	-9.16453
▁화요일	-9.16481
▁보내	-9.16571
▁un	-9.16678
▁지방	-9.1691
▁과거	-9.16957
▁모	-9.17071
▁부상했다	-9.17147
▁국민들	-9.17189
▁내렸다	-9.17223
▁미국에서	-9.17292
▁홍콩	-9.17332
▁거리	-9.17473
▁on	-9.17835
▁짐바브웨	-9.17848
▁미국인	-9.1798
▁구조	-9.18113
t	-9.1815
▁일정	-9.18186
▁이동	-9.18258
▁하기	-9.18297
▁브라질	-9.18384
피	-9.18514
▁합의했다	-9.18536
▁만	-9.18602
▁살	-9.18627
▁공개	-9.18655
▁주식	-9.18678
▁가치	-9.18835
▁여자	-9.18858
▁체포	-9.18869
▁다양	-9.1894
▁관리들	-9.18949
▁사무총장	-9.19067
▁연료	-9.19082
▁했	-9.19123
▁같이	-9.19129
▁차례	-9.19221
▁수단	-9.19275
▁연합	-9.19301
▁내무부	-9.19562
▁발견됐다	-9.19602
▁일본의	-9.19699
▁중동	-9.19745
▁밝혔	-9.19771
▁위	-9.19914
▁비용	-9.19917
▁소식통	-9.20003
▁밖에	-9.20011
▁통	-9.20043
▁네	-9.20067
▁세금	-9.20091
초	-9.20196
▁파업	-9.20248
▁35	-9.2025
▁인간	-9.20488
▁경쟁	-9.20579
▁나오	-9.20682
된다	-9.20685
▁시도	-9.20696
▁서	-9.20814
동	-9.20835
년부터	-9.20867
▁환자	-9.20995
혀	-9.21034
▁시아파	-9.21076
▁과정에서	-9.21112
▁부대	-9.21142
▁웹사이트	-9.21151
▁힐	-9.21153
▁반응	-9.21337
▁주말	-9.21343
▁얼마	-9.21567
▁결정했다	-9.21581
▁항공	-9.21584
▁해군	-9.21755
앞서	-9.22055
▁온몸	-9.22152
▁사망했	-9.22287
▁국민	-9.22395
로서	-9.22497
일까지	-9.22574
▁권리	-9.22706
▁앤	-9.22726
▁만나	-9.22742
▁주민	-9.22755
울	-9.22897
▁원인	-9.2304
▁알리	-9.2307
물	-9.23128
▁않아	-9.23141
▁속	-9.23148
▁폭력	-9.23316
▁동부	-9.23344
▁부통령	-9.23385
▁상당	-9.23493
▁90	-9.23538
설	-9.23641
▁여름	-9.23781
▁인상	-9.23827
▁케냐	-9.23856
유	-9.23907
급	-9.24053
▁소송	-9.24155
▁유일	-9.24271
▁본	-9.24382
▁어	-9.24413
▁외국	-9.24449
▁위원장	-9.24612
▁사이에	-9.24636
▁놓	-9.24752
인한	-9.24767
▁사건이	-9.24771
▁기상캐스터	-9.24812
▁완전	-9.24816
▁공연	-9.24909
▁대상으로	-9.24972
▁남	-9.25064
▁이곳	-9.25171
▁발견된	-9.25187
엔	-9.25212
▁시험	-9.25292
▁이수지	-9.25356
▁주재	-9.25362
▁바이러스	-9.25395
▁상황이	-9.25626
▁확보	-9.25749
▁막	-9.25779
▁캐나다	-9.25812
▁평균	-9.25862
▁걸쳐	-9.25914
이었던	-9.25925
▁사는	-9.25979
▁국영	-9.25992
▁부부	-9.26017
버	-9.26224
▁되었다	-9.26343
▁강제	-9.26584
▁우	-9.26632
▁경찰에	-9.2666
▁사임	-9.26912
▁것과	-9.26955
▁팔	-9.27002
▁후세인	-9.27026
포	-9.27119
▁예상	-9.27131
▁요청했다	-9.27172
▁학생	-9.27177
▁이래	-9.274
▁산업	-9.27425
▁야후	-9.2755
▁알려진	-9.27557
▁대변인이	-9.27575
▁차베스	-9.28103
▁빈	-9.28125
▁예상된다	-9.28135
▁민주주의	-9.2817
▁총격	-9.28304
▁소녀	-9.28309
▁어머니	-9.28326
▁선택	-9.28391
▁되	-9.28395
하려는	-9.2842
▁텍사스	-9.285
▁09	-9.28508
▁국내	-9.28565
▁가스	-9.28729
▁담	-9.28795
▁마치	-9.28845
후	-9.28858
▁성장	-9.29135
▁실	-9.29216
▁바란다	-9.29221
▁선고	-9.29231
2006	-9.29241
▁무장세력	-9.29293
▁걸	-9.29483
▁인기	-9.29524
▁소	-9.29615
▁왕자	-9.29933
▁직원	-9.30167
▁상대로	-9.30181
▁버스	-9.30235
▁약속	-9.30285
▁개선	-9.30317
▁베네수엘라	-9.30354
▁변호사는	-9.30369
▁크게	-9.30404
▁시즌	-9.30418
판	-9.3065
▁70	-9.31189
▁300	-9.31246
▁사과	-9.31281
▁단	-9.3133
▁항공사	-9.31404
▁밝혔습니다	-9.31542
그	-9.31565
▁동료	-9.31629
▁다리	-9.31633
▁받는	-9.31748
▁있지	-9.3176
었습니다	-9.31769
a	-9.31846
일부터	-9.31886
실	-9.31902
▁정권	-9.3192
▁친	-9.32095
영	-9.32101
▁만들	-9.3212
▁종	-9.32185
▁번	-9.32197
▁제품	-9.32208
▁마크	-9.32215
▁되고	-9.32265
속	-9.32598
▁최악	-9.3266
▁익명	-9.32672
▁운영	-9.32676
▁쿠바	-9.32687
▁사퇴	-9.32868
▁받지	-9.3295
▁인터뷰	-9.33318
▁사실이	-9.33369
▁중에	-9.33558
▁아니라고	-9.33721
▁따른	-9.33836
▁플로리다	-9.33895
▁중국은	-9.33917
▁2001	-9.33964
기도	-9.34
▁강한	-9.34035
▁확인했다	-9.34296
▁밝히	-9.34365
de	-9.34522
▁광고	-9.34596
여명	-9.34641
▁유지	-9.34779
▁대만	-9.3495
▁해안	-9.34952
지는	-9.35004
▁들	-9.35054
위원회	-9.35082
▁정부와	-9.35219
▁지명	-9.35274
▁매년	-9.35454
▁예	-9.35481
▁파병	-9.35534
▁유권자들	-9.35581
▁받게	-9.35707
대로	-9.35782
▁공	-9.3616
▁촬영	-9.36172
▁u	-9.36193
▁필리핀	-9.36221
▁북핵	-9.36233
하라	-9.36277
▁국회	-9.36317
▁임기	-9.36333
▁시리아	-9.36348
▁가자지구	-9.36399
가지	-9.36439
▁공격으로	-9.36468
i	-9.36551
네	-9.36552
▁언급했다	-9.36629
▁적이	-9.36656
▁추락	-9.36722
▁성폭행	-9.36823
▁못한	-9.36866
줄	-9.36925
▁상원의원이	-9.3702
▁가졌다	-9.37043
▁d	-9.37132
▁거대	-9.37134
▁두고	-9.3715
▁be	-9.37205
하던	-9.37212
▁머리	-9.3732
▁여론조사	-9.37455
키	-9.37485
▁병사	-9.37492
동안	-9.37521
▁명령	-9.37542
▁항공기	-9.37843
▁계약	-9.37846
▁통제	-9.37858
▁외교	-9.37867
강	-9.37879
▁차이	-9.37902
문	-9.37907
▁레	-9.37922
▁그룹	-9.38087
▁나온	-9.38119
▁자세	-9.38197
▁보냈다	-9.38226
▁때까지	-9.3823
▁학생들	-9.3824
▁도움이	-9.38273
▁한다는	-9.38297
▁작품	-9.38359
▁의미	-9.38463
▁f	-9.38544
▁북한에	-9.38622
▁인정	-9.38667
▁어느	-9.38669
중인	-9.38678
▁하원	-9.38916
▁표	-9.38943
표	-9.39148
▁지진	-9.39286
▁월요일	-9.39317
▁있음	-9.39344
▁나왔다	-9.39518
▁주도	-9.39566
▁제작	-9.39571
▁선수들	-9.39745
있는	-9.39767
▁부상자	-9.39857
▁이끄는	-9.39914
▁사우디	-9.39916
▁인질들	-9.39963
▁향해	-9.39967
▁암	-9.39997
▁제한	-9.40093
▁올랐다	-9.40126
학	-9.4018
▁호	-9.40225
▁무역	-9.40263
▁음식	-9.40311
c	-9.40439
하려	-9.40449
▁이집트	-9.40485
▁45	-9.40564
▁추	-9.40656
▁전기	-9.40754
▁개혁	-9.40756
▁밝히지	-9.40764
▁논쟁	-9.40792
▁달리	-9.40802
▁공습	-9.40874
▁책	-9.40881
▁지나	-9.40881
▁가능한	-9.40883
장은	-9.41047
시켜	-9.41103
▁나머지	-9.41175
▁다음달	-9.41192
▁소재	-9.41243
▁평가	-9.4127
▁희생자	-9.41296
▁막기	-9.41458
▁아내	-9.41483
▁비밀	-9.41557
▁로마	-9.41577
▁사랑	-9.41578
▁정부에	-9.41631
▁지수	-9.41751
▁nasa	-9.41812
▁처리	-9.41863
▁숨지고	-9.41948
▁출연	-9.42259
▁죽	-9.42287
▁1000	-9.42313
록	-9.42439
▁후에	-9.42556
▁여론	-9.42661
▁수상	-9.42704
▁32	-9.42737
하였다	-9.42797
▁들어	-9.42828
론	-9.42952
▁사람들을	-9.42963
▁갈	-9.43095
▁감시	-9.43676
▁관해	-9.43678
되었	-9.43681
▁포	-9.43688
▁오른	-9.43753
▁장면	-9.43807
▁기사	-9.43916
▁되어	-9.43989
해왔다	-9.442
▁질문	-9.44222
▁파리	-9.44265
▁흑인	-9.44272
▁국무장관	-9.44339
층	-9.4435
▁예측	-9.44366
▁목숨	-9.44401
▁구체적	-9.44403
▁유권자	-9.44441
▁서부	-9.44452
▁계획이	-9.44466
▁개최	-9.44513
▁영어	-9.44564
▁자료	-9.44668
▁스	-9.44732
▁부모	-9.44761
▁나이	-9.4478
▁불만	-9.4479
▁방	-9.45043
▁권력	-9.45054
▁어떠한	-9.45075
▁되지	-9.45106
▁만큼	-9.45128
▁사원	-9.45141
▁사람들에게	-9.4523
▁팬들	-9.45248
근	-9.45279
▁수출	-9.45296
▁수색	-9.45297
▁위성	-9.45455
▁센터	-9.4546
자회담	-9.45489
▁회복	-9.45497
▁시기	-9.4551
건	-9.45592
▁암살	-9.4566
▁끝에	-9.45683
▁잘못	-9.45723
▁왜	-9.45747
▁적어도	-9.4575
▁외무부	-9.45757
▁신고	-9.45897
▁400	-9.46022
▁작업을	-9.46132
▁기대	-9.46166
▁칸	-9.46181
금	-9.4621
▁희망	-9.46223
▁질문에	-9.46262
▁허리케인	-9.46383
▁뇌	-9.46436
▁인물	-9.46513
▁담당	-9.46531
체	-9.46582
▁사령관	-9.46765
▁별	-9.46812
▁기지	-9.46844
▁돌	-9.4688
▁실험	-9.46889
▁소말리아	-9.46996
▁식량	-9.47017
▁업체	-9.47033
▁싶다	-9.47059
▁국방장관	-9.47078
▁긴장	-9.47103
▁죽음	-9.47157
만한	-9.47229
▁이라크에	-9.47251
스트	-9.47254
명으로	-9.47289
▁곳에서	-9.47289
▁수천명	-9.47289
▁b	-9.47465
▁진압	-9.475
▁k	-9.47512
슨	-9.47538
너	-9.47568
▁이달	-9.47579
▁전문가	-9.47609
▁자체	-9.47723
▁fbi	-9.47736
▁베컴	-9.47736
▁입고	-9.4792
r	-9.47944
▁문화	-9.48025
▁헌법	-9.48055
▁미군이	-9.48068
▁세력	-9.48191
▁연	-9.48216
▁수요일	-9.48219
▁남한	-9.48299
▁주장하고	-9.4835
▁시민	-9.48635
▁시간이	-9.4873
▁이란이	-9.48789
▁의료	-9.48799
▁질	-9.49039
▁g	-9.49086
▁제임스	-9.49099
▁물론	-9.49117
▁일자리	-9.49119
▁집단	-9.4912
▁시카고	-9.49164
다면	-9.49192
o	-9.49199
▁발생해	-9.49238
▁움직임	-9.49241
▁병원에	-9.49287
u	-9.4957
▁해야	-9.49585
▁쇼	-9.49587
▁붕괴	-9.49639
▁교전	-9.4964
▁경제적	-9.49778
여명이	-9.49909
경	-9.49915
▁아주	-9.49926
▁만들어	-9.50207
▁유명한	-9.50262
▁따라	-9.50263
▁찾아	-9.50297
▁피해자	-9.50306
▁신원	-9.5044
▁여성이	-9.50462
역	-9.5048
▁사진을	-9.50508
▁위반	-9.50521
▁체포됐다	-9.50558
▁양측	-9.50576
▁구성	-9.50632
▁01	-9.50657
▁목적	-9.50714
▁누	-9.5072
달	-9.5082
5000	-9.509
▁주민들이	-9.50933
병	-9.50948
▁전력	-9.51046
▁비슷	-9.51059
▁압력	-9.51103
민	-9.51174
▁자리	-9.51195
▁출마	-9.51196
개국	-9.51207
▁혼란	-9.51339
▁인수	-9.51388
▁일요일	-9.51401
▁대중	-9.51679
▁사상	-9.51705
▁부분	-9.51766
▁여	-9.51859
▁받	-9.52063
▁h	-9.52242
▁승객	-9.5232
공	-9.52397
▁교회	-9.52445
▁감염	-9.52468
▁해리	-9.52655
월부터	-9.52671
▁아베	-9.52677
마다	-9.52735
▁인사	-9.52741
▁korean	-9.52759
▁수익	-9.5282
▁소리	-9.52946
es	-9.53022
▁누구	-9.53058
▁존스	-9.53087
▁국가들	-9.53159
▁당했다	-9.53193
기구	-9.53259
▁병	-9.5328
▁로켓	-9.53309
▁숨진	-9.53334
st	-9.53416
8	-9.53421
▁미래	-9.53423
▁종교	-9.5362
▁넘는	-9.53642
▁최고의	-9.53703
▁여사	-9.53798
▁군인	-9.5381
▁발전	-9.54023
▁당선인	-9.54055
▁공군	-9.5408
▁자국	-9.54102
▁현장	-9.54136
▁선거에서	-9.54233
▁고통	-9.5436
▁경험	-9.54392
만이	-9.54453
곳	-9.54519
▁군대	-9.54545
▁사장	-9.54561
▁살인	-9.54747
▁게이츠	-9.54757
▁결의안	-9.54772
한다는	-9.54846
▁관련해	-9.5485
▁이전에	-9.54894
▁설명	-9.54928
▁작년	-9.54936
▁허가	-9.55
▁의원들	-9.55001
▁참석	-9.55046
▁반대하는	-9.55088
골	-9.55124
▁무장단체	-9.55137
팀	-9.55257
2007	-9.55275
▁순간	-9.55313
tal	-9.55518
▁심장	-9.55559
▁위치	-9.55589
되기	-9.55621
▁가질	-9.55715
▁애	-9.55717
▁노조	-9.55774
▁마약	-9.5582
▁탑승	-9.55958
▁c	-9.55983
▁들고	-9.56022
들에	-9.56205
힌	-9.56213
▁넘	-9.56286
▁것인지	-9.56341
▁있는지	-9.56363
▁뿐	-9.56495
7	-9.56551
▁약간	-9.56605
▁목표로	-9.56688
톤	-9.56756
재	-9.56876
▁유죄	-9.56971
▁개의	-9.56977
▁빨	-9.57044
▁체포했다	-9.57177
▁방문한	-9.57443
▁제조	-9.57527
▁고문	-9.57571
▁국제사회	-9.57684
▁코소보	-9.57707
▁나타나	-9.57707
▁신화통신	-9.57708
▁밝혀지지	-9.57737
▁건	-9.57806
▁마리	-9.57864
▁선언	-9.57997
▁t	-9.58151
▁고용	-9.58164
▁사형	-9.58249
▁파괴	-9.58257
▁직원들	-9.58351
무	-9.58398
▁패배	-9.58921
방	-9.58936
▁단지	-9.58943
▁입	-9.59029
▁칼	-9.59043
▁주의	-9.59058
▁젊은	-9.59167
청	-9.59177
▁긴급	-9.59186
케	-9.59194
▁bbc	-9.59218
▁이라크전	-9.59276
승	-9.59569
▁가까	-9.59613
▁안정	-9.59632
▁구속	-9.59637
저	-9.59657
▁압박	-9.59666
으로서	-9.59753
▁군부	-9.59892
▁id	-9.59894
▁다이애나	-9.59956
▁선두	-9.59972
▁블레어	-9.5998
▁대형	-9.60017
▁총재	-9.60037
▁연속	-9.60088
▁복귀	-9.60127
▁정말	-9.60224
▁약물	-9.60291
▁목요일	-9.60431
▁전까지	-9.60481
▁회담에서	-9.60489
▁관광객	-9.60527
▁섬	-9.60534
자들	-9.60538
▁전국	-9.60538
▁여당	-9.60546
▁영국의	-9.60559
행	-9.60718
▁찰스	-9.60738
▁몇몇	-9.6075
▁과	-9.60836
▁자주	-9.6086
▁증가했다	-9.60983
▁집중	-9.60989
▁불리	-9.61037
▁게	-9.61147
▁지지자들	-9.61226
▁정상회담	-9.61301
▁수천	-9.61307
▁보기	-9.61423
▁올메르트	-9.61525
▁나토	-9.61564
▁마련	-9.61579
▁보이는	-9.61749
▁상대	-9.61829
테	-9.61847
로써	-9.61935
▁임시	-9.6196
▁시상식	-9.62041
▁총기	-9.62074
▁마음	-9.62087
출	-9.62144
아니라	-9.62199
▁항의	-9.6222
tp	-9.62249
▁감사	-9.62365
▁추진	-9.62482
▁메	-9.62504
심	-9.62552
▁휴대폰	-9.62641
▁연설에서	-9.62646
▁대비	-9.62657
▁주가	-9.62693
▁36	-9.62705
▁정당	-9.62812
▁비판	-9.6288
▁외무장관	-9.62885
▁탁신	-9.63092
▁오랫동안	-9.63093
▁카운티	-9.63113
▁스위스	-9.63192
▁착륙	-9.63234
▁내부	-9.63273
▁매일	-9.63275
▁루	-9.63331
▁병원에서	-9.63354
▁유명	-9.63378
하겠다	-9.63386
달하는	-9.63413
▁수가	-9.63423
이었	-9.6356
갈	-9.63631
▁곳에	-9.63639
▁충격	-9.63732
통	-9.63738
▁절차	-9.63759
▁중앙	-9.63844
▁맞아	-9.63887
▁비상사태	-9.63889
▁모델	-9.63907
▁치	-9.6395
▁벌	-9.64003
▁cat	-9.64106
▁검토	-9.64115
▁됐	-9.64121
▁폭력사태	-9.64129
▁차지했다	-9.64165
▁실시된	-9.64241
▁대법원	-9.64288
만명이	-9.64394
하기도	-9.64397
▁한국은	-9.64547
▁new	-9.64592
▁디	-9.64614
▁부정	-9.64617
▁폭풍	-9.64668
▁만든	-9.64686
▁이밖에	-9.64687
▁샤리프	-9.64689
▁스피어스	-9.64701
▁윌리엄스	-9.64761
▁어려움	-9.64914
▁하며	-9.6492
▁설치	-9.64945
졌다	-9.65113
▁사이트	-9.65157
▁기소	-9.65161
반	-9.65177
▁없었	-9.65178
▁발생했	-9.65218
▁나가	-9.65372
▁오래	-9.65379
▁연구소	-9.65436
▁효과	-9.65456
▁고양이	-9.65477
▁직후	-9.65497
▁산불	-9.65503
▁확실히	-9.65587
▁말레이시아	-9.65595
▁소비자	-9.65633
음	-9.65722
▁확대	-9.65798
▁아마	-9.65853
▁전통	-9.65879
▁사항	-9.66003
▁집에서	-9.66052
▁통과	-9.66094
▁수백	-9.66191
▁빠른	-9.66306
▁네덜란드	-9.66306
▁높다	-9.66306
▁페	-9.66309
▁원자로	-9.66316
▁도쿄	-9.66333
른	-9.66358
▁보이고	-9.66421
▁37	-9.66444
ly	-9.66448
▁일반	-9.66482
▁집회	-9.6656
▁작업	-9.66572
▁윌리엄	-9.66643
▁높이	-9.66652
▁군인들	-9.66695
▁강화	-9.66704
▁부인했다	-9.66763
h	-9.66863
▁수석	-9.67007
▁애플	-9.67024
▁버지니아	-9.67026
되었습니다	-9.67064
▁오랜	-9.67121
▁처벌	-9.67127
▁빠르	-9.67129
▁베	-9.67149
▁나타냈다	-9.67176
▁청와대	-9.67185
▁스포츠	-9.67188
▁내각	-9.67254
▁구매	-9.67282
▁블로그에	-9.67295
▁보이지	-9.67385
▁올라	-9.67392
▁천	-9.67399
▁150	-9.674
▁위기에	-9.67532
▁관광	-9.67533
▁키	-9.67544
▁이와같	-9.67584
연	-9.67592
▁주에서	-9.67623
▁받기	-9.67645
▁작성	-9.67704
▁북한과	-9.67711
▁전시	-9.67732
튼	-9.67844
▁프로젝트	-9.67864
6	-9.67873
장을	-9.6789
▁대가	-9.679
▁사무실	-9.67927
▁중이다	-9.67929
▁노래	-9.6796
▁ht	-9.67966
▁영상	-9.67986
▁핵심	-9.67986
▁알려지	-9.67998
▁가수	-9.67998
▁동결	-9.6813
다른	-9.68181
k	-9.68187
▁영	-9.68219
▁못했	-9.68261
▁is	-9.68265
▁운행	-9.68291
▁이미지	-9.68353
▁나무	-9.68382
▁파견	-9.68443
▁법적	-9.68451
▁해제	-9.6848
▁홍보	-9.68564
▁성적	-9.68572
지역	-9.68751
▁국립	-9.68774
▁크리스마스	-9.68784
▁무가베	-9.68786
▁스스로	-9.68786
▁asp	-9.68789
▁기관	-9.68934
▁수정	-9.69025
▁탄	-9.6903
▁그중	-9.69052
▁집행	-9.6908
▁속에	-9.69131
▁북	-9.69196
▁여성들	-9.69253
▁소장	-9.69265
거리	-9.69267
▁경찰과	-9.6935
▁판	-9.69362
리자	-9.69425
▁중국이	-9.69459
▁수백명	-9.69556
▁그렇게	-9.69626
▁찾기	-9.69626
▁선정	-9.69653
▁상황에서	-9.6969
▁약속했다	-9.69723
▁자녀	-9.69759
월까지	-9.69926
▁역사적	-9.69955
▁실제	-9.69974
▁도중	-9.69987
었던	-9.70053
▁겪고	-9.70238
▁도착	-9.70296
주년	-9.70329
▁작가	-9.70422
▁등록	-9.70447
싼	-9.70473
▁크리스토퍼	-9.70474
▁시작된	-9.70547
▁나섰다	-9.70549
▁여왕	-9.70553
▁유로	-9.70574
▁목사	-9.70595
▁그에게	-9.70618
▁연구진	-9.70626
▁글	-9.70691
림	-9.70759
▁진출	-9.70862
▁사상자	-9.70868
▁홍수	-9.70944
만에	-9.70964
▁발생할	-9.70988
▁실시	-9.71039
▁이용해	-9.71061
▁후보에	-9.7107
▁가량	-9.71126
▁거부	-9.71131
g	-9.71165
▁편	-9.71231
▁엄마	-9.7133
▁하워드	-9.71331
▁스티브	-9.71331
▁아바스	-9.71343
▁조금	-9.71351
▁실패	-9.71356
▁동시	-9.71387
▁크기	-9.71481
▁배치	-9.7151
▁잉글랜드	-9.71599
▁프라이머리	-9.71622
▁남성이	-9.71714
▁접촉	-9.71721
▁하다	-9.71748
▁시민들	-9.71796
▁수니파	-9.71805
▁사기	-9.71972
▁남북	-9.72039
▁시행	-9.72093
▁않겠다	-9.72111
l	-9.7213
▁옷	-9.72132
▁인정했다	-9.72178
▁실수	-9.72232
▁다쳤다	-9.72399
▁사용하는	-9.72437
▁접근	-9.72454
▁대통령에게	-9.72568
▁과정	-9.72657
▁시작됐다	-9.72689
▁그리스	-9.7269
있다	-9.72762
▁개봉	-9.72836
▁쿠르드	-9.72863
▁보낸	-9.72867
▁의한	-9.72898
▁장소	-9.72964
▁iaea	-9.7306
▁cia	-9.73064
▁알려져	-9.73065
▁j	-9.73068
▁1999	-9.7307
▁넣	-9.73132
▁배럴	-9.73145
▁한반도	-9.7317
▁얻었다	-9.73186
▁둔	-9.73207
했을	-9.73344
▁구성된	-9.7335
▁마드리드	-9.7337
대가	-9.73377
마일	-9.73489
▁위험한	-9.73531
증	-9.73535
▁떨어져	-9.73559
▁못할	-9.73563
▁의혹	-9.73567
▁보안관	-9.7361
▁참가	-9.73699
▁감축	-9.73746
▁카메라	-9.73797
▁임명	-9.73812
▁패	-9.73849
▁최소한	-9.73896
▁구호	-9.73914
▁머물	-9.73929
▁분위기	-9.73937
▁노대통령	-9.73939
본	-9.73951
▁마무리	-9.73954
▁없습니다	-9.74034
했는데	-9.7408
▁테러로	-9.74105
▁듯	-9.74178
▁고든	-9.74194
▁술	-9.74232
▁목소리	-9.74292
▁갖	-9.74339
▁하락했다	-9.74379
▁현장에	-9.74431
▁말하고	-9.74448
았다	-9.74532
▁전자	-9.74702
▁협의	-9.74735
▁일어난	-9.74758
까	-9.74774
▁정확한	-9.74822
▁모하메드	-9.74822
▁먼저	-9.74825
▁알게	-9.74905
p	-9.74919
▁가족들	-9.74984
▁추정되	-9.75029
▁니콜라	-9.75057
▁할리우드	-9.75105
▁제공	-9.75125
▁우크라이나	-9.75138
탄	-9.7521
▁보이	-9.75227
분기	-9.75261
등	-9.75266
▁한미	-9.75289
▁분쟁	-9.75306
▁연합군	-9.75414
▁박사	-9.75431
▁보여주	-9.75444
▁가격이	-9.75475
▁대책	-9.75499
▁미국인들	-9.75605
되	-9.75618
▁그러	-9.75715
▁north	-9.75715
▁장난감	-9.75717
▁사례	-9.75731
▁ms	-9.75803
▁문서	-9.75914
▁대응	-9.75995
협회	-9.7602
▁출발	-9.76161
▁고래	-9.76174
스러운	-9.7618
▁중심	-9.762
▁휴가	-9.76328
▁의원이	-9.76348
▁웹사이트에	-9.76404
작	-9.76406
▁증언	-9.76469
4	-9.76601
▁치안	-9.76628
▁만드는	-9.76636
▁도착했다	-9.76674
▁38	-9.76677
▁엘	-9.76733
▁떨어졌다	-9.768
ion	-9.76858
▁강도	-9.76893
▁네팔	-9.769
교	-9.77033
▁판단	-9.77046
▁특사	-9.77063
▁난민	-9.77121
▁날씨	-9.77134
▁미국에	-9.77223
하길	-9.773
▁48	-9.77441
▁후보로	-9.77463
워	-9.77468
▁토요일	-9.77525
▁말리키	-9.77526
▁구글	-9.7753
▁살해한	-9.7765
▁조건	-9.77727
대의	-9.77957
업체	-9.78029
▁망명	-9.78076
▁주로	-9.78093
▁이해	-9.78139
▁나와	-9.78159
▁유사	-9.78289
▁쿠	-9.78295
▁금	-9.78324
▁조작	-9.78366
▁사용할	-9.78424
▁피터	-9.78431
▁farc	-9.78443
▁담배	-9.78445
▁검색어	-9.78469
▁반발	-9.785
▁규제	-9.78529
▁영향력	-9.78552
뉴스	-9.78577
2008	-9.78618
▁42	-9.78838
▁지배	-9.78847
▁당한	-9.79016
생	-9.79021
▁분노	-9.79048
▁걱정	-9.79106
▁남북한	-9.79119
▁시대	-9.79133
▁46	-9.79162
▁조종사	-9.79174
▁at	-9.79221
▁민병대	-9.79294
f	-9.79314
▁내려	-9.79343
▁깊	-9.79352
▁김정일	-9.79368
▁콘돌	-9.79369
▁샤	-9.79434
▁있는데	-9.79437
▁쉽게	-9.79527
▁시위자들	-9.79531
▁운전	-9.7959
▁장기	-9.79617
▁자신들이	-9.79818
▁선출	-9.79851
▁영국에서	-9.79925
▁어려	-9.79957
▁실시한	-9.79977
▁긴	-9.80002
▁과학	-9.80111
▁장치	-9.80197
▁south	-9.80303
▁웹	-9.80311
▁원조	-9.80354
약	-9.80388
▁경찰관	-9.805
▁당선자	-9.80529
▁들었다	-9.80602
▁없어	-9.80615
▁물질	-9.80626
시킨	-9.80645
양	-9.80669
▁오픈	-9.81114
▁부동산	-9.81158
▁일반적	-9.81191
▁기후	-9.81207
▁징역	-9.81234
▁with	-9.81246
▁소프트웨어	-9.81246
▁범인	-9.81302
ment	-9.81417
▁만들었다	-9.81449
▁초기	-9.81463
▁확실	-9.81472
▁잡	-9.81479
주의	-9.81502
▁끝	-9.81525
▁페르베	-9.81566
▁표현	-9.81601
▁전략	-9.81655
▁말한	-9.81846
b	-9.81867
▁어린	-9.81897
업	-9.8202
▁영국군	-9.82025
▁현장에서	-9.82056
▁진행되	-9.82063
▁전달	-9.82097
▁참석한	-9.82109
▁대단	-9.82145
▁소년	-9.82158
▁보좌관	-9.8216
▁모른다	-9.82161
▁사이클론	-9.82203
▁타격	-9.82205
▁신속	-9.8222
▁수십	-9.82258
▁아부	-9.82289
▁놀라	-9.82355
▁대표팀	-9.8243
커	-9.82524
▁등이	-9.82526
세기	-9.82598
량	-9.82683
▁확산	-9.82693
▁능력	-9.82702
▁찾는	-9.82711
▁실제로	-9.82794
채	-9.82858
▁세르비아	-9.83066
▁맥	-9.83121
▁자살폭탄테러	-9.83158
▁지출	-9.83197
▁기타	-9.83208
▁의료진	-9.83209
▁드라마	-9.83236
▁fta	-9.8324
▁속에서	-9.83282
▁총선에서	-9.83307
▁체포된	-9.83408
▁공장	-9.83423
▁긍정적	-9.83426
▁의심	-9.83481
▁유세	-9.83572
kg	-9.83577
▁고속도로	-9.83613
한영	-9.83676
▁월드컵	-9.8373
▁문제로	-9.83824
▁평화적	-9.83953
▁중국에서	-9.84096
▁경계	-9.84096
▁벌금	-9.84128
▁교통	-9.84138
▁iraq	-9.84142
▁기억	-9.84145
▁유럽연합	-9.84146
센트	-9.84149
▁일환	-9.84149
▁귀국	-9.84152
▁나달	-9.84179
▁성화	-9.8421
▁되면	-9.84256
▁수행	-9.84271
차기	-9.84305
▁도전	-9.84377
▁요구하는	-9.84417
▁캠프	-9.84441
▁집권	-9.84495
▁소지	-9.84506
▁기구	-9.84547
▁민간	-9.8456
▁제기	-9.84562
▁상황에	-9.84564
▁이곳에서	-9.84567
▁속도	-9.84612
니다	-9.8467
색	-9.84673
▁600	-9.84674
위로	-9.84681
▁마감	-9.84759
▁성인	-9.84899
지도	-9.85026
▁조사하고	-9.85058
▁동	-9.85108
▁1998	-9.85111
▁엘리자베스	-9.85111
▁열린우리당	-9.85111
▁1997	-9.85116
▁수반	-9.85123
▁맺	-9.85124
▁축제	-9.85131
▁압둘라	-9.85163
▁돼	-9.85261
▁이틀	-9.85312
회사	-9.85332
▁터키군	-9.8537
방송	-9.85388
편	-9.85561
▁공화당의	-9.85565
▁아르헨티나	-9.8558
주간	-9.85642
▁지진으로	-9.85755
▁시리즈	-9.85829
▁중이라고	-9.86071
▁한국과	-9.86152
▁무사	-9.86184
▁공식적으로	-9.86193
▁올렸다	-9.86202
▁길이	-9.86213
▁통화	-9.86234
▁경	-9.86329
쉬	-9.86352
볼	-9.86373
▁성공했다	-9.86387
or	-9.86416
▁전망이	-9.86544
▁향하	-9.8657
▁테이프	-9.86661
▁집계	-9.86681
▁국장	-9.86782
▁걸어	-9.86825
ational	-9.86881
▁따	-9.86927
▁법률	-9.86984
▁포함되어	-9.86995
▁잭슨	-9.87098
▁cbs	-9.87102
▁휘발유	-9.87102
▁리버풀	-9.87102
▁찬성	-9.87204
▁중국과	-9.8726
▁예산	-9.87261
▁태풍	-9.87274
▁보장	-9.87275
▁얼굴	-9.87303
▁협정	-9.87305
▁요구한	-9.87354
▁집에	-9.87402
냐	-9.87523
▁02	-9.87717
▁외교부	-9.87747
▁조사에서	-9.8785
▁대표단	-9.8786
개월간	-9.87887
▁비자	-9.87914
▁예방	-9.87931
▁이들이	-9.8805
▁않으면	-9.88065
▁토니	-9.8809
▁주는	-9.88091
▁에이즈	-9.88117
▁드러났다	-9.88135
▁분	-9.88136
▁75	-9.8817
▁대체	-9.88172
▁중요하다	-9.88201
▁복제	-9.88204
▁왕	-9.88252
▁이르는	-9.88308
▁자격	-9.88355
액	-9.88358
▁회담에	-9.88364
었	-9.88592
▁부패	-9.8866
▁용의자들	-9.88667
일에	-9.88673
▁커	-9.88702
▁일본은	-9.88702
▁재산	-9.8888
복	-9.88886
▁이것이	-9.88946
▁경기에	-9.88949
두	-9.88981
▁한번	-9.89012
▁정부군	-9.89025
▁내린	-9.89041
▁테러가	-9.8906
on	-9.89063
▁그린	-9.89085
▁ppp	-9.89132
▁매들린	-9.89133
▁1990	-9.89147
▁ceo	-9.8916
▁축구	-9.89199
▁경선에서	-9.8929
▁뉴	-9.89295
▁33	-9.89363
▁모르	-9.89363
▁보건	-9.89376
▁감	-9.89467
▁굴	-9.8947
되면서	-9.89629
▁트럭	-9.89693
▁심리	-9.89779
▁편지	-9.89845
▁투자자들	-9.89866
▁시드	-9.89921
▁소비	-9.8995
▁원유	-9.9
▁지지하는	-9.90097
▁들어가	-9.90117
▁넘어	-9.90156
▁국제유가	-9.90164
▁불참	-9.90165
▁향후	-9.90171
▁육군	-9.90176
▁민주화	-9.90176
▁1980	-9.90178
▁루이스	-9.9018
▁기자들	-9.90218
▁자연	-9.90276
▁학살	-9.90278
▁승무원	-9.90288
▁손상	-9.90326
▁250	-9.90397
▁교황	-9.90564
▁개입	-9.90737
▁워싱턴에서	-9.90761
▁학생들이	-9.90858
▁연장	-9.90873
▁공개했다	-9.90946
투	-9.91002
▁펜실베이니아	-9.91107
퍼	-9.91108
▁51	-9.91124
기간	-9.91128
50	-9.91132
▁휴전	-9.91189
▁좋지	-9.91205
▁해리포터	-9.91205
▁페일린	-9.91205
▁포르투갈	-9.91205
▁신용	-9.91206
▁론스타	-9.91207
▁나쁜	-9.91213
▁지지자	-9.91256
▁안보리	-9.91399
▁힐튼	-9.91416
백	-9.9148
▁자산	-9.91517
▁상품	-9.9166
▁이혼	-9.91699
▁주고	-9.91746
▁언급하지	-9.91836
▁중에는	-9.91861
▁지지율	-9.91889
▁바람	-9.91975
▁본부	-9.91975
▁분석	-9.91978
▁후반	-9.92023
▁저녁	-9.92046
▁축하	-9.92098
▁바그다드에서	-9.92123
▁진정	-9.92201
▁임	-9.92223
▁언제	-9.92237
▁맨체스터	-9.92256
▁케네디	-9.92259
▁입양	-9.92262
▁반정부	-9.92278
▁우주선	-9.92312
시키는	-9.92338
▁포함해	-9.92357
▁비상	-9.92364
▁오르	-9.92381
▁통합	-9.92386
센터	-9.92389
▁선포	-9.92421
▁랭킹	-9.92466
▁임신	-9.92566
백만	-9.92625
▁충분	-9.92638
▁야	-9.92703
▁제출	-9.9276
▁벌인	-9.92791
▁아파트	-9.92806
▁화성	-9.9283
▁포드	-9.92868
▁제외	-9.93002
▁전문	-9.93076
▁요구하고	-9.93135
▁협조	-9.93145
씬	-9.93303
▁로봇	-9.93303
▁방어	-9.93313
▁믿고	-9.93321
▁페더러	-9.93322
▁반기문	-9.93322
▁dna	-9.93324
▁화산	-9.93326
▁리비아	-9.93341
단체	-9.93388
▁목격자들	-9.93453
▁44	-9.93505
▁밀란	-9.9352
▁오하이오	-9.93635
▁포인트	-9.93658
▁취임	-9.93659
▁태	-9.93678
▁동맹	-9.93788
▁송	-9.93789
▁버	-9.93832
기로	-9.9403
명에	-9.9407
▁예정이	-9.94088
▁해당	-9.94172
▁내에	-9.94211
▁세대	-9.94384
▁리콜	-9.94401
▁맨유	-9.94403
▁벌어진	-9.94407
▁대출	-9.94416
▁목격자	-9.94429
▁총리와	-9.94434
▁며칠	-9.94477
▁수감	-9.94488
▁거주하는	-9.94638
▁잠	-9.94644
▁해결하기	-9.94758
▁방문했다	-9.94843
▁외부	-9.94864
▁유가	-9.94935
▁변	-9.94981
▁핵실험	-9.95022
▁손실	-9.95251
▁참여	-9.95266
▁계획에	-9.95271
cm	-9.95323
▁대통령에	-9.95359
▁관광객들	-9.95383
▁국제적	-9.95387
하였	-9.95423
▁숨	-9.95429
▁부활	-9.95481
▁밖으로	-9.95483
▁우라늄	-9.95483
▁사드르	-9.95484
▁여기	-9.95488
▁결론	-9.9549
▁태도	-9.9549
▁폭우	-9.95501
▁회담이	-9.95544
▁보여	-9.9557
▁차관보	-9.95583
▁52	-9.95587
▁아일랜드	-9.95609
▁밖에서	-9.95618
▁갖추	-9.95627
▁쉬	-9.95639
▁상어	-9.95645
▁지도	-9.95681
▁회사들	-9.95807
시키고	-9.95847
▁노동	-9.95866
▁취소	-9.9587
▁목	-9.9598
인지	-9.95981
▁생존자	-9.96072
▁백	-9.96332
번째로	-9.96452
▁현지시각	-9.96582
▁대다수	-9.96583
▁president	-9.96593
▁방해	-9.96606
▁장식	-9.96635
▁레이스	-9.9666
것	-9.96663
▁수백만	-9.96696
▁05	-9.9675
▁빅	-9.96765
이라	-9.96776
▁지적	-9.96786
▁성향	-9.96787
링	-9.9681
▁권	-9.96821
▁선거운동	-9.96869
▁말합니다	-9.96876
품	-9.96879
▁방문할	-9.96977
▁해고	-9.96979
▁아이들이	-9.96998
▁800	-9.97012
▁왔	-9.97041
▁곳으로	-9.97078
겠다고	-9.97155
▁신경	-9.97159
▁평양	-9.97184
▁내전	-9.97261
▁입국	-9.97261
▁일어나	-9.97356
▁an	-9.9743
▁생명	-9.97457
▁끝난	-9.97464
▁개정	-9.97558
▁완화	-9.97614
▁최신	-9.97654
훨	-9.97693
▁버마	-9.9771
▁체니	-9.97721
▁쿠데타	-9.97722
▁심문	-9.97736
▁아카데미	-9.97737
▁것보다	-9.9778
자인	-9.97785
▁질환	-9.97841
▁이스라엘과	-9.97877
▁결	-9.97953
▁차드	-9.97982
센	-9.98024
▁킹	-9.98026
▁방지	-9.98057
▁파타	-9.9806
▁당선	-9.98209
▁토론	-9.98233
▁단계	-9.98237
▁나서	-9.98243
▁충분한	-9.98261
▁협회	-9.98311
▁침체	-9.98409
집	-9.98429
▁m	-9.98467
▁밝혀	-9.98507
▁입었	-9.98515
▁이번주	-9.98544
했는지	-9.98598
▁스티븐	-9.98652
▁원하는	-9.98663
▁통치	-9.9867
▁담당자	-9.98749
▁우선	-9.98801
▁이메일	-9.98819
▁영변	-9.9882
▁접속	-9.98824
▁헤럴드	-9.98866
▁기능	-9.98973
▁귀	-9.99006
달러에	-9.99008
▁존슨	-9.9904
▁잃었다	-9.99112
▁교체	-9.99173
▁예상했다	-9.99257
▁허용	-9.99422
▁투	-9.99429
▁인식	-9.99464
겠다	-9.99469
▁근무	-9.99516
▁투입	-9.99548
▁공격이	-9.99716
▁박물관	-9.99718
▁보였	-9.99787
▁대부분이	-9.99866
▁방식	-9.99907
▁멸종	-9.99953
▁무릎	-9.99953
▁갑자	-9.99954
▁연락	-9.99957
▁마틴	-9.99957
▁who	-9.99961
▁보통	-9.99976
▁바라고	-9.99989
▁학대	-10.0002
▁형성	-10.0017
▁경찰서장	-10.0018
▁활용	-10.0019
▁대처	-10.0021
위에	-10.0024
▁원한다	-10.0029
▁시절	-10.003
▁다니	-10.003
▁모습이	-10.0035
▁신청	-10.0035
▁방법으로	-10.004
▁조정	-10.0046
▁이스라엘군	-10.0057
▁가정	-10.0059
▁34	-10.006
▁ac	-10.0062
▁가자	-10.0063
th	-10.0069
▁올랐	-10.0071
언	-10.0073
▁침해	-10.0076
▁지도부	-10.0077
▁사건과	-10.0097
▁내용이	-10.0101
▁기업들	-10.0103
지수	-10.0107
▁찾고	-10.011
▁다르푸르	-10.011
▁취할	-10.0111
▁일본에서	-10.0112
망	-10.0112
한다면	-10.0113
▁출시	-10.0114
▁걸릴	-10.0114
▁특정	-10.0114
▁원제	-10.0116
▁클럽	-10.0118
▁re	-10.0122
래	-10.0123
▁조사에	-10.0126
▁준	-10.0126
준	-10.0133
▁의도	-10.0137
▁동원	-10.0137
▁모양	-10.0138
▁53	-10.0148
▁형	-10.0149
w	-10.0151
▁장군	-10.0156
하려고	-10.0159
▁광산	-10.0161
▁당선인은	-10.0162
▁생	-10.0164
▁마이크	-10.0174
▁첼시	-10.0185
▁현대	-10.0188
지르	-10.0194
▁아랍	-10.0195
▁역	-10.0204
처	-10.0207
장관	-10.0207
▁삼	-10.0209
▁현재까지	-10.0212
▁사건으로	-10.0215
태	-10.0218
차전	-10.0218
▁가득	-10.0225
죠	-10.0225
▁달라이라마	-10.0227
▁세계대전	-10.0227
▁카르자이	-10.0227
▁will	-10.0227
경기	-10.0229
▁핵시설	-10.023
▁07	-10.023
▁협상이	-10.0231
▁다이아몬드	-10.0234
▁실시되	-10.0238
▁절반	-10.0247
▁보상	-10.0254
▁56	-10.0255
▁분야	-10.0259
자들이	-10.0269
▁가까이	-10.027
▁주장하는	-10.0271
▁전투기	-10.0274
▁답변	-10.0279
▁투어	-10.028
▁잔해	-10.0292
▁시작한	-10.0295
▁진	-10.0296
▁상점	-10.0297
▁55	-10.0301
▁발표된	-10.0302
▁i	-10.0303
므로	-10.031
▁노동자	-10.0312
▁생각하고	-10.0313
30	-10.0337
이지만	-10.0337
▁r	-10.0341
▁43	-10.0345
▁대북	-10.0348
▁치러진	-10.0349
▁남아	-10.035
▁격차	-10.035
씩	-10.0354
▁음모	-10.0362
▁폐지	-10.0363
▁경보	-10.0364
▁소니	-10.0368
▁시위에	-10.0368
▁장비	-10.0375
▁상승했다	-10.0376
▁일간	-10.0377
▁사실상	-10.0384
▁사용되	-10.0392
당국	-10.0393
▁자기	-10.0396
맨	-10.041
▁향	-10.0413
라도	-10.0415
▁떠나	-10.0416
▁얘기	-10.0421
왔다	-10.0426
▁지키	-10.0459
▁방침	-10.046
▁이렇게	-10.0463
▁태평양	-10.0463
▁야생	-10.0463
▁성관계	-10.0465
▁만날	-10.0467
▁소개	-10.0469
▁잠시	-10.0471
▁밑	-10.0472
시장	-10.0474
▁변경	-10.0475
▁콘서트	-10.0475
▁그것이	-10.0477
영한	-10.0477
▁존재	-10.048
▁연루	-10.049
▁선박	-10.0493
▁적절한	-10.0496
▁빠져	-10.051
▁필	-10.052
▁행진	-10.0521
▁되기	-10.0522
▁둘	-10.0527
▁지진이	-10.0533
▁보고했다	-10.0536
▁결혼식	-10.0537
▁지불	-10.0537
불어	-10.0538
▁캠페인	-10.0549
▁인하	-10.0559
▁벨	-10.0568
▁제안했다	-10.0569
▁수용	-10.057
an	-10.057
남	-10.0573
▁진행된	-10.0574
▁전반	-10.0575
en	-10.0576
▁환자들	-10.0581
▁이하	-10.0583
▁쥐	-10.0583
▁에드워즈	-10.0584
▁훌륭	-10.0584
▁nbc	-10.0584
▁치열	-10.0584
▁진입	-10.0591
▁말라	-10.0591
말	-10.0617
▁부문	-10.0619
▁이익	-10.062
▁보면	-10.0624
▁승리했다	-10.0627
▁신뢰	-10.0632
▁서울에서	-10.0638
▁돌아가	-10.0638
ce	-10.064
▁그와	-10.0641
겠	-10.0652
▁저지	-10.0656
▁수요	-10.0656
▁동물원	-10.0656
▁폭	-10.0658
▁확신	-10.0662
시설	-10.0668
▁성과	-10.0672
매	-10.0677
해졌다	-10.0677
▁대피	-10.068
▁됩니다	-10.0681
▁한국군	-10.0685
▁전면	-10.0687
▁계속되고	-10.0688
▁운영하	-10.0688
▁선물	-10.0697
▁실종	-10.0701
춘	-10.0703
▁재정	-10.0705
▁칠레	-10.0706
▁새끼	-10.0707
▁폭동	-10.0707
▁진술	-10.0717
▁뉴질랜드	-10.0718
▁즉각적	-10.0719
▁신임	-10.0724
▁대결	-10.0748
▁부근에서	-10.0749
▁있어서	-10.075
▁된다고	-10.075
▁심각	-10.0752
▁장관이	-10.0757
었고	-10.0769
▁기도	-10.077
▁제거	-10.0777
▁의식	-10.0778
▁책임자	-10.078
▁목적으로	-10.0786
후드	-10.0796
렌	-10.0798
▁지급	-10.0798
▁근거	-10.0799
▁결정은	-10.0804
▁카드	-10.0815
▁주간	-10.0817
▁대기	-10.0817
▁모인	-10.0829
▁덴마크	-10.0829
▁마카오	-10.0829
▁커피	-10.083
▁무력	-10.0831
▁일리노이주	-10.0835
▁요	-10.0837
▁각국	-10.0844
▁추정	-10.0846
▁관	-10.0849
년이	-10.0857
했으	-10.0858
하다고	-10.0875
▁외교적	-10.0877
▁폭행	-10.0877
▁하게	-10.0892
빠진	-10.0893
▁64	-10.0894
▁영토	-10.0895
둔	-10.0898
▁혹	-10.0902
▁짐	-10.0903
▁퍼	-10.0904
▁공항에서	-10.0904
으면	-10.0907
▁의회에	-10.091
▁느끼	-10.0916
▁맞서	-10.0941
▁진실	-10.0944
▁일본이	-10.0947
▁불안	-10.0948
▁스웨덴	-10.0954
▁공원	-10.0955
▁재무장관	-10.0955
▁개방	-10.0957
▁반군이	-10.0958
▁소수	-10.0962
▁49	-10.0963
분의	-10.0999
▁시장에서	-10.1003
들어	-10.1005
▁환영	-10.1005
▁소유	-10.1006
▁그림	-10.1026
▁울	-10.1042
▁당신이	-10.1043
▁잡지	-10.1046
▁수용소	-10.1047
▁동반	-10.1062
▁회견	-10.1066
▁고려	-10.107
▁프리	-10.1071
▁체	-10.1073
▁japan	-10.1081
▁uefa	-10.1081
▁최선	-10.1082
▁페루	-10.1082
▁도입	-10.1083
▁카스트로	-10.1085
▁북측	-10.1088
▁기념	-10.1092
▁따라서	-10.1092
▁많다	-10.1095
▁공격에	-10.1095
▁가입	-10.1095
▁수상자	-10.1096
▁유리	-10.1099
▁체결	-10.11
▁레이	-10.1115
드시	-10.1118
▁점령	-10.1139
▁l	-10.1154
▁가능	-10.1157
▁이중	-10.1157
▁헤즈볼라	-10.1161
▁헤	-10.1166
▁이웃	-10.1177
▁66	-10.1186
▁다우존스	-10.1205
▁누군가	-10.1209
▁단순	-10.121
▁03	-10.121
▁어린이들	-10.1213
▁2010	-10.1213
▁삼성	-10.1215
▁거뒀다	-10.1217
▁구제	-10.1218
▁피트	-10.1218
▁하면	-10.122
▁토	-10.1223
▁일주일	-10.1224
▁크	-10.1226
불	-10.1226
▁고객	-10.1228
▁온난화	-10.1233
▁말했	-10.1241
▁공화국	-10.1244
ies	-10.1244
▁수집	-10.1245
▁설립	-10.125
외	-10.125
렸다	-10.1262
▁베이징에서	-10.1263
쯤	-10.1267
조원	-10.127
▁나갈	-10.1273
▁지시	-10.1279
▁중부	-10.1283
▁뛰어	-10.129
낼	-10.129
▁노력하고	-10.13
▁폐	-10.13
▁테	-10.1312
▁자리에서	-10.1313
ic	-10.1314
▁둘러	-10.1322
▁요원	-10.1326
▁촉구	-10.1326
▁말까지	-10.1333
▁서방	-10.1338
▁ioc	-10.1339
▁커플	-10.1339
▁기존	-10.1339
▁주지	-10.1341
▁가옥	-10.1341
▁복구	-10.1342
▁매각	-10.1342
▁네트워크	-10.1344
율	-10.1346
▁이뤄지	-10.1346
▁as	-10.1347
▁순방	-10.1347
▁다니엘	-10.1349
us	-10.1351
▁검색	-10.1352
료	-10.1353
▁주인공	-10.1364
메	-10.1365
들로	-10.1369
▁선언했다	-10.1382
▁철도	-10.1384
▁운항	-10.1387
20	-10.1396
▁수감자들	-10.1399
▁전날	-10.1402
▁성공적	-10.1402
▁교도소	-10.1405
▁사전	-10.1413
▁체제	-10.1413
▁기독교	-10.1414
▁결정에	-10.1416
▁실패했다	-10.1417
▁급	-10.1417
▁거부했다	-10.1417
▁앨범	-10.142
▁창	-10.1427
▁적용	-10.1428
했음	-10.1428
▁명단	-10.1439
▁고발	-10.1441
▁무대	-10.1442
쳐	-10.1446
▁장애	-10.1446
▁제시	-10.1447
▁희생자들	-10.1453
▁웨스트	-10.1454
▁힘들	-10.146
▁제도	-10.1464
▁행성	-10.1466
서는	-10.1467
▁정확히	-10.147
▁심지어	-10.147
▁완벽	-10.147
▁폴란드	-10.1471
▁철저	-10.1471
▁탐사	-10.1471
▁사담	-10.1472
▁고향	-10.1484
▁유전자	-10.1485
▁중대	-10.1487
▁계속되	-10.1487
▁부담	-10.1489
▁풀	-10.1492
▁오브	-10.1496
베	-10.1496
▁만일	-10.1501
▁54	-10.1504
▁내릴	-10.1505
▁연구원	-10.1511
페	-10.1516
▁수감자	-10.1533
광	-10.1534
▁정신	-10.1537
▁오스트리아	-10.1554
▁아래	-10.1556
▁국회의원	-10.156
▁경매	-10.1574
▁싱가포르	-10.1575
▁공산당	-10.158
▁대선에서	-10.1582
랑	-10.1583
시키기	-10.1585
▁소식이	-10.1585
▁증가하고	-10.1591
입	-10.1595
▁봄	-10.1597
▁발병	-10.1598
▁스리랑카	-10.1599
▁심슨	-10.1601
리아	-10.1602
▁pc	-10.1602
▁레알	-10.1604
▁혜택	-10.1614
▁실종된	-10.1618
▁폭탄이	-10.1627
▁질병	-10.1631
▁주기	-10.1635
▁빙하	-10.1636
▁보안군	-10.1637
▁추적	-10.1642
▁현상	-10.1651
▁한국에서	-10.1656
▁노출	-10.1661
▁줄어들	-10.1673
▁기다리고	-10.168
자가	-10.1687
▁포기	-10.1704
2009	-10.1707
▁그동안	-10.1711
▁법정	-10.1718
락	-10.1719
스타	-10.172
▁음반	-10.1724
▁경제에	-10.1729
▁런던에서	-10.1729
▁노벨	-10.1736
▁태양	-10.1738
▁숫자	-10.1739
▁철군	-10.174
려는	-10.174
▁무료	-10.174
▁상처	-10.1741
▁시작했	-10.1742
▁그래서	-10.1742
▁동티모르	-10.1742
▁발간	-10.1748
▁군정	-10.1749
▁호세	-10.1752
▁받아야	-10.1752
▁고대	-10.1753
▁안에서	-10.1754
▁국왕	-10.1756
▁뼈	-10.1756
▁부정적	-10.1759
활동	-10.176
▁부르	-10.1763
▁대회에서	-10.1774
순	-10.1778
류	-10.1788
▁납치된	-10.1793
▁피해가	-10.1795
▁근처	-10.1804
▁중국에	-10.1808
▁표했다	-10.1808
▁소환	-10.1808
칠	-10.1809
▁논란	-10.1809
▁의회에서	-10.1815
▁보인다고	-10.1823
▁달러에	-10.1826
책	-10.1827
▁유나이티드	-10.1827
▁발생하지	-10.183
▁안전한	-10.1831
▁매장	-10.1834
▁41	-10.1836
▁권한	-10.1847
▁청소년	-10.1847
▁가했다	-10.1849
▁낸	-10.1856
▁강조	-10.1857
▁강경	-10.1869
▁늘어	-10.1871
▁마찬가지	-10.1876
▁사우디아라비아	-10.1876
▁얻기	-10.1876
▁잃은	-10.1876
▁타이틀	-10.1876
▁아이디어	-10.1877
▁알래스카	-10.1879
▁주한미군	-10.1879
▁분명히	-10.1885
▁제공하는	-10.1892
▁하던	-10.1895
명에게	-10.1899
▁캘리포니아주	-10.1903
▁가는	-10.1906
▁절대	-10.1914
▁차관	-10.1915
▁이스라엘이	-10.1918
▁수상했다	-10.192
▁방글라데시	-10.1929
▁나이지리아	-10.1947
▁여자친구	-10.1967
▁베트남	-10.1968
▁시장에	-10.1971
▁신호	-10.1971
▁사인	-10.1976
찬	-10.1978
▁벌였	-10.198
▁지시했다	-10.1985
▁극	-10.1994
▁방향	-10.1997
▁폭격	-10.1999
▁해병대	-10.2005
▁뉴욕에서	-10.2008
▁습격	-10.201
▁붉은	-10.2014
▁라스베이거스	-10.2015
▁nato	-10.2015
▁농축	-10.2015
▁frb	-10.2015
▁공공	-10.2015
▁토마스	-10.2015
▁2012	-10.2018
▁보여줬다	-10.2018
▁크라이슬러	-10.2018
▁교사	-10.2022
▁난사	-10.2026
▁케이블	-10.2026
▁누리	-10.2028
▁불길	-10.2039
▁이사회	-10.204
쿠	-10.2045
▁방송국	-10.2047
▁첫번째	-10.205
문제	-10.2058
▁기대하고	-10.2058
분간	-10.2061
▁체계	-10.2063
▁캐	-10.2074
라운드	-10.2075
▁생각하는	-10.2076
▁gm	-10.2088
▁합동	-10.2105
▁실행	-10.2116
낸	-10.2122
컵	-10.2125
▁늘	-10.2129
▁찬	-10.2151
▁보관	-10.2155
▁선거에	-10.2155
▁태어난	-10.2156
▁엄격	-10.2156
ers	-10.2156
▁소요	-10.2157
▁항소	-10.2158
▁회원국	-10.216
▁신발	-10.216
▁현금	-10.2161
▁만난	-10.2161
▁세계은행	-10.2161
06	-10.2166
▁사회적	-10.2166
▁올린	-10.2173
▁열대	-10.2175
▁도시에서	-10.2177
▁싸움	-10.2183
▁이곳에	-10.2186
▁모여	-10.2193
▁보트	-10.2195
▁벤	-10.2196
▁다우	-10.2204
▁사라	-10.2205
▁라이트	-10.2206
▁앞에	-10.2208
▁겨울	-10.2209
▁형태	-10.2209
▁65	-10.221
▁과학자	-10.2218
▁남아공	-10.2221
▁지연	-10.2225
▁추방	-10.2229
▁한국에	-10.2231
▁챔피언스리그	-10.2235
▁61	-10.2235
빈	-10.2249
▁47	-10.225
▁다수	-10.2254
▁출석	-10.2257
▁생존	-10.2259
세인	-10.2265
▁위로	-10.2268
때	-10.2269
쇼	-10.2273
▁감독이	-10.2279
▁승리한	-10.2283
▁39	-10.2285
▁본사	-10.2288
▁민감	-10.2291
▁챔피언	-10.2291
▁입증	-10.2297
▁블랙	-10.2298
▁맞춰	-10.2298
▁앓고	-10.2298
▁논평	-10.2299
▁외환은행	-10.2299
▁두바이	-10.2299
▁빛	-10.2299
▁데이터	-10.2299
▁공포	-10.23
▁모기지	-10.2303
▁이사	-10.2304
▁마쳤다	-10.2306
▁높아지	-10.2307
▁쓰나미	-10.2307
▁발전소	-10.2307
▁의회의	-10.231
▁유치	-10.2311
▁아메리칸	-10.2312
▁지속적	-10.2316
▁한때	-10.2317
▁초점	-10.2321
▁기준	-10.2323
▁130	-10.2328
▁팬	-10.234
▁가졌	-10.2343
▁수업	-10.2349
ar	-10.2351
▁plan	-10.2354
▁에도	-10.2355
▁봤다	-10.2358
▁접	-10.2365
▁복용	-10.2366
▁3000	-10.2384
힐	-10.2385
▁보고서에서	-10.2386
▁중독	-10.2388
▁시청	-10.239
▁면	-10.2396
▁세상	-10.2397
족	-10.2398
조차	-10.2399
▁고어	-10.2403
▁경쟁자	-10.2403
▁여성의	-10.2404
봉	-10.2409
▁전개	-10.242
▁악화	-10.2423
▁테러리스트	-10.2426
▁크리스	-10.2428
▁이양	-10.2431
▁성화봉송	-10.2435
▁일리노이	-10.2436
▁콜	-10.2442
▁스코틀랜드	-10.2443
▁일으킨	-10.2443
▁휴대전화	-10.2443
▁회동	-10.2444
▁디자인	-10.2444
▁무죄	-10.2445
▁하원의원	-10.2446
▁유감	-10.2446
▁서신	-10.2447
▁이후로	-10.2448
▁예비	-10.2448
▁파산	-10.2448
▁총격전	-10.2455
▁업계	-10.2456
▁만들어진	-10.2459
▁갖게	-10.2461
▁nu	-10.2462
▁소설	-10.2464
▁클린턴이	-10.2465
▁신부	-10.2465
▁있다면	-10.247
▁보낼	-10.2476
▁금요일	-10.248
▁프로	-10.2493
▁불러	-10.2494
▁제대	-10.2494
▁뿐만	-10.2495
▁재단	-10.2508
▁아동	-10.2513
관계	-10.2515
▁세포	-10.2516
▁값	-10.252
▁사망자수	-10.2523
▁억류	-10.2528
▁지휘	-10.2533
창	-10.2537
▁파예드	-10.2547
조치	-10.2554
기관	-10.2561
▁자극	-10.2562
▁주목	-10.2568
▁훼손	-10.257
▁거쳐	-10.2574
▁주한	-10.2576
▁직면	-10.2584
▁59	-10.2586
▁폐기	-10.2587
▁국	-10.2587
▁와인하우스	-10.2591
▁합병	-10.2591
▁1994	-10.2591
▁1970	-10.2593
▁김대중	-10.2594
▁응답자	-10.2598
▁62	-10.2598
▁추정된다	-10.2598
▁이라크군	-10.2599
▁오늘날	-10.26
▁잇	-10.2604
▁예수	-10.2606
▁동성애자	-10.2615
로운	-10.2617
▁전쟁에	-10.2622
▁발생하는	-10.2631
▁대상	-10.2635
▁마감했다	-10.2638
▁기본	-10.2644
▁않기	-10.2646
▁법원에	-10.2649
▁호텔에서	-10.2657
▁의미한다	-10.2662
▁가구	-10.2667
▁못한다	-10.2676
▁폭발물	-10.2678
▁고등학교	-10.2678
▁참석했다	-10.2683
▁탈출	-10.2684
▁식당	-10.2684
▁북동부	-10.2685
수가	-10.2687
지에	-10.2696
들도	-10.2697
▁주석	-10.2701
▁우주비행사	-10.2716
▁지역으로	-10.2719
▁영화제	-10.272
정부	-10.272
▁빚	-10.2723
▁프로그램에	-10.2723
▁회원	-10.2723
ch	-10.2724
되면	-10.2728
수록	-10.273
▁것이었다	-10.273
▁플레이	-10.2733
▁찾을	-10.274
통신	-10.274
▁송환	-10.274
▁테스트	-10.2741
▁고위관리	-10.2741
▁우리나라	-10.2742
▁나올	-10.2743
▁노동당	-10.2743
▁위조	-10.2746
▁논란이	-10.2747
▁기반	-10.2747
▁의무	-10.2752
해줄	-10.2752
▁펼쳤다	-10.2752
▁it	-10.2758
▁일하	-10.2759
▁보유하고	-10.2759
섬	-10.276
▁살아	-10.276
▁개장	-10.2762
▁곳이	-10.2763
랜드	-10.2764
▁식품	-10.2766
▁당수	-10.2769
예	-10.277
▁비교	-10.2774
▁비용이	-10.2776
▁아니었다	-10.2778
▁점차	-10.2779
▁물건	-10.278
▁의지	-10.278
▁아프가니스탄에서	-10.2789
▁700	-10.2795
결	-10.2796
▁제기했다	-10.2797
▁차지	-10.2804
독	-10.2806
▁저항	-10.2806
▁지하	-10.2809
▁보수	-10.2812
▁연결	-10.2821
▁이내	-10.2823
▁신체	-10.2823
만큼	-10.2825
▁자유롭	-10.2839
▁주인	-10.2839
절	-10.2842
건의	-10.2842
▁주문	-10.2844
▁혐의에	-10.2847
회의	-10.2852
▁달성	-10.2857
겐	-10.2871
▁유력	-10.2883
▁가슴	-10.2891
▁샤라포바	-10.2891
▁선거캠프	-10.2891
▁옆에	-10.2891
▁저지른	-10.2892
▁다윈	-10.2892
▁종류	-10.2892
▁강풍	-10.2892
▁숀	-10.2893
▁헨리	-10.2893
▁주장에	-10.2895
▁여권	-10.2895
▁대량	-10.2896
▁예전	-10.2896
▁신중	-10.2897
▁이루어졌다	-10.29
▁왕세자	-10.2914
▁슈	-10.2918
놓고	-10.292
▁서명	-10.2921
▁분석가	-10.2922
▁콩고	-10.2925
▁이라크와	-10.2928
관리	-10.2929
▁사용자	-10.2936
▁감정	-10.2937
▁사용한	-10.2942
범	-10.2956
▁색	-10.2959
▁책임이	-10.2963
▁구입	-10.2964
▁발언에	-10.2981
▁동의	-10.2989
뿐	-10.2997
▁지켜	-10.2999
려고	-10.3002
9	-10.3011
▁보지	-10.3011
ia	-10.3021
▁지목	-10.3022
▁샌프란시스코	-10.3023
먼	-10.3025
▁압둘	-10.3037
레이	-10.3043
▁경기장	-10.3044
▁요르단	-10.3044
▁자원	-10.3044
▁외교통상부	-10.3045
▁섹스	-10.3045
▁곤잘레스	-10.3045
▁남서부	-10.3045
▁블라디미	-10.3045
▁불능화	-10.3045
▁방화	-10.3046
▁공항에	-10.3046
▁왕실	-10.3047
▁직전	-10.305
▁상태에	-10.3051
뿐만	-10.3053
▁낸시	-10.3053
사건	-10.3059
▁노예	-10.3059
▁의문	-10.3064
▁만났다	-10.3073
▁철회	-10.3075
탈	-10.3076
베나	-10.3077
▁머	-10.3083
▁법안이	-10.309
▁생긴	-10.3092
▁부여	-10.3092
▁집으로	-10.3093
블	-10.3104
▁회사가	-10.3107
▁백악관에서	-10.3111
▁활주로	-10.313
▁업무	-10.313
▁기금	-10.3135
▁얼음	-10.3135
▁숨졌	-10.3138
▁케	-10.3152
▁크루즈	-10.3158
▁세계적	-10.3163
▁물가	-10.3164
▁방법이	-10.3173
▁no	-10.3174
▁복잡	-10.3176
▁에어버스	-10.3186
움	-10.3187
▁엄청	-10.3188
▁위에	-10.3189
명도	-10.3189
▁취재	-10.3198
▁리처드	-10.3198
▁근	-10.3201
▁나스닥	-10.3201
▁원문기사	-10.3202
▁불편	-10.3202
▁핵프로그램	-10.3202
▁산사태	-10.3202
▁천재	-10.3203
▁유출	-10.3203
▁대답	-10.3204
▁다우지수	-10.3204
자로	-10.3205
▁government	-10.3205
▁개표	-10.3206
▁법무부	-10.321
▁기상	-10.3211
▁전세계적으로	-10.3211
▁진영	-10.3217
▁들어갔다	-10.3219
이기	-10.322
▁벗어나	-10.3221
▁120	-10.3231
▁것이고	-10.3249
▁정신적	-10.3256
▁우리당	-10.326
▁리드	-10.3267
▁케리	-10.3269
▁보는	-10.3271
▁미국측	-10.3274
▁오바마와	-10.328
▁조기	-10.3282
규	-10.3288
▁못해	-10.33
▁바르셀로나	-10.3303
▁시티	-10.3304
▁흡연	-10.3309
▁전원	-10.3323
▁시기에	-10.3324
▁주었다	-10.3325
▁경영	-10.333
▁돌아오	-10.3338
히려	-10.334
▁전해	-10.3342
▁논의하기	-10.3346
대에	-10.3347
목	-10.3347
▁조성	-10.3354
▁57	-10.3358
▁패션	-10.3359
▁코미디	-10.336
▁토네이도	-10.336
▁디지털	-10.336
▁가택연금	-10.336
▁겨냥	-10.336
▁활약	-10.336
▁라이벌	-10.336
▁간단	-10.336
▁새벽	-10.3361
▁abc	-10.3361
▁임금	-10.3361
▁무선	-10.337
▁화해	-10.3371
▁오염	-10.3376
▁떠났다	-10.3377
▁단어	-10.338
▁공개된	-10.3382
▁답했다	-10.3383
▁교환	-10.3383
▁맥주	-10.3387
▁소문	-10.3387
▁혁명	-10.3388
▁재건	-10.3398
▁북쪽	-10.3399
▁병사들	-10.3403
▁허	-10.3404
▁진술했다	-10.3412
▁형제	-10.3415
은행	-10.3418
▁가능하다	-10.342
▁자신에게	-10.3433
▁달라	-10.3441
▁유대인	-10.3442
▁몰	-10.3443
▁맡은	-10.3444
▁시민들이	-10.3448
▁적극적	-10.3454
세로	-10.3457
▁보유	-10.3465
▁비치	-10.3468
▁공중	-10.3469
시켰	-10.3474
▁해양	-10.3477
▁총장은	-10.3478
시에	-10.348
▁감염된	-10.3484
머	-10.3486
▁증가한	-10.3498
▁그렇지	-10.3504
▁했었다	-10.3504
▁해변	-10.3511
희	-10.3511
딘	-10.3515
▁이행	-10.3516
각	-10.3517
▁완전한	-10.3521
▁비타민	-10.3521
▁호랑이	-10.3521
▁결선투표	-10.3521
clear	-10.3521
▁받아들일	-10.3521
▁쓰촨성	-10.3522
▁자치정부	-10.3522
▁케빈	-10.3522
▁축소	-10.3523
▁조류	-10.3523
▁벨기에	-10.3524
▁인근에	-10.3524
▁상공	-10.3526
▁진화	-10.3526
▁카터	-10.3526
▁후보들	-10.3527
▁선발	-10.3527
▁전환	-10.3535
▁진전	-10.3541
▁분명	-10.3542
▁연구팀	-10.3547
▁방영	-10.3547
▁인류	-10.3548
▁거리에	-10.3555
▁95	-10.3556
▁물이	-10.3564
▁국민들에게	-10.3571
▁시장이	-10.3571
▁평가했다	-10.3572
▁리그	-10.3576
▁차량에	-10.3585
▁급속	-10.3585
▁영국인	-10.3587
더라	-10.359
ra	-10.3599
▁격렬	-10.3599
턴	-10.3599
▁하락세	-10.3604
플	-10.3614
▁상승세	-10.3616
▁허락	-10.3616
▁회의에서	-10.3626
▁모스크바	-10.3627
▁중요	-10.3629
▁스키	-10.3629
▁했습니다	-10.3629
▁급등	-10.3631
주일	-10.3632
▁리조트	-10.3632
▁구출	-10.3646
▁노인	-10.3646
영화	-10.3648
▁이재민	-10.3667
▁불과	-10.3668
▁즉각	-10.3669
▁시한	-10.367
계획	-10.3672
▁포경	-10.3674
올	-10.3677
▁늦게	-10.3685
▁마이애미	-10.3685
▁블라고예비치	-10.3685
▁쌍둥이	-10.3685
▁천연가스	-10.3685
▁from	-10.3685
▁다섯	-10.3685
▁거듭	-10.3685
▁영웅	-10.3686
▁급격	-10.3686
▁사살	-10.3687
▁체코	-10.3687
▁부근	-10.3689
▁악어	-10.3689
▁경력	-10.3691
▁잡고	-10.3692
▁리히터	-10.3695
▁생각했다	-10.3709
▁연금	-10.3709
▁알카에다와	-10.371
▁강타	-10.3711
▁이끌어	-10.3718
▁증권	-10.3719
▁재무부	-10.3719
▁자사	-10.3722
▁린	-10.3723
▁비판했다	-10.3726
▁그리	-10.373
▁니	-10.3731
▁수퍼	-10.3739
▁공유	-10.3739
▁구조대	-10.376
▁사람에게	-10.376
▁로한	-10.3762
▁중순	-10.3763
령	-10.3765
▁아프간에서	-10.3766
▁기계	-10.3768
킬	-10.3772
▁증명	-10.378
샤	-10.3782
▁전역에	-10.3783
사를	-10.3784
▁차량이	-10.3787
▁시드니	-10.3789
세트	-10.3792
▁말해	-10.3798
▁인생	-10.3804
▁연구에	-10.3809
정책	-10.3811
ation	-10.3816
▁나왔	-10.3816
▁은퇴	-10.3818
분에	-10.3819
▁요소	-10.3829
▁장면이	-10.3829
▁건축	-10.384
손	-10.3843
▁국민들이	-10.3845
▁minister	-10.3852
▁pkk	-10.3852
▁비핵화	-10.3852
▁얻을	-10.3852
▁캄보디아	-10.3852
▁키바키	-10.3852
▁오딩가	-10.3852
▁패트릭	-10.3852
▁수석대표	-10.3852
▁아이폰	-10.3854
▁법무장관	-10.3854
▁견해	-10.3855
▁투표에서	-10.3856
▁언어	-10.3857
▁초반	-10.3857
▁터	-10.386
▁들어오	-10.3862
▁이뤄졌다	-10.3863
▁얻어	-10.3863
▁world	-10.3865
▁나오지	-10.3869
세가	-10.3873
▁의석	-10.3875
▁일제	-10.3875
▁티	-10.3876
▁상태로	-10.3878
▁것인가	-10.3878
▁대학교	-10.3879
▁움직이	-10.3882
▁총상	-10.3888
▁일간지	-10.3889
▁노선	-10.3892
▁민주	-10.3897
▁바다	-10.3901
▁파악	-10.3902
▁만들기	-10.3903
▁격	-10.3913
▁당국자	-10.392
▁눈에	-10.3924
▁제조업체	-10.3928
▁내놓	-10.393
▁홍수로	-10.3932
▁외교관	-10.3934
▁노스캐롤라이나	-10.3938
킨	-10.3938
▁지속	-10.3941
▁수영	-10.3945
▁계획은	-10.3947
패	-10.3953
▁교	-10.3955
▁백인	-10.3967
▁홀	-10.3967
▁위대	-10.3968
빌	-10.3969
▁야기	-10.3971
▁청문회	-10.3973
▁정지	-10.3984
▁설득	-10.3989
▁출동	-10.3992
ir	-10.4001
▁측근	-10.4002
▁검거	-10.4008
▁채택	-10.4009
완	-10.402
▁골키퍼	-10.4021
▁몸에	-10.4021
▁아메리카	-10.4021
▁필라델피아	-10.4021
▁인플레이션	-10.4021
▁둘러싸	-10.4021
▁보스턴	-10.4022
▁china	-10.4022
▁로이터	-10.4022
▁1996	-10.4022
되어야	-10.4023
▁영업	-10.4023
▁단어장	-10.4023
▁폭설	-10.4023
▁분열	-10.4023
▁체중	-10.4023
▁무엇보다	-10.4025
▁재난	-10.4028
▁쌀	-10.4029
▁다음날	-10.4029
▁행복	-10.4031
▁여행객	-10.4032
▁폭스	-10.4032
▁입원	-10.4034
▁나누	-10.4039
▁날짜	-10.4041
▁호수	-10.4042
▁독도	-10.4044
▁가동	-10.4047
▁소위	-10.405
▁전역	-10.4067
▁날개	-10.407
▁엔	-10.407
▁미국인들이	-10.407
이어	-10.408
▁out	-10.4081
▁가족과	-10.4086
▁방식으로	-10.4087
▁67	-10.4095
▁데에	-10.4111
름	-10.4115
▁답	-10.4121
10	-10.4121
▁작동	-10.4124
▁지점	-10.4129
▁같	-10.4137
▁확인됐다	-10.4139
▁치러	-10.414
▁파티	-10.4142
▁단체들	-10.4147
▁측정	-10.415
▁보내는	-10.4152
극	-10.4155
▁언론에	-10.4155
▁대상이	-10.4156
▁보호하기	-10.4158
▁데이	-10.4159
위인	-10.4165
국가	-10.4165
▁그대로	-10.4166
▁년간	-10.417
▁하와이	-10.4175
▁공사	-10.4175
렛	-10.4177
▁직업	-10.4178
▁획득	-10.4178
▁이루어지	-10.4182
▁월요일에	-10.4186
▁세력이	-10.4186
▁보고서에	-10.4187
ial	-10.4192
▁왼쪽	-10.4194
▁좋다	-10.4194
▁남자친구	-10.4194
▁사생활	-10.4195
▁1995	-10.4195
▁할머니	-10.4195
▁택시	-10.4196
▁징역형	-10.4196
▁his	-10.4196
▁우리에게	-10.4199
▁타임스	-10.42
필드	-10.4201
▁공개적으로	-10.4203
연합	-10.4204
피트	-10.4206
▁델	-10.4206
▁over	-10.4207
▁중지	-10.4212
▁04	-10.4212
▁여론조사에서	-10.4216
▁채널	-10.4217
▁여학생	-10.422
▁지내	-10.4225
▁영장	-10.4229
▁전부터	-10.4232
졌	-10.4234
▁이에따라	-10.4246
▁극장	-10.4254
격	-10.4255
▁기소됐다	-10.4256
09	-10.4258
슈	-10.4268
▁58	-10.4268
▁기다리	-10.4272
▁생일	-10.4279
▁특파원	-10.4285
▁구조대원들	-10.4286
스터	-10.4287
해주	-10.4289
▁중이었다	-10.4294
엘	-10.4295
▁싶어	-10.4301
당한	-10.4301
▁메일	-10.4303
▁스톤	-10.4303
▁일본과	-10.4312
정도	-10.4313
▁사용했다	-10.432
▁갔다	-10.4322
▁문제의	-10.4322
▁진행자	-10.4327
▁뒤에	-10.4328
▁부상으로	-10.4328
항	-10.433
▁연관	-10.4334
▁up	-10.4335
▁금리	-10.4337
▁미군과	-10.434
▁위협이	-10.4341
▁순찰	-10.4342
▁인사들	-10.4345
▁대피했다	-10.4347
▁인디애나	-10.4348
▁보잉	-10.4357
▁잔	-10.4358
▁시점	-10.436
내내	-10.4362
▁세워	-10.4363
▁골프	-10.4365
리스	-10.4365
▁뿌리	-10.4369
▁선관위	-10.4369
▁코끼리	-10.4369
▁hiv	-10.4369
▁균형	-10.437
▁탄압	-10.437
립니다	-10.437
j	-10.437
▁군은	-10.437
▁1993	-10.437
▁주최측	-10.4372
카운티	-10.4375
▁시내	-10.4376
▁화재로	-10.4376
▁정식	-10.4377
▁기온	-10.4377
다시	-10.438
▁폭락	-10.4383
개발	-10.4386
▁시각	-10.4386
▁보여준다	-10.4386
▁화	-10.4389
▁명예	-10.439
▁중단했다	-10.439
▁양국간	-10.4391
▁부총리	-10.4393
▁표명했다	-10.4394
▁수사관들	-10.4396
▁파손	-10.4396
▁이란과	-10.4399
▁사태에	-10.4406
ese	-10.4407
▁현실	-10.4409
▁문제들	-10.4411
▁한국이	-10.4412
▁물에	-10.4414
▁받는다	-10.4416
▁73	-10.4421
▁낼	-10.4422
▁제작한	-10.4423
대학	-10.4431
▁이론	-10.4433
▁순위	-10.4433
▁응	-10.4434
▁남부에서	-10.4435
▁근로자	-10.4438
▁것임	-10.4446
▁바라	-10.4449
▁기대한다	-10.4456
▁운송	-10.4458
하고자	-10.4458
▁폭발이	-10.4475
열	-10.4478
▁마무	-10.4479
▁예루살렘	-10.4483
▁아이오와	-10.4485
▁참여한	-10.4486
▁거주	-10.4488
▁음	-10.4492
▁발생하고	-10.4499
▁최근에	-10.4499
▁밀	-10.4502
▁식	-10.4503
▁돼지	-10.451
셔	-10.4511
▁공기	-10.4513
▁기록한	-10.4514
같은	-10.4516
▁이루	-10.4517
▁조합	-10.4519
re	-10.4525
▁쓴	-10.4526
▁사람들과	-10.4528
▁디즈니	-10.4536
▁리차드	-10.4541
▁쇼핑	-10.4545
▁에드	-10.4546
▁밴드	-10.4548
▁알렉산더	-10.4548
▁이산화탄소	-10.4548
▁탱크	-10.4548
▁후진타오	-10.4548
▁중앙일보	-10.4548
▁은신처	-10.4548
▁교통사고	-10.4548
▁예멘	-10.4548
▁소규모	-10.4548
▁사찰단	-10.4549
▁성격	-10.455
▁만남	-10.455
▁보복	-10.455
▁브랜드	-10.455
▁정치인	-10.455
항공	-10.4552
▁제목	-10.4552
▁관계당국	-10.4552
▁밥	-10.4556
▁원화	-10.4558
▁성장률	-10.4559
▁아난	-10.456
▁폭파	-10.4561
▁미칠	-10.4566
▁기차	-10.4569
▁본선	-10.4572
▁일으켰다	-10.4573
▁화학	-10.458
▁표시	-10.4583
▁타이	-10.4586
▁코트	-10.4588
주는	-10.4591
▁일어났다	-10.4593
▁올려	-10.4601
▁수위	-10.4605
▁참석할	-10.4617
익	-10.4619
▁월드	-10.4627
▁애도	-10.463
▁크리스티	-10.4631
▁선포했다	-10.4633
▁예상되	-10.4634
▁수십명	-10.4635
▁전통적	-10.4645
해지	-10.4647
▁북서부	-10.4656
▁들여	-10.4657
▁근로자들	-10.4657
▁무엇	-10.4658
한번	-10.4661
▁해결책	-10.4664
▁한국인들	-10.4668
▁통신이	-10.4679
▁국방	-10.4681
▁오사마빈라덴	-10.4689
▁고립	-10.4704
▁과도	-10.4705
▁감소했다	-10.4706
잔	-10.4712
▁군사적	-10.4716
▁스테	-10.4717
▁발굴	-10.4724
▁not	-10.4726
▁복무	-10.4729
▁맞는	-10.473
▁재검토	-10.473
▁돌고래	-10.473
▁1991	-10.473
▁케이트	-10.4731
▁화려	-10.4732
▁해안에서	-10.4732
▁라덴	-10.4732
▁판정	-10.4733
▁거부권	-10.4733
▁감바리	-10.4734
▁개정안	-10.4734
▁승려들	-10.4737
벌	-10.4742
▁리치	-10.4742
▁경찰서	-10.4743
▁day	-10.4745
▁비교적	-10.4745
▁특수	-10.4746
▁늘어나	-10.4747
▁재판관	-10.4749
▁인원	-10.475
▁수상한	-10.475
▁투쟁	-10.475
현	-10.4753
▁배가	-10.4757
▁신사	-10.4766
▁도착한	-10.4771
▁자신과	-10.4775
▁가족이	-10.4775
▁수리	-10.4778
▁사냥	-10.478
▁북쪽으로	-10.478
▁프레스	-10.4782
▁희생	-10.4784
▁pa	-10.4788
▁관계에	-10.4798
없이	-10.4798
▁근처에서	-10.4807
▁비난하는	-10.4817
▁입을	-10.482
▁방송사	-10.4822
▁테러와	-10.4823
▁총회	-10.4833
▁손에	-10.4834
▁론	-10.4836
▁화장실	-10.4836
▁연주	-10.4838
▁중재	-10.4841
▁세계적으로	-10.4842
▁의사들	-10.4851
▁고객들	-10.4852
▁유럽의	-10.4857
천만	-10.486
▁76	-10.4861
달라고	-10.4862
▁지원할	-10.4866
겨	-10.4868
▁일본에	-10.4869
술	-10.4877
▁72	-10.4887
▁일찍	-10.4887
▁나에게	-10.4895
아야	-10.4895
▁제출했다	-10.4895
▁정의	-10.4896
▁이란에	-10.4902
▁천주교	-10.491
▁알코올	-10.4911
▁보험	-10.4913
▁옮겨	-10.4914
▁dvd	-10.4915
▁돕기	-10.4915
▁뭄바이	-10.4915
▁스트레스	-10.4915
▁테일러	-10.4915
▁펀드	-10.4915
▁침공	-10.4915
▁거짓말	-10.4915
▁show	-10.4916
▁과반수	-10.4916
▁관영	-10.4916
▁동생	-10.4916
▁줄리아니	-10.4916
▁신규	-10.4916
▁경관	-10.4917
▁수사관	-10.4918
▁범행	-10.4919
▁인종	-10.4919
▁화상	-10.492
▁초청	-10.4921
▁음주	-10.4921
▁기쁘다	-10.4921
▁마리아	-10.4924
▁항구	-10.4924
젠	-10.4931
▁치명적인	-10.4931
▁보여주고	-10.4935
▁운전사	-10.4938
▁단속	-10.4938
▁달러화	-10.4939
▁불구	-10.4939
▁묻	-10.4941
▁해도	-10.4946
▁주장한	-10.4953
▁누르	-10.496
▁진행되는	-10.4968
▁예를들	-10.4968
▁쓰고	-10.4969
듯	-10.4969
▁살해했다	-10.4969
▁최고치	-10.4973
▁실시할	-10.4976
▁항의하	-10.4988
▁근거로	-10.4994
어야	-10.4995
▁주장한다	-10.4998
▁충돌이	-10.4998
▁계속될	-10.5006
심한	-10.5008
▁결과에	-10.5008
▁면담	-10.5015
▁미스	-10.5017
▁냈다	-10.5021
▁여성들이	-10.5023
▁행사에	-10.5024
▁st	-10.5032
▁제공할	-10.5033
▁해산	-10.5045
▁국가에서	-10.5051
습	-10.5056
▁경호원	-10.5063
▁원숭이	-10.5063
▁끝나	-10.5064
리는	-10.5069
▁파도	-10.5074
담	-10.5075
▁서장	-10.5078
▁배경	-10.5081
▁하루에	-10.5085
▁차단	-10.5089
▁덮	-10.5094
▁키스	-10.5096
▁진단	-10.5097
혜	-10.5098
▁최저	-10.5099
▁초대	-10.5099
▁마라톤	-10.51
▁사용하지	-10.5101
▁광범위	-10.5103
▁샌디에이고	-10.5103
▁에콰도르	-10.5103
▁횡령	-10.5103
▁메르켈	-10.5104
▁전당대회	-10.5104
▁난민촌	-10.5104
▁귀환	-10.5104
▁가족들이	-10.5105
▁뇌물	-10.5107
▁안전보장이사회	-10.5108
▁당초	-10.5109
들로부터	-10.5109
취	-10.511
▁시체	-10.5112
▁마친	-10.5112
자와	-10.5112
▁스타일	-10.5117
▁하미	-10.512
▁하늘	-10.5124
▁토론회	-10.5125
▁서울시	-10.5129
▁정원	-10.5129
▁차지하고	-10.513
▁딕	-10.5131
▁스타디움에서	-10.5135
▁넓	-10.5136
▁형사	-10.5136
▁텍사스주	-10.5136
▁운영하고	-10.5138
▁와인	-10.5139
▁로비	-10.5143
▁토지	-10.5144
▁일에	-10.515
▁하나로	-10.515
▁실종자	-10.5151
▁맡고	-10.5159
▁하락한	-10.5161
▁보게	-10.5165
▁든	-10.517
▁봉쇄	-10.5178
▁유럽에서	-10.5178
▁마시	-10.5178
▁만화	-10.5178
▁조각	-10.5199
▁평	-10.5202
▁학교에	-10.5204
흐	-10.5204
▁회원국들	-10.5204
▁수립	-10.5207
▁정책에	-10.5208
▁놀	-10.5209
▁열어	-10.5211
▁끌어	-10.5213
▁극복	-10.5214
▁경험이	-10.5217
▁흔들	-10.522
▁딸이	-10.5221
랜	-10.5223
▁아들이	-10.5225
▁선원	-10.5226
▁레스토랑	-10.523
▁합	-10.5233
▁이용하는	-10.5234
▁보냈	-10.5242
▁윌	-10.5245
▁수송	-10.5245
▁전부	-10.5245
▁교도소에	-10.5246
▁69	-10.5248
▁내렸	-10.5255
▁하나인	-10.5258
▁동쪽	-10.526
▁내리	-10.5267
▁발견한	-10.5275
380	-10.5276
▁탈	-10.5277
▁거두	-10.5277
▁승무원들	-10.5279
▁북미	-10.528
▁자제	-10.5282
▁실적	-10.5282
▁데일리	-10.5283
▁후보자	-10.5285
▁적십자	-10.5286
▁친구들	-10.5288
▁곡	-10.5289
▁탄핵	-10.5293
렸	-10.5296
▁매니저	-10.5296
▁애완견	-10.5296
▁펠로시	-10.5296
▁롬니	-10.5296
▁국제원자력기구	-10.5296
▁줄기세포	-10.5296
▁소련	-10.5296
▁party	-10.5296
▁옐친	-10.5296
▁통일부	-10.5297
▁탄생	-10.5297
▁창문	-10.5297
▁레이건	-10.53
▁are	-10.5301
▁obama	-10.5301
▁최저치	-10.5301
분만에	-10.5314
됐었다	-10.5318
▁인근에서	-10.5322
왔	-10.5327
▁구금	-10.5328
▁이송	-10.5328
▁공개됐다	-10.5328
▁전달했다	-10.5329
▁있어야	-10.5336
▁고소	-10.5338
▁달린	-10.5338
▁보일	-10.5338
▁분리	-10.534
▁필요성	-10.534
▁침몰	-10.534
▁이름이	-10.534
기에	-10.534
▁2500	-10.5344
▁다르다	-10.5346
▁증세	-10.5346
▁니콜	-10.5348
▁작업에	-10.5352
▁무게	-10.5352
▁거절했다	-10.5361
▁요금	-10.5362
▁강요	-10.5363
▁지점에서	-10.5364
▁출연한	-10.5369
▁원칙	-10.537
▁확신한다	-10.537
▁던지	-10.5371
▁md	-10.5374
▁콘	-10.5378
▁물품	-10.5381
▁실망	-10.539
v	-10.5392
세력	-10.5394
▁지정	-10.5401
▁사용해	-10.5403
만개	-10.5408
주의자	-10.5413
▁지지한다	-10.5414
▁소식통이	-10.5415
▁중단할	-10.5427
▁성직자	-10.5429
기가	-10.5429
▁노동자들	-10.5431
▁미치는	-10.5433
▁위협하	-10.5435
▁경비	-10.5436
▁주식시장	-10.5436
▁협박	-10.5437
▁적절	-10.544
제도	-10.544
▁일어났	-10.5445
▁팀이	-10.5459
▁웃	-10.5463
▁동의했다	-10.5466
▁심의	-10.5476
▁무슬림	-10.5478
▁맞추	-10.5481
▁엔진	-10.5482
닝	-10.5489
▁68	-10.5489
▁구축	-10.549
▁황금	-10.5491
닷컴	-10.5492
▁다큐멘터리	-10.5492
▁듣고	-10.5492
▁식료품	-10.5492
▁프랭크	-10.5492
▁확장	-10.5492
▁유혈사태	-10.5492
▁예비선거	-10.5492
▁일어날	-10.5492
▁로딕	-10.5494
▁저희	-10.5494
▁1960	-10.5494
▁테러범	-10.5494
▁리처드슨	-10.5496
▁접전	-10.5496
▁드러냈다	-10.5498
▁신문사	-10.5505
▁예정인	-10.5506
▁잡스	-10.5509
▁조용	-10.551
▁나타내	-10.5512
▁인력	-10.5512
▁무어	-10.5512
▁행	-10.5513
곤	-10.5514
▁계좌	-10.5514
▁쿠퍼	-10.5514
▁화요일에	-10.5515
▁깊이	-10.5517
▁발견되었다	-10.5518
테러	-10.5519
7000	-10.5522
▁비율	-10.5522
▁1500	-10.5524
▁즐기	-10.5524
▁합의한	-10.5525
스키	-10.553
▁중간	-10.5531
받았다	-10.5531
▁확정	-10.5536
▁자택에서	-10.5538
▁위안부	-10.5541
▁예정이었다	-10.5541
▁요리	-10.5542
▁국민의	-10.5547
▁연구원들	-10.555
▁알지	-10.5557
레스	-10.5557
▁여지	-10.5559
▁최	-10.5566
단계	-10.5576
▁협상에	-10.5579
▁레드	-10.558
▁조건으로	-10.5585
▁해병	-10.5601
▁조명	-10.5602
▁소집	-10.5604
▁악	-10.561
▁투표에	-10.5615
▁않았던	-10.5615
▁부서	-10.5619
▁주제	-10.562
▁돌아	-10.5621
▁방문하는	-10.5627
▁절	-10.5629
▁교황은	-10.5632
▁스턴	-10.5632
드는	-10.5633
점으로	-10.5639
▁71	-10.5641
▁대립	-10.5643
▁걸린	-10.5661
▁생각이	-10.5667
▁녹	-10.5672
▁먼	-10.5673
▁건물이	-10.5673
▁마이크로소프트	-10.5675
장에서	-10.5678
▁표명	-10.5679
▁올리	-10.5685
▁휴	-10.5686
사가	-10.5689
▁운전자	-10.5691
▁먹이	-10.5692
▁배터리	-10.5692
▁오토바이	-10.5692
▁윔블던	-10.5692
▁파바로티	-10.5692
▁빠질	-10.5692
▁플라스틱	-10.5692
▁라파엘	-10.5692
▁앤드류	-10.5692
▁mbc	-10.5692
▁암컷	-10.5692
▁nba	-10.5692
▁득표율	-10.5692
▁솔직	-10.5692
▁기밀	-10.5693
▁일본인	-10.5693
▁생방송	-10.5693
▁오마르	-10.5694
▁백신	-10.5694
▁통증	-10.5694
▁끝날	-10.5695
25	-10.5695
▁실업률	-10.5695
▁다국적군	-10.5695
▁이뤄진	-10.5695
▁멀리	-10.5696
▁생물	-10.5696
▁숲	-10.57
▁조지아주	-10.57
해왔	-10.5701
▁부실	-10.5704
▁문제와	-10.5704
▁거절	-10.5707
▁요인	-10.5708
▁빌딩	-10.5709
▁알렸다	-10.5709
랄	-10.571
▁미디어	-10.571
▁식사	-10.5711
▁자본	-10.5716
시키려	-10.5718
▁news	-10.5718
▁관찰	-10.5718
▁생산량	-10.5719
▁달려	-10.572
▁피부	-10.572
▁동일한	-10.5722
됨	-10.5723
▁플로리다주	-10.5724
4000	-10.5726
사태	-10.5728
▁촬영한	-10.5728
▁외치	-10.5732
▁워	-10.5733
▁분석가들은	-10.5736
▁레바논군	-10.5741
위의	-10.5741
▁위원	-10.5743
▁출판	-10.5743
▁짓	-10.5744
▁치러지	-10.5749
▁졸리	-10.5756
▁부과	-10.5757
▁검은	-10.5759
▁이어지	-10.576
▁결과로	-10.5761
▁국기	-10.5777
▁발표됐다	-10.578
▁쉽지	-10.5781
▁품	-10.5788
▁운명	-10.5793
▁처한	-10.5798
▁하면서	-10.5805
▁82	-10.5812
▁소식에	-10.5819
▁록	-10.582
▁가상	-10.5821
▁파운드	-10.5827
ity	-10.5833
했기	-10.5834
▁당국에	-10.5834
▁연안	-10.5842
▁실시했다	-10.5844
▁공약	-10.5853
람	-10.5863
▁처해	-10.5864
▁지상	-10.5868
해질	-10.5868
▁페이지	-10.5872
▁보존	-10.5872
▁통계	-10.5878
▁유지하	-10.5894
▁visit	-10.5896
▁마돈나	-10.5896
▁뮤지컬	-10.5896
▁얻고	-10.5896
▁느낄	-10.5896
▁객실	-10.5896
▁불가리아	-10.5896
▁프리미어리그	-10.5896
▁노르웨이	-10.5896
▁데이빗	-10.5896
▁지하철	-10.5896
▁최대의	-10.5897
▁불가능	-10.5898
▁원래	-10.5899
▁american	-10.5899
▁오른쪽	-10.59
▁매달	-10.59
▁여겨지	-10.59
▁합류	-10.59
▁키우	-10.5901
▁1950	-10.5904
▁재직	-10.5904
▁사설	-10.5905
▁밝혀진	-10.5905
▁포기하	-10.5907
▁조약	-10.591
▁홈	-10.5911
▁ba	-10.5912
▁140	-10.5919
▁전국적으로	-10.5919
▁열렸다	-10.592
▁63	-10.592
▁조지아	-10.5926
▁베르	-10.5927
▁다음주	-10.5931
6000	-10.5932
▁무리	-10.5933
▁바라는	-10.5934
입어	-10.594
▁테니스	-10.5946
▁커지	-10.5948
웠다	-10.5949
▁모건	-10.5952
▁제정	-10.5956
▁마을에서	-10.5961
▁지분	-10.5972
▁해서	-10.5976
▁상승한	-10.5982
립	-10.5988
선수	-10.5992
▁88	-10.5993
▁회의에	-10.5993
▁후보인	-10.5998
시아	-10.5999
▁대항	-10.6004
▁가벼	-10.6015
▁화면	-10.6016
▁선전	-10.6024
▁미니	-10.6029
▁용기	-10.6031
▁제리	-10.604
▁고급	-10.6044
▁잠재적	-10.6047
▁생각하지	-10.6062
▁정상들	-10.6071
▁동물들	-10.6072
▁공대	-10.6074
in	-10.6078
▁개인적	-10.608
ty	-10.6083
▁후보와	-10.6088
▁남극	-10.6094
▁애리조나	-10.6097
그룹	-10.6097
▁피해자들	-10.6099
▁붙	-10.6101
▁두번째	-10.6102
에게서	-10.6104
▁슈퍼	-10.6104
▁관타나모	-10.6104
▁끔찍	-10.6104
▁일으킬	-10.6104
▁퍼거슨	-10.6104
▁피라미드	-10.6104
▁히틀러	-10.6104
▁여섯	-10.6104
▁보이콧	-10.6104
▁샘플	-10.6104
▁빠지	-10.6104
▁again	-10.6105
▁경기부양책	-10.6105
▁라이언	-10.6105
▁탈락	-10.6105
▁fda	-10.6105
▁특징	-10.6105
▁부당	-10.6105
▁자선단체	-10.6105
▁상대방	-10.6106
▁테러조직	-10.6107
▁서식지	-10.6111
▁자신감	-10.6112
▁분량	-10.6112
▁바이	-10.6112
▁인형	-10.6114
▁모임	-10.6116
▁취한	-10.6117
▁내려졌다	-10.6117
▁리비	-10.6117
▁state	-10.6118
장이	-10.6121
▁개편	-10.6121
▁검증	-10.6124
▁해당하는	-10.6128
델	-10.6128
▁비행사	-10.6131
▁대치	-10.6132
▁개시	-10.6145
▁남동부	-10.6145
놀	-10.6146
됩니다	-10.6147
▁어렵다	-10.6152
▁소유하고	-10.6153
▁나이트	-10.6153
▁앨	-10.6153
▁상태에서	-10.6155
▁참여할	-10.6158
▁전해지	-10.616
▁직원이	-10.6161
▁각자	-10.6162
▁없게	-10.6168
▁포함돼	-10.6171
학교	-10.6171
마자	-10.6195
사는	-10.6203
▁신조	-10.6203
성이	-10.6204
vs	-10.6212
연맹	-10.6222
▁국가들이	-10.6224
▁유튜브	-10.6226
▁사법	-10.6227
▁강세	-10.6227
젤	-10.6232
▁자리에	-10.6237
▁무장대원	-10.6237
▁취임식	-10.6245
▁잡아	-10.625
▁무고	-10.6252
x	-10.6253
▁코커스	-10.6257
▁잃었	-10.6261
▁발행	-10.6264
장치	-10.6265
▁앉아	-10.627
82	-10.6272
▁법원에서	-10.6275
▁투르	-10.6276
▁상하이	-10.6281
▁추측	-10.6282
▁7000	-10.6285
▁좋아	-10.6294
우스	-10.6294
▁조사한	-10.6294
▁거주하	-10.6295
▁의학	-10.6297
▁감행	-10.6306
▁파트너	-10.6307
▁산림	-10.6311
▁경호	-10.6312
▁근육	-10.6314
▁연쇄	-10.6317
▁1992	-10.6317
▁foreign	-10.6317
▁경기침체	-10.6317
▁루아얄	-10.6317
▁에넹	-10.6317
▁지지선언	-10.6317
▁카트리나	-10.6317
▁항공우주국	-10.6317
▁파나마	-10.6317
▁시라크	-10.6318
▁일련	-10.6318
▁비틀즈	-10.6318
▁외무성	-10.6318
▁영화배우	-10.6318
▁함유	-10.6318
▁소형	-10.6319
▁talks	-10.6319
▁nk	-10.632
▁알렉스	-10.6321
▁도심	-10.6323
▁보급	-10.6324
▁재임	-10.6326
▁국가로	-10.6326
▁브리핑	-10.6326
▁범인이	-10.6327
▁한국은행	-10.6328
총	-10.6334
▁않는다면	-10.6342
▁세웠다	-10.6343
▁본다	-10.6345
▁소득	-10.6346
▁북부에	-10.6348
▁함	-10.635
▁일치	-10.6355
곡	-10.6356
▁유산	-10.6356
돌	-10.6359
알	-10.6363
1000	-10.6365
경찰	-10.6366
40	-10.6371
▁건강이	-10.6373
▁손해	-10.6374
ate	-10.6374
▁가게	-10.6375
운동	-10.6378
▁뉴욕주	-10.6378
▁광장	-10.6378
▁행정	-10.6382
▁방향으로	-10.6385
▁있었습니다	-10.6387
▁민족	-10.6389
▁국적	-10.6391
▁매케인이	-10.6393
▁제공한	-10.6395
▁o	-10.64
▁맨	-10.6405
▁제시했다	-10.6407
▁마르	-10.6408
▁주에	-10.6411
▁기소된	-10.6412
▁로브	-10.642
▁해임	-10.6431
▁세트	-10.6431
▁베이	-10.6433
▁지대	-10.6436
▁지지자들이	-10.6438
▁존중	-10.6452
▁tr	-10.6466
▁유도	-10.6466
▁희망한다	-10.6468
▁실질적	-10.6468
▁쿠웨이트	-10.6471
▁사막	-10.6473
▁봉송	-10.6479
▁mo	-10.648
▁용의자로	-10.6481
▁x	-10.6488
▁탑승객	-10.6488
안에	-10.6489
버그	-10.6493
▁산타	-10.6496
▁대학생	-10.6497
▁4000	-10.6498
조사	-10.6501
▁계속된	-10.6503
▁내일	-10.6504
▁헌법재판소	-10.6518
▁빈곤	-10.6521
▁도시인	-10.6524
▁미시시피	-10.6527
▁마흐디	-10.6529
▁공모	-10.6531
▁아름다	-10.6534
▁얻는	-10.6534
▁울포위츠	-10.6534
▁조승희	-10.6534
▁허커비	-10.6534
▁중남미	-10.6534
▁포르노	-10.6534
▁징후	-10.6534
▁take	-10.6534
▁본격적	-10.6535
▁imf	-10.6535
▁롤링	-10.6535
▁more	-10.6535
▁cdc	-10.6535
▁기부	-10.6535
▁점검	-10.6535
▁떠날	-10.6536
▁녹음	-10.6536
▁디스크	-10.6536
▁상담	-10.6537
▁지역사회	-10.6538
▁드러내	-10.6538
▁형식	-10.6539
▁집권당	-10.654
▁음성	-10.654
▁사체	-10.6542
▁중요성	-10.6544
짝	-10.6546
▁얼마전	-10.6547
강전에서	-10.6552
▁사이클	-10.6552
▁포함됐다	-10.6552
▁신분	-10.6553
▁붙잡	-10.6555
기록	-10.6556
▁제출한	-10.6556
▁이식	-10.656
▁부채	-10.6561
▁플레이어	-10.6562
▁윤	-10.6566
짜리	-10.6567
▁전반적	-10.6572
▁결승전에서	-10.6577
▁취했다	-10.6578
막	-10.6581
▁계기	-10.6583
▁외곽	-10.6584
▁정상화	-10.6586
햄	-10.6586
▁사용하고	-10.66
▁노력이	-10.6603
▁정보부	-10.6607
시키	-10.6607
▁부족하다	-10.6612
▁운동가들	-10.6614
▁않기로	-10.6617
▁전역에서	-10.6619
▁약세	-10.662
▁단체인	-10.6624
▁추세	-10.6625
▁장례식	-10.6625
▁대학에서	-10.6626
▁끼	-10.6634
한글	-10.6635
▁펜	-10.6636
▁기분	-10.6637
이란	-10.6637
▁160	-10.6639
▁스캔들	-10.6641
▁승인했다	-10.6642
▁좋아하는	-10.665
▁배후	-10.6652
▁카페	-10.6652
▁지위	-10.6657
▁보도에	-10.6657
제를	-10.6658
▁영화에	-10.6669
▁몰고	-10.6669
▁남편이	-10.6671
▁퇴임	-10.6677
▁유전	-10.668
환	-10.6683
▁마비	-10.6683
▁당국자들	-10.6687
▁중이	-10.6692
▁바스라	-10.6693
▁온도	-10.6703
▁떠	-10.6704
▁깨	-10.6704
▁이륙	-10.6705
▁공격했다	-10.6711
▁정권이	-10.6715
▁상원의원과	-10.6718
▁흔	-10.6718
▁지켜보	-10.6726
▁하자	-10.6729
▁학교에서	-10.6731
있	-10.6739
▁털	-10.6742
▁아르	-10.6746
틀	-10.6746
딩	-10.6753
▁쓰레기	-10.6755
▁매춘	-10.6755
▁농업	-10.6757
▁opec	-10.6757
▁맞고	-10.6757
▁심장마비	-10.6757
▁아닙니다	-10.6757
▁아테네	-10.6757
▁우주왕복선	-10.6757
▁징계	-10.6757
▁노트북	-10.6757
▁이자율	-10.6757
▁open	-10.6758
▁1989	-10.6758
▁테러에	-10.676
▁번역	-10.676
▁래리	-10.676
▁자동	-10.6761
▁연계	-10.6761
▁소동	-10.6761
▁발발	-10.6762
▁아마디	-10.6762
▁물체	-10.6762
▁휴대	-10.6763
▁로저	-10.6763
▁통과시켰다	-10.6763
▁실린	-10.6764
▁에릭	-10.6764
▁이틀간	-10.6764
▁상호	-10.6764
it	-10.6765
▁받아왔다	-10.6765
▁보건부	-10.6765
▁진보	-10.6765
▁연간	-10.6767
ro	-10.6768
▁탄소	-10.6769
▁트리	-10.6773
▁표면	-10.6775
▁지휘관	-10.6777
▁호소했다	-10.6777
▁사진이	-10.678
▁챔피언십	-10.6782
▁내려진	-10.6783
▁뿐이다	-10.6784
▁벌어졌다	-10.6785
▁문구	-10.6786
▁여기에	-10.6787
▁기상청	-10.679
▁법안에	-10.6791
▁진지	-10.68
▁부모들	-10.6801
▁분류	-10.6804
▁확산되고	-10.681
킬로미터	-10.6812
▁소탕	-10.6815
▁불이	-10.682
▁반지	-10.6822
로스	-10.6824
▁매체	-10.6828
▁대법원장	-10.683
▁참가자들	-10.6833
▁있을지	-10.6833
▁향한	-10.6836
▁탈레반측	-10.6841
도시	-10.6844
비아	-10.6851
▁fa	-10.6854
▁달한다	-10.6858
▁포함된	-10.6858
▁미국으로	-10.6862
▁가족들과	-10.6866
▁세우	-10.6868
▁바꾸	-10.6871
ne	-10.6875
▁경로	-10.6877
▁배출	-10.688
▁기본적	-10.6888
▁강조하	-10.6895
률	-10.6896
▁대통령직	-10.6897
웨이	-10.69
▁프라이머리에서	-10.6906
▁열고	-10.6912
▁등에	-10.6913
▁베를린	-10.6917
▁오하이오주	-10.6931
▁파키스탄군	-10.6931
▁85	-10.6938
▁침입	-10.6941
▁보석	-10.6943
▁독일인	-10.6944
▁대로	-10.695
▁대륙	-10.695
▁동성애	-10.6955
추	-10.6957
▁건너	-10.6958
▁겨	-10.6959
▁들어간	-10.6961
▁체포됐	-10.6967
▁북극	-10.6972
▁요원들	-10.6978
▁되찾	-10.6981
▁에베레스트	-10.6982
▁화합	-10.6984
▁도요타	-10.6984
▁로드리게스	-10.6984
▁찾지	-10.6984
▁최첨단	-10.6984
▁두려움	-10.6984
▁허드슨	-10.6984
▁남아프리카	-10.6984
▁윈도우	-10.6984
▁금융위기	-10.6984
▁벽돌	-10.6984
▁벌써	-10.6984
▁터널	-10.6984
▁가짜	-10.6984
▁연례	-10.6984
▁우울증	-10.6985
▁탄광	-10.6985
▁평화유지군	-10.6985
▁붙여	-10.6986
▁구류	-10.6986
▁채취	-10.6987
▁무너지	-10.6987
▁has	-10.6988
▁왕세자비	-10.6988
▁국방성	-10.6991
▁미첼	-10.6991
▁러드	-10.6991
소를	-10.6992
▁양쪽	-10.6992
▁주위	-10.6993
▁막대한	-10.6993
▁대서양	-10.6994
▁디자이너	-10.6994
▁신화	-10.6994
상태	-10.6995
▁자유무역협정	-10.6998
▁공간	-10.7
축	-10.7001
▁사면	-10.7002
▁참석하지	-10.7004
웰	-10.701
▁서서	-10.7014
▁겸	-10.7017
▁점거	-10.702
▁대전	-10.7025
▁77	-10.7026
▁나토군	-10.7033
▁향상	-10.7036
▁해상	-10.7037
▁my	-10.7041
글	-10.7046
▁당해	-10.7051
▁자택	-10.7056
▁군이	-10.7073
▁이민	-10.7073
▁월가	-10.7074
▁이용한	-10.7074
▁착수했다	-10.7086
▁얼	-10.7091
업자	-10.7091
▁대대적	-10.7097
▁초안	-10.7108
▁싱	-10.7109
▁al	-10.7109
▁보인	-10.7116
▁연구에서	-10.7119
▁노리	-10.7122
▁해적들	-10.7125
▁동기	-10.7128
▁의상	-10.7129
▁브	-10.7136
앙	-10.7152
▁경매에	-10.7159
▁폴리	-10.7161
▁저자	-10.7163
▁화가	-10.7164
▁제시한	-10.7164
▁목격했다	-10.7171
▁작업이	-10.7174
척	-10.7186
▁인권단체	-10.7187
▁감금	-10.719
▁추구하	-10.7193
▁캐릭터	-10.7193
▁농장	-10.7197
▁죄	-10.7197
▁이주	-10.7207
▁콜로라도	-10.7207
▁해적	-10.7208
▁은행에	-10.7211
▁브라이언	-10.7213
▁낙태	-10.7214
▁가해	-10.7214
est	-10.7215
▁알아	-10.7216
분께	-10.7216
▁스타벅스	-10.7216
▁seoul	-10.7217
▁troop	-10.7217
▁washington	-10.7217
▁그렇다	-10.7217
▁망원경	-10.7217
▁무승부	-10.7217
▁베네딕	-10.7217
▁성추행	-10.7217
▁쇠고기	-10.7217
▁시나리오	-10.7217
▁자르다리	-10.7217
▁온실가스	-10.7217
▁인터폴	-10.7217
▁교섭	-10.7217
▁우간다	-10.7217
▁center	-10.7217
▁해수면	-10.7217
▁외환	-10.7218
▁술집	-10.7218
▁거짓	-10.7218
▁매매	-10.7219
▁이루어진	-10.7219
▁관측	-10.7219
▁포터	-10.7221
▁열심	-10.7221
▁비서실장	-10.7221
▁무슨	-10.7222
▁고위급	-10.7223
ve	-10.7223
▁범위	-10.7226
▁건강에	-10.7229
▁동맹국	-10.723
▁반대로	-10.723
▁삭감	-10.7231
▁코치	-10.7231
▁경쟁력	-10.7235
roh	-10.7236
▁선거법	-10.7239
▁서류	-10.7241
▁직	-10.7243
▁부검	-10.7246
쳤다	-10.7247
▁by	-10.7249
▁포함하여	-10.7253
▁정전	-10.7255
▁재미있	-10.7264
▁로스	-10.7266
▁즐	-10.7274
풍	-10.7275
왕	-10.7276
▁수면	-10.7278
▁카불	-10.7278
▁부분이	-10.7279
▁득점	-10.728
▁테리	-10.7282
싱	-10.7284
▁원인이	-10.7285
▁간에	-10.7287
▁청	-10.7289
▁크다	-10.7297
관련	-10.7309
▁조사할	-10.7309
▁지원하는	-10.7311
▁5000	-10.7314
펠	-10.732
▁파월	-10.7323
스런	-10.7325
▁회장이	-10.7328
▁촉구하	-10.7328
▁영국과	-10.7332
▁승객들	-10.7333
다란	-10.7334
니스	-10.7337
▁모색	-10.7346
▁가방	-10.7347
지역에서	-10.7348
▁푸	-10.7348
▁해소	-10.7351
▁도달	-10.7352
▁농민들	-10.7355
겠습니다	-10.7358
▁이후에	-10.7361
▁벽	-10.7364
▁예술	-10.7367
▁갖는	-10.7367
▁베리	-10.7367
▁새롭	-10.7378
년전	-10.7378
▁공산주의	-10.738
▁달간	-10.7385
▁증상	-10.739
▁올라가	-10.7394
▁떨어지	-10.7395
▁선고했다	-10.7395
▁때문이라	-10.7396
자들에게	-10.7397
▁관여	-10.7398
▁공룡	-10.7402
▁국가에	-10.7403
▁출산	-10.7409
▁검문소	-10.7409
적이	-10.7411
▁여부에	-10.7417
션	-10.7419
▁성당	-10.7422
▁감지	-10.7425
▁파리에서	-10.7425
▁공무원	-10.7427
▁정치인들	-10.7429
▁하에	-10.7435
▁뉴햄프셔	-10.7436
64	-10.7438
la	-10.7441
▁de	-10.7447
▁안으로	-10.7451
▁관람	-10.7454
▁화이트	-10.7455
▁고이즈미	-10.7455
▁맞은	-10.7455
▁믿을	-10.7455
▁톰슨	-10.7455
▁펼친	-10.7455
▁아마디네자드	-10.7455
▁유죄판결	-10.7455
▁국립공원	-10.7455
▁의약품	-10.7455
▁경향	-10.7455
▁저항세력	-10.7455
▁모금	-10.7455
▁방출	-10.7455
▁intern	-10.7455
▁구름	-10.7457
▁예약	-10.7457
연패	-10.7457
▁들어갈	-10.7457
▁승부	-10.7459
bush	-10.7461
▁딘	-10.7464
▁양보	-10.7466
▁위하여	-10.747
▁성공한	-10.7471
▁체포되었다	-10.7473
▁남측	-10.7473
▁저질렀다	-10.7475
▁사라졌다	-10.7477
▁빠졌다	-10.7478
쪽으로	-10.7478
age	-10.7479
▁총통	-10.748
▁기적	-10.7482
▁맡았다	-10.7483
행위	-10.7485
▁우세	-10.7489
▁남부에	-10.7492
돼야	-10.7493
▁지식	-10.7496
▁상세	-10.7497
▁악화되	-10.7499
lo	-10.7503
▁러	-10.7503
▁황	-10.7507
▁상징	-10.7507
숙	-10.7509
법원	-10.751
애	-10.7512
▁살았	-10.7514
▁상업	-10.7515
폰	-10.7517
▁출연했다	-10.7518
pa	-10.752
필	-10.7521
덕	-10.7524
칸	-10.7525
▁78	-10.7527
비용	-10.753
▁입지	-10.7531
▁일하고	-10.7536
▁방문해	-10.7545
▁결정적인	-10.7547
▁마이	-10.755
▁법정에서	-10.7553
▁힘들다	-10.7555
▁하락했	-10.7572
▁분야에서	-10.7579
시킨다	-10.7583
덴	-10.7586
▁필요로	-10.7592
릭	-10.7593
▁석방됐다	-10.7597
▁암시	-10.7604
▁협약	-10.7606
▁진전이	-10.7608
부대	-10.7608
차량	-10.7612
▁언론과	-10.7616
▁소비자들	-10.7617
▁소년이	-10.7623
리에	-10.763
주에서	-10.763
해야만	-10.763
▁완료	-10.7632
▁출두	-10.7636
▁후원	-10.7638
▁햄	-10.764
▁81	-10.7644
▁방콕	-10.7645
▁카리	-10.7645
▁나타내는	-10.7645
▁돌파	-10.7646
▁파키스탄에서	-10.7647
▁맛	-10.7649
▁공격한	-10.7651
▁준비하고	-10.7662
기업	-10.7664
▁사우스캐롤라이나	-10.7665
▁수배	-10.7666
▁일으키	-10.7669
▁그래	-10.7672
▁때문이	-10.7673
벨	-10.7674
▁dis	-10.7676
▁차별	-10.7677
▁초에	-10.768
▁몰아	-10.768
▁응답	-10.7687
▁창출	-10.7687
▁미래에	-10.7689
변	-10.7693
▁침략	-10.7695
▁york	-10.7698
▁높게	-10.7698
▁메드베데프	-10.7698
▁서브프라임	-10.7698
▁선거관리위원회	-10.7698
▁수류탄	-10.7698
▁싶지	-10.7698
▁아라비아	-10.7698
▁앞섰다	-10.7698
▁하이브리드	-10.7698
▁확률	-10.7698
▁자전거	-10.7699
▁플루토늄	-10.7699
▁압바스	-10.7699
▁글로벌	-10.7699
▁에드워드	-10.7699
▁최루탄	-10.7699
▁주유소	-10.7699
▁머레이	-10.7699
▁bda	-10.7699
▁이뤄질	-10.7699
▁mdc	-10.77
▁1987	-10.77
▁카를로스	-10.77
▁고유가	-10.7701
▁갈등	-10.7701
▁서양	-10.7701
널리	-10.7702
▁부처	-10.7702
▁부품	-10.7702
▁핵개발	-10.7703
▁목격	-10.7703
▁윌슨	-10.7706
▁직접적	-10.7706
▁해체	-10.7706
▁개체수	-10.7706
▁모른다고	-10.7708
▁출구조사	-10.7709
▁적합한	-10.7709
▁루니	-10.771
▁전형적	-10.771
▁중앙은행	-10.771
▁주연	-10.771
▁aig	-10.7711
▁수색작업	-10.7711
▁군사력	-10.7711
▁its	-10.7716
▁따뜻	-10.7718
▁스파이	-10.7721
▁차질	-10.7722
▁house	-10.7722
▁재활용	-10.7724
▁외상	-10.7728
▁판결이	-10.773
▁열었다	-10.773
um	-10.7732
▁업체들	-10.7733
▁점수	-10.7735
▁라이브	-10.7735
▁가난한	-10.7737
▁인터넷에	-10.774
▁조항	-10.7746
▁일어나는	-10.7747
▁드레스	-10.7748
▁건물에	-10.7753
▁패스	-10.7757
▁시인했다	-10.7758
▁판매량	-10.7762
압	-10.7766
▁포로	-10.7771
▁민	-10.7773
엄	-10.7773
▁촉발	-10.7775
▁묻는	-10.7776
▁발표했	-10.7776
▁위험성	-10.7777
▁너무나	-10.7777
▁해주	-10.7778
2000	-10.778
속도로	-10.7783
▁모아	-10.7792
▁장관과	-10.7792
▁고려하고	-10.7796
▁표준	-10.7802
▁다르	-10.7802
▁이씨	-10.7803
▁선수로	-10.7806
ary	-10.7814
63	-10.7821
▁복역	-10.7823
의원	-10.7827
▁벌여	-10.7831
적이고	-10.7839
▁99	-10.7845
▁탈레반이	-10.785
▁출신으로	-10.785
▁남아있는	-10.7851
▁종교적	-10.7852
▁정기적	-10.7861
▁강진이	-10.7863
▁뉴욕시	-10.7875
▁입수	-10.788
▁명확	-10.7887
▁제공했다	-10.7889
경제	-10.7891
mm	-10.7899
▁묵	-10.79
▁행위에	-10.7906
ha	-10.7906
▁근무하	-10.7908
산업	-10.7911
▁참가한	-10.7912
▁응급	-10.7917
▁셀	-10.7925
▁고조되	-10.7934
▁말이	-10.7935
▁구멍	-10.7936
▁증강	-10.7937
▁제치	-10.7939
암	-10.794
▁금리를	-10.7941
▁war	-10.7942
▁야생동물	-10.7943
▁영양	-10.7947
▁혼자	-10.7947
▁국가비상사태	-10.7948
▁데이비스	-10.7948
▁나눴다	-10.7948
▁똑같	-10.7948
▁무렵	-10.7948
▁바티칸	-10.7948
▁아웅산수치	-10.7948
▁얻게	-10.7948
▁유람선	-10.7948
▁맨해튼	-10.7949
▁섹시	-10.7949
▁퇴진	-10.7949
▁맥캔	-10.7949
▁fifa	-10.7949
▁빅토리아	-10.7949
▁포셋	-10.7949
▁아스날	-10.7949
▁국민투표	-10.7949
▁만능	-10.7949
▁바뀌	-10.795
▁연구결과	-10.795
▁추격	-10.795
▁돌아갈	-10.795
▁복원	-10.795
▁설계	-10.795
▁자동차업계	-10.795
▁다룬	-10.795
▁바위	-10.7951
▁존스턴	-10.7951
▁연출	-10.7951
▁밀려	-10.7951
키로	-10.7951
▁데리고	-10.7952
▁정착	-10.7953
▁삭제	-10.7953
▁이브라힘	-10.7953
▁심판	-10.7954
z	-10.7954
▁줄이기	-10.7955
▁서브	-10.7956
▁수컷	-10.7958
▁아는	-10.7961
▁일원	-10.7961
▁화물	-10.7961
▁상영	-10.7961
▁우즈	-10.7961
▁당부했다	-10.7963
▁라이	-10.7964
▁좌석	-10.7965
▁확인되	-10.7966
▁도디	-10.7968
북	-10.7973
▁남용	-10.7973
▁해석	-10.7973
▁미성년자	-10.7973
인들이	-10.7974
▁대리인	-10.7974
▁쓸	-10.798
▁공정한	-10.7984
▁남아있다	-10.7985
▁않았습니다	-10.7986
▁여파	-10.7987
▁공개하지	-10.7987
▁관객들	-10.7988
▁방송에	-10.7989
▁도구	-10.7993
▁상당수	-10.7996
▁상상	-10.7998
▁판다	-10.7999
▁분석했다	-10.8002
▁군과	-10.8003
▁지역인	-10.8004
▁time	-10.8006
▁one	-10.8006
으면서	-10.801
으	-10.8011
▁선택했다	-10.8012
파운드	-10.8013
▁ai	-10.8015
조직	-10.8016
▁방송에서	-10.8019
▁사살했다	-10.802
▁준다	-10.8022
꺼	-10.8022
▁수감된	-10.8024
▁목록	-10.8027
▁호주에서	-10.8028
▁합의에	-10.8028
삼	-10.8029
8000	-10.8033
텔	-10.8039
▁봉사	-10.8044
▁뿐이라	-10.8044
▁탈북자	-10.8044
ol	-10.8056
연구소	-10.8057
▁지방에서	-10.806
전에	-10.8066
▁어깨	-10.8075
▁이름으로	-10.8081
▁나선	-10.8089
▁거부한	-10.8089
▁수행할	-10.8092
▁되었	-10.8095
▁전복	-10.8096
▁단장	-10.8106
▁사과했다	-10.8112
▁계	-10.8117
▁플라	-10.8122
▁게리	-10.8122
▁호텔에	-10.8124
▁all	-10.8129
리그	-10.813
▁테러리스트들	-10.813
▁광부	-10.8137
▁기분이	-10.8138
▁전사	-10.8141
▁행동에	-10.8142
▁미라	-10.8142
▁궤도	-10.8144
▁납치한	-10.8144
▁도착할	-10.8145
▁본토	-10.8146
▁담고	-10.8149
▁정거장	-10.8154
ti	-10.8155
▁명백	-10.8155
▁아프간에	-10.8158
▁계속해	-10.8164
▁사용된	-10.8165
▁관객	-10.8165
▁학생이	-10.8166
▁얻었	-10.8168
▁86	-10.817
시오	-10.8172
▁발휘	-10.8182
▁물러나	-10.8184
▁상관	-10.8191
트리	-10.8194
▁장기적	-10.8195
▁벗어	-10.8197
▁발견됐	-10.8199
▁맡았	-10.8201
▁돌려	-10.8204
▁ibm	-10.8205
▁디트로이트	-10.8205
▁먹고	-10.8205
▁창기라이	-10.8205
▁최우선	-10.8205
▁military	-10.8205
▁교착	-10.8205
▁행렬	-10.8205
▁언덕	-10.8205
▁부산	-10.8205
▁부사장	-10.8205
▁라호르	-10.8205
▁미셸	-10.8205
▁후지모리	-10.8206
▁아빠	-10.8206
▁타밀	-10.8206
▁74	-10.8206
▁물고기	-10.8206
▁앨런	-10.8206
▁클라크	-10.8207
▁켈리	-10.8207
▁가끔	-10.8208
▁로켓포	-10.8208
▁파커	-10.8209
▁의심되는	-10.8209
▁시민권	-10.8211
▁던진	-10.8214
않게	-10.8215
▁국회에서	-10.8215
분경	-10.8217
▁지원금	-10.8218
▁북부에서	-10.8218
▁이스라엘에	-10.8221
▁곰	-10.8221
▁하원의장	-10.8221
▁화장	-10.8221
▁클린턴에	-10.8222
▁구조작업	-10.8223
▁걸렸다	-10.8224
측에	-10.8224
▁순	-10.8227
▁매수	-10.8229
▁경주	-10.823
▁업무를	-10.823
▁위원장이	-10.823
연승	-10.8231
▁불가능하다	-10.8231
▁지나가	-10.8233
▁돌아왔다	-10.8233
▁전격	-10.8234
▁권고했다	-10.8235
▁김치	-10.8236
▁영화에서	-10.8236
▁매력	-10.8236
▁불과하다	-10.8237
▁않습니다	-10.8241
▁출전하지	-10.8241
12	-10.8242
▁독	-10.8245
▁진행될	-10.8246
▁셰	-10.8247
▁계획이라	-10.825
▁개성	-10.8252
▁업적	-10.8255
▁덜	-10.8257
철	-10.8257
▁cd	-10.8258
사인	-10.826
▁침대	-10.8264
▁거리에서	-10.8267
해진	-10.8271
▁휴일	-10.8274
▁유인	-10.8275
▁토대	-10.8277
된다고	-10.8278
▁걸리	-10.8278
시스템	-10.8278
▁사실에	-10.8287
▁취하고	-10.8289
▁준장	-10.8291
에이커	-10.8296
▁79	-10.8296
새	-10.8298
▁발견되지	-10.8299
▁생기	-10.83
미터	-10.8301
▁청사	-10.8301
▁위협에	-10.8303
80	-10.8306
▁서식하	-10.8307
▁맞이	-10.8309
▁학생들에게	-10.831
▁찾아내	-10.8323
▁떠난	-10.8324
▁간부	-10.833
기지	-10.8332
▁착용하	-10.8336
▁적발	-10.8337
누	-10.8338
▁송금	-10.834
▁출신인	-10.8342
▁현상이	-10.835
▁십	-10.8351
▁여러분	-10.8358
▁압수	-10.836
▁바지	-10.8362
▁치를	-10.8366
▁정기	-10.837
상황	-10.837
▁동영상에서	-10.8372
인데	-10.8383
is	-10.8385
▁방법에	-10.8394
▁공개한	-10.8398
▁열리	-10.8401
▁이슬라마바드	-10.8402
▁say	-10.8402
▁품목	-10.8411
▁해안에	-10.8414
70	-10.8416
two	-10.8424
▁직장	-10.8426
▁센	-10.8426
▁프랑스에서	-10.8426
▁조언	-10.8435
▁멤버	-10.8442
측이	-10.8444
▁클린턴과	-10.8445
라데	-10.8447
▁go	-10.8449
▁은행들	-10.8449
▁에티오피아	-10.8453
▁지구에	-10.8455
▁뉴저지	-10.8459
▁발급	-10.8462
됐는지	-10.8463
▁섭취	-10.8466
▁해저	-10.8468
▁금메달	-10.8468
▁people	-10.8468
▁가즈프롬	-10.8468
▁러닝메이트	-10.8468
▁럼스펠드	-10.8468
▁마이스페이스	-10.8468
▁믿는다	-10.8468
▁억만장자	-10.8468
▁엘리베이터	-10.8468
▁음주운전	-10.8468
▁저렴	-10.8468
▁호나우두	-10.8468
▁인명피해	-10.8468
▁secretary	-10.8468
▁코카인	-10.8468
▁떠오르	-10.8468
▁요즘	-10.8468
▁국방위원장	-10.8468
▁결합	-10.8468
▁돌아올	-10.8468
▁자발적	-10.8469
▁권총	-10.8469
▁마찰	-10.8469
▁1986	-10.8469
▁독감	-10.8469
▁달러가	-10.8469
▁계속할	-10.847
▁환율	-10.847
▁재배치	-10.847
▁배심원단	-10.8471
▁불안정	-10.8471
▁고장	-10.8471
▁포스트	-10.8471
▁참배	-10.8472
▁오프라	-10.8472
▁기증	-10.8472
▁내무장관	-10.8475
▁반등	-10.8477
▁던져	-10.8478
▁선임	-10.8479
▁피랍된	-10.8481
소한	-10.8481
▁연방정부	-10.8481
▁눈물	-10.8485
▁넣었다	-10.8487
▁무시하	-10.8488
▁하비	-10.849
▁던졌다	-10.849
▁상병	-10.8493
▁메이	-10.8495
▁반전	-10.8496
▁맞았다	-10.8497
▁계산	-10.8498
▁꽃	-10.8502
▁평화상	-10.8509
▁미리	-10.8512
▁돌아와	-10.8514
▁피하기	-10.8517
▁공주	-10.8519
▁의견이	-10.852
▁주장했	-10.8524
▁명백한	-10.8524
스럽게	-10.8525
▁표시했다	-10.8526
▁입법	-10.8528
▁독재자	-10.8531
▁대선에	-10.8532
▁참	-10.8536
▁확인하기	-10.854
▁개인적으로	-10.8541
▁남성의	-10.8548
착	-10.8549
▁원장	-10.8551
▁반영	-10.8558
▁변화에	-10.8561
▁흥분	-10.8562
장의	-10.8571
▁시작됐	-10.8572
▁오바마에	-10.8573
▁권고	-10.8577
▁정부군과	-10.8577
작전	-10.8579
▁차지하는	-10.8582
▁의원들이	-10.8584
▁교도소에서	-10.8585
스톤	-10.8586
구역	-10.859
▁경사	-10.8593
▁몰려	-10.8597
▁남자아이	-10.8602
▁별도	-10.8604
어로	-10.8606
▁전하고	-10.8607
▁들었	-10.8613
ft	-10.8623
▁실현	-10.8623
▁쪽	-10.8626
▁두려워	-10.8626
▁회사에	-10.8631
▁민주당이	-10.8634
▁상자	-10.8634
이라면	-10.8635
▁민주적	-10.864
▁민간인들	-10.864
베이	-10.8642
id	-10.8645
▁자라	-10.8646
년형	-10.8648
▁설	-10.865
인치	-10.8656
포드	-10.8656
▁보조	-10.8658
▁모두에게	-10.8658
▁참여했다	-10.8664
▁차지했	-10.8667
▁철	-10.8668
▁위장	-10.8668
▁메리	-10.8673
▁병력이	-10.8677
▁환호	-10.8682
▁수사에	-10.8686
지역에	-10.8687
▁즐기는	-10.8687
▁소비자들이	-10.8689
슨은	-10.8691
▁내지	-10.8692
▁통보	-10.8694
갑	-10.8694
▁제작사	-10.8697
▁만났	-10.8698
평	-10.8704
▁먹는	-10.8713
▁실패한	-10.8715
▁외국인들	-10.872
▁구역	-10.8723
▁개막	-10.8723
▁방문에	-10.8726
▁잇따	-10.8728
▁낮추	-10.8729
▁네바다	-10.873
▁한달	-10.8732
달러로	-10.8732
▁용납	-10.8732
▁광	-10.8734
베르토	-10.8734
넷	-10.8736
▁인정하지	-10.8738
▁갤런	-10.8738
▁그린피스	-10.8738
▁최고경영자	-10.8738
▁브루니	-10.8738
▁피츠버그	-10.8738
▁넬슨	-10.8738
▁브레이크	-10.8738
▁가져올	-10.8739
▁포획	-10.8739
▁동굴	-10.8739
▁바꿀	-10.8739
▁슈퍼볼	-10.8739
▁절약	-10.8739
▁산맥	-10.8739
▁치매	-10.874
▁텐트	-10.874
▁생명체	-10.874
▁밀러	-10.874
▁유통	-10.874
▁승점	-10.8741
▁예선	-10.8741
▁테러범들	-10.8741
▁휴식	-10.8742
▁제보	-10.8742
▁다가오	-10.8742
▁외쳤다	-10.8743
first	-10.8744
▁설정	-10.8745
▁토크쇼	-10.8746
▁상금	-10.8746
▁도청	-10.8746
▁네바다주	-10.8747
▁알제리	-10.875
밀	-10.8754
▁후임	-10.8754
▁사회당	-10.8754
▁받아들이지	-10.8755
▁고등법원	-10.8755
▁윈프리	-10.8755
▁사라진	-10.8755
▁화제	-10.8757
▁찾았다	-10.876
▁기원	-10.876
▁투표율	-10.8764
▁당했	-10.8764
▁군중들	-10.8766
▁산하	-10.8767
▁먼지	-10.8769
▁강간	-10.877
▁버지니아주	-10.8771
▁이어졌다	-10.8778
▁이라크인	-10.878
▁경영진	-10.8782
▁남쪽으로	-10.8783
▁인도분	-10.8783
▁거래됐다	-10.8785
▁투명	-10.8791
▁피고인	-10.8791
편의	-10.8792
▁지지자들에게	-10.8793
▁중심지	-10.8796
90	-10.8797
▁170	-10.88
tv	-10.8803
▁부상자들	-10.8809
▁젊은이들	-10.881
▁자문	-10.8812
▁대표들	-10.8815
▁보유한	-10.8816
장에	-10.8818
▁900	-10.8818
분야	-10.882
▁명단에	-10.8822
량이	-10.8825
▁양자	-10.8825
어요	-10.8827
▁강타한	-10.8828
▁이라크내	-10.8829
▁그랜드	-10.8829
▁이들에게	-10.8829
▁우승자	-10.8835
규모	-10.8842
▁불어	-10.8842
▁척	-10.8848
짐	-10.8848
▁취해	-10.8852
▁르	-10.8852
▁날이	-10.8852
om	-10.8856
▁국경지역	-10.8857
▁포트	-10.886
▁일기	-10.8861
▁난민들	-10.8865
▁계속하고	-10.887
▁로드	-10.8873
▁대원들	-10.8875
19	-10.8876
▁83	-10.8881
▁수요일에	-10.8892
▁종이	-10.8894
▁남쪽	-10.8898
▁예정이었	-10.8899
▁월스트리트	-10.8899
▁배제	-10.8901
▁동료들	-10.8907
▁연말	-10.8907
▁입어	-10.8909
▁걸려	-10.8911
▁남학생	-10.8914
13	-10.8916
갔다	-10.8917
▁촉진	-10.8918
▁해왔다	-10.8918
▁피랍	-10.8929
▁원주민	-10.8936
▁일시적	-10.8937
▁였다	-10.8939
▁가중	-10.8942
▁win	-10.8944
간에	-10.8946
염	-10.895
▁석방된	-10.8952
▁배심원	-10.8953
▁전체가	-10.8953
넬	-10.8966
▁병사들이	-10.8973
▁내리는	-10.8973
▁당일	-10.8975
▁분야에	-10.8977
▁이끌었	-10.8982
▁좌절	-10.8989
▁벗	-10.8989
국이	-10.8991
▁언급한	-10.8995
▁진행중	-10.8997
▁변호인	-10.9003
▁블루	-10.9005
에르	-10.9006
▁가즈니	-10.9007
▁막아	-10.9007
▁감바	-10.9014
▁풍부	-10.9015
▁경찰청	-10.9015
▁브래드	-10.9016
▁스탈린	-10.9016
▁슬픔	-10.9016
▁크로아티아	-10.9016
껏	-10.9016
▁카지노	-10.9016
▁해수욕장	-10.9016
▁깨끗	-10.9016
▁멸종위기	-10.9016
▁남아프리카공화국	-10.9016
▁모험	-10.9016
▁동참	-10.9016
▁스콧	-10.9016
▁활발	-10.9016
▁밝혀냈다	-10.9016
▁시티그룹	-10.9017
▁장벽	-10.9017
▁긴밀	-10.9017
▁라모스	-10.9017
▁진료	-10.9017
▁위축	-10.9017
▁오늘밤	-10.9017
▁구호품	-10.9018
▁매입	-10.9019
▁유골	-10.902
▁매출	-10.902
▁보수당	-10.9021
▁다행히	-10.9021
▁사용자들	-10.9022
▁추천	-10.9022
▁펄	-10.9024
▁부양책	-10.9024
▁입원했다	-10.9024
▁출장	-10.9025
▁묘사	-10.9025
▁느낀다	-10.9028
▁조씨	-10.903
▁공안	-10.9033
보기	-10.9033
▁소유주	-10.9035
▁못하다	-10.9038
▁발령	-10.9038
▁포경선	-10.9038
▁경비대	-10.9039
▁조선	-10.9041
▁유명하다	-10.9042
▁처방	-10.9042
▁일단	-10.9043
▁근처에	-10.9045
▁퀸	-10.9047
별	-10.9051
▁웨인	-10.9052
▁지역이	-10.9053
군이	-10.9053
▁해방	-10.9058
니아	-10.9059
드라	-10.9066
▁수행하	-10.9066
▁친환경	-10.9068
호가	-10.9068
학자	-10.9074
▁신장	-10.9074
▁가족들에게	-10.9077
▁발견했	-10.9078
▁넘기	-10.908
▁이른다	-10.908
▁집회에	-10.9083
▁바닥에	-10.9083
▁말에	-10.9083
▁군함	-10.909
▁야구	-10.9092
▁시작될	-10.9093
▁이르	-10.9095
▁조치로	-10.9097
▁상사	-10.9098
▁조국	-10.9099
▁그곳에서	-10.9102
▁망	-10.9107
▁거부하	-10.9107
검사	-10.9108
▁입수한	-10.911
시에서	-10.9115
▁세부	-10.9118
▁종료	-10.9118
▁육	-10.9121
거래	-10.9123
▁준수	-10.9125
동맹	-10.9126
헤	-10.913
▁폭력사태로	-10.9131
▁종결	-10.9131
▁조직원	-10.9132
3000	-10.9132
▁탄도	-10.9132
▁대비해	-10.9134
▁결정이	-10.9135
▁칭	-10.9138
▁이른	-10.9139
▁신원이	-10.9142
▁축	-10.9144
▁아시아에서	-10.9145
국으로	-10.9149
없는	-10.9155
내용	-10.9157
▁중상	-10.9168
▁sc	-10.9173
▁유발	-10.9175
줬다	-10.9191
했었	-10.9192
▁탐험	-10.9192
▁소유한	-10.9199
▁간주	-10.9218
▁뛰	-10.9218
▁검토하	-10.9218
▁쓰는	-10.9218
▁남겨	-10.9224
▁경비원	-10.9228
▁재선	-10.923
▁살이	-10.923
▁일어나지	-10.924
▁자카르타	-10.9243
▁뉴올리언스	-10.9246
▁것이기	-10.9251
▁상의	-10.9261
▁장교	-10.9266
▁지붕	-10.9266
▁급락	-10.9269
▁출생	-10.9271
▁남성과	-10.9277
▁판결에	-10.9277
▁목적이	-10.9278
se	-10.9285
▁빌리	-10.9287
▁군중	-10.9293
▁행동이	-10.9296
▁음료	-10.9298
▁오스카	-10.93
▁휩쓸	-10.93
▁티벳	-10.93
▁유괴	-10.9301
▁england	-10.9302
▁규칙	-10.9302
▁듣지	-10.9302
▁뮌헨	-10.9302
▁산타클로스	-10.9302
▁애니메이션	-10.9302
▁헬리콥터	-10.9302
▁엉덩이	-10.9302
▁대한민국	-10.9302
▁북극곰	-10.9302
▁human	-10.9302
▁바바라	-10.9302
▁히드로	-10.9302
▁신용카드	-10.9302
▁워렌	-10.9302
▁대선주자	-10.9302
▁남녀	-10.9303
▁소총	-10.9303
▁좌파	-10.9303
▁마침	-10.9303
▁도핑	-10.9303
축구연맹	-10.9304
▁집필	-10.9304
▁바하마	-10.9304
▁교내	-10.9304
▁모집	-10.9305
▁금속	-10.9305
▁반환	-10.9306
▁환수	-10.9306
▁탐사선	-10.9307
▁나와즈	-10.9311
▁명령했다	-10.9312
▁사이버	-10.9312
▁여아	-10.9313
▁모았다	-10.9314
▁미셀	-10.9315
▁예선전	-10.9317
▁여야	-10.932
▁라울	-10.9321
▁끝났다	-10.9321
▁이르기	-10.9322
▁첫날	-10.9324
▁약품	-10.9326
▁아기들	-10.9331
▁케이시	-10.9335
▁통해서	-10.9335
▁임대	-10.9336
▁탐	-10.9341
▁태우고	-10.9341
▁제공하기	-10.9342
▁서한	-10.9345
da	-10.9346
▁성분	-10.9349
▁나치	-10.935
▁회원들	-10.9351
▁am	-10.9352
▁투기	-10.9354
▁어렵	-10.9356
▁확신했다	-10.9357
▁nation	-10.9358
▁갔	-10.9358
▁제외하고	-10.9359
▁바르	-10.9359
악	-10.9361
▁내용에	-10.9363
▁이송됐다	-10.9363
▁복장	-10.9364
▁숙	-10.9366
▁과제	-10.9367
▁have	-10.9368
▁구호단체	-10.9368
▁유해	-10.9369
▁전용	-10.9377
▁결함	-10.9377
▁레이더	-10.9378
▁재해	-10.9383
버렸다	-10.9385
롭	-10.9385
▁취소했다	-10.9386
▁개발한	-10.9387
하러	-10.9392
장으로	-10.9394
놓	-10.9396
▁확인된	-10.9401
▁괴한	-10.9406
▁선출된	-10.9409
▁파크	-10.9409
셀	-10.9412
▁달러로	-10.9414
▁예술가	-10.9415
▁사안	-10.9418
▁연대	-10.9418
▁상원에서	-10.9419
▁목요일에	-10.9422
▁반박	-10.943
▁전쟁에서	-10.9431
▁갖기	-10.9432
▁대폭	-10.9435
▁유지할	-10.9436
▁연구가	-10.9439
▁결승전	-10.9439
▁선원들	-10.9447
▁선장	-10.9447
스와	-10.9451
▁성명서	-10.9452
▁내리고	-10.9459
▁착수	-10.947
▁모자	-10.9471
▁thi	-10.9473
주전	-10.9474
대와	-10.9475
▁다수의	-10.9478
▁자녀들	-10.9478
▁돈이	-10.948
▁치르	-10.9485
▁형태로	-10.9485
▁보증	-10.9486
▁금년	-10.9489
▁중단됐다	-10.949
▁급습	-10.9492
at	-10.9498
▁장악하	-10.9499
▁장소에서	-10.9501
조사에따르면	-10.9501
▁게릴라	-10.9506
▁포장	-10.9511
▁밝히기	-10.9521
▁개최되	-10.9522
▁sk	-10.9525
세트에서	-10.9526
▁데비	-10.9527
시티	-10.9529
▁떨어졌	-10.953
▁피살	-10.9535
▁주최	-10.9536
▁성지	-10.9542
▁중점	-10.9544
▁정계	-10.9544
▁서안	-10.9549
▁처음에	-10.9552
▁전쟁이	-10.9555
▁주권	-10.9556
▁도난	-10.9558
▁가리	-10.956
▁재판이	-10.956
▁180	-10.9563
▁리오	-10.9564
▁추산	-10.9565
▁열렸	-10.9567
▁시카고에서	-10.9568
현정	-10.9576
▁대회에	-10.9577
▁le	-10.9577
▁실업	-10.9578
▁느끼는	-10.9582
▁처형	-10.9585
▁국회에	-10.9587
닥	-10.9589
▁투자자	-10.9591
▁출	-10.9593
냥	-10.9593
훈	-10.9594
야드	-10.9595
▁위생	-10.9595
▁국무총리	-10.9595
▁세속주의	-10.9595
▁박격포	-10.9595
▁apec	-10.9596
▁굉장	-10.9596
▁기준금리	-10.9596
▁마케팅	-10.9596
▁머리카락	-10.9596
▁베어스턴스	-10.9596
▁베탕쿠르	-10.9596
▁브리트니	-10.9596
▁시애틀	-10.9596
▁애틀랜타	-10.9596
▁에스토니아	-10.9596
▁유수프	-10.9596
▁텔레비전	-10.9596
▁호날두	-10.9596
▁스튜디오	-10.9596
▁브루스	-10.9596
▁무소속	-10.9596
▁저택	-10.9597
▁회계	-10.9597
▁군사작전	-10.9598
▁레이저	-10.9598
▁절감	-10.9598
▁사임했다	-10.9598
▁반체제	-10.9599
최지	-10.96
▁추문	-10.96
▁금융시장	-10.96
▁대통령으로	-10.9601
▁소유권	-10.9601
▁코피	-10.9602
▁입구	-10.9605
▁아민	-10.9605
▁개설	-10.9606
▁사라지	-10.9607
▁지나치	-10.9607
▁자정	-10.9608
▁풀려났다	-10.9609
▁강화할	-10.9609
▁턱	-10.961
▁잡았다	-10.962
▁기술자	-10.962
러스	-10.9624
▁비가	-10.9624
▁좋아한다	-10.9625
▁참사	-10.9626
▁부위	-10.9627
▁포위	-10.9631
▁공무원들	-10.9632
클	-10.9632
▁예정되어	-10.9632
안토니오	-10.9632
▁처분	-10.9637
▁선적	-10.964
니까	-10.9641
▁증언했다	-10.9645
ml	-10.9647
▁석	-10.9648
시장에서	-10.9648
됐을	-10.965
▁인도주의적	-10.9655
▁싶어한다	-10.9663
▁생산하는	-10.9665
▁방문했	-10.9667
▁청년	-10.9667
▁차원에서	-10.9673
▁타임	-10.9678
▁그곳에	-10.9691
▁가기	-10.9692
▁금액	-10.9693
▁파손됐다	-10.9695
600	-10.9697
▁선박이	-10.9701
한국	-10.9703
▁게재	-10.9704
▁효율적	-10.9704
▁피난	-10.971
▁애완동물	-10.9712
▁회	-10.9716
▁시위자	-10.9718
▁분쟁이	-10.9719
▁취하지	-10.9721
충	-10.9721
정보	-10.9724
▁부리	-10.9726
홀	-10.9728
▁국제공항	-10.9733
어서	-10.9734
▁제공하고	-10.9734
▁주말에	-10.9735
▁포럼	-10.9737
▁부르는	-10.9739
▁알라	-10.9742
▁논	-10.9747
▁top	-10.975
▁시청자들	-10.9753
▁주당	-10.9754
▁마을에	-10.9755
▁평양에서	-10.9756
▁제작된	-10.9758
▁pro	-10.9758
▁강화하고	-10.9759
▁들어와	-10.976
▁회수	-10.976
▁중심부	-10.9761
44	-10.9765
▁파파라치	-10.9766
위원장	-10.9766
▁남기	-10.9773
시경	-10.9777
▁법적으로	-10.9777
기금	-10.9779
▁여사와	-10.9786
city	-10.9788
▁편집	-10.9794
▁다루	-10.9796
천명	-10.9799
▁이슈	-10.9803
▁줬다	-10.9803
▁재판에	-10.9812
▁총장	-10.9812
▁적자	-10.9817
▁과격	-10.9817
▁결심	-10.9828
▁취하	-10.9828
▁지구에서	-10.9829
▁개발에	-10.9832
▁바닥	-10.9832
▁돌입	-10.9832
달간	-10.9833
병원	-10.9836
▁유물	-10.9841
▁소매	-10.9843
▁인도네시아에서	-10.9843
▁내고	-10.9846
▁국가인	-10.985
▁명성	-10.9855
▁비만	-10.9855
▁행사에서	-10.9858
▁창설	-10.9859
곳에서	-10.986
▁약속한	-10.9864
▁금연	-10.9866
▁정부에서	-10.9867
같이	-10.9871
지원	-10.9878
▁강행	-10.9878
▁견	-10.9878
▁출입	-10.988
▁받아들여	-10.9881
▁추락했다	-10.9886
▁오클라호마	-10.9891
▁가자지구에서	-10.9893
▁세탁	-10.9893
룰	-10.9895
▁알바니아	-10.9899
▁자치	-10.9899
▁court	-10.9899
▁끊임없	-10.9899
▁땅에	-10.9899
▁버냉키	-10.9899
▁썼다	-10.9899
▁원자바오	-10.9899
▁유니세프	-10.9899
▁타협	-10.9899
▁오렌지	-10.9899
▁크레이그	-10.9899
▁니케이	-10.9899
▁출범	-10.9899
▁놀랄	-10.9899
▁모로코	-10.9899
▁양키스	-10.99
▁보조금	-10.99
▁고릴라	-10.99
▁wto	-10.99
▁복권	-10.99
▁정밀	-10.99
▁중심에	-10.9901
▁단독	-10.9901
▁조짐	-10.9901
▁1988	-10.9901
▁패리스	-10.9901
▁타결	-10.9901
▁가죽	-10.9902
▁현지경찰	-10.9902
▁평소	-10.9903
▁아이돌	-10.9903
▁대령	-10.9903
▁가택	-10.9903
▁장거리	-10.9904
▁식수	-10.9905
▁펼쳐	-10.9906
▁지낸	-10.9907
▁황우석	-10.9907
▁여유	-10.9908
▁다이애나비	-10.9909
▁타이어	-10.991
▁인터	-10.9912
▁김씨	-10.9913
▁적십자사	-10.9914
▁제프리	-10.9914
화된	-10.9914
▁덕분에	-10.9917
un	-10.9918
▁앞선	-10.992
▁가져다	-10.992
▁지원하기	-10.9921
타르	-10.9922
▁예상보다	-10.9923
▁겪었다	-10.9925
▁중령	-10.9925
▁쉬운	-10.9926
▁청구	-10.9927
▁제작자	-10.9934
▁여기서	-10.9937
▁슛	-10.9939
▁에어	-10.994
▁고안	-10.994
▁기아	-10.9941
▁주장했지만	-10.9941
▁그들에게	-10.9943
▁경제학자들	-10.9947
▁심사	-10.9949
▁죽었다	-10.9952
▁발매	-10.9953
ick	-10.9956
▁차지한	-10.9956
47	-10.9957
▁붕괴된	-10.9958
▁쏟아	-10.9969
▁교전이	-10.9973
▁전체에	-10.9974
▁프로그램이	-10.9975
▁물었다	-10.9977
▁한다면	-10.9979
▁호소	-10.998
▁존경	-10.9981
▁논의했다	-10.9981
용으로	-10.9982
▁대답했다	-10.9983
둘	-10.9985
▁안전에	-10.9988
▁움직임이	-10.999
▁아시	-10.9993
▁본드	-10.9998
▁경우에	-10.9999
▁써	-11
▁의장이	-11.0001
▁할지	-11.0007
몬	-11.0013
▁주차	-11.0013
▁사회에	-11.0014
▁제일	-11.0016
황	-11.002
▁위치해	-11.0023
주가	-11.0024
▁보좌관들	-11.0026
▁윈	-11.0031
력이	-11.0043
▁다이	-11.0051
▁올리고	-11.0054
▁최고위	-11.0055
tion	-11.0056
▁완	-11.0058
명인	-11.0062
▁요구에	-11.0062
▁남성들	-11.0064
▁일으키는	-11.0067
man	-11.0069
▁장착	-11.007
▁정치적으로	-11.0071
▁원하지	-11.0072
▁용	-11.0074
▁기리	-11.0079
▁안된다	-11.0081
▁시인	-11.0085
▁서울에	-11.0085
▁생각해	-11.0089
▁적극	-11.0091
▁내정	-11.0102
▁안나	-11.0105
▁머리에	-11.0109
▁가자지구에	-11.0125
▁주주들	-11.0125
▁89	-11.0126
비치	-11.013
대표	-11.0135
▁독재	-11.0138
▁종식	-11.0144
▁만족	-11.0144
▁비극	-11.0145
▁가족에게	-11.0146
▁93	-11.0146
▁노력에	-11.015
▁세운	-11.015
장인	-11.0161
▁줄이는	-11.0168
▁증가하	-11.0181
▁나타난	-11.0181
▁구간	-11.0183
▁벌어졌	-11.0188
▁뉴욕에	-11.0188
▁이슬람교	-11.0189
▁탈레반과	-11.0192
▁설문	-11.0193
et	-11.0194
째	-11.0195
▁물러	-11.0197
▁필립	-11.0199
▁출연해	-11.0204
▁피닉스	-11.0206
▁실무	-11.0208
▁투표할	-11.021
▁아랍에미리트	-11.0211
▁securit	-11.0211
▁구호물품	-11.0211
▁떨어질	-11.0211
▁스튜어트	-11.0211
▁아칸소	-11.0211
▁오케스트라	-11.0211
▁칸다하르	-11.0211
▁테러지원국	-11.0211
▁티셔츠	-11.0211
▁평화협상	-11.0211
▁흰색	-11.0211
렁	-11.0211
▁마라도나	-11.0211
▁셰이크	-11.0212
▁페이스북	-11.0212
▁마사지	-11.0212
▁lpga	-11.0212
▁휴스턴	-11.0212
▁크로커	-11.0212
▁맥도날드	-11.0212
▁호킹	-11.0212
▁적응	-11.0212
▁첩보	-11.0212
▁점프하	-11.0213
▁워너	-11.0213
▁폭등	-11.0213
▁요르단강	-11.0213
▁불평	-11.0213
▁버튼	-11.0213
▁기습	-11.0214
▁어두운	-11.0214
▁모래	-11.0214
▁요청한	-11.0215
▁2011	-11.0215
▁새겨	-11.0216
▁입력	-11.0216
슬러	-11.0216
▁파키스탄에	-11.0218
▁소란	-11.0218
▁전대통령	-11.0218
▁파문	-11.0218
▁유적지	-11.0219
▁부유	-11.0221
▁뚫	-11.0221
▁많아	-11.0222
▁시골	-11.0223
▁영원	-11.0225
▁받아들였다	-11.0226
▁쏘	-11.0228
▁해명	-11.0228
▁폴슨	-11.0229
▁약탈	-11.023
▁우리베	-11.0231
▁연방준비제도이사회	-11.0231
▁하산	-11.0231
▁실어	-11.0233
▁시계	-11.0233
▁사용한다	-11.0234
▁환경에	-11.0235
▁미치지	-11.0237
▁장기간	-11.0237
▁위협했다	-11.0239
▁느꼈다	-11.024
▁양성	-11.024
▁의존	-11.0244
▁경제의	-11.0249
존	-11.0249
▁발포	-11.0253
▁이룩	-11.0256
▁스텔	-11.0256
▁호화	-11.0257
▁단식	-11.0265
명에서	-11.0266
▁과시	-11.0267
▁테러단체	-11.0267
▁시달리고	-11.0268
▁승자	-11.0268
담당	-11.0269
▁선정됐다	-11.0272
▁사진들	-11.0274
▁작용	-11.0275
▁제트	-11.0277
▁나아가	-11.0277
▁궁	-11.0277
▁인기가	-11.028
▁오리	-11.0288
▁따르	-11.0291
▁건수	-11.0296
200	-11.0298
▁광부들	-11.03
▁프레드	-11.0303
▁친척	-11.0303
▁재정적	-11.0304
▁정신과	-11.0305
▁설치된	-11.0308
귀	-11.0315
▁과정에	-11.0316
▁정보국	-11.0318
만명에	-11.0322
▁관리자	-11.0333
▁기각	-11.0337
▁있었기	-11.034
▁참가했다	-11.034
▁입학	-11.0346
▁수여	-11.035
▁신도	-11.035
▁혼란에	-11.035
값	-11.0351
폭	-11.0354
공격	-11.0355
켈	-11.0359
▁남자들	-11.036
▁내게	-11.036
▁98	-11.0363
▁방문객들	-11.0369
조약	-11.0371
▁개최된	-11.0372
▁도살	-11.0372
▁번지	-11.0373
기때문에	-11.0375
▁있거	-11.0375
녀	-11.0382
하에	-11.0391
▁오픈에서	-11.0393
▁요청했	-11.0395
▁블	-11.0396
▁참가하	-11.04
▁러시아와	-11.0402
▁완성	-11.0407
▁패한	-11.0408
▁재고	-11.0409
▁비행기에	-11.0411
▁참석하기	-11.0411
▁모스	-11.0412
▁등급	-11.0413
▁축출	-11.0413
▁확보했다	-11.0413
▁요청할	-11.0414
▁변호	-11.0414
▁기소했다	-11.0415
▁프랑스와	-11.0416
나무	-11.0417
▁어머니와	-11.0422
▁트	-11.0425
il	-11.0431
받	-11.0443
▁의제	-11.0444
사의	-11.045
십	-11.0451
린다	-11.0451
▁보도한	-11.0454
▁상륙	-11.0455
ll	-11.0457
▁보내기	-11.0464
선거	-11.0464
업계	-11.0468
15	-11.0469
마르	-11.0471
▁영광	-11.0471
▁생존자들	-11.0472
▁남편과	-11.0475
자금	-11.0486
ri	-11.0487
60	-11.0487
르게	-11.0489
으려	-11.0493
▁무덤	-11.0494
▁지도자들과	-11.0496
▁참석해	-11.0496
▁나타났	-11.0496
전에서	-11.0499
행사	-11.05
▁나섰	-11.0505
▁조사하기	-11.0508
▁넣어	-11.0509
▁탈출했다	-11.051
▁홍	-11.0515
▁인접	-11.0515
▁자금이	-11.0516
버스	-11.0521
▁확고	-11.0523
탁	-11.0526
징	-11.0529
▁교외	-11.0529
▁인정하	-11.053
릿	-11.0533
▁high	-11.0533
▁afp	-11.0534
▁nfl	-11.0534
▁url	-11.0534
▁골든글로브	-11.0534
▁광우병	-11.0534
▁국가주석	-11.0534
▁뉴욕타임스	-11.0534
▁뉴캐슬	-11.0534
▁당나귀	-11.0534
▁대주교	-11.0534
▁몸값	-11.0534
▁몸무게	-11.0534
▁불렀다	-11.0534
▁유조선	-11.0534
▁이르렀다	-11.0534
▁일으켜	-11.0534
▁재확인	-11.0534
▁트라볼타	-11.0534
▁항생제	-11.0534
▁세비야	-11.0534
▁집무실	-11.0534
▁모바일	-11.0534
▁효력	-11.0534
▁잔혹	-11.0534
▁흐름	-11.0534
▁농담	-11.0534
▁쇼핑몰	-11.0534
▁소탕작전	-11.0534
▁대략	-11.0534
▁kim	-11.0534
▁에르도간	-11.0534
▁칭찬	-11.0534
▁연휴	-11.0535
▁격돌	-11.0535
▁왕복선	-11.0535
▁닉슨	-11.0535
▁숨겨	-11.0535
▁연극	-11.0535
▁개념	-11.0536
▁명칭	-11.0536
▁부속	-11.0536
▁풍선	-11.0537
▁복수	-11.0537
▁종양	-11.0537
▁추출	-11.0538
▁감량	-11.0538
▁예언자	-11.0539
▁활동이	-11.0539
▁상반기	-11.0539
▁엘바	-11.054
▁피닉스호	-11.054
▁편안	-11.054
▁신병	-11.054
▁제패	-11.0541
▁강연	-11.0542
▁감원	-11.0543
▁거둔	-11.0543
▁공군기지	-11.0544
▁조속	-11.0544
▁중반	-11.0545
▁버전	-11.0548
▁알렌	-11.0549
▁정오	-11.0549
▁폐기물	-11.0549
▁연임	-11.055
▁여단	-11.0552
▁비유	-11.0553
▁참여하지	-11.0553
▁보호하고	-11.0555
▁아이티	-11.0558
▁모르겠다	-11.0558
▁광대	-11.0559
▁대우	-11.056
▁동영상에	-11.0564
▁동맹국들	-11.0565
ish	-11.0565
▁걸었다	-11.0565
▁반미	-11.0565
▁성공회	-11.0565
▁상관없	-11.0565
▁상위	-11.0568
▁기획	-11.0568
▁면적	-11.0569
▁알려주	-11.0569
▁인도에서	-11.0573
▁거주지	-11.0578
▁유지하기	-11.0579
▁연방수사국	-11.0582
▁틸	-11.0583
▁선언한	-11.0584
▁life	-11.0588
▁래	-11.0589
▁인정받	-11.0589
▁들어가는	-11.059
스코	-11.059
▁녹화	-11.0591
▁전설	-11.0591
▁지연되	-11.0592
▁구단	-11.0596
▁취임한	-11.0602
▁독일에서	-11.0602
▁유기	-11.0606
네스	-11.0608
시까지	-11.0611
데스	-11.0612
▁활동하	-11.0613
디아	-11.0613
▁명시	-11.0618
▁소방관	-11.0624
▁특별히	-11.0626
얼	-11.0627
▁파일	-11.0629
▁끝나는	-11.0634
▁신도들	-11.0637
▁과장	-11.0639
▁줄여	-11.0639
▁week	-11.0639
▁총선에	-11.0643
▁모스크바에서	-11.0652
▁우주인	-11.0652
ist	-11.0654
육	-11.0662
▁교육부	-11.0663
▁폭로	-11.0667
▁농민	-11.0672
돼있다	-11.0673
▁힐튼이	-11.0675
리고	-11.0679
▁확실하지	-11.0679
▁그라운드	-11.0681
푸	-11.0684
받아	-11.0684
▁환	-11.0686
▁비난한	-11.0686
▁모의	-11.0689
역대	-11.069
▁인명	-11.0691
▁어린이들이	-11.0692
▁국무장관이	-11.0696
사항	-11.0696
▁지니	-11.0699
▁차가	-11.0703
구조	-11.0707
▁본국	-11.0708
▁기술이	-11.0708
▁소속의	-11.0712
번에	-11.0712
▁불교	-11.0714
미국	-11.0717
▁서명했다	-11.0718
▁총격으로	-11.072
▁파손되	-11.0728
▁연행	-11.0728
▁부문에서	-11.0729
▁do	-11.0734
▁미소	-11.0737
체제	-11.0739
▁서쪽	-11.0739
▁벌어지	-11.0744
스케	-11.0749
▁학생들과	-11.0753
▁부통령이	-11.0755
세에서	-11.0757
▁노동부	-11.0763
▁향했다	-11.0764
▁느낌	-11.0772
▁비교해	-11.0772
▁스크린	-11.0778
이기도	-11.0779
▁국회의	-11.0782
▁au	-11.0789
▁맡	-11.0795
▁대테러	-11.0797
▁오를	-11.0798
▁손자	-11.0801
▁국제우주정거장	-11.0804
▁이해할	-11.0806
▁하도록	-11.0808
▁특이	-11.0812
▁뉴델리	-11.0812
▁원치	-11.0828
▁참여하는	-11.0829
▁미시간	-11.0833
▁활성화	-11.0834
▁만나기	-11.0836
▁협상단	-11.084
▁측면	-11.084
▁영국에	-11.0842
▁가고	-11.0848
▁펜실베니아	-11.0848
▁불가피	-11.0849
▁고려해	-11.085
▁바다로	-11.0854
▁성경	-11.0856
▁루이지애나	-11.0857
land	-11.0858
▁약화	-11.0861
▁가정에	-11.0864
▁살아남	-11.0865
▁london	-11.0867
▁wfp	-11.0867
▁비즈니스	-11.0867
▁싶은	-11.0867
▁야스쿠니	-11.0867
▁제니퍼	-11.0867
▁취득	-11.0867
▁카자흐스탄	-11.0867
▁클루니	-11.0867
▁로스앤젤레스	-11.0867
▁상파울루	-11.0867
▁우주정거장	-11.0867
▁커뮤니티	-11.0867
▁글래스고	-11.0867
▁다운로드	-11.0867
▁그루지아	-11.0867
▁지중해	-11.0867
▁퇴치	-11.0867
▁호르몬	-11.0867
▁정해지지	-11.0868
▁무너져	-11.0868
▁press	-11.0868
▁혈액	-11.0868
▁부작용	-11.0868
▁여배우	-11.0868
former	-11.0868
▁타이완	-11.0868
▁바꿔	-11.0868
▁양육권	-11.0868
▁논문	-11.0868
▁근교	-11.0869
▁쿠르드족	-11.0869
▁토양	-11.0869
▁lg	-11.0869
▁무너진	-11.0869
▁해킹	-11.0869
▁할아버지	-11.0869
▁may	-11.0869
▁재벌	-11.087
▁회부	-11.087
▁공백	-11.087
▁학위	-11.087
▁출국	-11.0871
▁병역	-11.0871
▁인디아나	-11.0871
▁토론토	-11.0872
▁이례적	-11.0872
▁사법부	-11.0874
▁후퇴	-11.0874
▁계열사	-11.0874
▁난동	-11.0875
▁부른	-11.0875
▁베어	-11.0875
▁군복	-11.0875
▁group	-11.0876
▁차림	-11.0877
▁인공	-11.0878
▁구단주	-11.0878
▁수만명	-11.0879
▁세관	-11.0879
▁예배	-11.088
▁지하드	-11.0881
▁일축했다	-11.0881
▁뒤집	-11.0882
스틴	-11.0882
▁활기	-11.0884
▁불화	-11.0886
▁펼치	-11.0888
스카	-11.0889
▁채권	-11.089
구가	-11.0891
▁되었습니다	-11.0891
▁자크	-11.0891
웨	-11.0896
▁관점에서	-11.0897
▁표결	-11.0897
▁면접	-11.0899
▁발리	-11.0901
▁안드레	-11.0902
▁구경	-11.0907
▁추구	-11.091
▁돌리	-11.0914
었는지	-11.0915
▁안되	-11.0917
▁끄	-11.0917
▁취급	-11.0919
▁중국인	-11.0921
▁기록했	-11.0922
▁미만	-11.0926
▁중에서	-11.0927
▁350	-11.0928
▁과학적	-11.0929
▁상원의원에	-11.0935
▁열정	-11.0935
▁이어질	-11.0935
일째	-11.0941
▁이동하	-11.0943
▁사회주의	-11.0946
▁수용할	-11.0947
더스	-11.0951
▁시도하	-11.0951
▁보낸다	-11.0962
스크	-11.0965
▁보호하는	-11.0965
▁벌어지고	-11.0969
▁발달	-11.097
▁ma	-11.0972
▁취소됐다	-11.0972
시대	-11.0972
▁정리	-11.0974
▁반대했다	-11.0976
▁상승했	-11.0983
▁기한	-11.0988
다소	-11.0989
co	-11.0991
▁구하기	-11.0992
▁전략적	-11.0995
▁군부대	-11.0995
▁파악하	-11.0998
▁당국과	-11.1005
냈다	-11.1005
▁판매되	-11.1009
ance	-11.101
▁시스템이	-11.1011
▁의혹에	-11.1013
▁91	-11.1015
▁강진	-11.103
▁금지하고	-11.103
웅	-11.1034
빙	-11.1036
롱	-11.1036
▁중단하고	-11.1037
▁극적	-11.1038
협정	-11.104
서비스	-11.1043
▁칼라	-11.1043
▁새해	-11.1044
제품	-11.1045
▁me	-11.1049
자회담에	-11.105
▁풀어	-11.105
사이	-11.105
▁당하	-11.1054
때까지	-11.1056
▁경찰서에	-11.1057
진다	-11.1057
▁시간에	-11.1064
▁아내와	-11.1065
▁주인이	-11.1069
벨트	-11.107
▁87	-11.1071
되었는데	-11.1073
▁증진	-11.1074
500	-11.1074
▁판결했다	-11.1075
▁부상당	-11.1075
▁침묵	-11.1077
▁가져	-11.1082
대사	-11.1082
합	-11.1083
공사	-11.1093
사와	-11.1097
▁배포	-11.1098
▁수락	-11.1101
▁신문에	-11.1104
▁중계	-11.1104
▁사용하기	-11.1105
▁흥미	-11.1108
▁앙	-11.1109
▁범	-11.1111
렉	-11.1113
카드	-11.1117
▁아이들에게	-11.1131
▁결의안에	-11.1132
▁포기했다	-11.1135
▁주가가	-11.114
▁추모	-11.1141
▁장성	-11.1141
▁전송	-11.1141
▁모술	-11.1141
드리	-11.1144
▁승객들이	-11.1146
▁공판	-11.115
룬	-11.1153
례	-11.1156
▁염려	-11.1158
▁장악	-11.1169
▁영국은	-11.1173
베리	-11.1178
게임	-11.1183
▁하려	-11.1184
▁킨	-11.1185
세이	-11.1187
▁so	-11.1189
▁세기	-11.1191
▁국정원	-11.1193
▁usa	-11.1194
▁연기했다	-11.1194
업자들	-11.1196
▁경영자	-11.1198
▁한쪽	-11.1202
치료	-11.1204
넨	-11.1205
렐	-11.1205
▁associat	-11.1211
▁연이	-11.1212
▁모니터	-11.1212
▁착취	-11.1212
▁불쾌	-11.1212
닛	-11.1212
눌	-11.1212
▁police	-11.1212
▁걷는	-11.1212
▁그루지야	-11.1212
▁도널드	-11.1212
▁매머드	-11.1212
▁세계보건기구	-11.1212
▁수하르토	-11.1212
▁악영향	-11.1212
▁암스트롱	-11.1212
▁오징어	-11.1212
▁좋게	-11.1212
▁케르비엘	-11.1212
▁포괄적	-11.1212
▁흥행	-11.1212
▁맥케인	-11.1212
▁닥터	-11.1212
▁린제이	-11.1212
▁교과서	-11.1212
▁자서전	-11.1212
▁death	-11.1212
▁퇴장	-11.1212
▁방사능	-11.1212
▁침착	-11.1212
▁속옷	-11.1212
▁세인트	-11.1213
▁계곡	-11.1213
▁종신형	-11.1213
▁허블	-11.1213
▁요격	-11.1213
▁두뇌	-11.1214
▁정체	-11.1214
▁아끼	-11.1214
▁수비수	-11.1214
▁맹세	-11.1215
▁피셔	-11.1215
▁우연	-11.1216
▁총알	-11.1217
▁코너	-11.1218
이상	-11.1218
▁언제든	-11.1218
▁정통	-11.1218
▁정보기관	-11.1218
▁성행위	-11.1219
▁control	-11.1219
▁볼튼	-11.122
▁배제하지	-11.122
▁필리스	-11.1221
▁얼리	-11.1221
▁교량	-11.1221
▁가르치	-11.1222
▁요트	-11.1223
▁가서	-11.1223
▁버진	-11.1224
▁아카데미상	-11.1226
▁안내	-11.1226
▁지속될	-11.1226
▁냄새	-11.1228
▁제트기	-11.1229
▁결의	-11.123
▁감면	-11.123
▁나체	-11.1231
▁줄이고	-11.1231
▁감옥에	-11.1231
▁전례	-11.1232
▁지문	-11.1232
▁리타	-11.1232
▁있었는지	-11.1234
▁개조	-11.1236
▁남았다	-11.1238
▁나란	-11.1238
▁1200	-11.1238
ta	-11.1239
▁도시에	-11.1242
▁가난	-11.1242
▁시위대와	-11.1242
▁발견되	-11.1247
▁선데이	-11.1247
▁쓰	-11.125
▁구상	-11.1252
▁그럼	-11.1253
▁지키기	-11.1253
▁부진	-11.1254
▁단계에	-11.1255
▁내년에	-11.1258
▁확실하다	-11.1259
▁만들었	-11.126
▁권위	-11.1262
me	-11.1264
▁측에서	-11.1265
▁시작되었다	-11.1266
▁페리	-11.1266
▁라이프	-11.1267
▁생겼다	-11.1267
▁적당	-11.1267
▁조절	-11.1271
▁해외에서	-11.1275
▁아이들과	-11.1277
▁환영했다	-11.1282
▁전범	-11.1283
▁이베이	-11.1284
▁런던에	-11.1285
▁반군과	-11.1285
▁재배	-11.1288
▁팬들에게	-11.1289
▁공세	-11.1289
▁때로	-11.1292
▁96	-11.1296
▁알았다	-11.1299
▁부결	-11.1301
ent	-11.1302
주기	-11.1303
견	-11.1305
▁추진하고	-11.1306
▁임원	-11.1314
▁신고했다	-11.1315
▁man	-11.1316
▁말하면서	-11.1319
슬	-11.1322
▁말했지만	-11.1329
▁났다	-11.1329
▁시점에서	-11.1331
100	-11.1331
▁사이트에	-11.1331
▁없애	-11.1332
▁문자	-11.1333
▁포함된다	-11.1337
▁사무	-11.1341
▁내장	-11.1341
▁국가안보	-11.1347
▁천문학자들	-11.1354
▁기간에	-11.1355
▁걸려있	-11.1356
침	-11.1363
▁착용	-11.1366
▁의원들에게	-11.1372
▁사람과	-11.1378
78	-11.1381
▁점이	-11.1383
▁트레	-11.1383
느	-11.1385
▁오해	-11.139
▁시작되	-11.1391
짓	-11.1391
본부	-11.1393
감독	-11.1397
▁학	-11.1398
콜	-11.1399
84	-11.1402
등급	-11.1403
보호	-11.1403
▁범죄에	-11.1411
▁도시로	-11.1412
▁시사	-11.1413
기술	-11.1415
▁관리인	-11.1416
▁물리치	-11.1419
▁라인	-11.1419
▁추정하	-11.142
▁농	-11.1425
▁합의문	-11.1428
▁가속화	-11.1431
▁인정한	-11.1431
▁유대	-11.1432
▁파이	-11.1434
일정	-11.144
당했다	-11.1443
▁이적	-11.1445
부분	-11.1445
▁vi	-11.1446
▁진행됐다	-11.1446
▁광장에	-11.1446
▁다가	-11.1447
만년	-11.1447
▁수십억	-11.1453
▁슬	-11.1454
▁보호할	-11.1457
▁일고	-11.1461
념	-11.1463
천억	-11.1465
라면	-11.1468
오는	-11.1469
드로	-11.147
▁미치	-11.1474
▁드는	-11.1479
▁손님	-11.1487
▁공격수	-11.1492
▁폭발했다	-11.1494
▁기다려	-11.15
▁지불하	-11.1503
▁무시	-11.1504
▁중국인들	-11.1507
▁저가	-11.1508
대한	-11.1509
▁막고	-11.151
▁사제	-11.1514
ter	-11.1514
▁일으켰	-11.1518
▁멈추	-11.1522
▁노스	-11.1522
▁ge	-11.1526
▁교회에서	-11.1528
▁하버드	-11.1533
▁출전한	-11.1536
▁시도했다	-11.1537
▁박탈	-11.1539
비오	-11.154
▁따뜻하	-11.1541
ca	-11.1541
▁배급	-11.1543
▁치른	-11.1547
▁시장과	-11.1547
ah	-11.1548
▁왜곡	-11.1549
▁감옥	-11.155
바리	-11.1551
시기	-11.1551
▁버리	-11.1553
▁풍경	-11.1554
▁원자력	-11.1556
▁구타	-11.1557
중이다	-11.1558
▁매사추세츠	-11.1562
▁구제금융	-11.1563
▁메릴랜드	-11.1563
▁전했	-11.1564
▁문제점	-11.1566
▁되돌아	-11.1569
▁1981	-11.1569
▁bmw	-11.1569
▁만장일치	-11.1569
▁매코맥	-11.1569
▁몸집	-11.1569
▁미드필더	-11.1569
▁벤자민	-11.1569
▁세실리아	-11.1569
▁슈워제네거	-11.1569
▁승용차	-11.1569
▁실업수당	-11.1569
▁잃지	-11.1569
▁자메이카	-11.1569
▁크누트	-11.1569
▁프로듀서	-11.1569
▁피추시킨	-11.1569
▁service	-11.1569
▁깃발	-11.1569
▁마흐무드	-11.1569
▁재정경제부	-11.1569
▁맥코맥	-11.1569
▁블룸버그	-11.1569
▁월드시리즈	-11.157
▁스피처	-11.157
▁미망인	-11.157
▁월마트	-11.157
▁무하메드	-11.157
▁러셀	-11.157
▁모하마드	-11.157
▁메뉴	-11.157
▁유혈	-11.157
▁트로피	-11.157
▁조셉	-11.157
▁면밀	-11.157
▁무산	-11.157
▁평범	-11.157
▁구조조정	-11.157
▁태양열	-11.157
▁face	-11.157
▁완공	-11.157
▁감추	-11.157
▁전염병	-11.157
▁몰래	-11.157
▁방북	-11.1571
▁행방	-11.1571
▁eta	-11.1571
▁주류	-11.1571
▁bank	-11.1571
▁소령	-11.1571
▁간섭	-11.1572
▁머피	-11.1572
▁보상금	-11.1572
▁제라드	-11.1572
▁밤새	-11.1572
▁현행	-11.1572
▁굿	-11.1572
▁기름	-11.1572
▁교토	-11.1573
▁prim	-11.1573
▁적대적	-11.1574
▁처	-11.1574
▁외교관계	-11.1574
▁787	-11.1574
▁높아졌다	-11.1577
▁중단하라	-11.1577
▁극단주의자들	-11.1577
▁약혼	-11.1578
▁정교	-11.1578
▁폭풍우	-11.1578
▁복지	-11.1579
▁비준	-11.1579
▁재발	-11.158
▁문신	-11.158
▁대피소	-11.158
놨다	-11.158
▁북서쪽	-11.1581
▁헐	-11.1581
▁우드	-11.1581
▁공조	-11.1582
▁chin	-11.1583
▁혼다	-11.1583
▁같았다	-11.1583
▁필립스	-11.1584
▁기내	-11.1584
대회	-11.1584
▁기후변화	-11.1586
▁인계	-11.1587
▁순찰대	-11.1593
▁work	-11.1595
▁경제와	-11.1596
▁크리스티나	-11.1596
▁반대한다	-11.1597
천억원	-11.1603
▁유입	-11.1603
▁대학살	-11.1604
▁낙	-11.1605
▁선고받	-11.1605
▁여자들	-11.1608
▁기자들이	-11.1608
▁장려	-11.161
▁자리잡고	-11.1611
달라	-11.1611
▁양상	-11.1613
▁캐리	-11.1615
▁유용	-11.1617
▁클라	-11.1617
되자	-11.1619
▁갖는다	-11.1622
능	-11.1627
▁조사했다	-11.163
▁집안	-11.1633
▁금지하는	-11.1635
허	-11.1637
▁포기하지	-11.1638
송	-11.1638
▁전설적	-11.164
▁영국으로	-11.1644
▁판사들	-11.1648
▁통일	-11.1648
▁지수가	-11.1653
▁것들	-11.1653
▁자신에	-11.1656
▁폐쇄했다	-11.1658
자리	-11.166
▁무장괴한	-11.166
▁표현했다	-11.1667
▁고고학자들	-11.1668
▁내로	-11.1669
▁기울이	-11.167
▁돌보	-11.1672
ive	-11.1672
년에서	-11.1672
▁든다	-11.1675
▁제품에	-11.1677
▁기반으로	-11.1677
▁임명된	-11.1678
▁하나이다	-11.168
▁알려	-11.1682
▁떼	-11.1683
▁이라크전에	-11.1684
▁방치	-11.1692
▁국민이	-11.1693
▁정한	-11.1701
▁나가는	-11.1703
▁동일	-11.1703
가격	-11.1711
▁다음과	-11.1715
▁얼음이	-11.1726
▁창조	-11.173
▁될지	-11.174
▁맞이하	-11.1744
na	-11.1747
▁통신사	-11.1749
▁지지도	-11.1753
끼	-11.1754
칭	-11.1758
▁일상적	-11.1764
찌	-11.1765
칼	-11.1768
않	-11.1768
27	-11.1775
▁미하	-11.1779
▁지방의	-11.1779
▁미군측	-11.1779
▁하는데	-11.1779
▁돌아온	-11.1782
▁국왕이	-11.1782
▁줄기	-11.1789
머리	-11.179
▁받아들이	-11.1792
생활	-11.1794
▁지배하	-11.1794
▁말로	-11.1796
▁오고	-11.1797
▁고속	-11.1801
▁운동가	-11.1808
▁부근에	-11.1811
sa	-11.1811
물이	-11.1815
▁주소	-11.1817
▁풍	-11.1819
▁건물에서	-11.1821
타임	-11.1826
▁치고	-11.1829
트라	-11.1829
▁급증	-11.1831
▁납치됐다	-11.1832
▁관료	-11.1836
▁사무실에서	-11.1837
▁동전	-11.1838
자르	-11.1842
▁관중	-11.1847
▁정당이	-11.1851
▁주교	-11.1855
▁공정	-11.1857
럴	-11.1857
▁낭비	-11.1858
▁일정이	-11.1859
▁도쿄에서	-11.1862
▁파편	-11.1862
▁소행성	-11.1862
▁열려	-11.1864
▁아프	-11.1865
▁웨이	-11.1865
부를	-11.1866
▁납치했다	-11.187
향	-11.187
▁법정에	-11.187
▁주장이	-11.188
▁늘리	-11.1882
해준	-11.1883
▁듯한	-11.1883
학년	-11.1883
▁기숙사	-11.1885
400	-11.1893
바로	-11.19
▁속한	-11.19
▁살해하겠다	-11.19
▁백악관에	-11.1905
점이	-11.1906
▁반도	-11.1907
14	-11.1907
▁사원에서	-11.1907
▁지냈	-11.191
께	-11.1911
▁크레	-11.1912
나갈	-11.1914
▁입원한	-11.1917
▁민주당과	-11.1919
▁위스콘신	-11.1923
▁위기로	-11.1924
▁정책이	-11.1926
켓	-11.1927
99	-11.1927
▁여자아이	-11.1928
▁election	-11.1929
▁모르고	-11.193
▁둔화	-11.1931
멸	-11.1933
▁델타	-11.1933
▁덧붙	-11.1935
▁서약	-11.1935
픈	-11.1935
섭	-11.1937
▁화염	-11.1939
▁아마존	-11.1939
밍	-11.194
▁general	-11.194
▁넘어섰다	-11.194
▁놀랐다	-11.194
▁댈러스	-11.194
▁무책임	-11.194
▁사형집행	-11.194
▁색깔	-11.194
▁여동생	-11.194
▁캠벨	-11.194
▁탈라바니	-11.194
▁흡수	-11.194
▁비영리	-11.194
▁동계올림픽	-11.194
▁이벤트	-11.194
▁economic	-11.194
▁셔츠	-11.194
▁다뤄	-11.194
▁벨몬트	-11.194
▁issue	-11.194
▁앙겔	-11.194
▁공략	-11.194
▁8226	-11.194
▁유혹	-11.194
▁겁니다	-11.194
▁침투	-11.194
▁열쇠	-11.194
▁후계자	-11.194
▁둘째	-11.194
▁압승	-11.194
▁레논	-11.194
▁확인해	-11.194
▁평결	-11.194
국의	-11.1941
▁코스피	-11.1941
▁보석금	-11.1941
▁디스커버리호	-11.1941
트로터	-11.1941
▁change	-11.1942
▁세균	-11.1942
▁1953	-11.1942
▁제이미	-11.1942
▁초대형	-11.1942
▁지닌	-11.1942
▁교황청	-11.1942
▁탄약	-11.1942
▁발목	-11.1942
▁주치의	-11.1942
▁골드	-11.1942
▁자치구	-11.1943
▁다짐	-11.1943
▁원격	-11.1943
▁존드로	-11.1944
▁납치범들	-11.1944
▁벌금형	-11.1944
▁데니스	-11.1945
▁악성	-11.1946
▁독점	-11.1946
▁업	-11.1947
▁외출	-11.1947
▁유포	-11.1947
▁자회사	-11.1948
▁용서	-11.1948
▁동성	-11.1949
▁검찰총장	-11.1949
▁팜	-11.195
▁초등학교	-11.195
▁기초	-11.195
▁want	-11.195
▁남미	-11.1951
▁떨어지는	-11.1952
국장	-11.1952
▁노동력	-11.1952
▁왔습니다	-11.1953
▁pf	-11.1953
▁담겨있다	-11.1953
▁호흡기	-11.1954
▁미사	-11.1955
▁닭	-11.1956
▁붐	-11.1956
▁아버지와	-11.1957
▁조카	-11.1959
구의	-11.196
▁초래할	-11.1961
▁운하	-11.1962
▁자유당	-11.1963
▁탔다	-11.1964
56	-11.1964
▁내정자	-11.1965
▁오지	-11.1965
▁박수	-11.1966
▁750	-11.1966
▁건립	-11.1967
▁부인과	-11.1969
▁끈	-11.197
▁성전	-11.197
▁메달	-11.1973
▁장착된	-11.1973
▁상아	-11.1974
▁춤	-11.1976
▁미국에서는	-11.1977
세스	-11.1978
혐의로	-11.1978
▁inter	-11.1979
▁산소	-11.1979
▁110	-11.1983
▁고마	-11.1985
▁iss	-11.1987
▁절도	-11.1987
▁단서	-11.1991
▁조치에	-11.1993
▁환영한다	-11.1993
▁단행	-11.1995
▁범죄자들	-11.1997
▁장악한	-11.1998
▁후임자	-11.1999
▁석방했다	-11.2
▁leader	-11.2002
▁지목했다	-11.2004
▁off	-11.2004
▁놓았다	-11.2006
두고	-11.2007
▁경위	-11.2007
▁칩	-11.2009
▁감시단	-11.2009
▁사랑하는	-11.2011
▁컵	-11.2015
▁암살된	-11.2016
▁당장	-11.2016
▁감독상	-11.2017
▁시도한	-11.2017
▁230	-11.2018
▁웹사이트에서	-11.2021
▁프라	-11.2021
▁사업에	-11.2022
▁시작해	-11.2029
▁기어	-11.203
▁주민이	-11.203
45	-11.2032
into	-11.2032
▁관계자들과	-11.2033
▁대기업	-11.2033
▁비극적	-11.2034
▁부장관	-11.2036
시켜야	-11.2042
▁톤	-11.2043
▁상정	-11.2045
▁증인	-11.2047
▁프레	-11.2048
국인	-11.2048
▁인적	-11.2049
▁철수시키	-11.206
▁부상했	-11.2061
▁92	-11.2063
▁달에	-11.2068
혼	-11.207
▁이탈	-11.2073
▁로라	-11.2078
▁고백	-11.208
▁하겠다	-11.2081
▁밝혀내	-11.2082
▁들어있는	-11.2083
▁목격한	-11.2083
▁등장하	-11.2087
쪽	-11.2089
▁여진이	-11.209
▁하이	-11.209
회담	-11.2091
▁거치	-11.2093
▁납	-11.2094
able	-11.2096
▁게이	-11.2098
▁명에	-11.2098
▁헤어	-11.2103
▁예상되는	-11.2104
팅	-11.2106
▁러시아에서	-11.2107
▁was	-11.2107
▁핀	-11.2107
▁주사	-11.2108
▁기자들과	-11.211
▁제인	-11.2113
▁재무	-11.2113
▁공원에서	-11.2116
▁확인한	-11.2117
▁관심사	-11.2118
았	-11.2119
▁아프가니스탄에	-11.2119
▁접수	-11.2122
학과	-11.2129
▁후보에게	-11.2129
▁대변	-11.213
▁연결하	-11.213
42	-11.2133
▁경기도	-11.2136
몰	-11.2137
벤	-11.2147
▁제공한다	-11.2151
연구	-11.2152
핀	-11.2153
▁공개할	-11.2153
시즌	-11.2156
직에서	-11.2159
▁다음으로	-11.216
을때	-11.2166
▁물어	-11.2167
16	-11.2167
▁칼리	-11.2171
▁발사했다	-11.2172
▁케이	-11.2179
▁액	-11.2181
▁높아	-11.2183
자회담에서	-11.2189
▁8000	-11.2195
▁흘러	-11.2195
▁or	-11.2202
▁갑작스	-11.2205
▁열기	-11.2206
▁릭	-11.2206
▁ch	-11.2207
▁그때	-11.221
▁star	-11.2219
▁마련했다	-11.2223
금지	-11.2229
24	-11.2235
▁미수	-11.2239
▁시판	-11.2242
▁블로그	-11.2244
▁연예	-11.2247
▁일상	-11.2248
▁범죄자	-11.2255
41	-11.2256
▁지도자로	-11.2257
▁방한	-11.226
▁이었다	-11.2268
룩	-11.2269
돼있	-11.2271
▁암호	-11.2279
▁사업가	-11.2285
ho	-11.229
▁펼쳤	-11.2292
ap	-11.2292
▁쳐	-11.2292
▁에스	-11.2298
▁밀어	-11.2302
▁국세청	-11.2303
받고	-11.2304
▁격리	-11.2306
옥	-11.2311
널	-11.2312
▁당연	-11.2314
▁확인하는	-11.2316
▁득표	-11.2317
▁캔자스	-11.2317
▁당원	-11.2321
▁머무	-11.2323
▁중서부	-11.2324
▁개헌	-11.2324
▁촛불	-11.2324
▁consumer	-11.2324
▁ufo	-11.2324
▁구스마오	-11.2324
▁김계관	-11.2324
▁높였다	-11.2324
▁돕고	-11.2324
▁따돌리	-11.2324
▁마호메트	-11.2324
▁박테리아	-11.2324
▁알자와히리	-11.2324
▁웨스트버지니아	-11.2324
▁조코비치	-11.2324
▁클리블랜드	-11.2324
▁펼칠	-11.2324
▁financ	-11.2324
▁peace	-11.2324
▁뱅크	-11.2324
▁수족관	-11.2324
▁캠퍼스	-11.2324
▁콜레라	-11.2324
▁퍼레이드	-11.2324
▁피아노	-11.2324
▁유태인	-11.2324
▁chief	-11.2324
▁market	-11.2324
▁뉴욕증시	-11.2324
▁하리리	-11.2324
▁research	-11.2324
▁health	-11.2324
▁퍼트레이어스	-11.2324
▁혼합	-11.2324
▁대지진	-11.2324
▁수하물	-11.2324
▁당황	-11.2325
▁꾸준	-11.2325
▁티켓	-11.2325
▁토마토	-11.2325
▁삼엄	-11.2325
▁내셔널	-11.2325
▁지뢰	-11.2325
▁하얀	-11.2325
▁규명	-11.2326
▁영예	-11.2326
▁영입	-11.2326
▁페리노	-11.2326
▁삼림	-11.2326
▁이른바	-11.2326
▁분실	-11.2327
▁노리에가	-11.2327
▁일방적	-11.2327
▁뜨거	-11.2327
▁홈런	-11.2327
▁참전	-11.2327
▁검진	-11.2327
▁분출	-11.2327
▁제재조치	-11.2327
▁지폐	-11.2327
▁참패	-11.2328
▁타입	-11.2328
▁불안감	-11.2328
▁국영방송	-11.2328
▁히트	-11.2329
▁대담	-11.2329
▁1984	-11.2329
▁레저	-11.2329
▁발작	-11.2329
과정	-11.2329
▁재생	-11.233
▁북동쪽	-11.2331
▁시사회	-11.2332
▁소감	-11.2333
▁suv	-11.2334
▁헤이	-11.2335
▁단호	-11.2335
윈	-11.2336
▁남겼다	-11.2336
▁야간	-11.2337
▁호우	-11.2337
▁국면	-11.2339
▁빨간	-11.2339
▁돌아갔다	-11.2341
▁만든다	-11.2342
▁발견돼	-11.2343
▁늘어났다	-11.2344
▁것이냐	-11.2346
▁불가피하다	-11.2346
▁우파	-11.2347
▁폭격기	-11.2347
▁아미	-11.2348
▁도왔다	-11.2348
▁공개되지	-11.2349
▁애쓰고	-11.235
▁zan	-11.2352
▁자선	-11.2353
▁인민	-11.2355
▁단백질	-11.2355
이면	-11.2356
▁하마스와	-11.2361
▁습관	-11.2362
▁부수	-11.2365
▁사이즈	-11.2365
▁입장권	-11.2367
사회	-11.2368
▁back	-11.2369
▁정보가	-11.237
▁닐	-11.237
▁펭귄	-11.2371
▁안건	-11.2372
▁란	-11.2372
▁장난	-11.2372
▁보았다	-11.2376
▁뒤에서	-11.2377
▁리사	-11.2378
▁상태였다	-11.2378
느냐	-11.2379
스테	-11.2391
▁지명자	-11.2395
▁바퀴	-11.24
▁필수	-11.24
▁당의	-11.2402
▁부부의	-11.2403
▁보여주기	-11.2403
▁1800	-11.2404
▁제이	-11.2404
▁허위	-11.2405
▁관해서	-11.2405
▁그날	-11.2406
ma	-11.2406
▁하더라	-11.241
▁재판소	-11.2412
▁전반적으로	-11.2413
▁그쳤다	-11.2414
▁몽	-11.2414
▁카라	-11.2415
살이	-11.2416
▁po	-11.243
▁코커스에서	-11.2435
▁알리기	-11.2436
▁베를린에서	-11.2439
▁du	-11.244
▁펼치고	-11.2441
▁국회의원들	-11.2443
▁내리기	-11.2444
▁자랑	-11.2454
▁차량은	-11.2456
▁나갔다	-11.2457
▁남아있	-11.2462
만여	-11.2469
▁수성	-11.2473
리안	-11.2475
▁제기되	-11.2483
▁수반과	-11.2484
▁정치범	-11.2491
안전	-11.2493
▁딜러	-11.2498
투어	-11.2508
▁웨	-11.2509
▁리더	-11.2514
▁전파	-11.2516
검	-11.2522
▁면에서	-11.2523
▁정치에	-11.2527
▁방문객	-11.2528
▁구조대원	-11.2532
▁벽에	-11.2534
분기에	-11.2535
▁코스	-11.254
납	-11.2548
▁가축	-11.255
쓰	-11.255
리오	-11.255
콘	-11.2551
▁이득	-11.2551
▁전선	-11.2551
▁흔적	-11.2553
▁부자	-11.2553
오픈	-11.2554
하우스	-11.2555
떨어진	-11.2556
▁공장에서	-11.2559
▁목소리로	-11.2562
▁선거전	-11.2566
▁장소로	-11.2566
▁ban	-11.2567
▁감행했다	-11.257
▁190	-11.2572
▁마련하기	-11.2573
▁유지하는	-11.2573
▁총리직	-11.2574
▁국가들과	-11.258
주재	-11.2581
▁진행할	-11.2582
▁여러분들	-11.2584
사업	-11.2584
▁su	-11.2592
어진	-11.2592
해달라	-11.2593
▁발생하기	-11.2596
▁지사	-11.2597
▁담당하	-11.2603
▁125	-11.2603
ster	-11.2604
▁시민단체	-11.2606
▁피신	-11.2606
▁주지사와	-11.2607
▁강화했다	-11.261
▁소방관들	-11.2614
▁가담	-11.2618
▁시일	-11.262
▁억제	-11.2621
하자는	-11.2622
▁모으	-11.2625
▁용의	-11.2633
▁루스	-11.2635
▁계획한	-11.2636
▁싶어하	-11.2639
▁끝내	-11.264
▁파괴됐다	-11.2647
▁갇혀	-11.2649
소리	-11.2651
▁거래가	-11.2652
62	-11.2652
▁통과하	-11.2669
▁개막식	-11.2669
rd	-11.267
지구	-11.2671
객	-11.2674
무라	-11.2675
▁제공해	-11.2675
▁자연적	-11.2676
▁후보자들	-11.2677
▁you	-11.268
라스	-11.2682
▁물질이	-11.2686
▁논의하고	-11.269
▁올렸	-11.2691
▁묘지	-11.2692
▁대원	-11.2695
▁공격하는	-11.2697
▁제작자들	-11.2697
▁화석	-11.27
▁봤	-11.2702
▁전인	-11.2702
▁미트	-11.2705
▁치솟	-11.2706
▁호흡	-11.2709
▁하원에서	-11.2709
▁졸업	-11.2713
식이	-11.2713
마누엘	-11.2713
▁플래	-11.2715
콤	-11.2718
픽	-11.2718
▁선보였	-11.2719
▁아담	-11.2722
▁콜린	-11.2722
월드	-11.2723
▁안락사	-11.2723
said	-11.2724
▁baghdad	-11.2724
▁ftse	-11.2724
▁wild	-11.2724
▁기쁨	-11.2724
▁로페즈	-11.2724
▁부딪혀	-11.2724
▁아웅산수지	-11.2724
▁얀코비치	-11.2724
▁에탄올	-11.2724
▁올바른	-11.2724
▁저작권	-11.2724
▁집행유예	-11.2724
▁짝짓기	-11.2724
▁추수감사절	-11.2724
▁카톨릭	-11.2724
▁타블로이드	-11.2724
▁페널티킥	-11.2724
▁갤럭시	-11.2724
▁닌텐도	-11.2724
▁뮤직	-11.2724
▁백화점	-11.2724
▁제네바	-11.2724
▁카라카스	-11.2724
▁폴라로이드	-11.2724
▁신용위기	-11.2724
▁브로드웨이	-11.2724
▁진흙	-11.2724
▁살모넬라균	-11.2724
▁카리스마	-11.2724
▁투데이	-11.2724
▁도덕적	-11.2724
▁가볍	-11.2725
▁어휘	-11.2725
▁동점골	-11.2725
▁나중에	-11.2725
▁결승골	-11.2725
▁기둥	-11.2725
▁free	-11.2725
▁가자시티	-11.2725
▁call	-11.2725
▁부정선거	-11.2725
▁유망주	-11.2725
▁설교	-11.2725
▁관광산업	-11.2725
▁울머	-11.2725
▁워커	-11.2725
▁광경	-11.2726
▁코미디언	-11.2726
▁평생	-11.2726
▁브리티시	-11.2726
▁부회장	-11.2726
▁에이미	-11.2726
▁무엇인지	-11.2726
▁비공개	-11.2726
▁내비쳤다	-11.2726
▁호주오픈	-11.2727
▁있으	-11.2727
타운	-11.2727
▁동행	-11.2727
▁여성에게	-11.2727
▁오스틴	-11.2727
▁결별	-11.2727
▁태양계	-11.2728
▁연합뉴스	-11.2729
▁통행	-11.2729
▁녹아	-11.273
▁심장병	-11.273
▁우주에서	-11.2731
▁번영	-11.2731
▁바스크	-11.2731
▁dc	-11.2731
▁비자금	-11.2731
▁권유	-11.2732
▁매사추세츠주	-11.2732
▁열렬한	-11.2732
▁911	-11.2733
▁brit	-11.2734
▁숨지게	-11.2734
▁종파	-11.2735
▁온천	-11.2737
▁맡게	-11.2737
▁get	-11.2739
▁무너졌다	-11.274
69	-11.2741
▁번식	-11.2741
▁더이상	-11.2742
▁통로	-11.2742
▁제프	-11.2743
▁반란	-11.2743
▁악화될	-11.2744
슬리	-11.2744
▁행운	-11.2744
성에	-11.2745
▁올릴	-11.2746
▁인플루엔자	-11.2749
▁정상적으로	-11.275
▁상원의원직	-11.2753
▁줄어들었다	-11.2754
▁명인	-11.2754
베키	-11.2756
▁일로	-11.2758
▁공격할	-11.2761
▁작곡가	-11.2763
▁대도시	-11.2769
▁지미	-11.2769
▁투표권	-11.2769
▁심정	-11.277
▁이끌었다	-11.2773
▁의뢰인	-11.2774
▁안다	-11.2775
▁걸스	-11.2776
▁450	-11.2776
▁결승에서	-11.2777
▁찬사	-11.2782
▁제안한	-11.2782
후보	-11.2784
원인	-11.2786
▁계층	-11.2787
▁유명인사	-11.2787
▁감기	-11.2788
▁make	-11.2789
▁연관된	-11.279
▁내주	-11.2791
세에	-11.2793
▁불과했다	-11.2793
▁무혐의	-11.2795
▁가할	-11.2795
▁air	-11.2797
▁많지	-11.2797
tor	-11.2798
▁참가자	-11.2799
▁수잔	-11.2801
▁감자	-11.2803
▁살해됐다	-11.2803
▁흔들리	-11.2804
▁용인	-11.2804
▁잡혀있	-11.2804
▁문화적	-11.2805
▁이브	-11.2807
▁당원들	-11.2808
▁프	-11.2811
▁잡기	-11.2813
▁q	-11.2815
▁퍼지	-11.2817
▁어디에	-11.2817
▁맡아	-11.2818
▁올리는	-11.2819
▁관광객이	-11.282
▁발생한다	-11.2822
▁줄었다	-11.2822
85	-11.2823
▁나라에서	-11.2829
▁지구로	-11.283
▁시작되는	-11.2832
▁중유	-11.2834
▁start	-11.2836
▁개발도상국	-11.2837
▁수감됐다	-11.2839
▁바스라에서	-11.2841
▁이란에서	-11.2841
▁경의	-11.2843
티드	-11.2843
▁로한이	-11.2845
▁하트	-11.2846
만으로	-11.2847
군은	-11.285
▁v	-11.285
▁이동했다	-11.2855
▁태국에서	-11.286
▁살아있는	-11.2863
▁결승전에	-11.2863
▁이목	-11.2864
▁극심	-11.2866
▁신비	-11.2868
▁탑	-11.287
자료	-11.2874
스티	-11.2879
▁발생했던	-11.2879
▁가격에	-11.2884
▁거라고	-11.2887
▁국경지역에	-11.2888
▁이라크로	-11.2893
▁제한하	-11.2894
▁주문했다	-11.29
▁선보	-11.2902
▁발표하지	-11.2902
▁요한	-11.2907
▁이어진	-11.2907
▁게임에서	-11.2908
▁차고	-11.2911
▁fire	-11.2911
▁페이스	-11.2911
lee	-11.2912
층에	-11.2912
▁비평가들	-11.2914
▁획득했다	-11.2917
버트	-11.2925
▁도로에	-11.2926
▁국민에게	-11.2933
▁임신한	-11.2936
받은	-11.2945
▁쇼에	-11.2951
▁각료	-11.296
닉	-11.2961
답	-11.2961
혔다	-11.2962
▁가려	-11.2966
넌	-11.2966
▁시설에	-11.2968
힘	-11.2968
셰	-11.2969
▁실직	-11.2971
▁무기한	-11.2974
▁심화	-11.2977
35	-11.2977
▁전미	-11.298
곳에	-11.2985
▁미군에	-11.2987
▁길에	-11.2991
▁고려할	-11.2992
gb	-11.2994
▁여객기에	-11.2996
하려면	-11.3001
▁단계적	-11.3003
지오	-11.3008
▁했을	-11.3011
18	-11.3011
▁측에	-11.3012
▁고무	-11.3016
▁만이	-11.3021
▁소화	-11.3026
▁가하고	-11.3031
▁로이	-11.3033
▁반군에	-11.3033
▁빼	-11.3038
▁체인	-11.304
▁다쳤	-11.3045
fa	-11.3047
마른	-11.305
▁침팬지	-11.3053
아누	-11.3054
▁페르	-11.3059
▁시리아와	-11.306
▁동유럽	-11.3062
▁이건	-11.3066
▁요새	-11.3072
▁관광지	-11.3072
▁낙관적	-11.3075
▁재미	-11.3075
▁승	-11.3081
▁양곤	-11.3082
▁발사된	-11.3087
럼	-11.3088
▁놓여	-11.309
만톤	-11.3091
있었다	-11.3094
▁맞았	-11.3095
유로	-11.3096
▁여행객들	-11.3096
▁가한	-11.3096
▁별로	-11.3097
▁통과한	-11.3098
디스	-11.3099
▁독자	-11.3101
▁부적절	-11.3101
800	-11.3106
▁하라	-11.3106
통이	-11.3107
▁기울	-11.3109
▁공학	-11.3113
▁초과	-11.3114
▁들어온	-11.3114
▁싸	-11.3114
▁취했	-11.3115
▁선박에	-11.3117
▁주장해	-11.312
▁수직	-11.3124
핑	-11.3125
퇴	-11.3125
▁정찰	-11.3126
임에	-11.3127
▁의견에	-11.3127
▁홈페이지에	-11.3129
▁중심가	-11.313
▁year	-11.3131
▁이민자들	-11.3131
▁나눠	-11.3134
▁america	-11.3135
개국이	-11.3136
쁜	-11.3138
▁경제성장	-11.3138
roll	-11.3138
▁종합	-11.3138
▁김선일	-11.314
▁캐롤	-11.3141
▁가톨릭	-11.3141
▁곤돌라	-11.3141
▁과테말라	-11.3141
▁농작물	-11.3141
▁로널드	-11.3141
▁로맨틱	-11.3141
▁루마니아	-11.3141
▁마닐라	-11.3141
▁무크타다	-11.3141
▁베테랑	-11.3141
▁보건복지부	-11.3141
▁부정부패	-11.3141
▁싱가폴	-11.3141
▁애틀란타	-11.3141
▁엔터테인먼트	-11.3141
▁이데올로기	-11.3141
▁정동영	-11.3141
▁조선중앙통신	-11.3141
▁치렀	-11.3141
▁컨퍼런스	-11.3141
▁콘크리트	-11.3141
▁횟수	-11.3141
▁사카쉬빌리	-11.3141
▁염두	-11.3141
▁임산부	-11.3141
▁자이툰	-11.3141
▁테이블	-11.3141
▁페르난도	-11.3141
▁횡단	-11.3141
▁pakistan	-11.3141
▁기번스	-11.3141
▁두개골	-11.3141
▁태어나	-11.3141
▁도메인	-11.3141
▁동남아시아	-11.3141
▁크리켓	-11.3141
▁about	-11.3141
▁보스니아	-11.3141
▁대중교통	-11.3141
▁범람	-11.3141
▁오마바	-11.3141
▁스카이	-11.3142
▁엔데버호	-11.3142
▁빨간색	-11.3142
▁노왁	-11.3142
▁소요사태	-11.3142
▁엄중	-11.3142
▁배럭	-11.3142
▁통계청	-11.3142
▁난폭	-11.3142
▁아지즈	-11.3143
▁평론가들	-11.3143
▁포격	-11.3143
▁포스터	-11.3143
▁글렌	-11.3143
▁힌두교	-11.3143
▁유예	-11.3144
▁정글	-11.3144
▁총격사건	-11.3144
▁일대	-11.3144
▁단절	-11.3144
▁이정인	-11.3144
▁활력	-11.3144
▁야심	-11.3144
▁사절	-11.3144
▁패션계	-11.3144
▁본래	-11.3145
▁콜레스테롤	-11.3145
▁품질	-11.3145
▁당분간	-11.3145
▁곡물	-11.3146
▁경제성장률	-11.3146
느라	-11.3146
▁보류	-11.3146
▁황제	-11.3146
▁세레나	-11.3147
▁페퍼	-11.3147
▁철거	-11.3148
▁101	-11.3149
▁휴양지	-11.3149
▁테네시주	-11.3149
원으로	-11.315
▁최상	-11.315
▁지나친	-11.315
▁책임감	-11.3151
▁건조	-11.3153
▁행한	-11.3153
▁은행이	-11.3154
▁앙리	-11.3154
▁안심	-11.3155
▁신종	-11.3155
▁경쟁에서	-11.3155
▁팔렸다	-11.3156
▁삼았다	-11.3159
▁두목	-11.316
▁국민당	-11.3161
▁흉기	-11.3163
기위해	-11.3165
▁배아	-11.3166
▁미쳤다	-11.3166
▁휩싸였다	-11.3166
▁부장	-11.3167
▁펠리	-11.3169
▁요청하	-11.3169
▁작품상	-11.317
▁양당	-11.3171
▁군의	-11.3172
▁생성	-11.3172
▁열린다	-11.3173
▁사육	-11.3176
▁맺었다	-11.3176
▁열리기	-11.3178
▁면허	-11.3179
▁멜	-11.3179
▁넘어서	-11.318
▁내기	-11.3181
▁블록	-11.3183
강에	-11.3183
▁일종	-11.3184
▁주자	-11.3185
▁보수적인	-11.3189
▁만족한다	-11.3189
자루	-11.3192
▁경찰청장	-11.3193
여개	-11.3199
▁통상	-11.3199
팔	-11.3199
▁di	-11.3201
▁시대에	-11.3201
▁클로	-11.3203
▁일반인들	-11.321
▁후임으로	-11.3211
▁박물관에	-11.3211
▁장례식에	-11.3212
노조	-11.3214
▁수습	-11.3218
▁지원한	-11.3219
▁말라위	-11.3221
▁차지할	-11.3222
종일	-11.3226
▁디스	-11.3228
▁포기할	-11.3228
▁정상에	-11.3231
▁컨	-11.3233
▁돌입했다	-11.3236
▁높이고	-11.3238
21	-11.3238
▁설립한	-11.3239
ail	-11.3241
▁지정된	-11.3242
▁친구들과	-11.3242
▁한국정부	-11.3244
전문가	-11.3246
▁위치에	-11.3248
▁일이었다	-11.325
▁거물	-11.3254
▁치료제	-11.3254
▁식으로	-11.3258
▁전통적으로	-11.326
▁관료들	-11.3261
▁앤더슨은	-11.3262
▁협정에	-11.3263
ure	-11.3267
▁홀에서	-11.3278
▁시작하는	-11.3283
회전	-11.3284
▁분명한	-11.3285
ious	-11.3285
▁비리	-11.3286
▁죽이	-11.3287
▁도주	-11.3288
▁hd	-11.3288
ian	-11.3294
▁중재자	-11.3295
▁해변에서	-11.3296
▁생활에	-11.331
▁쓰이	-11.3311
▁협상에서	-11.332
것을	-11.3322
▁브리	-11.3328
▁난자	-11.3328
▁압도	-11.3328
▁불안한	-11.3328
▁섬에	-11.3332
려진	-11.3333
얀	-11.3336
▁언	-11.3337
률이	-11.3341
▁보아	-11.3342
▁편집자	-11.3342
▁클럽에서	-11.3343
수술	-11.3345
29	-11.3346
착륙	-11.3347
▁하는지	-11.3348
균	-11.335
▁방문이	-11.3351
▁움직임에	-11.3357
▁도달했다	-11.3358
치고	-11.3361
▁미국내	-11.3363
▁충돌했다	-11.3363
▁북한에서	-11.3367
▁기념일	-11.3372
ney	-11.3373
▁기념하기	-11.3375
▁arm	-11.338
▁부상당했다	-11.3384
▁잃어버	-11.3384
▁발표에	-11.3385
김	-11.3387
▁명으로	-11.3387
시위	-11.339
리어	-11.3392
▁유행	-11.3393
▁지점에	-11.3393
75	-11.3395
홍	-11.3395
걸	-11.3397
폐	-11.3397
잉	-11.3399
딜	-11.34
투표	-11.3401
▁특파원이	-11.3403
과정에서	-11.3405
캐	-11.3405
돈	-11.3407
환경	-11.3408
해진다	-11.3408
▁파키스탄이	-11.3411
▁없기	-11.3412
▁과다	-11.3412
보고서	-11.3413
장비	-11.3414
▁복용한	-11.3414
▁작전에	-11.3415
▁버렸다	-11.3416
▁폰	-11.3416
▁괴한들	-11.3417
▁세번째	-11.3419
▁인정하고	-11.342
▁사정	-11.3423
▁강사	-11.3424
▁정부로부터	-11.3427
▁위반한	-11.343
▁제안에	-11.3432
▁최대한	-11.3434
포트	-11.3435
세계	-11.3437
▁옮기	-11.3437
▁검찰에	-11.3437
시간이	-11.3438
▁합의했	-11.344
▁개헌안	-11.3442
▁인도와	-11.3442
해져	-11.3442
하르	-11.3443
▁설립자	-11.3446
▁한글	-11.3449
총리	-11.3449
▁상업적	-11.3451
▁콩	-11.3454
▁고전	-11.3455
▁내야	-11.3455
▁여인	-11.3461
ction	-11.3465
▁킬로미터	-11.3467
년대에	-11.347
법안	-11.3473
▁파업이	-11.3474
▁나라들	-11.3476
▁구형	-11.3482
▁체류	-11.3484
▁신의	-11.3485
▁간다	-11.3486
니는	-11.3494
▁멀	-11.3495
▁6000	-11.3498
▁94	-11.3499
▁되풀이	-11.3507
ext	-11.3507
▁베이루트	-11.3507
▁통신과	-11.3509
요원	-11.3511
▁아닐	-11.3511
▁민주당원들	-11.3519
▁중태라	-11.3524
▁통과할	-11.3524
▁집중적	-11.3526
▁들어갔	-11.3527
▁학자들	-11.3527
차이	-11.3528
▁제기한	-11.3528
제로	-11.353
▁일본인들	-11.3531
▁날아	-11.3533
▁줄어	-11.3534
▁독일과	-11.3534
▁기권	-11.3535
▁도움으로	-11.3536
인당	-11.354
▁ak	-11.3549
찰	-11.355
재단	-11.3555
▁격추	-11.3559
▁바탕	-11.3562
▁구조됐다	-11.3564
▁메사추세츠	-11.3565
▁임박	-11.3566
▁테네시	-11.3568
ry	-11.3568
▁데뷔	-11.3569
▁다국적	-11.357
▁호위	-11.3571
▁fun	-11.3575
▁조사는	-11.3576
▁australia	-11.3576
▁급상승	-11.3576
▁라우터바흐	-11.3576
▁버시바우	-11.3576
▁앨라배마	-11.3576
▁언색호	-11.3576
▁지구온난화	-11.3576
▁유시프	-11.3576
▁팔루자	-11.3576
쭉	-11.3576
▁의구심	-11.3576
▁최우수	-11.3576
▁획기적	-11.3576
▁힉스	-11.3576
▁white	-11.3576
▁주니어	-11.3576
▁administration	-11.3576
▁원내대표	-11.3576
▁억압	-11.3576
▁six	-11.3576
▁대통합민주신당	-11.3576
▁졸릭	-11.3576
▁home	-11.3576
▁밀접	-11.3576
▁리더십	-11.3576
▁검열	-11.3576
▁united	-11.3576
▁금융제재	-11.3576
▁소수민족	-11.3576
ea	-11.3576
▁gnp	-11.3576
▁토끼	-11.3576
▁호킨스	-11.3576
▁와중에	-11.3576
▁검시관	-11.3576
▁패널	-11.3576
▁번호판	-11.3577
▁간첩	-11.3577
▁회색	-11.3577
▁싸울	-11.3577
▁여객선	-11.3577
▁안젤리	-11.3577
▁무엇인가	-11.3577
▁그린랜드	-11.3577
▁기념품	-11.3577
▁신념	-11.3577
▁아바타	-11.3578
▁연습	-11.3578
▁증오	-11.3578
▁최후	-11.3578
▁모터	-11.3578
▁관행	-11.3578
▁서열	-11.3579
돌프	-11.3579
▁라틴	-11.3579
▁오락	-11.3579
▁피델	-11.3579
▁샤론	-11.358
▁외각	-11.358
▁선거자금	-11.358
▁베스트	-11.358
▁변동	-11.358
▁영역	-11.358
▁바이오	-11.358
▁테러공격	-11.358
▁참수	-11.3581
▁union	-11.3581
▁자매	-11.3582
▁조종	-11.3582
▁울프	-11.3582
▁반격	-11.3583
▁agenc	-11.3583
▁rights	-11.3584
▁여정	-11.3584
▁이상으로	-11.3585
▁터진	-11.3586
▁과실	-11.3586
▁태아	-11.3587
▁이끈	-11.3587
▁있겠지	-11.3587
▁홈페이지	-11.3588
▁스파이스	-11.3589
▁지난밤	-11.3589
▁걸프	-11.359
▁노벨상	-11.359
▁상실	-11.359
▁어미	-11.359
▁자란	-11.3591
▁뉴저지주	-11.3592
▁치르는	-11.3593
▁탈당	-11.3593
▁분명하다	-11.3593
▁경상	-11.3595
▁피터슨	-11.3596
▁태어났다	-11.3597
▁외모	-11.3597
▁본즈	-11.3599
▁기념식	-11.36
▁전시회	-11.36
▁직면한	-11.3601
▁어선	-11.3602
▁누드	-11.3603
ern	-11.3603
▁도박	-11.3604
▁활	-11.3604
▁되어야	-11.3604
▁고수	-11.3604
▁표적이	-11.3605
▁들어보	-11.3605
▁상징적인	-11.3606
▁보호소	-11.3606
▁채우	-11.3606
▁부탁	-11.3607
▁비행선	-11.3607
▁대신해	-11.3608
▁관세	-11.3609
▁토로했다	-11.3609
▁1600	-11.3611
▁올림픽에	-11.3612
▁댄	-11.3613
▁작용할	-11.3614
▁주둔군	-11.3615
년째	-11.3617
▁빵	-11.3618
▁심각하다	-11.3618
▁가능하	-11.3618
▁받았습니다	-11.362
▁많았다	-11.3621
▁질서	-11.3621
▁전술	-11.3623
▁가사	-11.3624
▁240	-11.3627
▁겐	-11.3627
▁지침	-11.3628
▁정부청사	-11.3628
▁봐	-11.363
세요	-11.363
▁구분	-11.3632
▁소유자	-11.3635
▁성능	-11.3636
▁이민법	-11.3636
▁서쪽으로	-11.3637
▁빚어	-11.3638
▁못하면	-11.3639
▁진정시키	-11.3641
▁증	-11.3641
▁결정한	-11.3644
▁판매하는	-11.3644
▁103	-11.3645
▁good	-11.3646
▁이룬	-11.3646
▁대처하기	-11.3647
▁시스템에	-11.3647
▁연예인	-11.3648
▁톱	-11.3649
▁행동으로	-11.3653
▁아랍어	-11.3654
▁나르	-11.3655
▁서부지역	-11.3657
마저	-11.3657
▁바그다드에	-11.366
▁현직	-11.3662
▁말했었다	-11.3663
▁이행하	-11.3665
▁대학생들	-11.3666
▁효과적인	-11.3667
▁일할	-11.3668
▁97	-11.3669
▁pop	-11.3671
▁맡기	-11.3673
▁실종됐다고	-11.3673
▁방콕에서	-11.3674
위에서	-11.3676
▁작고	-11.3678
▁참가국들	-11.3678
▁팔려	-11.3678
▁책정	-11.368
▁세웠	-11.3681
▁차원	-11.3683
▁실시됐다	-11.3683
▁로즈	-11.3684
▁끝내고	-11.3687
▁설치한	-11.3688
▁와서	-11.3691
쟁	-11.3693
시스	-11.3696
▁확산되	-11.3701
▁사진에	-11.3702
▁과일	-11.3703
▁지방에	-11.3707
▁허용하는	-11.3708
▁결정될	-11.3713
▁단체에	-11.3719
▁침수	-11.3721
▁만료	-11.3723
▁수행한	-11.3723
▁사무소	-11.3723
▁84	-11.3727
▁중국정부	-11.3733
▁마련된	-11.3737
▁파기	-11.3737
▁전문의	-11.3738
자들과	-11.3738
데이	-11.3738
▁프린스	-11.3741
▁파괴된	-11.3742
▁남지	-11.3745
시간에	-11.3748
▁교도	-11.3756
점에서	-11.3758
▁승리하는	-11.376
pe	-11.3772
▁비공식	-11.3772
학생	-11.3775
▁관여하	-11.3775
▁영화로	-11.3777
▁이용자들	-11.3778
▁고려하	-11.3782
▁전달한	-11.3789
▁파견했다	-11.3789
▁연기됐다	-11.3791
▁총리로	-11.3791
▁지지율로	-11.3796
▁수의사	-11.3804
▁아파트에서	-11.3806
직원	-11.3809
▁안개	-11.3811
▁지속된	-11.3811
▁계속됐다	-11.3812
▁명명	-11.3813
▁압도적	-11.3815
혈	-11.3819
300	-11.3821
▁동원해	-11.3821
mb	-11.384
텐	-11.3842
ac	-11.3844
▁워싱턴에	-11.3848
앤	-11.3848
▁감염자	-11.3851
way	-11.3852
▁다루는	-11.3853
▁동부에	-11.3854
디어	-11.3854
▁중단된	-11.3855
묘	-11.3855
솔	-11.3856
▁내용이다	-11.3857
head	-11.3858
▁수년간	-11.3858
채가	-11.3858
▁경선이	-11.3859
▁나비	-11.386
버린	-11.3863
베르	-11.3864
▁제의	-11.3864
▁강화하기	-11.3865
▁린다	-11.3867
증권	-11.3868
▁울리	-11.3868
▁수퍼대의원	-11.3868
개혁	-11.387
▁여진	-11.3871
나마	-11.3874
우드	-11.388
700	-11.3882
979	-11.3884
▁일요일에	-11.3888
▁정말로	-11.3889
교육	-11.389
▁참모	-11.3892
▁한반도에서	-11.3896
▁이유에	-11.3897
▁투자가들	-11.3898
▁도착했을	-11.3898
▁중산층	-11.3907
▁의자	-11.391
▁쌍	-11.3916
▁되면서	-11.3917
▁배달	-11.3918
▁발사한	-11.392
ig	-11.3921
▁기념하	-11.3922
▁기관들	-11.3933
▁최근까지	-11.394
▁휩싸	-11.394
▁mu	-11.3945
▁가결	-11.3946
▁람	-11.3947
▁피어	-11.3951
▁버스에	-11.3952
▁마일	-11.3952
▁노력했다	-11.3952
▁돌아다니	-11.3954
▁꿈이	-11.3954
▁게임에	-11.396
첼	-11.3961
▁천명	-11.3966
▁접근할	-11.3969
▁단일	-11.3975
▁시작한다	-11.3975
▁office	-11.3977
어질	-11.3978
▁매트	-11.3981
▁살리	-11.3983
▁낮아	-11.3985
▁아스널	-11.3989
▁선정했다	-11.3989
▁겪었	-11.3992
▁떠났	-11.3995
길에	-11.3996
위권	-11.3999
▁이루어	-11.4003
▁공항으로	-11.4004
▁플	-11.4011
ill	-11.4012
▁취약	-11.4013
▁승려	-11.4013
▁헬	-11.4014
▁환경보호	-11.4015
▁뉴멕시코	-11.4016
▁친구와	-11.4021
▁개들	-11.4022
▁일조	-11.4024
▁효과적	-11.4025
▁조달	-11.4025
▁즐거	-11.4026
▁he	-11.4026
▁증가했	-11.4026
▁베이징에	-11.4027
▁주식시장이	-11.4028
▁녹색	-11.4029
▁연인	-11.403
겔	-11.403
▁bbk	-11.403
▁beijing	-11.403
▁claim	-11.403
▁movie	-11.403
▁nymex	-11.403
▁가금류	-11.403
▁국제사면위원회	-11.403
▁그린스펀	-11.403
▁대량살상무기	-11.403
▁땅콩	-11.403
▁레젭	-11.403
▁롱고리아	-11.403
▁몰디브	-11.403
▁무중력	-11.403
▁믿음	-11.403
▁슈나이더	-11.403
▁신천옹	-11.403
▁아이슬란드	-11.403
▁오차범위	-11.403
▁잃게	-11.403
▁자부심	-11.403
▁자이언트	-11.403
▁찍었다	-11.403
▁카메론	-11.403
▁테헤란	-11.403
▁해리왕자	-11.403
▁황박사	-11.403
▁브뤼셀	-11.403
▁올랜도	-11.403
▁프리킥	-11.403
▁농산물	-11.403
▁진원지	-11.403
▁페인트	-11.403
▁라시드	-11.403
▁트레킹	-11.403
▁강아지	-11.403
▁프레슬리	-11.403
▁황교수	-11.4031
▁poll	-11.4031
▁푸켓	-11.4031
▁tax	-11.4031
▁전화통화	-11.4031
▁선제골	-11.4031
▁냉전	-11.4031
▁이틀째	-11.4031
▁메이저	-11.4031
▁다툼	-11.4031
▁삼성그룹	-11.4031
▁나온다	-11.4031
▁석탄	-11.4031
▁호르타	-11.4031
▁동북아	-11.4032
▁자본주의	-11.4032
▁지방선거	-11.4032
▁동맹관계	-11.4032
▁친밀	-11.4032
▁석방에	-11.4032
▁재능	-11.4032
▁발레리	-11.4032
▁보건당국	-11.4032
▁물러난	-11.4033
▁보도자료	-11.4033
▁이루어질	-11.4033
▁복부	-11.4033
▁동등	-11.4033
▁jp	-11.4033
▁공방	-11.4034
▁다룰	-11.4034
▁예금	-11.4034
▁북경	-11.4035
▁깜	-11.4035
▁대기권	-11.4035
▁시술	-11.4035
▁내다봤	-11.4035
▁잔디	-11.4035
▁정교회	-11.4035
▁추모식	-11.4036
▁변형	-11.4036
▁프로디	-11.4036
▁듀	-11.4037
▁공표	-11.4037
▁2014	-11.4037
▁방위군	-11.4038
▁취해야	-11.4038
시께	-11.4039
▁mi	-11.4039
▁선진국	-11.4039
▁스노	-11.4039
▁자유로운	-11.404
▁조각상	-11.4041
▁선동	-11.4041
▁보리스	-11.4041
▁무패	-11.4042
▁생선	-11.4042
▁클	-11.4042
▁액수	-11.4042
▁섬유	-11.4043
▁대승	-11.4043
▁나이키	-11.4044
▁117	-11.4044
▁복합	-11.4045
▁있은	-11.4046
▁종전	-11.4046
라인	-11.4046
살짜리	-11.4046
▁정비	-11.4048
▁법에	-11.4049
▁허리	-11.4049
▁진상	-11.4049
▁콜로라도주	-11.4049
▁탈세	-11.405
▁솜	-11.4051
▁내려오	-11.4051
▁국정	-11.4053
▁빈번	-11.4053
▁투수	-11.4054
▁sg	-11.4055
▁부지	-11.4055
▁연어	-11.4057
▁피우	-11.4058
▁팔레스타인과	-11.4059
▁딴	-11.4059
▁발표하	-11.406
▁반감	-11.406
▁공부	-11.4062
▁노동자들이	-11.4062
▁외교관들	-11.4063
▁기대된다	-11.4063
▁파고	-11.4063
▁근본주의	-11.4064
▁불경기	-11.4064
▁알려졌	-11.4065
어져	-11.4065
▁왕위	-11.4068
▁수백만명	-11.4068
▁의원과	-11.4071
▁모였다	-11.4072
▁도시들	-11.4072
▁억류된	-11.4072
▁의미하는	-11.4073
▁경유	-11.4073
▁자바	-11.4074
▁인파	-11.4077
▁핵문제	-11.4082
▁뒤지	-11.4083
▁희생자들이	-11.4083
▁일시	-11.4085
기자	-11.4087
▁예보	-11.4087
▁당선된	-11.4088
▁진행하는	-11.4088
as	-11.4089
▁숨지	-11.4091
▁그럴	-11.4092
▁당선됐다	-11.4093
▁시선	-11.4095
▁내리지	-11.4097
▁템	-11.4097
▁생각된다	-11.4098
▁지명에	-11.4101
▁모닝	-11.4102
▁이견	-11.4103
▁격분	-11.4103
▁동남	-11.4103
▁가르	-11.4105
▁확인하지	-11.4106
985	-11.4106
▁식물	-11.4108
▁프로젝트에	-11.4108
▁발표하면서	-11.4108
▁매케인에	-11.4111
치를	-11.4112
▁죽을	-11.4112
▁들어주	-11.4113
▁우주비행사들	-11.4113
▁막는	-11.4113
▁엠	-11.4114
▁시행되	-11.4115
▁떠나지	-11.4116
러운	-11.4116
▁220	-11.4118
▁숨기	-11.4118
▁유럽에	-11.4119
헤르	-11.412
려면	-11.412
▁주목할	-11.4121
▁투자가	-11.4125
▁하퍼	-11.4127
▁켄	-11.4128
▁브로	-11.4129
유지	-11.4129
▁해준다	-11.4129
하겠	-11.413
▁항해	-11.4132
▁요구해	-11.4136
층에서	-11.4137
▁근거지	-11.4138
▁손님들	-11.4138
▁ira	-11.4138
▁방위	-11.414
▁저널	-11.4141
▁진출에	-11.4142
▁결심했다	-11.4142
해줬다	-11.4144
ng	-11.4145
▁퇴원했다	-11.4147
▁파키스탄과	-11.4147
▁되려	-11.4148
▁바비	-11.415
▁간호사	-11.4151
▁결정된	-11.4157
▁압수했다	-11.4159
▁post	-11.4159
▁수행했다	-11.4162
▁장소에	-11.4163
▁지원했다	-11.4169
▁kt	-11.4172
76	-11.4173
▁전임	-11.4174
▁여성으로	-11.4179
▁위반했다	-11.4181
▁진도	-11.4183
▁교통부	-11.4187
▁적지	-11.4197
▁산업이	-11.4198
▁의료보험	-11.4203
▁처했다	-11.4204
▁아카	-11.4205
▁기르	-11.421
▁식당에서	-11.4211
▁정직	-11.4216
▁행위로	-11.4216
조건	-11.4216
▁단기	-11.4222
▁홍콩에서	-11.4222
▁차에	-11.4229
▁점에서	-11.423
▁제조사	-11.4235
▁ro	-11.4236
▁사태로	-11.4238
어스	-11.4238
▁들어가기	-11.4239
▁세라	-11.424
장과	-11.4243
▁레바논에서	-11.4245
▁있을까	-11.4246
▁비난했	-11.4247
레나	-11.4253
▁공습이	-11.4256
▁가정에서	-11.4256
▁한국측	-11.4258
▁세르	-11.4258
▁캘리포니아에서	-11.4261
▁미얀마에서	-11.4262
▁영구	-11.4262
▁공급받	-11.4268
▁해결에	-11.4269
▁철학	-11.4269
▁시에	-11.427
줘야	-11.427
▁선택한	-11.427
▁돼있다	-11.427
▁에디	-11.4272
▁옹호	-11.4274
▁저명	-11.4277
▁부분에	-11.4278
▁보도된	-11.4279
▁붕괴되	-11.4281
▁주거	-11.4281
▁렌	-11.4288
▁소식통들	-11.429
파인	-11.429
▁피로	-11.4291
▁회전	-11.4292
▁일정에	-11.4293
버릴	-11.4296
▁주도하고	-11.4297
▁시점에	-11.4298
el	-11.4299
방안	-11.4299
▁성공할	-11.4308
▁작	-11.4309
▁주도하	-11.4311
위원	-11.4313
▁시작하기	-11.4314
▁의원들과	-11.4318
▁경제학자	-11.432
리스트	-11.4321
준다	-11.4322
▁소방대원	-11.4322
▁선포한	-11.4326
▁중력	-11.4326
▁산책	-11.4327
굴	-11.4328
랭	-11.433
9000	-11.433
▁능력이	-11.433
▁고정	-11.4332
여금	-11.4332
▁결승	-11.4333
탑	-11.4334
▁운전자들	-11.4336
문화	-11.4338
▁괜찮	-11.4338
▁피의자	-11.4339
사람	-11.4344
▁집회에서	-11.4353
▁직원과	-11.4361
헤드	-11.4366
커스	-11.4373
▁사고에	-11.438
▁이외	-11.4381
▁격려	-11.4381
▁공격하기	-11.4382
허가	-11.4386
▁지났	-11.4387
▁임명했다	-11.4393
▁매케인과	-11.4395
▁법무	-11.4396
보드	-11.4397
▁이라크인들	-11.4397
▁sun	-11.4403
▁현안	-11.4409
▁잡혀	-11.4417
▁참가국	-11.4418
용품	-11.4425
▁켄터키	-11.4426
연대	-11.4432
▁카라치	-11.4436
엑	-11.4437
▁시민이	-11.4438
▁날에	-11.4439
▁결혼했다	-11.444
간다	-11.4442
▁실종됐다	-11.4443
여부	-11.4443
▁빼앗	-11.4444
▁덴버	-11.4445
이션	-11.4445
▁교착상태	-11.4446
▁생각할	-11.4454
▁돌아왔	-11.4456
▁나갔	-11.4458
▁작전이	-11.446
▁때에	-11.4461
▁이용했다	-11.4462
▁불행	-11.4464
▁드리	-11.4468
▁목에	-11.4468
11	-11.4471
▁중단했	-11.4472
▁불확실	-11.4473
▁아바	-11.4476
▁연령	-11.4477
자들에	-11.448
▁작년에	-11.4483
▁압	-11.4483
▁도착해	-11.4486
▁닉	-11.4491
▁신자	-11.4491
▁결백	-11.4497
▁미네소타	-11.4497
구간	-11.4499
롬	-11.4499
▁미주리	-11.45
▁서있	-11.4501
왈	-11.4502
▁팀에	-11.4504
▁식민지	-11.4505
▁납치범	-11.4505
▁총기난사	-11.4506
▁우주로	-11.4506
▁맞지	-11.4506
▁oecd	-11.4507
▁russia	-11.4507
▁science	-11.4507
▁street	-11.4507
▁summit	-11.4507
▁system	-11.4507
▁wwf	-11.4507
▁가라앉	-11.4507
▁가로질러	-11.4507
▁그랜드슬램	-11.4507
▁낙하산	-11.4507
▁낮게	-11.4507
▁디얄라	-11.4507
▁라스무센	-11.4507
▁레드삭스	-11.4507
▁맞교환	-11.4507
▁믿지	-11.4507
▁베스트셀러	-11.4507
▁불필요	-11.4507
▁빈라덴	-11.4507
▁선거캠페인	-11.4507
▁소렌스탐	-11.4507
▁스콜세지	-11.4507
▁아라파트	-11.4507
▁질렀다	-11.4507
▁코네티컷	-11.4507
▁콘텐트	-11.4507
▁펌프	-11.4507
▁페르난데스	-11.4507
▁포틀랜드	-11.4507
▁푸에르타	-11.4507
▁푸에르토리코	-11.4507
겹	-11.4507
덟	-11.4507
밭	-11.4507
▁와지리스탄	-11.4507
▁저녁식사	-11.4507
▁candidate	-11.4507
▁마터호른	-11.4507
▁hsbc	-11.4507
▁남동쪽	-11.4507
▁official	-11.4507
▁링컨	-11.4507
▁주미대사	-11.4507
▁합참의장	-11.4507
▁블레이크	-11.4507
▁파이프라인	-11.4507
▁브라더스	-11.4507
▁남서쪽	-11.4507
▁삭스	-11.4507
▁좌익	-11.4507
▁외딴	-11.4507
▁화폐	-11.4507
▁아이팟	-11.4507
▁gps	-11.4507
▁포옹	-11.4507
▁commission	-11.4507
▁미술관	-11.4508
▁홀랜드	-11.4508
▁반도체	-11.4508
▁완승	-11.4508
▁아메드	-11.4508
▁신분증	-11.4508
▁음란물	-11.4508
▁테러범이	-11.4508
▁과잉	-11.4508
▁청색	-11.4508
▁웃음	-11.4508
▁프라임	-11.4508
▁불쾌감	-11.4508
▁기부금	-11.4508
▁사탕	-11.4508
▁사촌	-11.4508
▁보험금	-11.4509
▁교역	-11.4509
▁터너	-11.4509
▁나이로비	-11.4509
▁위안화	-11.4509
▁침실	-11.451
▁초래	-11.451
▁유머	-11.451
▁투병	-11.451
▁함정	-11.451
▁해산물	-11.451
▁공범	-11.451
▁잠재력	-11.451
▁사고기	-11.451
▁순회	-11.4511
▁wti	-11.4511
건물	-11.4511
▁주머니	-11.4511
▁버려진	-11.4511
▁봅	-11.4511
▁lo	-11.4511
▁첫째	-11.4511
out	-11.4511
▁급파	-11.4512
▁한국전쟁	-11.4512
▁스탠리	-11.4512
▁대열	-11.4512
▁테마	-11.4512
▁화물선	-11.4512
▁노엘	-11.4513
▁사이먼	-11.4513
▁후쿠다	-11.4513
▁디에고	-11.4513
▁출간	-11.4513
▁육상	-11.4514
▁엔화	-11.4515
▁만행	-11.4515
▁시범	-11.4515
▁나사	-11.4515
▁대통령궁	-11.4516
▁조업	-11.4516
▁없음	-11.4516
89	-11.4517
▁파타당	-11.4517
▁데이트	-11.4518
▁줄리	-11.4519
▁break	-11.452
▁텔레콤	-11.452
▁치우	-11.452
▁우편	-11.452
▁공동성명	-11.4521
▁역전	-11.4522
0	-11.4523
▁끌어들이	-11.4527
▁닷	-11.4527
▁펴	-11.4528
▁오만	-11.4528
▁왕궁	-11.4528
▁팔아	-11.4529
▁존재하	-11.453
▁주입	-11.4531
▁온실	-11.4532
▁인물이	-11.4533
▁전인대	-11.4534
▁공공장소에서	-11.4534
▁높았다	-11.4535
▁치료법	-11.4536
▁1400	-11.4537
▁들소	-11.4537
▁좋았다	-11.4537
▁박차	-11.4538
세포	-11.454
회에서	-11.454
여년	-11.454
▁예상치	-11.4541
▁that	-11.4542
▁목표물	-11.4542
▁곳곳에서	-11.4543
▁동안에	-11.4544
▁혼인	-11.4546
▁시사했다	-11.4547
▁합법적으로	-11.4547
▁비중	-11.4548
▁주심	-11.4549
▁비티	-11.4549
▁아크	-11.455
▁주차장에서	-11.455
▁소아과	-11.4551
▁270	-11.4551
▁배상	-11.4552
▁펜실베이니아주	-11.4552
▁들어왔다	-11.4553
▁안고	-11.4554
▁선언문	-11.4554
▁왕국	-11.4555
▁솔	-11.4556
▁감행한	-11.4556
▁계단	-11.4557
▁몰린	-11.4557
▁내달	-11.4558
▁동해	-11.4559
▁끝나지	-11.4559
▁사우	-11.4562
▁샘	-11.4562
▁정국	-11.4563
▁감각	-11.4563
▁합법적인	-11.4563
▁리서치	-11.4564
▁지표	-11.4566
▁장점	-11.4569
▁들어서	-11.4571
▁연정	-11.4571
▁서울시장	-11.4573
▁지질	-11.4574
▁변수	-11.4575
▁남부지역에서	-11.4577
▁운영되	-11.4577
▁호주군	-11.4578
▁포착	-11.4578
▁양곤에서	-11.4578
▁만들어내	-11.4578
▁움	-11.4579
▁국내에서	-11.4581
▁서울대	-11.4582
건이	-11.4583
▁확보해	-11.4584
▁해치	-11.4586
노프	-11.4586
▁더미	-11.4587
▁한국계	-11.4587
▁모델로	-11.459
십만	-11.4595
65	-11.4597
▁가계	-11.46
▁생물학적	-11.4601
▁물의	-11.4602
시로	-11.4602
▁타지	-11.4603
▁등정	-11.4608
▁실질적으로	-11.4608
▁풍자	-11.4608
▁비전	-11.461
▁움직이는	-11.4615
▁무엇이	-11.4615
▁나이에	-11.4616
▁토레	-11.4619
▁fc	-11.4619
▁지불할	-11.462
▁궤도에	-11.4622
▁분리주의자들	-11.4622
▁빼고	-11.4624
▁경호원들	-11.4625
▁급진	-11.4626
▁순간에	-11.4628
▁카불에서	-11.4629
▁후안	-11.4631
▁경찰관들	-11.4632
▁조차	-11.4637
▁생각했	-11.4639
▁완화하기	-11.464
편이	-11.464
▁외곽에서	-11.4641
만여명	-11.4643
95	-11.4644
▁이성	-11.4645
▁미친	-11.4645
▁결의안이	-11.4648
▁캥거루	-11.465
▁이끌어내	-11.4651
▁증거로	-11.4653
▁본부장	-11.4654
▁약속했	-11.4654
▁구입한	-11.4654
▁묘	-11.4655
▁벨리	-11.4657
▁충돌해	-11.4662
▁대응할	-11.4662
▁수준에	-11.4666
▁red	-11.4666
▁폭락했다	-11.4668
라이트	-11.4669
▁근본	-11.4671
▁토론회에서	-11.4672
▁말하지	-11.4677
부의	-11.4677
살인	-11.4679
▁그곳	-11.4679
▁강화된	-11.4684
▁박스	-11.4684
▁항의했다	-11.4687
▁ya	-11.4692
▁열리고	-11.4695
▁중장	-11.4697
잡	-11.4698
▁미얀마에	-11.4701
▁잃어	-11.4702
롭게	-11.4704
▁모욕	-11.4705
▁이혼했다	-11.4706
▁우려해	-11.4708
▁희망하	-11.471
▁배우자	-11.4712
▁올림픽에서	-11.4725
▁지지했다	-11.4727
▁오르는	-11.4728
▁목록에	-11.473
▁영부인	-11.4731
▁악화된	-11.4732
▁한가지	-11.4735
▁위험하다	-11.4735
▁거래되	-11.4739
▁파괴되	-11.4742
▁내부에	-11.4747
▁벌여왔	-11.4749
▁노력으로	-11.4756
척이	-11.4759
▁불황	-11.476
rs	-11.476
▁실험에	-11.4763
▁비방	-11.4766
▁소행이라	-11.4769
▁제방	-11.4773
▁십대	-11.4773
▁수비	-11.4775
▁유대인들	-11.4775
갔	-11.4778
▁사용하	-11.478
▁언급하	-11.478
부가	-11.4781
사실	-11.4782
▁발효	-11.4784
▁윤리	-11.4788
▁노출되	-11.479
▁조사단	-11.4794
▁앞서있	-11.4794
▁교회에	-11.4794
틴	-11.4795
▁영화화	-11.4796
▁폭발물이	-11.4796
▁우려하는	-11.4801
22	-11.4803
▁집이	-11.4808
▁요구한다	-11.4809
▁기록됐다	-11.4811
▁바다에	-11.4818
▁실려	-11.4818
▁사항이	-11.4822
▁전년	-11.4829
펜	-11.4831
첸	-11.4831
▁물리적	-11.4832
풀	-11.4833
베스	-11.4834
▁트럭이	-11.4834
훈련	-11.4836
장소	-11.4837
즐	-11.4837
논	-11.4838
경기에	-11.4838
민족	-11.4839
작업을	-11.4842
▁공급하	-11.4844
체계	-11.4846
요금	-11.4847
▁심리적	-11.4848
▁일본군	-11.4849
이라크	-11.4849
대에서	-11.4852
▁덕	-11.4854
▁무장대원들	-11.4854
▁무장세력과	-11.4855
코프	-11.486
마트	-11.4861
tu	-11.4863
▁수행하는	-11.4867
▁북한군	-11.4868
▁요인이	-11.4871
▁엘리	-11.4876
▁언론인	-11.4876
▁친척들	-11.4881
발전	-11.4881
▁비평	-11.4883
▁발부	-11.4885
▁재활	-11.4886
▁리버	-11.4888
▁창고	-11.4893
▁우호적	-11.4897
▁촉구하고	-11.4897
▁인터넷에서	-11.4904
▁캔	-11.4907
겼다	-11.491
net	-11.4914
▁down	-11.4914
▁사마라	-11.4918
▁피고인들	-11.4919
▁전반에	-11.4921
son	-11.4923
▁고고학자	-11.4925
▁조세	-11.4925
▁나이로	-11.4927
▁오키나와	-11.4932
▁소방	-11.4934
사고	-11.4935
야당	-11.494
▁야당의	-11.4942
▁프로그램과	-11.4942
▁감독과	-11.4942
▁수단으로	-11.4946
만대	-11.4947
▁잔인	-11.495
▁악재	-11.4953
▁넘겨	-11.4953
메스	-11.4953
▁공로	-11.4956
▁보여준	-11.496
▁입원했	-11.4963
▁전비	-11.4963
▁외계	-11.4964
▁터미널	-11.4971
▁전당	-11.4972
▁구속했다	-11.4973
▁착용한	-11.4974
▁엔지니어	-11.4978
퍼스	-11.4979
▁미끄러	-11.498
▁태어났	-11.4982
▁본인	-11.4983
▁밀수	-11.4985
▁가나	-11.4988
▁재처리	-11.4992
이라도	-11.4992
님	-11.4992
차로	-11.4993
ful	-11.4994
▁월터	-11.4999
▁여왕이	-11.5
▁캐나다에서	-11.5001
▁지속되	-11.5004
▁뒤덮	-11.5005
▁틀	-11.5005
▁report	-11.5005
튜	-11.5006
▁롤	-11.5006
▁agree	-11.5006
▁얼룩	-11.5006
헴	-11.5007
▁defense	-11.5007
▁ecb	-11.5007
▁rctv	-11.5007
▁uae	-11.5007
▁www	-11.5007
▁갖춰	-11.5007
▁뉴욕상업거래소	-11.5007
▁만델라	-11.5007
▁매카트니	-11.5007
▁식이요법	-11.5007
▁신용경색	-11.5007
▁쌓인	-11.5007
▁쓰러져	-11.5007
▁아흐마디네자드	-11.5007
▁얼어붙	-11.5007
▁유네스코	-11.5007
▁자민당	-11.5007
▁제너럴	-11.5007
▁즈보나레바	-11.5007
▁초콜릿	-11.5007
▁팽팽	-11.5007
▁해안경비대	-11.5007
▁현수막	-11.5007
▁갱신	-11.5007
▁아폴로	-11.5007
▁폭넓	-11.5007
▁마리화나	-11.5007
▁로드맵	-11.5007
▁가이트너	-11.5007
▁프리츨	-11.5007
▁함부르크	-11.5007
▁본거지	-11.5007
▁휴이트	-11.5007
▁흘리	-11.5007
▁나이트클럽	-11.5007
▁아로요	-11.5007
▁국가보안법	-11.5007
▁food	-11.5007
▁가르시아	-11.5007
▁journal	-11.5007
▁생태계	-11.5007
▁버클리	-11.5007
▁척추	-11.5007
▁park	-11.5007
▁오스만	-11.5007
▁출항	-11.5007
▁참의원	-11.5007
▁해결하는	-11.5007
▁눈보라	-11.5007
▁이뤄져야	-11.5007
▁탑재	-11.5007
▁도미니카	-11.5008
▁잠비아	-11.5008
▁불러일으키	-11.5008
▁분양	-11.5008
▁점유율	-11.5008
▁돌풍	-11.5008
▁매도프	-11.5008
▁홈구장	-11.5009
▁단축	-11.5009
▁faa	-11.5009
▁야외	-11.5009
▁마스리	-11.5009
▁지저스	-11.5009
▁test	-11.5009
▁차세대	-11.5009
▁방에서	-11.5009
▁외교정책	-11.5009
▁않으려	-11.501
▁절단	-11.501
▁진심	-11.501
▁부착	-11.501
▁제품들	-11.501
▁초드리	-11.501
▁조사결과	-11.501
▁천연	-11.5011
▁법령	-11.5011
▁인텔	-11.5011
▁단언	-11.5011
▁시합	-11.5011
▁포기한	-11.5011
▁데이브	-11.5011
▁승진	-11.5011
▁1975	-11.5011
▁지칭	-11.5011
▁인질극	-11.5012
▁순수	-11.5012
▁크로스	-11.5012
▁짜	-11.5013
▁베이비	-11.5013
▁붙였다	-11.5013
▁통역	-11.5013
▁떨어졌습니다	-11.5013
▁도착하자	-11.5014
▁있느냐	-11.5014
▁린치	-11.5015
▁forces	-11.5015
▁fr	-11.5015
시키는데	-11.5015
▁긴장감	-11.5015
제가	-11.5016
▁인준	-11.5016
▁우주복	-11.5017
▁서버	-11.5017
▁선고받았다	-11.5017
▁드문	-11.5018
▁비율이	-11.5018
▁육성	-11.5018
▁한명	-11.5018
▁미시간주	-11.5018
▁점심	-11.5018
▁분배	-11.5018
▁hit	-11.5019
▁투하	-11.5019
▁케이스	-11.502
▁시청률	-11.502
▁프로그램에서	-11.502
▁실바	-11.502
▁힐러리경	-11.5022
▁지도력	-11.5024
▁만회	-11.5024
▁토드	-11.5025
▁제약	-11.5025
▁루즈	-11.5025
▁prosecutor	-11.5025
▁포크	-11.5026
▁금융계	-11.5026
▁자체적으로	-11.5027
▁막았다	-11.5028
▁아이오와주	-11.5028
▁잡혔다	-11.5028
▁car	-11.5028
▁112	-11.5029
▁루디	-11.5029
▁동상	-11.5029
than	-11.5029
▁인수위원회	-11.5031
▁전제	-11.5035
▁제작진	-11.5035
▁360	-11.5036
▁리우	-11.5037
▁장관급	-11.5037
▁달렸다	-11.5038
▁그래픽	-11.5038
▁쓰지	-11.504
▁졌다	-11.504
▁발견해	-11.5041
▁카르	-11.5041
▁슈퍼대의원	-11.5041
▁중립	-11.5042
▁기용	-11.5042
▁보험사	-11.5043
▁국제법	-11.5045
▁적군	-11.5045
▁신성	-11.5047
▁달했다	-11.505
▁살상	-11.5051
▁이집트에서	-11.5053
▁따내	-11.5054
▁제조회사	-11.5055
▁기각했다	-11.5055
▁해안가	-11.5059
수사	-11.506
▁게시	-11.506
▁대조	-11.5062
▁번개	-11.5064
▁띠	-11.5065
▁금연법	-11.5065
▁플로	-11.5068
▁독립국가	-11.5068
▁경찰관이	-11.5069
▁개정된	-11.5071
▁랜드	-11.5071
▁무거	-11.5072
▁쉐	-11.5073
▁전용기	-11.5074
▁128	-11.5074
▁발표되지	-11.5074
▁대면	-11.5074
▁영해	-11.5075
▁ump	-11.5077
▁줬	-11.5077
▁루이	-11.5077
▁공개될	-11.5077
▁휘	-11.5078
▁엑스	-11.5079
▁여행사	-11.508
▁관광객들에게	-11.5083
▁연행됐다	-11.5083
▁과정이	-11.5084
▁의존하고	-11.5084
▁밝혀지	-11.5088
▁우주센터	-11.5088
▁law	-11.509
▁정상회의	-11.5092
▁한반도에	-11.5092
▁싱글	-11.5094
▁다운	-11.5095
▁일이라	-11.5098
▁밀림	-11.5101
▁도착했	-11.5102
▁노린	-11.5102
비드	-11.5107
바인	-11.511
▁외계인	-11.5111
▁따라잡	-11.5111
▁음와	-11.5112
▁재료	-11.5112
▁정보원	-11.5115
▁타는	-11.5117
▁작가들	-11.512
▁지나간	-11.5122
▁관여한	-11.5124
프레	-11.5125
▁ag	-11.5125
▁타이거	-11.5128
▁중태	-11.513
▁오르기	-11.513
▁연구자들	-11.513
▁위협받	-11.5133
건에	-11.5134
▁이슬라마바드에서	-11.5136
▁칠	-11.5137
▁이사장	-11.514
▁없었고	-11.514
▁농부들	-11.5148
▁결정하기	-11.5149
▁바람에	-11.5151
▁무대에	-11.5152
▁회사에서	-11.5153
▁결정하지	-11.5154
▁수용소에	-11.5162
▁하에서	-11.5166
▁적게	-11.5168
▁수장	-11.517
▁두번째로	-11.5171
▁지어	-11.5172
▁기여	-11.5172
선에	-11.5178
▁사건에서	-11.5179
▁묘사하	-11.518
▁아프리카에서	-11.5181
▁일했다	-11.5185
▁아서	-11.5186
▁수준이	-11.5188
▁일부에서	-11.5188
▁빌라	-11.5188
▁높이기	-11.5189
▁주최한	-11.5189
▁등록된	-11.519
▁일어	-11.5192
▁차이나	-11.5193
▁임무에	-11.5194
▁승리했	-11.5194
렌스	-11.5197
▁혈	-11.5197
학자인	-11.52
▁head	-11.5201
져야	-11.5202
▁지르	-11.5203
aw	-11.5204
▁노인들	-11.5206
▁페이	-11.5213
▁하스	-11.5218
▁중단됐	-11.5221
▁월스트리트에서	-11.5224
▁팔레스타인인	-11.5225
▁방송과	-11.523
버리	-11.5235
▁칼로	-11.5237
▁미화	-11.5242
▁동의한다	-11.5243
▁설립했다	-11.5244
▁마이크로	-11.5245
▁샌프란시스코에서	-11.5247
▁we	-11.5249
▁외곽에	-11.5257
▁일반인	-11.5264
▁방문하고	-11.5268
개월이	-11.5268
페이지	-11.527
36	-11.527
치기	-11.5274
▁절반이	-11.5275
▁방문한다	-11.5275
▁지아	-11.5277
▁운반	-11.5282
74	-11.5288
보고	-11.5292
과학	-11.5295
▁우리들	-11.5299
▁몬	-11.5308
▁롭	-11.5309
▁na	-11.5309
▁제시할	-11.5312
▁메가	-11.5313
▁부시와	-11.5314
권이	-11.5317
▁싸우	-11.5327
▁십년	-11.5332
▁기술에	-11.5334
▁걸리는	-11.5334
북한	-11.5335
▁운항이	-11.5336
▁이행할	-11.5338
▁선박들	-11.5344
닌	-11.5344
▁반박했	-11.5347
궁	-11.5347
▁역임	-11.5349
맥	-11.5352
▁방송이	-11.5354
뉴	-11.5354
떼	-11.5359
전략	-11.536
▁별개	-11.536
▁기준에	-11.5361
week	-11.5362
▁고속도로에서	-11.5362
사무소	-11.5363
▁사냥꾼	-11.5364
▁션	-11.5368
▁대표와	-11.5369
▁내부에서	-11.5369
부족	-11.5372
처리	-11.5372
▁마드리드에서	-11.5375
▁반응이	-11.5376
▁실종됐	-11.538
사이트	-11.538
▁항복	-11.5382
nc	-11.5385
호프	-11.5385
▁우방	-11.5386
조정	-11.539
▁플로리다에	-11.5392
신원	-11.5394
▁금요일에	-11.5397
▁해법	-11.54
타카	-11.5402
▁결함이	-11.5404
▁하기로	-11.5405
▁강화하	-11.5414
▁가하는	-11.5419
부장	-11.5423
▁젊은이들이	-11.5423
▁연맹	-11.5423
▁시위대에	-11.5424
▁합법적	-11.5425
▁건물들	-11.5433
▁이뤄	-11.5436
위안	-11.5442
▁관리들과	-11.5446
▁예상한	-11.5451
▁이스탄불	-11.5455
▁매도	-11.5455
▁곤	-11.5458
▁앗아	-11.5462
▁비로	-11.5464
▁모가디슈	-11.5466
▁시청자	-11.5469
표한다	-11.5469
▁기간이	-11.5469
해도	-11.5472
▁잡을	-11.5472
▁per	-11.5472
▁알바	-11.5473
브라	-11.5475
▁대피하	-11.5477
▁바쿠바	-11.5477
▁통근	-11.5477
▁조직원들	-11.5481
▁교황이	-11.5483
▁280	-11.5484
▁들어왔	-11.5488
▁만나고	-11.5488
▁실내	-11.5491
te	-11.5498
▁검출	-11.5499
▁se	-11.55
▁놓인	-11.5501
▁해역	-11.5501
▁호송	-11.5502
▁피플	-11.5504
▁심리학	-11.5508
▁생겨	-11.5513
▁제공되	-11.5516
cy	-11.5516
빠	-11.5518
▁후보작	-11.5518
▁사격	-11.5518
▁피해지역	-11.5521
▁사우스	-11.5522
파크	-11.5522
▁우주비행	-11.5522
▁밀집	-11.5523
▁135	-11.5524
▁조사하는	-11.5525
ease	-11.5525
▁안겨	-11.5526
▁퇴역	-11.5528
▁검	-11.5528
▁제품이	-11.5529
▁개체	-11.553
▁이소연	-11.5531
▁적도	-11.5532
▁리얼리티	-11.5532
▁조립	-11.5533
▁발송	-11.5533
▁첨단	-11.5533
▁앵커	-11.5533
employ	-11.5533
▁economy	-11.5533
▁strike	-11.5533
▁window	-11.5533
▁가솔린	-11.5533
▁갖췄다	-11.5533
▁갤러리	-11.5533
▁괴물	-11.5533
▁김경준	-11.5533
▁꿀벌	-11.5533
▁니스텔로이	-11.5533
▁돈세탁	-11.5533
▁동성결혼	-11.5533
▁뚜렷	-11.5533
▁리트비넨코	-11.5533
▁맞춘	-11.5533
▁메르세데스	-11.5533
▁몸싸움	-11.5533
▁뭔가	-11.5533
▁밀리밴드	-11.5533
▁베를루스코니	-11.5533
▁성매매	-11.5533
▁알자지라	-11.5533
▁애틀랜티스호	-11.5533
▁와이오밍	-11.5533
▁자르카위	-11.5533
▁재규어	-11.5533
▁찍힌	-11.5533
▁칠면조	-11.5533
▁토튼햄	-11.5533
▁핸드폰	-11.5533
▁support	-11.5533
▁usgs	-11.5533
▁요하네스버그	-11.5533
▁원자재	-11.5533
▁갱단	-11.5533
▁국가정보원	-11.5533
▁순이익	-11.5533
▁오사카	-11.5533
▁나뉘어	-11.5533
▁대운하	-11.5533
▁무자비	-11.5533
▁해들리	-11.5533
▁앙카라	-11.5533
▁포츠머스	-11.5533
▁막바지	-11.5533
▁헝가리	-11.5533
▁hostage	-11.5533
▁불매운동	-11.5533
▁관절염	-11.5533
▁독특	-11.5533
▁버틀러	-11.5533
▁키드먼	-11.5533
▁카펠로	-11.5533
▁페라로	-11.5533
▁하이킹	-11.5533
▁사형선고	-11.5533
▁반짝이	-11.5533
▁근접	-11.5533
▁다이앤	-11.5533
▁심장질환	-11.5533
▁묵념	-11.5533
▁액션	-11.5533
▁연못	-11.5533
▁평등	-11.5533
▁음향	-11.5533
▁영사관	-11.5533
▁체첸	-11.5533
▁와일드	-11.5533
▁혜성	-11.5533
▁파란색	-11.5533
▁자살폭탄	-11.5533
▁드라이브	-11.5533
▁딜런	-11.5533
▁제약회사	-11.5534
▁인내심	-11.5534
▁관례	-11.5534
▁순결	-11.5534
▁재건축	-11.5534
▁평창	-11.5534
▁군복무	-11.5534
▁노워크	-11.5534
▁국가와	-11.5534
▁꾸미	-11.5534
▁막으려	-11.5534
▁public	-11.5535
▁쏟아져	-11.5535
▁비참	-11.5535
▁가정집	-11.5535
▁아흐메드	-11.5535
▁정황	-11.5535
▁어디서	-11.5535
▁카타르	-11.5535
▁리틀	-11.5536
▁경색	-11.5536
▁소방차	-11.5536
▁카누	-11.5536
▁soldiers	-11.5536
▁deal	-11.5536
▁사직서	-11.5536
▁fund	-11.5536
▁라이더	-11.5536
▁이송됐으	-11.5536
▁바랍	-11.5536
▁파이프	-11.5537
▁금지령	-11.5537
대상	-11.5537
▁악마	-11.5537
▁샤리아	-11.5537
▁정확하게	-11.5537
▁얼굴에	-11.5538
▁인종적	-11.5538
▁접종	-11.5538
▁숨져	-11.5538
공장	-11.5538
▁바이든	-11.5539
▁사립	-11.5539
▁해리슨	-11.5539
▁경감	-11.5539
▁카렌	-11.5539
▁속출	-11.554
▁명절	-11.554
▁꼬리	-11.5541
▁사라질	-11.5541
▁사과문	-11.5541
▁우표	-11.5542
▁낳았다	-11.5542
▁투여	-11.5542
▁애정	-11.5543
▁내놓았다	-11.5543
▁구제금융안	-11.5543
▁미시건주	-11.5543
▁확보에	-11.5544
▁창업자	-11.5544
light	-11.5544
▁버크	-11.5545
▁판결문	-11.5545
▁남긴	-11.5545
▁신설	-11.5547
▁지켜봤다	-11.5548
▁결성	-11.5549
▁만들어졌다	-11.5549
▁570	-11.555
▁위원회에	-11.555
▁살리기	-11.5551
▁교실	-11.5551
▁장애물	-11.5551
▁거세지	-11.5552
▁채무	-11.5553
▁동력	-11.5553
▁골든	-11.5553
▁넘겼다	-11.5553
▁정박	-11.5554
▁가져왔다	-11.5556
▁임상	-11.5556
▁포즈	-11.5556
▁반경	-11.5556
▁레이드	-11.5556
▁버린	-11.5557
▁루트	-11.5559
▁분주	-11.5561
▁폐허	-11.5561
▁돌진	-11.5561
▁연방법원	-11.5562
▁목성	-11.5562
율이	-11.5562
▁인천	-11.5562
▁들렸다	-11.5563
▁펜실베니아주	-11.5563
▁우수	-11.5563
▁의류	-11.5564
▁미션	-11.5564
▁통신원	-11.5564
▁인내	-11.5564
▁연관성	-11.5564
▁사찰	-11.5565
▁urge	-11.5565
▁들어있다	-11.5566
▁푸미	-11.5567
▁주전	-11.5568
▁조화	-11.5568
▁지방법원	-11.5568
▁복도	-11.5569
▁예산안	-11.5569
▁책상	-11.557
▁사절단	-11.557
▁은신	-11.557
▁확정된	-11.5571
▁금주	-11.5571
▁북부지역	-11.5572
▁생산된	-11.5573
아갈	-11.5574
▁하와	-11.5574
▁회복세	-11.5574
▁놓치	-11.5576
▁탈레반에	-11.5577
▁주장했었다	-11.5577
▁도발적	-11.5577
▁손길	-11.558
▁문어	-11.5581
▁나노	-11.5582
가렛	-11.5583
▁cut	-11.5584
▁건스	-11.5585
▁쉽다	-11.5585
▁나타난다	-11.5585
▁이빨	-11.5586
▁정부기관	-11.5589
▁구속력	-11.5589
▁웰스	-11.5589
▁압도적으로	-11.559
▁공해	-11.5598
cent	-11.5598
피크	-11.5599
▁교착상태에	-11.56
▁주정부	-11.5602
▁영화관	-11.5602
▁북해	-11.5602
▁한창	-11.5604
▁가담한	-11.5606
▁워터	-11.5608
▁이겼다	-11.5608
▁하위	-11.561
▁대안	-11.5612
▁쓰인	-11.5613
▁스트리트	-11.5613
▁수송기	-11.5614
▁악의	-11.5614
▁벌인다	-11.5617
▁감동	-11.5619
▁대통령으로서	-11.5619
▁남부지역	-11.562
▁주석이	-11.5624
▁샤프	-11.5624
▁응원	-11.5627
▁추락해	-11.5628
71	-11.563
었기	-11.5631
▁서명한	-11.5631
명씩	-11.5633
▁조심스럽	-11.5636
명이었다	-11.564
위원회에서	-11.5643
▁센터에서	-11.5646
▁이제까지	-11.5647
▁명확한	-11.5652
일이라고	-11.5652
▁대피령	-11.5653
▁실력	-11.5655
▁진압하기	-11.5655
▁추방된	-11.5656
▁몰아내	-11.5658
▁신뢰할	-11.5661
▁계획이었다	-11.5665
▁덩어리	-11.5665
개로	-11.5666
▁길게	-11.5666
▁기술자들	-11.5666
월말	-11.5667
▁설립된	-11.5668
ge	-11.567
▁도피	-11.567
▁고독	-11.5671
니에	-11.5673
▁여론조사에	-11.5676
▁지원에	-11.5676
스에서	-11.5677
▁조사팀	-11.5679
▁사원에	-11.5686
▁변호사들	-11.5688
받을	-11.5689
▁원주민들	-11.5691
▁인디언	-11.5691
▁유전적	-11.5692
▁자랑하	-11.5694
▁극복하	-11.5697
▁사람들에	-11.5698
▁동원됐다	-11.5701
하기위해	-11.5703
▁행복한	-11.5708
▁취하기	-11.5711
ts	-11.5714
▁광장에서	-11.5716
▁320	-11.5717
▁첸	-11.5717
▁제조업	-11.5719
▁마르코	-11.5719
▁위안	-11.572
▁법규	-11.5721
▁충	-11.5722
▁추산했	-11.5725
▁wid	-11.5727
▁비난해	-11.5727
▁허가했다	-11.5735
▁보내지	-11.5741
라드	-11.5742
▁가두	-11.5744
▁허용했다	-11.5744
▁구속됐다	-11.5746
▁편이	-11.5747
▁정치가	-11.5749
▁선호	-11.575
살된	-11.5751
▁보수파	-11.5759
▁병장	-11.5763
▁부인이	-11.5763
▁납치됐	-11.5767
▁사람으로	-11.5769
▁미미	-11.5771
▁반복	-11.5772
▁하루만	-11.5772
▁ps	-11.5774
▁매춘부	-11.5775
▁경기장에서	-11.5782
▁제작했다	-11.5784
▁기독교인	-11.5786
arly	-11.5786
▁다리에	-11.5787
▁다해	-11.5788
▁성장이	-11.5789
▁제국	-11.5793
▁별장	-11.5793
▁동물원에서	-11.5795
▁청소년들	-11.5796
▁보장하	-11.5796
43	-11.5798
▁팔레스타인인들	-11.5798
▁북쪽에	-11.5798
군과	-11.5806
헌	-11.5807
▁북한으로	-11.5808
가량	-11.581
▁라파	-11.5812
방법	-11.5814
▁연구하는	-11.5814
▁했는지	-11.5817
▁누설	-11.5821
▁헌신	-11.5821
▁주어진	-11.5823
▁통과했다	-11.5825
▁째	-11.5825
uni	-11.5833
▁맞붙	-11.5833
▁이용자	-11.5833
▁따르지	-11.5837
▁레인	-11.5839
▁아프간군	-11.584
▁헌법에	-11.584
다르	-11.584
▁근본적	-11.5846
▁발언이	-11.5851
▁마련해	-11.5853
▁기기	-11.5853
▁라드	-11.5856
▁통과된	-11.5857
▁작품이	-11.5859
빨	-11.5864
성과	-11.5867
67	-11.5873
▁갈라	-11.5876
▁착	-11.5878
▁기사에	-11.5878
▁들리	-11.5879
▁대의	-11.588
▁pre	-11.5881
택	-11.5884
▁부각	-11.5885
▁담겨	-11.5887
▁원하	-11.5889
▁자신만	-11.5889
▁면제	-11.5892
ash	-11.5895
▁aid	-11.5895
밤	-11.5899
▁설명하지	-11.5901
ze	-11.5901
▁등장	-11.5904
딕	-11.5905
브리지	-11.5908
▁사용된다	-11.5909
킹	-11.5912
휴	-11.5913
컴	-11.5913
앞	-11.5914
book	-11.5914
뜨	-11.5915
▁의문이	-11.5916
▁권장	-11.5917
뒤	-11.592
최초	-11.592
신문	-11.5922
군데	-11.5934
28	-11.5935
▁권했다	-11.5935
에너지	-11.5939
▁농부	-11.5939
▁산업에	-11.5942
▁강의	-11.5942
▁추측이	-11.5944
▁혐의와	-11.5946
세대	-11.595
▁일일	-11.5959
▁해왔	-11.596
▁금지했다	-11.5964
▁아비	-11.5967
단이	-11.5973
▁났	-11.5975
▁구제안	-11.5977
▁세이	-11.5982
▁질병에	-11.5983
▁상징으로	-11.5983
26	-11.5984
▁치명적	-11.5985
bar	-11.5987
까요	-11.599
▁물건들	-11.5991
▁벌이다	-11.5993
▁공격해	-11.6004
▁heart	-11.6012
투자	-11.6012
▁말레이시아에서	-11.6017
▁모리	-11.6019
▁충격적	-11.602
▁대위	-11.6024
▁시달리	-11.6026
ga	-11.6029
▁낙찰	-11.603
▁해외로	-11.6032
ci	-11.6035
▁중위	-11.604
▁일년	-11.6044
▁독자적	-11.6049
할지도	-11.605
▁참여했	-11.6051
▁좋았	-11.6053
▁나타냈	-11.6054
▁변호사와	-11.6058
▁소방서	-11.6064
▁판매가	-11.6065
▁요구했	-11.6065
▁부분에서	-11.6067
▁참석하는	-11.6067
▁126	-11.6068
▁덧붙였	-11.6068
▁조사관	-11.6073
▁이탈리아에서	-11.6074
▁전국적	-11.6075
▁교정	-11.6075
▁계열	-11.6078
▁right	-11.6078
▁정유	-11.6079
▁풀려	-11.608
▁ho	-11.608
▁무장세력들	-11.6081
▁중앙정보	-11.6083
촌	-11.6083
▁검문	-11.6083
▁재개했다	-11.6084
▁빈민가	-11.6084
▁힌두	-11.6086
▁플로리다에서	-11.6086
▁밀매	-11.6087
▁kill	-11.6087
▁손해배상	-11.6088
▁메모리	-11.6088
▁가석방	-11.6088
▁epl	-11.6088
▁grow	-11.6088
▁isaf	-11.6088
▁school	-11.6088
▁society	-11.6088
▁travel	-11.6088
▁가깝게	-11.6088
▁경기후퇴	-11.6088
▁금강산	-11.6088
▁긱스	-11.6088
▁끌었	-11.6088
▁대법관	-11.6088
▁독극물	-11.6088
▁라크시미	-11.6088
▁르완다	-11.6088
▁미항공우주국	-11.6088
▁밀라노	-11.6088
▁방코델타아시아	-11.6088
▁새크라멘토	-11.6088
▁서둘러	-11.6088
▁선거기부금	-11.6088
▁세골렌	-11.6088
▁스탤론	-11.6088
▁아제르바이잔	-11.6088
▁악천후	-11.6088
▁애슐리	-11.6088
▁이바노비치	-11.6088
▁잠깐	-11.6088
▁재결합	-11.6088
▁제퍼슨	-11.6088
▁지켰다	-11.6088
▁췌장암	-11.6088
▁컸다	-11.6088
▁쿠즈넷소바	-11.6088
▁히스패닉	-11.6088
▁power	-11.6088
▁깁슨	-11.6088
▁나타날	-11.6088
▁뉴잉글랜드	-11.6088
▁산체스	-11.6088
▁석유수출	-11.6088
▁아프카니스탄	-11.6088
▁엑스파일	-11.6088
▁키티호크	-11.6088
▁비너스	-11.6088
▁추기경	-11.6088
▁하니야	-11.6088
▁다둘라	-11.6088
▁로날드	-11.6088
▁헐리우드	-11.6088
▁참혹	-11.6088
▁즐겁	-11.6088
▁핀란드	-11.6088
▁북대서양	-11.6088
▁어쩔	-11.6088
▁네그로폰테	-11.6088
▁셰퍼드	-11.6089
▁height	-11.6089
▁바시르	-11.6089
▁게놈	-11.6089
▁강원도	-11.6089
▁어렸을	-11.6089
▁nhc	-11.6089
▁진상조사	-11.6089
▁committee	-11.6089
▁유엔사무총장	-11.6089
▁적혀있	-11.6089
▁즐거움	-11.6089
▁007	-11.6089
▁교도통신	-11.6089
▁그리핀	-11.6089
▁바레인	-11.6089
▁크리스틴	-11.6089
▁정권인수팀	-11.6089
▁move	-11.6089
▁싼	-11.6089
▁즐겨	-11.6089
▁내보냈	-11.6089
▁욕구	-11.6089
▁four	-11.6089
▁항구도시	-11.6089
▁역전승	-11.6089
▁휴먼	-11.6089
▁쿠마르	-11.6089
▁빠져나가	-11.609
▁잠수함	-11.609
▁액체	-11.609
▁승부차기	-11.609
▁좌우	-11.609
▁제이슨	-11.609
▁빙산	-11.609
▁환급	-11.609
▁연애	-11.609
▁부유층	-11.609
▁오래전부터	-11.6091
▁벌어질	-11.6091
▁기차역	-11.6091
▁고리	-11.6091
▁1983	-11.6091
▁연봉	-11.6092
▁우익	-11.6092
▁철강	-11.6092
▁컬럼비아호	-11.6092
▁그만두	-11.6092
▁재앙	-11.6092
▁마스터스	-11.6092
▁표범	-11.6092
▁난항	-11.6092
▁요구사항	-11.6092
▁mid	-11.6092
▁기원전	-11.6092
▁연합통신	-11.6092
▁사귀	-11.6092
▁난처	-11.6094
▁썩	-11.6094
▁표본	-11.6094
▁진동	-11.6094
▁가져오	-11.6094
▁오리건주	-11.6094
▁국제축구연맹	-11.6094
▁1945	-11.6094
▁에밀리	-11.6095
▁수익금	-11.6095
▁변호인단	-11.6095
▁attacks	-11.6095
▁꺼내	-11.6095
▁토티	-11.6095
▁탈선	-11.6096
▁기다렸다	-11.6096
▁미주리주	-11.6097
▁같아	-11.6097
▁테디	-11.6097
▁농촌	-11.6097
▁유아	-11.6097
▁반란군	-11.6097
▁드러나	-11.6098
▁유타주	-11.6098
▁출산율	-11.6098
▁aft	-11.6098
▁모여들었다	-11.6098
▁배역	-11.6098
▁이어갔다	-11.6099
▁망치	-11.6099
▁체스	-11.6099
▁green	-11.61
23	-11.61
▁행정부에	-11.61
▁770	-11.61
▁불만이	-11.6101
▁걸음	-11.6101
▁스위	-11.6101
회장	-11.6101
▁코란	-11.6102
▁줄리아	-11.6102
▁won	-11.6102
▁치타	-11.6102
▁생길	-11.6103
▁감당	-11.6103
▁눈으로	-11.6103
973	-11.6103
▁부의장	-11.6103
▁가져야	-11.6104
▁며칠간	-11.6104
▁김영	-11.6105
▁과감	-11.6105
39	-11.6106
▁안았다	-11.6106
▁잠자리	-11.6107
▁반세기	-11.6107
▁재계	-11.6107
▁1930	-11.6108
▁선제	-11.6109
▁애리조나주	-11.6109
▁원형	-11.611
▁죽였다	-11.611
▁4500	-11.6111
▁레비	-11.6112
▁카카	-11.6112
▁옮겼다	-11.6113
▁바오로	-11.6113
▁운동화	-11.6114
▁않을까	-11.6114
▁전차	-11.6115
▁리마	-11.6115
▁직위	-11.6115
▁천국	-11.6116
▁위크	-11.6116
▁추종자들	-11.6116
▁상표	-11.6116
▁os	-11.6117
▁방사	-11.6118
순위	-11.612
▁취소하	-11.6122
▁친분	-11.6123
▁플루	-11.6125
▁자질	-11.6125
▁대미	-11.6126
▁돌아가는	-11.6126
▁준결승전에서	-11.6127
▁여러차례	-11.6128
▁분리된	-11.6128
▁히스	-11.6129
▁놀이	-11.613
▁후송	-11.613
▁벗어나기	-11.6131
▁가혹한	-11.6131
▁항공편	-11.6132
▁확정됐다	-11.6132
▁험	-11.6132
▁옮겨졌다	-11.6133
량의	-11.6135
▁역할에	-11.6136
▁자식	-11.6136
▁끝나기	-11.6137
▁저하	-11.6139
▁그녀에게	-11.6139
▁수영장	-11.6139
▁수사팀	-11.6141
▁정당화	-11.6141
▁태세	-11.6144
▁자살했다	-11.6144
▁부패혐의	-11.6147
▁바탕으로	-11.6147
▁넘었다	-11.6148
▁산책로	-11.6152
▁이재민들	-11.6152
▁불행한	-11.6153
▁1300	-11.6154
▁출판사	-11.6154
▁남을	-11.6156
▁올드	-11.6156
▁거론	-11.6157
▁편집장	-11.6159
▁최다	-11.6159
용하여	-11.6159
모어	-11.6161
▁주어지	-11.6162
▁te	-11.6164
▁조사관들	-11.6164
▁선서	-11.6165
▁클레이	-11.6165
▁클라인	-11.6169
▁빨라	-11.6173
▁생명에	-11.6175
▁정서	-11.6177
▁그레이스	-11.6181
▁층	-11.6181
▁교사들	-11.6183
▁랩	-11.6184
▁가루	-11.6184
▁고민	-11.6185
▁bill	-11.6185
▁정부측	-11.6186
▁금지된	-11.6193
▁숨어	-11.6193
▁라일	-11.6194
▁거주자	-11.6194
▁혁신적	-11.6195
▁방안에	-11.6195
▁측면에서	-11.6196
▁중심부에서	-11.6197
▁전해진	-11.62
▁지지해	-11.6201
▁교류	-11.6204
▁환경에서	-11.6207
▁타계했다	-11.6209
▁결혼한	-11.6209
천여	-11.621
▁복	-11.621
▁친선경기	-11.6213
▁라운드	-11.6214
ii	-11.6215
▁다닐	-11.6215
▁pi	-11.6217
▁모여들	-11.6221
▁가시	-11.6221
▁생산성	-11.6221
▁결정하는	-11.6222
▁죽음이	-11.6222
▁중단해야	-11.6226
88	-11.6226
▁bo	-11.6227
▁내려가	-11.6227
▁삼바	-11.6229
▁다양성	-11.6229
▁세계에	-11.6232
▁농장에서	-11.6233
▁관중들	-11.6234
▁합류했다	-11.6235
▁우주국	-11.6238
▁지원이	-11.6241
세르	-11.6241
▁남쪽에	-11.6241
▁가야	-11.6242
▁토로	-11.6243
▁앤드	-11.6246
▁개최지	-11.6247
▁과거사	-11.6248
▁구사	-11.6252
▁space	-11.6255
▁번호	-11.6257
▁작동되	-11.6257
합의	-11.626
▁여당이	-11.6261
▁주식시장에서	-11.6262
▁사무실에	-11.6265
▁존재하지	-11.6268
▁자백했다	-11.6269
▁선거일	-11.627
▁franc	-11.6273
▁거부할	-11.6275
▁참여하고	-11.6276
▁져야	-11.6277
▁중심부에	-11.6281
음에	-11.6282
▁주었	-11.6288
▁북한측	-11.6289
▁친절	-11.629
▁도와	-11.6293
▁콜로	-11.6302
▁증상이	-11.6305
▁링	-11.6305
▁그외	-11.6307
▁좋아하	-11.6311
▁균	-11.6312
▁폭도	-11.6313
▁상원의	-11.6314
전문	-11.6316
▁물자	-11.6316
▁회사측	-11.6319
▁목적지	-11.6322
▁조직이	-11.6323
▁시드니에서	-11.6323
▁침	-11.6324
▁거래에서	-11.6324
▁흥분한	-11.6327
▁만들어지	-11.6329
54	-11.6333
▁신자들	-11.6335
▁실직자	-11.6337
▁하우스	-11.634
tic	-11.6341
▁way	-11.6341
▁전사들	-11.6346
▁지켜보고	-11.6347
▁누구에게	-11.6348
▁act	-11.635
▁set	-11.6351
900	-11.6352
▁under	-11.6352
▁살기	-11.6354
▁한국으로	-11.6355
▁신체적	-11.6358
금치	-11.6359
▁소행	-11.6359
▁역사가	-11.6364
법에	-11.6366
▁발사됐다	-11.6367
회의에서	-11.6367
▁기업에	-11.6368
▁때보다	-11.6372
▁점에	-11.6374
▁침범	-11.6375
▁이어져	-11.6376
▁증가에	-11.6378
▁곤경에	-11.6382
됐기	-11.6386
▁회복하고	-11.6387
▁여행자	-11.6391
쳤	-11.6391
▁esta	-11.6394
▁무하마	-11.6396
▁후보였	-11.6401
▁지금이	-11.6404
▁차량에서	-11.6404
49	-11.6405
▁꺼	-11.6407
▁시작된다	-11.6408
▁ver	-11.6411
▁집권한	-11.6413
▁경제학	-11.6415
바르	-11.642
▁생각은	-11.642
▁화면에	-11.6425
rt	-11.6427
▁환자에게	-11.643
▁발명	-11.6432
▁이용하	-11.6433
리드	-11.6434
▁사령관이	-11.6437
▁파르	-11.6438
ical	-11.6439
949	-11.644
ny	-11.6442
▁국무장관과	-11.6442
▁타운	-11.6442
것이	-11.6449
▁완수	-11.6454
▁해변에	-11.6455
▁노출된	-11.6458
▁업무에	-11.6461
국민	-11.6463
▁주도했다	-11.6464
▁자원봉사자들	-11.6468
▁개별	-11.6468
min	-11.647
▁상점들	-11.6471
▁만지	-11.6475
국가들	-11.6482
▁간부들	-11.6484
룸	-11.6485
탕	-11.6487
▁일부분	-11.6487
켜	-11.6489
▁경선에	-11.6493
멘	-11.6495
▁청소	-11.6496
▁의뢰	-11.6496
▁퇴원	-11.6497
▁신청했다	-11.6498
멜	-11.6498
▁협력해	-11.6501
▁나간	-11.6503
space	-11.6503
▁않았다면	-11.6504
▁위원회에서	-11.6504
보좌관	-11.6505
로프	-11.6507
시리즈	-11.6507
금융	-11.6508
음악	-11.6509
▁거점	-11.6509
업무	-11.6512
원에서	-11.652
배우	-11.652
▁그룹이	-11.6527
▁국민과	-11.6527
▁사임한	-11.6528
상품	-11.653
▁대만에	-11.653
시절	-11.6534
▁추적하	-11.6536
▁일삼	-11.6542
▁sen	-11.6542
결과	-11.6547
▁하반기	-11.6553
▁압력에	-11.6555
▁임원들	-11.6559
▁당이	-11.656
▁냉동	-11.6564
▁까	-11.6569
▁붙이	-11.657
▁대항하는	-11.6571
▁이슬람교도	-11.6572
심리	-11.6574
▁분기	-11.6579
▁나토군이	-11.658
▁사자	-11.6582
▁생겼	-11.6583
▁ex	-11.6584
▁inc	-11.6588
▁미술	-11.659
eic	-11.659
▁동요	-11.6593
▁관계자와	-11.6593
▁끝이	-11.6596
▁관람객	-11.6599
▁발견되었	-11.66
▁않았기	-11.6601
▁오프	-11.6602
▁변했다	-11.6607
▁프리메라리가	-11.6607
▁영아	-11.6608
밀리에	-11.6609
▁병이	-11.661
▁고집	-11.661
▁산악	-11.6611
▁젠	-11.6617
▁현대적	-11.6621
티스	-11.6625
▁표결에	-11.6627
▁찾았	-11.6628
79	-11.6633
▁청와대에서	-11.6633
배로	-11.6633
▁인체	-11.6636
▁live	-11.6636
▁bet	-11.6637
▁다르지	-11.6637
▁발의	-11.6637
▁지불했다	-11.6637
▁분리주의	-11.6638
▁공산	-11.6642
▁바꾸기	-11.6644
58	-11.6644
▁시작되었	-11.6647
▁원했다	-11.6649
▁worker	-11.665
▁많았	-11.6651
▁천장	-11.6656
▁주차장	-11.6658
▁트럭에	-11.666
▁훔	-11.666
uri	-11.6663
▁퇴직	-11.6663
▁corp	-11.6666
46	-11.6666
▁몬타나	-11.6666
▁선정한	-11.6668
퀴	-11.6668
▁중동평화	-11.6669
▁바람직	-11.6669
▁준결승	-11.667
옹	-11.6674
쾌	-11.6674
▁훔쳐	-11.6675
▁신행정수도	-11.6675
깃	-11.6675
셋	-11.6676
▁살모넬라	-11.6677
▁california	-11.6677
▁church	-11.6677
▁dead	-11.6677
▁eads	-11.6677
▁iwc	-11.6677
▁paris	-11.6677
▁program	-11.6677
▁개성공단	-11.6677
▁고르바초프	-11.6677
▁구소련	-11.6677
▁국제올림픽위원회	-11.6677
▁뇌졸중	-11.6677
▁디스플레이	-11.6677
▁멋지	-11.6677
▁몰랐다	-11.6677
▁미확인	-11.6677
▁민주노동당	-11.6677
▁바나프샤	-11.6677
▁박정희	-11.6677
▁블래터	-11.6677
▁비아그라	-11.6677
▁샀다	-11.6677
▁샌안토니오	-11.6677
▁스필버그	-11.6677
▁시에라리온	-11.6677
▁아디다스	-11.6677
▁예방접종	-11.6677
▁위태롭게	-11.6677
▁유동성	-11.6677
▁자페타	-11.6677
▁정보통신부	-11.6677
▁조류독감	-11.6677
▁트리폴리	-11.6677
▁햇빛	-11.6677
▁흑자	-11.6677
띤	-11.6677
캇	-11.6677
퐁	-11.6677
▁business	-11.6677
▁kbs	-11.6677
▁루카스	-11.6677
▁상무부	-11.6677
▁암스테르담	-11.6677
▁인공위성	-11.6677
▁정찰위성	-11.6677
▁쿼터백	-11.6677
▁흥정	-11.6677
▁깁스	-11.6677
▁메이도프	-11.6677
▁에스트라다	-11.6677
▁영업이익	-11.6677
▁조선일보	-11.6677
▁개구리	-11.6677
▁대성당	-11.6677
▁하드웨어	-11.6677
▁버나드	-11.6677
▁진짜	-11.6677
▁카펫	-11.6677
▁thai	-11.6677
▁스틸러스	-11.6677
▁옥스포드	-11.6677
▁체험	-11.6677
▁glob	-11.6677
▁프라이스	-11.6677
▁캐롤라인	-11.6677
▁senate	-11.6677
▁출혈	-11.6677
▁북아일랜드	-11.6677
▁낭독	-11.6677
▁블랙워터	-11.6677
▁클릭	-11.6677
▁룰라	-11.6677
▁탈퇴	-11.6677
▁불공정	-11.6677
▁gdp	-11.6677
▁스탠	-11.6677
▁출현	-11.6677
▁식별	-11.6677
▁기념행사	-11.6677
▁헌터	-11.6677
▁휴전협정	-11.6678
▁총파업	-11.6678
▁uci	-11.6678
▁어워드	-11.6678
▁항의시위	-11.6678
▁organization	-11.6678
▁마스터즈	-11.6678
▁축복	-11.6678
▁십자가	-11.6678
▁오닐	-11.6678
▁선거유세	-11.6678
▁핵연료	-11.6678
▁찰리	-11.6678
▁볼드윈	-11.6678
▁양호	-11.6678
▁무효화	-11.6678
▁양육	-11.6678
▁big	-11.6678
▁정회장	-11.6678
▁리옹	-11.6678
▁형벌	-11.6678
▁어윈	-11.6678
▁호황	-11.6678
▁case	-11.6678
▁연립	-11.6679
▁석상	-11.6679
▁증산	-11.6679
▁프린트	-11.6679
▁시에서	-11.6679
▁피켓	-11.6679
▁sex	-11.668
▁유대교	-11.668
▁부국장	-11.668
▁엔론	-11.668
▁올라왔다	-11.668
▁평화협정	-11.668
▁로리언	-11.668
시킴	-11.668
▁1967	-11.668
▁러브	-11.668
▁마스크	-11.6681
▁제휴	-11.6681
▁그래함	-11.6682
잡이	-11.6682
▁증권거래소	-11.6682
▁할렘	-11.6682
▁폴락	-11.6682
▁중동평화회의	-11.6682
▁이스트	-11.6682
▁737	-11.6682
▁흠	-11.6683
▁고아원	-11.6683
▁통신망	-11.6683
▁환경단체	-11.6683
▁집결	-11.6683
▁야채	-11.6684
▁오델	-11.6684
▁개발했다	-11.6684
▁소년병	-11.6684
▁밀크	-11.6685
▁강탈	-11.6685
▁빅토	-11.6685
▁파워	-11.6685
▁구두	-11.6685
▁최적	-11.6685
▁악수	-11.6686
▁현저	-11.6686
▁황소	-11.6686
▁저지르	-11.6687
▁넘긴	-11.6687
▁기대감	-11.6687
▁돌렸다	-11.6687
▁아담스	-11.6687
▁좋겠다	-11.6687
▁질식	-11.6687
▁로렌스	-11.6688
▁몬테	-11.6688
▁바다위	-11.6688
▁밝혀질	-11.6688
▁이뤘	-11.6688
▁표정	-11.669
▁회교도	-11.669
▁years	-11.6692
▁궁극적으로	-11.6692
▁경찰국장	-11.6692
▁매설	-11.6692
▁건물들이	-11.6692
▁주의보	-11.6693
▁요가	-11.6694
▁결선	-11.6694
▁루이지애나주	-11.6695
▁도망쳤다	-11.6695
▁틸리	-11.6696
▁왔었다	-11.6696
▁지상군	-11.6697
▁형량	-11.6697
▁물리	-11.6697
▁마루	-11.6698
▁그런데	-11.6699
▁원석	-11.6699
▁잡았	-11.67
코르	-11.6701
▁세울	-11.6703
▁콜린스	-11.6703
▁소치	-11.6703
▁상임	-11.6703
▁배아줄기세포	-11.6703
▁갖지	-11.6704
▁개통	-11.6704
▁마시는	-11.6704
▁문화원	-11.6705
▁북극해	-11.6705
▁가이드	-11.6705
▁알아야	-11.6706
▁부친	-11.6706
▁놈	-11.6708
▁통신에	-11.671
▁개제	-11.671
▁보내졌다	-11.6711
▁문학	-11.6713
▁컴퓨터에	-11.6714
▁거울	-11.6714
▁입원해	-11.6714
▁실업자	-11.6715
▁헌법상	-11.6715
▁나포	-11.6715
▁신선	-11.6717
▁장르	-11.6717
▁보잉사	-11.6721
▁서구	-11.6721
▁부탁했다	-11.6721
호선	-11.6723
▁소비자들에게	-11.6726
▁되는데	-11.6727
▁조니	-11.6729
때로	-11.673
▁고객들에게	-11.673
▁210	-11.6731
▁주시하	-11.6731
▁쉴	-11.6734
▁종사하	-11.6735
▁뷰	-11.6735
▁라만	-11.6735
▁집계됐다	-11.6735
▁보스	-11.6737
▁유학	-11.674
▁적었다	-11.674
▁퓨	-11.6745
▁유지될	-11.6746
▁급락했다	-11.6747
▁달아	-11.6747
▁정찰기	-11.6748
▁브랜	-11.6748
▁타개	-11.6748
▁수학	-11.6749
▁숨어있	-11.6752
▁수염	-11.6752
▁맞이했다	-11.6753
▁반대파	-11.6756
▁딱	-11.6757
▁애널리스트	-11.6759
▁않았었다	-11.676
▁107	-11.6762
사르	-11.6763
▁후속	-11.6765
nt	-11.6765
부문	-11.6766
▁주말까지	-11.6766
▁대구	-11.6766
발의	-11.6767
▁음식점	-11.6769
▁카라치에서	-11.677
▁통과되	-11.6772
▁축하하기	-11.6773
어졌다	-11.6774
▁버드	-11.6774
▁정해진	-11.6775
▁냈	-11.6776
▁브레	-11.6777
ight	-11.6777
▁꼬	-11.6778
ling	-11.6778
▁당사자	-11.678
to	-11.6781
▁밀리	-11.6781
▁king	-11.6781
▁교장	-11.6782
▁비슷하다	-11.6785
▁구성원	-11.6786
▁부모님	-11.6786
▁대법원에	-11.6789
▁철회할	-11.6789
▁다량	-11.6792
▁주둔하	-11.6792
상자	-11.6793
행해진	-11.6793
bc	-11.6793
ot	-11.6797
▁보석으로	-11.6797
▁흥미로	-11.68
▁승리해야	-11.6801
▁모색하고	-11.6802
▁자카르타에서	-11.6802
▁정보에	-11.6803
▁국경지역에서	-11.6808
▁해안지역	-11.6809
▁공약으로	-11.681
ant	-11.6816
▁반대해	-11.6816
시민	-11.6819
▁류	-11.6819
▁지었다	-11.6819
▁터지	-11.6821
▁사령부	-11.6821
▁사라졌	-11.6823
▁워싱턴주	-11.6824
리노	-11.6824
▁인사들과	-11.6826
▁빙	-11.6828
▁확인했	-11.6829
▁보이기	-11.6829
▁희생됐다	-11.6829
전화	-11.683
▁건의	-11.6835
▁외무장관이	-11.6838
▁딸들	-11.6839
▁접어들	-11.6839
▁죽었	-11.6841
베르트	-11.6842
▁평방	-11.6845
▁이르다	-11.6845
▁san	-11.6846
▁측근들	-11.6847
▁신뢰도	-11.6849
▁묵인	-11.6851
▁계약이	-11.6852
▁제압하	-11.6852
ors	-11.6862
▁초기에	-11.6865
▁에바	-11.6866
▁보자	-11.6866
▁한동안	-11.6871
수도	-11.6872
▁브라질에서	-11.6873
▁옹호하	-11.6873
▁익사	-11.6877
▁급증했다	-11.6877
▁th	-11.6877
▁바라보	-11.6879
▁정상회담에	-11.6882
▁부위에	-11.6884
▁손실이	-11.6886
▁장군과	-11.6889
▁느끼지	-11.689
▁나인	-11.6891
▁감소한	-11.6891
▁bp	-11.6892
이래	-11.6892
▁목표에	-11.6893
▁나아	-11.6894
▁장착한	-11.6901
문서	-11.6902
▁살아있다	-11.6902
▁텐	-11.6903
▁착륙했다	-11.6905
▁호스	-11.6911
▁장애인	-11.6914
▁사르	-11.6921
▁잠들	-11.6926
▁여러분이	-11.6927
965	-11.6929
▁강타했다	-11.6931
▁베니스	-11.6931
▁어기	-11.6932
▁실시하고	-11.6933
▁여론이	-11.6934
▁올라와	-11.6937
▁gu	-11.694
▁스티	-11.6941
1974	-11.6941
▁모아이	-11.6942
▁고조	-11.6942
노동자당	-11.6944
▁가져가	-11.6944
연소	-11.695
▁수니파와	-11.6953
글리	-11.6953
▁경쟁자들	-11.6953
▁촉진시키	-11.6953
▁공화당원들	-11.6954
롤	-11.6955
▁선호하	-11.6956
▁마련하고	-11.6957
라프	-11.696
▁민간인이	-11.6964
▁스페인에서	-11.6966
▁윤리적	-11.6966
▁취하는	-11.697
976	-11.6971
ke	-11.6972
▁jon	-11.6972
▁신생아	-11.6972
▁거래에	-11.6973
▁브라	-11.6974
▁인도인	-11.6976
▁지장	-11.6984
▁롱	-11.6984
▁sh	-11.6984
▁제한된	-11.6985
르트	-11.6985
▁ser	-11.6987
▁ko	-11.699
▁부문에	-11.6993
red	-11.6993
▁경쟁이	-11.6995
▁총살	-11.7001
연구원	-11.7004
정치	-11.7004
▁흔적이	-11.7006
▁패했다	-11.7008
▁감소하고	-11.7009
ler	-11.7009
▁크루	-11.7011
▁죽고	-11.7012
▁단계에서	-11.7014
워드	-11.7015
ard	-11.7017
▁체포했	-11.7023
▁실적이	-11.7023
▁비공식적	-11.7024
▁바커	-11.7027
▁토론회에	-11.7028
▁보았	-11.7028
실적	-11.703
▁타마	-11.7036
17	-11.7038
안보	-11.7042
▁아사	-11.7046
day	-11.7053
▁납북	-11.7057
nois	-11.7064
▁메인	-11.7065
▁다나	-11.7065
▁파장	-11.7067
▁영하	-11.7067
첨	-11.7067
▁차량과	-11.7068
▁싫어하	-11.7073
▁알기	-11.7073
▁기여한	-11.7075
▁bid	-11.7076
▁날로	-11.7076
▁주최하	-11.7077
▁기지에	-11.7078
▁앤더슨	-11.7079
▁제어	-11.7083
억달러에	-11.7084
▁확신하	-11.7084
▁제압	-11.7086
▁예고	-11.709
▁사유	-11.7091
프레드	-11.7099
▁한국어	-11.7101
▁다행	-11.7103
▁의거	-11.7105
▁애인	-11.7106
벽	-11.7107
ong	-11.7108
▁주시	-11.7109
졌습니다	-11.711
생산	-11.711
드미	-11.7111
▁자백	-11.7112
킨스	-11.7112
▁글로	-11.7115
좌	-11.7118
빛	-11.7128
평방	-11.713
time	-11.713
공화국	-11.7132
▁정권에	-11.7133
▁우려했다	-11.7133
능력	-11.7135
주택	-11.7135
할때	-11.7135
득점	-11.7136
교수	-11.7138
▁cur	-11.714
조각	-11.7141
▁수단이	-11.7141
▁ab	-11.7141
▁조각들	-11.7142
신청	-11.7143
▁투표했다	-11.7144
▁아나	-11.7151
자녀	-11.7152
통제	-11.7152
코스	-11.7153
▁반사	-11.7154
▁올라갔	-11.7154
동물	-11.7156
▁수지	-11.7158
▁방해하	-11.7162
▁간주하	-11.7163
▁제시했	-11.7164
▁카페인	-11.7165
별로	-11.7168
▁몰리	-11.717
▁신문이	-11.7171
▁심슨이	-11.7173
지역으로	-11.7176
병력	-11.7178
▁개월	-11.7178
번호	-11.7182
범죄	-11.7183
▁come	-11.7184
▁공원에	-11.7187
▁분노한	-11.7193
▁라벨	-11.7195
▁가량이	-11.7196
▁열정적	-11.7196
▁유명인사들	-11.7203
▁섬에서	-11.7204
▁공통	-11.7205
lin	-11.7208
▁불량	-11.7219
▁사망할	-11.722
▁쇼에서	-11.7221
▁혐오	-11.7222
물라	-11.7222
코트	-11.7224
▁z	-11.7231
나라	-11.7232
93	-11.7233
38	-11.7233
ok	-11.7233
▁폭도들	-11.7234
tt	-11.7239
que	-11.724
▁빠졌	-11.7241
▁스타디움	-11.7247
our	-11.7249
▁지휘자	-11.7252
▁평양에	-11.7254
▁생중계	-11.7254
▁청년들	-11.7256
▁가즈니주	-11.7256
▁191	-11.7258
함이	-11.7259
혔	-11.726
▁요청에	-11.7262
레이크	-11.7264
▁단계로	-11.7266
▁몰아넣	-11.7267
▁거뒀	-11.7267
▁정규	-11.7269
▁생기는	-11.727
ble	-11.7273
럭	-11.7276
▁봉	-11.7278
▁오르지	-11.7278
▁메디컬	-11.7281
▁고기	-11.7285
▁장이	-11.7285
글판	-11.7285
▁살아가	-11.7286
▁파견한	-11.7286
▁일축	-11.7288
립된	-11.7289
▁미시건	-11.729
▁플레이오프	-11.7291
▁유효	-11.7293
끔	-11.7294
▁취업	-11.7296
▁면역	-11.7296
▁결정적	-11.7297
전쟁	-11.7299
▁거부하는	-11.7299
▁meet	-11.7299
▁che	-11.73
▁불러일으	-11.73
▁햇볕	-11.7301
▁수마트라	-11.7301
▁극단주의	-11.7301
▁투탕카멘	-11.7301
▁끊어	-11.7301
▁force	-11.7302
툰	-11.7302
ube	-11.7302
▁academy	-11.7302
▁conference	-11.7302
▁institute	-11.7302
▁깨닫	-11.7302
▁나미비아	-11.7302
▁남동생	-11.7302
▁니제르	-11.7302
▁대검찰청	-11.7302
▁떠올랐다	-11.7302
▁래드클리프	-11.7302
▁리투아니아	-11.7302
▁매몰된	-11.7302
▁메릴린치	-11.7302
▁모레스모	-11.7302
▁배트맨	-11.7302
▁밸리	-11.7302
▁볼리비아	-11.7302
▁사이언톨로지	-11.7302
▁상임이사국	-11.7302
▁영유권	-11.7302
▁재경부	-11.7302
▁츠방기라이	-11.7302
▁포유류	-11.7302
▁프랑크푸르트	-11.7302
▁플레이스테이션	-11.7302
▁혹등고래	-11.7302
▁흡입	-11.7302
▁흩어져	-11.7302
쯔	-11.7302
▁멜버른	-11.7302
▁볼티모어	-11.7302
▁스즈키	-11.7302
▁스콜스	-11.7302
▁신시내티	-11.7302
▁옵션	-11.7302
▁존엄성	-11.7302
▁좁혀	-11.7302
▁카르발라	-11.7302
▁퀘벡	-11.7302
▁타디치	-11.7302
▁트레일러	-11.7302
▁irna	-11.7302
▁냉장고	-11.7302
▁다이어트	-11.7302
▁서두르	-11.7302
▁오페라	-11.7302
▁전자메일	-11.7302
▁메케인	-11.7302
▁백과사전	-11.7302
▁섭씨	-11.7302
▁중질유	-11.7302
▁산악지대	-11.7302
▁놀이공원	-11.7302
▁산시성	-11.7302
▁africa	-11.7302
▁사진작가	-11.7302
▁버크헤드	-11.7302
▁통합민주당	-11.7302
▁capital	-11.7302
▁threaten	-11.7302
▁화학물질	-11.7302
▁train	-11.7302
▁검정색	-11.7302
▁정착촌	-11.7302
▁슬픈	-11.7302
▁엘리엇	-11.7302
▁철폐	-11.7302
▁압델	-11.7302
▁빈민층	-11.7302
▁당뇨병	-11.7302
▁부총재	-11.7302
▁수수료	-11.7302
▁민영	-11.7302
▁봉투	-11.7302
▁헬렌	-11.7302
▁벗겨	-11.7302
▁노던록	-11.7302
▁블랙홀	-11.7302
▁부대변인	-11.7302
▁검역	-11.7303
▁국가평의회	-11.7303
▁출처	-11.7303
▁입후보	-11.7303
▁list	-11.7303
▁사이언스	-11.7303
▁mtv	-11.7303
▁멜론	-11.7303
▁게시물	-11.7303
▁파키스탄인민당	-11.7303
▁abn	-11.7303
▁차량폭탄	-11.7303
▁기울여야	-11.7303
▁몰락	-11.7303
▁우주여행	-11.7303
▁trial	-11.7303
▁계승	-11.7304
▁다저스	-11.7304
▁직무	-11.7304
▁내륙	-11.7304
▁이스마일	-11.7304
▁조세프	-11.7304
▁오디오	-11.7304
▁놀라움	-11.7304
▁killed	-11.7304
▁생물체	-11.7304
▁동거	-11.7304
▁루머	-11.7304
▁예상됩니다	-11.7305
▁살인사건	-11.7305
▁코웰	-11.7305
▁레빈	-11.7305
▁생생	-11.7305
▁증파	-11.7305
▁프로스트	-11.7305
▁우편물	-11.7305
▁관통	-11.7305
▁실망감	-11.7305
▁로빈슨	-11.7306
▁신기록	-11.7306
▁시켰다	-11.7306
▁절정	-11.7306
▁작위	-11.7306
▁머무르	-11.7306
▁골절	-11.7306
▁특혜	-11.7307
▁어류	-11.7307
▁국무회의	-11.7307
▁견제	-11.7307
▁법무상	-11.7307
▁자동차산업	-11.7307
▁단편	-11.7308
▁팻	-11.7308
dom	-11.7308
▁알라위	-11.7308
▁신랑	-11.7308
▁대피시켰다	-11.7308
▁아델	-11.7309
▁뉴욕과	-11.7309
▁국토	-11.7309
▁생계	-11.7309
▁왕관	-11.731
▁타워	-11.731
▁정복	-11.731
▁루터	-11.7311
▁pm	-11.7311
▁제왕	-11.7312
▁브라이언트	-11.7312
▁자위대	-11.7312
팀이	-11.7313
▁2015	-11.7313
▁사료	-11.7313
▁소포	-11.7313
▁물러났다	-11.7313
▁aids	-11.7314
▁유실	-11.7314
▁센터에	-11.7314
▁생산업체	-11.7314
▁비정부	-11.7314
▁통제권	-11.7315
▁팬더	-11.7315
▁메인주	-11.7315
▁천정	-11.7315
▁정문	-11.7316
▁해일	-11.7316
▁풀려나	-11.7317
▁비스타	-11.7317
▁호박	-11.7317
▁추정했	-11.7317
▁찾아온	-11.7318
▁난관	-11.7319
▁불균형	-11.7319
▁항공모함	-11.7319
▁지명되기	-11.7319
▁쿠즈	-11.7319
▁배출량	-11.7319
▁조그	-11.732
▁공석	-11.732
▁놓여있다	-11.732
▁중단시켰다	-11.7322
▁휴전선	-11.7322
▁깨진	-11.7323
▁돌파구	-11.7324
▁성실	-11.7324
▁남북간	-11.7324
▁5500	-11.7326
▁마신	-11.7327
▁해골	-11.7328
▁블루스	-11.7328
▁풀어주	-11.7329
▁궁전	-11.7329
▁관용	-11.7329
▁위함	-11.733
▁경찰서로	-11.733
▁인터내셔널	-11.733
▁주범	-11.7331
▁동점	-11.7331
▁희	-11.7331
▁늘었다	-11.7332
▁기자실	-11.7333
▁수술이	-11.7333
▁인권문제	-11.7333
▁ca	-11.7334
▁사무국장	-11.7335
▁시도했으	-11.7335
분별	-11.7335
▁구조물	-11.7336
▁군사정부	-11.7337
▁국토안보부	-11.7338
▁봤을	-11.7339
▁중요하게	-11.7339
▁있냐	-11.734
▁변하지	-11.734
▁요리사	-11.734
네이션	-11.7341
▁의장직	-11.7342
▁스티븐스	-11.7343
▁추억	-11.7343
▁말았	-11.7345
▁친부	-11.7345
▁극도로	-11.7345
▁말해주	-11.7345
▁피해여성	-11.7347
▁크라우	-11.7348
▁등장한다	-11.7348
▁희생된	-11.7348
▁뻔	-11.7352
▁노동조합	-11.7353
▁하나였다	-11.7356
▁티나	-11.7356
▁공동체	-11.7356
▁촉	-11.7357
▁놓았	-11.7357
ls	-11.7358
den	-11.7358
▁호건	-11.7358
트너	-11.7358
▁불법적으로	-11.736
▁박탈당	-11.736
▁에너지부	-11.7361
▁빛나	-11.7361
▁225	-11.7363
▁지냈다	-11.7363
▁순교자	-11.7366
▁유발할	-11.7366
▁코드	-11.7369
▁수출국	-11.737
▁자진	-11.7371
▁태워	-11.7372
▁꾸	-11.7375
▁대사관에	-11.7375
▁집어	-11.7375
▁스프레이	-11.7376
▁입소	-11.7379
▁폐쇄하기	-11.7381
▁관점	-11.7381
▁테러리스트들이	-11.7382
▁말아	-11.7383
타로	-11.7385
▁밝혀져	-11.7385
▁관람객들	-11.7385
▁죽어가	-11.7387
▁영화계	-11.7387
▁테크	-11.7387
▁정면	-11.7388
▁145	-11.7388
▁사진기자	-11.7391
▁애플사	-11.7392
▁마샤	-11.7393
▁emi	-11.7394
▁키트	-11.7394
▁330	-11.7395
▁개막식에	-11.7395
▁의사회	-11.7398
▁떠나기	-11.7401
▁펼쳐지	-11.7403
▁인정한다	-11.7403
프리	-11.7405
▁해당한다	-11.7411
▁지시한	-11.7412
▁출동했다	-11.7413
▁지지한	-11.7418
▁갇혀있	-11.7419
▁ad	-11.7419
▁앉아있	-11.7423
▁양이	-11.7424
▁사망률	-11.7425
am	-11.7427
▁rate	-11.7431
▁결승에	-11.7437
시피	-11.7437
▁종업원	-11.7439
▁직원들에게	-11.7441
▁목장	-11.7442
문제에	-11.7444
▁생물학자	-11.7444
▁후회	-11.7446
▁방영되	-11.7447
▁글로리	-11.7453
그너	-11.7454
▁도드	-11.7454
▁대응하기	-11.7455
▁램	-11.7455
▁ask	-11.7456
▁반군들	-11.7456
▁상대적	-11.7461
▁목록에서	-11.7462
▁연구실	-11.7463
34	-11.7464
벨리	-11.7466
▁남동부에서	-11.7472
▁축출된	-11.7475
▁초고속	-11.7476
꾼	-11.748
▁can	-11.7483
▁인부	-11.7483
▁이슬람교도들	-11.7485
▁택	-11.7488
▁혼	-11.7489
▁돌아보	-11.7495
tri	-11.7498
▁제기됐	-11.7501
▁두지	-11.7502
위와	-11.7503
단지	-11.7503
▁알려왔	-11.7507
▁농구	-11.7514
▁참석자들	-11.7515
▁리자	-11.7515
▁중단하겠다	-11.7517
▁에드로	-11.7518
▁케인	-11.752
티브	-11.752
▁맺어	-11.7524
▁도와주는	-11.7524
키는	-11.7526
▁지역과	-11.7528
정된	-11.753
▁sp	-11.7534
▁임명됐다	-11.7534
▁전후	-11.7534
세기에	-11.7535
▁예루살렘에서	-11.7536
▁대학에	-11.7537
▁다할	-11.7542
화씨	-11.7545
▁무시했다	-11.7546
68	-11.7551
▁대개	-11.7552
▁연결된	-11.7552
▁소방대원들	-11.7554
▁참석한다	-11.7554
▁전경	-11.7555
▁축구팬	-11.7555
랙	-11.7556
▁수감돼	-11.7559
▁일자	-11.7564
▁인정했	-11.7566
키야	-11.7567
▁압박했다	-11.7572
일쯤	-11.7576
▁모델이	-11.7576
▁패배한	-11.7577
▁참석했	-11.7577
▁베드	-11.758
▁시신들	-11.7583
▁팬이	-11.7583
▁지지하	-11.759
▁탐험가	-11.759
▁케냐에서	-11.7594
▁출발한	-11.7596
▁예외	-11.7598
▁없다면	-11.7598
▁블로거	-11.7609
▁경매에서	-11.761
▁파티에	-11.7611
▁미국인이	-11.7615
▁연구조사	-11.7618
위해	-11.7622
▁유지해	-11.7622
▁졸	-11.7624
▁나간다	-11.7628
▁어스	-11.7632
ann	-11.7638
ans	-11.7642
▁주인공이	-11.7645
머스	-11.7645
▁추산되	-11.7649
▁포도	-11.7649
▁위헌	-11.765
▁분개	-11.765
▁생산되	-11.765
스탄	-11.7655
▁강에	-11.7656
▁일부에	-11.7657
▁존재한다	-11.7659
▁지원자들	-11.7663
강한	-11.7665
▁월드컵에서	-11.7669
ba	-11.7671
▁삼아	-11.7673
▁안된	-11.7674
▁마을이	-11.7675
ver	-11.7675
ice	-11.7676
▁ka	-11.7676
▁확산되는	-11.7682
ore	-11.7683
▁전염	-11.7685
▁실망했다	-11.7693
ous	-11.7694
▁축구팬들	-11.7705
부로	-11.7712
▁베니	-11.7714
▁효율	-11.7715
▁분석한	-11.7717
ld	-11.772
▁회원국이	-11.7721
▁되자	-11.7727
대비	-11.7728
▁하원의	-11.7729
ue	-11.7731
▁살레	-11.7732
어드	-11.7732
▁교수와	-11.7733
▁입히	-11.7735
▁만화가	-11.7737
▁죽음으로	-11.7743
자키	-11.7743
▁체포한	-11.7745
▁어려워	-11.7746
▁상황으로	-11.7748
▁캘리포니아에	-11.7748
▁중단시키	-11.7749
▁슬로	-11.775
▁딸에게	-11.7751
▁레고	-11.7752
▁기술로	-11.7753
▁지나면	-11.7756
▁유가족들	-11.7759
봤다	-11.7761
▁감안	-11.7761
▁납부	-11.7761
▁ve	-11.7763
▁유세에	-11.7763
31	-11.7764
▁성대	-11.7764
▁들어있	-11.7766
▁다음에	-11.7767
농	-11.7768
cal	-11.7769
▁정당한	-11.777
▁남성에게	-11.7774
센터에서	-11.7774
▁실명	-11.7778
▁주관	-11.7778
▁국회의사당	-11.778
나스	-11.7788
▁말도	-11.7792
▁출발했다	-11.7792
▁싱가포르의	-11.7792
줘	-11.7794
푸르	-11.7796
탐	-11.7799
▁학자	-11.78
테니스	-11.7802
▁등에서	-11.7803
▁오가	-11.7803
▁민주당원	-11.781
▁dai	-11.7812
아래	-11.7813
데라	-11.7815
▁그간	-11.7817
▁환영의	-11.7822
분쟁	-11.7825
사단	-11.7828
▁공항이	-11.7829
▁protest	-11.7831
전선	-11.7835
▁흐르	-11.7836
▁결혼식에	-11.7836
▁입장에	-11.784
▁휘말	-11.7844
▁타계	-11.7844
▁표하고	-11.7848
스타인	-11.785
▁자행	-11.7854
곳이	-11.7854
▁인도주의	-11.7855
▁외국인들이	-11.7856
▁원정	-11.7867
▁개혁안	-11.7868
▁가속	-11.7871
▁연구소에서	-11.7874
카니	-11.7874
겼	-11.7876
▁뒤진	-11.7883
▁당사자들	-11.7885
실에서	-11.7885
▁리스	-11.7886
▁투항	-11.7888
▁합의안	-11.7891
▁qu	-11.7891
공항	-11.7892
▁분자	-11.7892
▁버몬트	-11.7894
▁법이	-11.7899
▁침체에	-11.7904
▁달링	-11.7905
▁바라지	-11.7907
▁힘들어	-11.7908
▁구성원들	-11.7912
▁로마에서	-11.7914
가족	-11.7914
▁주마	-11.7919
클리	-11.7919
석에	-11.792
▁살아있	-11.792
▁시도로	-11.792
랜스	-11.7924
▁굽	-11.7924
▁걸렸	-11.7925
▁토의	-11.7928
▁순례	-11.7929
았던	-11.7929
ting	-11.7935
▁수개월	-11.7937
됐음	-11.7938
ition	-11.7939
▁유타	-11.7945
▁여명	-11.7945
관리국	-11.7946
▁날려	-11.7948
▁대사와	-11.7948
▁입찰	-11.795
▁시달	-11.795
▁거머쥐었	-11.7951
▁이루어졌	-11.7951
자산	-11.7952
▁나오기	-11.7953
▁진출했	-11.7954
▁양도	-11.7954
▁black	-11.7957
▁104	-11.7957
▁전해졌	-11.7958
▁장갑	-11.796
▁던졌	-11.7961
▁마텔	-11.7961
▁잠겨	-11.7962
혁명	-11.7963
▁조장하	-11.7963
▁겁	-11.7964
흘	-11.7966
▁표현한	-11.7966
▁도미니	-11.7967
왓	-11.7967
룽	-11.7968
톡	-11.7968
궈	-11.7968
▁alliance	-11.7968
▁christ	-11.7968
▁country	-11.7968
▁depart	-11.7968
▁unhcr	-11.7968
▁건강검진	-11.7968
▁걷기	-11.7968
▁다비덴코	-11.7968
▁듣게	-11.7968
▁디카프리오	-11.7968
▁루고보이	-11.7968
▁먹지	-11.7968
▁무기징역	-11.7968
▁미식축구	-11.7968
▁바랐다	-11.7968
▁부동층	-11.7968
▁불러일으켰다	-11.7968
▁블록버스터	-11.7968
▁비정상적	-11.7968
▁슈퍼마켓	-11.7968
▁스타워즈	-11.7968
▁아르메니아	-11.7968
▁알카티리	-11.7968
▁여중생	-11.7968
▁옥수수	-11.7968
▁유투브	-11.7968
▁잉그리드	-11.7968
▁전두환	-11.7968
▁준이치로	-11.7968
▁출퇴근	-11.7968
▁칼데론	-11.7968
▁캠브리지	-11.7968
▁크라이튼	-11.7968
▁트러스트	-11.7968
▁퍼붓	-11.7968
▁프랑수아	-11.7968
▁확립	-11.7968
▁휠체어	-11.7968
랏	-11.7968
▁buy	-11.7968
▁demand	-11.7968
▁invest	-11.7968
▁국제영화제	-11.7968
▁남태평양	-11.7968
▁늦추	-11.7968
▁멤피스	-11.7968
▁세컨드라이프	-11.7968
▁언젠가	-11.7968
▁여기저기	-11.7968
▁타임스퀘어	-11.7968
▁티크리트	-11.7968
▁파딜라	-11.7968
▁패터슨	-11.7968
▁1972	-11.7968
▁따돌렸	-11.7968
▁리브니	-11.7968
▁부녀자	-11.7968
▁즐긴다	-11.7968
▁돌려보내	-11.7968
▁바이에른	-11.7968
▁record	-11.7968
▁비무장지대	-11.7968
▁할로윈	-11.7968
▁hyun	-11.7968
▁징조	-11.7968
▁애틀랜틱	-11.7968
▁갑작스럽	-11.7968
▁아스카리	-11.7968
▁전비법안	-11.7968
▁어쩌	-11.7968
▁패트로스	-11.7969
▁구제금융법안	-11.7969
▁million	-11.7969
▁마지드	-11.7969
▁소비에트	-11.7969
▁thre	-11.7969
▁그래미	-11.7969
▁dax	-11.7969
도날드	-11.7969
▁서유럽	-11.7969
▁용도로	-11.7969
▁어둠	-11.7969
▁국영언론	-11.7969
▁압류	-11.7969
▁소방당국	-11.7969
▁겨누	-11.7969
▁포털	-11.7969
▁베이징올림픽	-11.7969
▁order	-11.7969
▁슈렉	-11.7969
▁어리석	-11.7969
▁장례	-11.7969
▁교훈	-11.7969
▁wall	-11.7969
▁군사행동	-11.7969
▁신흥	-11.7969
▁오웬	-11.7969
▁레빈슨	-11.7969
▁수감생활	-11.7969
▁마피아	-11.7969
▁그레그	-11.7969
▁봉급	-11.7969
▁테러리즘	-11.7969
▁키팅	-11.7969
▁슬림	-11.797
▁편견	-11.797
▁정몽	-11.797
▁tsa	-11.797
▁교각	-11.797
▁생애	-11.797
▁디즈니랜드	-11.797
▁날카로	-11.797
▁애견	-11.797
▁해산시키기	-11.797
▁콜롬보	-11.797
▁축구선수	-11.797
▁필름	-11.797
▁알렉	-11.797
▁부정행위	-11.797
▁아메바	-11.797
▁cac	-11.797
▁기관총	-11.797
▁합작	-11.797
▁로지스	-11.797
▁드럼	-11.797
▁말리부	-11.797
▁부활절	-11.7971
▁비웃	-11.7971
▁선례	-11.7971
▁학계	-11.7971
▁축구스타	-11.7971
▁케이티	-11.7971
▁meeting	-11.7971
▁자치권	-11.7971
▁무례	-11.7971
▁대국민	-11.7971
▁때와	-11.7971
▁계급	-11.7971
▁스노우	-11.7971
▁용감	-11.7971
▁야망	-11.7972
▁만평	-11.7972
▁집값	-11.7972
▁폭발사고	-11.7972
▁자폭	-11.7972
▁상향	-11.7972
▁암살사건	-11.7972
▁출입국	-11.7972
▁하렐	-11.7972
▁최신작	-11.7972
▁태생	-11.7972
▁공공연	-11.7972
▁월급	-11.7972
▁놀란	-11.7972
▁종목	-11.7972
▁아프리카연합	-11.7973
▁당부	-11.7973
▁위독	-11.7973
▁불법행위	-11.7973
▁요한슨	-11.7973
▁청원서	-11.7973
▁today	-11.7974
▁설전	-11.7974
▁에베레스트산	-11.7974
▁홀더	-11.7974
▁애완용	-11.7974
▁청산	-11.7974
▁누구인지	-11.7974
▁난입	-11.7974
▁깨달았다	-11.7974
▁바꾼	-11.7974
▁상환	-11.7974
▁허브	-11.7974
▁girls	-11.7974
▁평온	-11.7975
▁포탄	-11.7975
▁헝	-11.7975
▁무레이	-11.7975
▁설비	-11.7975
▁물리학자	-11.7976
▁고르	-11.7976
▁자고	-11.7976
▁귀중	-11.7977
▁난방	-11.7979
▁연합정부	-11.7979
▁반테러	-11.7979
▁들어설	-11.7979
▁변함없	-11.7979
▁과연	-11.798
▁사이트에서	-11.798
▁음료수	-11.798
▁증대	-11.798
▁김양	-11.7981
▁centr	-11.7981
▁오찬	-11.7981
▁부양	-11.7981
▁유영	-11.7981
▁발판	-11.7982
▁플래시	-11.7982
▁종교단체	-11.7982
▁왕조	-11.7983
▁메모	-11.7983
▁건축물	-11.7984
▁부주의	-11.7984
▁지방정부	-11.7985
▁서울과	-11.7985
▁과속	-11.7985
▁토레스	-11.7985
▁은둔	-11.7985
▁담요	-11.7985
▁왕비	-11.7985
▁홈경기	-11.7985
정권	-11.7986
▁불확실성	-11.7987
▁파란	-11.7987
▁로빈	-11.7987
▁근본주의자들	-11.7988
받았	-11.7989
▁보물	-11.799
▁벗어났다	-11.799
▁리츠	-11.7992
▁체력	-11.7993
▁신씨	-11.7993
▁유로화	-11.7994
▁부분적으로	-11.7995
▁정치국	-11.7996
▁서점	-11.7996
▁어조	-11.7997
▁당내	-11.7997
▁등장했다	-11.7998
▁싶었다	-11.7999
▁커뮤니케이션	-11.7999
▁총력	-11.7999
▁기미	-11.7999
▁설사	-11.8
▁watch	-11.8
▁국어	-11.8
▁과오	-11.8
▁원내	-11.8001
▁소실됐다	-11.8001
▁경계선	-11.8001
▁캐시	-11.8002
▁진술서	-11.8002
▁states	-11.8003
▁ces	-11.8004
트릭	-11.8007
담당자	-11.8007
▁내외	-11.8008
▁편리	-11.8008
▁모방	-11.8008
▁끝내기	-11.8009
▁이윤	-11.801
▁멍	-11.801
▁주립대학	-11.8012
▁기울이지	-11.8012
▁위력	-11.8014
▁간직	-11.8015
만파운드	-11.8015
▁받아들이기	-11.8015
▁합법화	-11.8016
▁요구했었다	-11.8016
▁접어	-11.8016
▁동부지역	-11.8017
▁양식	-11.8017
▁일과	-11.8018
▁신차	-11.8018
▁자비	-11.8018
▁성범죄자	-11.8018
▁의약	-11.8019
▁2200	-11.8019
▁국회의장	-11.802
▁수혈	-11.8021
▁동의안	-11.8022
▁차이점	-11.8022
▁일기장	-11.8023
▁셈	-11.8023
▁주의회	-11.8025
▁되도록	-11.8026
▁전반전	-11.8026
▁엄청나	-11.8027
▁도하	-11.8027
임이	-11.8027
▁불안해	-11.8028
▁좋아지	-11.8032
▁대리	-11.8033
▁합쳐	-11.8034
▁해역에서	-11.8038
▁등반	-11.804
▁east	-11.8041
▁거래소	-11.8045
▁건강상	-11.8046
▁미렌	-11.8047
▁속력	-11.8047
▁알바로	-11.8047
▁안정성	-11.8048
▁480	-11.8048
▁계약서	-11.8048
▁용지	-11.8048
▁헨	-11.8049
▁직원인	-11.8052
▁맹	-11.8053
▁결렬	-11.8054
▁볼트	-11.8055
▁마자	-11.8057
▁제출된	-11.8058
▁uk	-11.8058
▁가문	-11.8059
▁일보	-11.8059
▁구리	-11.806
▁분쟁에	-11.806
▁쿠폰	-11.8062
▁불거	-11.8062
▁크레인	-11.8062
주일간	-11.8063
▁청장	-11.8065
우트	-11.8065
▁벤치	-11.8066
▁말하자	-11.8066
▁대학이	-11.8067
▁반기	-11.8067
▁기숙사에서	-11.8068
ain	-11.8069
▁모기	-11.807
▁발표되었다	-11.8071
▁총리실	-11.8072
▁회복할	-11.8073
▁가장자리	-11.8076
▁유럽으로	-11.8078
▁들지	-11.8082
▁명상	-11.8083
▁유서	-11.8083
▁사형이	-11.8084
▁제거했다	-11.8084
▁전세계로	-11.8085
▁빛이	-11.8087
틱	-11.8088
▁정세	-11.8089
968	-11.809
▁게임이	-11.809
부장관	-11.8093
▁선출됐다	-11.8095
▁잘라	-11.8096
▁큐	-11.8096
ness	-11.8098
▁아샤	-11.8099
▁구하는	-11.8099
▁회복되	-11.8099
▁환호하	-11.8101
▁휴회	-11.8103
▁결장	-11.8105
rough	-11.8106
시간만	-11.8112
▁부모에게	-11.8114
▁출연했	-11.8114
▁메르	-11.8114
▁yout	-11.8114
ama	-11.8115
▁웬	-11.8117
▁지역구	-11.8119
io	-11.8119
▁적용할	-11.812
mas	-11.8121
▁피난민	-11.8122
▁소식으로	-11.8122
▁115	-11.8123
▁감정적	-11.8127
정부가	-11.8128
well	-11.8129
▁국가적	-11.813
73	-11.8131
▁경제팀	-11.8132
▁내역	-11.8133
▁상인들	-11.8137
▁발자국	-11.8139
셰르	-11.8141
▁팔린	-11.8144
▁con	-11.815
▁카메라에	-11.8153
▁나도	-11.8154
▁이겨	-11.8157
▁개최국	-11.8157
▁운동에	-11.8159
▁금리인하	-11.8161
▁영국으로부터	-11.8161
▁특성	-11.8161
▁보리	-11.8162
▁상하이에서	-11.8163
▁날아가	-11.8163
▁대행	-11.8165
▁켜	-11.8167
illi	-11.8167
회의에	-11.8173
np	-11.8175
타그	-11.8176
der	-11.8176
카트	-11.8176
▁중국어	-11.8176
▁표현할	-11.8179
▁그레	-11.8182
▁백만	-11.8182
ism	-11.8182
▁기업인	-11.8183
▁베티	-11.8184
▁확산됐다	-11.8188
▁활동가들	-11.8191
▁죄수	-11.8191
▁스타인	-11.8192
▁후반에	-11.8193
▁전국에	-11.8193
색의	-11.8198
차관	-11.82
▁chi	-11.8203
▁레스토랑에서	-11.8205
▁여자친구와	-11.8206
▁지도부와	-11.8207
▁발전기	-11.8208
▁핵폐기	-11.8209
▁세우는	-11.8209
▁사스	-11.821
▁약화시키	-11.8212
판매	-11.8213
▁두려워하	-11.8213
▁대중들	-11.8214
▁하늘에서	-11.8214
▁통제하는	-11.8216
▁같지	-11.8216
▁안전성	-11.8217
▁치료하는	-11.822
▁hel	-11.822
▁give	-11.8221
▁피해자들이	-11.8221
▁우려된다	-11.8227
▁소송에	-11.8227
▁이름과	-11.8231
▁하드	-11.8231
변화	-11.8235
▁165	-11.8236
▁투옥	-11.8238
▁부패와	-11.8238
▁얀	-11.824
▁장군이	-11.824
▁정했다	-11.824
▁보고됐다	-11.8242
▁폐쇄됐다	-11.8243
관계자	-11.8243
▁군데	-11.8244
▁성사	-11.8247
▁사회에서	-11.8249
▁멕시코에서	-11.8249
▁일으키고	-11.8253
ner	-11.8254
▁주위에	-11.8263
▁차장	-11.8264
▁유튜브에	-11.8266
▁문명	-11.8268
▁관계없	-11.8269
▁점령한	-11.827
▁각료들	-11.8273
▁씩	-11.8274
백만명	-11.8275
비트	-11.828
해발	-11.828
▁끝나면	-11.8281
▁하락하고	-11.8282
▁출연할	-11.8282
▁전장에	-11.8286
▁인용했다	-11.8287
▁제소	-11.8288
▁이하로	-11.8289
▁전신	-11.8294
▁아들에게	-11.8296
론자들	-11.8302
▁대비하고	-11.8303
바드	-11.8305
▁재기	-11.8306
▁매장에서	-11.8306
▁저항하	-11.8312
▁당선이	-11.8313
▁배정	-11.8315
▁세상에	-11.8316
▁비난한다	-11.8318
▁기자와	-11.8318
▁장관으로	-11.8318
라트	-11.8322
▁sur	-11.8324
▁참여하기	-11.8325
▁막지	-11.8326
▁쉽	-11.8326
▁프로그램들	-11.8329
▁배에	-11.8329
▁영구적	-11.8338
▁변명	-11.8344
▁보라	-11.8344
ag	-11.8347
▁팀장	-11.8348
▁그들과	-11.8348
▁늘어난	-11.8351
기남	-11.8351
▁이민자	-11.8353
▁터키와	-11.8354
▁사용이	-11.8356
▁시도할	-11.8357
▁퍼센트	-11.8358
▁해결되	-11.836
nd	-11.8361
해졌	-11.8363
▁대상자	-11.8364
▁밀고	-11.8365
▁기뻐	-11.8366
55	-11.8369
▁본부에서	-11.8369
▁휴대폰으로	-11.8372
▁사육사들	-11.8375
▁경이	-11.8378
▁적들	-11.8381
▁여행할	-11.8387
▁사살하	-11.839
▁관찰하	-11.839
▁스테이	-11.8392
▁오도	-11.8393
ber	-11.8394
▁생각되는	-11.8397
▁배치했다	-11.8401
▁선보이	-11.8401
▁장관들	-11.8403
▁베일	-11.8405
▁아니었	-11.8406
▁은행에서	-11.8406
▁수니	-11.8409
▁설치했다	-11.8411
시키지	-11.8415
▁어디	-11.8415
▁인지	-11.842
데르	-11.8424
병이	-11.8425
▁사퇴했다	-11.8425
▁요인들	-11.8426
편에	-11.8427
▁후보간	-11.8429
파르	-11.843
모를	-11.8431
▁확보하고	-11.8436
교회	-11.8436
▁노던	-11.8436
회에	-11.8439
▁털어	-11.8441
만부	-11.8442
▁투자할	-11.8444
잡지	-11.8452
▁이해하는	-11.8455
▁스캔들에	-11.8458
▁연주자	-11.846
▁아프간인	-11.8462
우주	-11.8469
냈	-11.847
▁구성했다	-11.847
ator	-11.8475
ee	-11.8476
77	-11.8477
▁어려움에	-11.8478
여채	-11.8481
▁도와주	-11.8482
▁작품에	-11.8482
▁간주되	-11.8483
▁돌아간	-11.8485
▁인간이	-11.8492
▁쳤다	-11.8496
1191	-11.8501
▁정신병	-11.8504
몽	-11.8506
사령부	-11.8509
프로그램	-11.8511
저널	-11.8511
중국	-11.8511
q	-11.8512
장애	-11.8516
▁자료에	-11.8517
모양	-11.8521
▁정보통	-11.8526
▁br	-11.8528
▁구사하	-11.8531
▁동의하	-11.8537
▁추진해	-11.8537
▁사장이	-11.854
▁비디오에	-11.8541
▁침대에	-11.8542
▁그리스에서	-11.8544
▁위협할	-11.8545
미사일	-11.8545
중단	-11.8549
▁음악가	-11.8549
원들이	-11.8549
▁조사해	-11.855
▁비난이	-11.855
▁지불하는	-11.8552
▁내용과	-11.8554
▁기지에서	-11.8555
▁알았	-11.8557
▁자재	-11.8561
▁조직에	-11.8561
▁발표되	-11.8562
▁당혹	-11.8562
▁작성했다	-11.8563
▁작용하	-11.8565
▁벗어나지	-11.857
▁베트남전	-11.8571
▁올라가는	-11.8571
마드	-11.8573
▁구조했다	-11.8575
▁공급하기	-11.8575
▁모욕적	-11.8576
수단	-11.8578
리터	-11.858
모건	-11.858
▁남자들이	-11.8581
▁미세	-11.8582
▁대표팀에	-11.8585
철도	-11.8585
▁사지	-11.8587
▁구매자	-11.8596
투스	-11.8596
▁태우	-11.8597
▁계약에	-11.8597
티아	-11.8599
▁나누어	-11.8602
단체인	-11.8602
▁투표자	-11.8607
▁어린이와	-11.8609
53	-11.861
▁라왈핀디	-11.861
지수가	-11.861
믹	-11.8612
▁미성년	-11.8612
▁사망하기	-11.8613
▁않겠	-11.8616
▁공직	-11.8616
▁수수	-11.8618
▁저질렀	-11.8622
ted	-11.8623
fi	-11.8626
▁클레이코트	-11.8627
▁정하지	-11.863
▁가혹	-11.8631
▁주택가	-11.8633
스트라	-11.8634
▁거기에	-11.8635
효	-11.8636
▁복용하	-11.8636
광장	-11.8639
▁초보	-11.8642
▁섞	-11.8645
▁비싸	-11.8646
▁로게	-11.8648
▁stop	-11.8648
▁싶었	-11.865
▁마쳤	-11.8651
▁제거하는	-11.8659
▁화성에	-11.8663
▁아파트에	-11.8664
▁원인에	-11.8664
▁거절하	-11.8665
예프	-11.867
▁매릴랜드	-11.867
▁스토	-11.8671
스럽	-11.8673
▁공개하	-11.8673
▁종말	-11.8675
▁mp	-11.8676
▁아이다호	-11.8678
윗	-11.868
▁디스커버리	-11.868
홉	-11.868
▁설문조사	-11.868
슬라브	-11.868
▁질병이	-11.8681
▁프란시스	-11.8681
▁홍석현	-11.8681
▁lead	-11.8681
▁콜롬	-11.8681
ould	-11.8682
램	-11.8682
엽	-11.8682
▁경기부양	-11.8682
캄	-11.8682
▁솔로몬	-11.8682
▁오피니언	-11.8683
돋	-11.8683
뮤	-11.8683
▁campaign	-11.8683
▁major	-11.8683
▁unveil	-11.8683
▁따랐	-11.8683
▁시베리아	-11.8683
▁인공심장	-11.8683
▁인신매매	-11.8683
▁컨소시엄	-11.8683
옴	-11.8683
팡	-11.8683
▁council	-11.8683
▁iucn	-11.8683
▁john	-11.8683
▁microsoft	-11.8683
▁number	-11.8683
▁politic	-11.8683
▁prevent	-11.8683
▁problem	-11.8683
▁rbs	-11.8683
▁safe	-11.8683
▁second	-11.8683
▁sncf	-11.8683
▁걸림돌	-11.8683
▁나스랄라	-11.8683
▁나폴리타노	-11.8683
▁남우주연상	-11.8683
▁다녔다	-11.8683
▁다빈치	-11.8683
▁대기오염	-11.8683
▁대배심	-11.8683
▁대선예비후보	-11.8683
▁댓글	-11.8683
▁더글라스	-11.8683
▁돌아섰	-11.8683
▁루프트한	-11.8683
▁마르세유	-11.8683
▁만토바니	-11.8683
▁머물렀다	-11.8683
▁바예스테로스	-11.8683
▁박스오피스	-11.8683
▁발렌타인	-11.8683
▁부드러운	-11.8683
▁섰다	-11.8683
▁스머프	-11.8683
▁스프린트	-11.8683
▁식품의약국	-11.8683
▁아쿠아리움	-11.8683
▁애국전선	-11.8683
▁어소시에이션	-11.8683
▁에메랄드	-11.8683
▁오마이뉴스	-11.8683
▁와코비아	-11.8683
▁외할머니	-11.8683
▁울프위츠	-11.8683
▁인수제안	-11.8683
▁자와히리	-11.8683
▁카메룬	-11.8683
▁카스파로프	-11.8683
▁카제미	-11.8683
▁폐렴	-11.8683
▁폴란스키	-11.8683
▁하르툼	-11.8683
▁홀로코스트	-11.8683
눕	-11.8683
릅니다	-11.8683
뭘	-11.8683
▁europe	-11.8683
▁georg	-11.8683
▁델라웨어	-11.8683
▁목걸이	-11.8683
▁세비르	-11.8683
▁에버튼	-11.8683
▁우체국	-11.8683
▁현충일	-11.8683
어느때보다	-11.8683
▁사무차장	-11.8683
▁산티아고	-11.8683
▁퇴출	-11.8683
▁etc	-11.8683
▁삼성전자	-11.8683
▁알메이다	-11.8683
▁펠릭스	-11.8683
▁결론지었다	-11.8683
▁불도저	-11.8683
▁아침식사	-11.8683
▁마샬	-11.8683
▁민주변화	-11.8683
▁불가사의	-11.8683
▁디아즈	-11.8683
▁뛰어넘	-11.8683
▁경수로	-11.8683
▁무언가	-11.8683
▁클랩튼	-11.8683
▁쓰러진	-11.8683
▁제레미	-11.8683
▁추도식	-11.8683
▁트레이시	-11.8683
▁듀프레	-11.8683
▁월경작전	-11.8683
▁stock	-11.8683
▁스테로이드	-11.8683
▁가오리	-11.8683
▁불상사	-11.8683
▁국가안보보좌관	-11.8683
▁작별	-11.8683
▁모토로라	-11.8683
▁세르게이	-11.8683
▁industr	-11.8683
▁민주변화운동	-11.8683
▁버핏	-11.8683
▁joint	-11.8683
▁히잡	-11.8683
▁종합병원	-11.8683
▁엔터프라이즈	-11.8683
▁작가조합	-11.8683
▁발렌시아	-11.8683
▁출몰	-11.8683
▁강제진압	-11.8683
▁얼룩말	-11.8683
▁홍보담당자	-11.8683
▁씨앗	-11.8683
▁은하계	-11.8683
▁스릴러	-11.8683
▁도둑	-11.8683
▁블랙베리	-11.8683
▁국가안보회의	-11.8683
▁낫다	-11.8683
▁리프트	-11.8683
▁스페이스	-11.8684
▁쥐스틴	-11.8684
▁놀이기구	-11.8684
▁겸손	-11.8684
▁비겁	-11.8684
▁데이비스컵	-11.8684
▁피난처	-11.8684
▁유니티	-11.8684
▁경합	-11.8684
▁아름다움	-11.8684
▁숙박비	-11.8684
▁현명한	-11.8684
▁도서관	-11.8684
▁카우치	-11.8684
▁회생	-11.8684
▁페드로	-11.8684
▁루시디	-11.8684
▁근절	-11.8684
▁유독	-11.8685
▁대리모	-11.8685
▁비밀요원	-11.8685
▁취지	-11.8685
▁담합	-11.8685
▁xp	-11.8685
▁파라오	-11.8685
▁분화구	-11.8685
▁푸른	-11.8685
▁출근	-11.8685
▁보험회사	-11.8685
ff	-11.8685
▁남아시아	-11.8685
▁자궁	-11.8685
▁노골적	-11.8685
▁주모자	-11.8685
▁디젤	-11.8685
▁공동기자회견에	-11.8685
▁뉴먼	-11.8685
층짜리	-11.8685
▁mar	-11.8685
▁검은색	-11.8685
▁가디언	-11.8686
▁올리버	-11.8686
▁tam	-11.8686
▁떠다니	-11.8686
▁사망원인	-11.8686
▁듀크	-11.8686
▁가져온	-11.8686
▁소도시	-11.8687
▁범죄행위	-11.8687
▁만들어낸	-11.8687
▁1977	-11.8687
▁빠져나갔다	-11.8687
▁채굴	-11.8687
▁축구협회	-11.8687
▁무척	-11.8687
▁성폭행범	-11.8687
▁탄원서	-11.8687
▁유명해졌다	-11.8687
▁모빌	-11.8687
▁미생물	-11.8687
▁처방전	-11.8688
▁화산재	-11.8688
▁wta	-11.8688
▁언니	-11.8688
▁생체	-11.8688
▁티모	-11.8688
▁켄트	-11.8688
▁교신	-11.8688
▁과열	-11.8688
▁투자은행	-11.8689
▁모스크	-11.8689
▁진학	-11.8689
▁부시대통령	-11.8689
▁행보	-11.8689
노스	-11.8689
▁정치활동	-11.869
▁매료	-11.869
▁성취	-11.869
▁양빈	-11.869
▁주택시장	-11.869
▁에릭슨	-11.869
▁constitutional	-11.8691
▁표출	-11.8691
▁west	-11.8691
▁도망	-11.8691
▁변종	-11.8692
▁라디오뉴스	-11.8692
▁수호	-11.8692
▁usb	-11.8692
▁감형	-11.8692
▁간격	-11.8693
▁공금	-11.8693
▁2018	-11.8693
▁버몬트주	-11.8693
▁창립	-11.8693
▁실체	-11.8693
▁칼리드	-11.8693
▁광고에	-11.8693
▁아예	-11.8694
▁파탄	-11.8694
▁축적	-11.8694
▁돌발	-11.8695
▁구슬	-11.8695
▁경미	-11.8695
▁완강	-11.8695
▁카본	-11.8695
▁단체로	-11.8696
▁주연상	-11.8696
wood	-11.8696
▁상속	-11.8696
자격	-11.8696
▁정치인들이	-11.8697
▁요크	-11.8697
▁소모	-11.8698
▁공단	-11.8698
▁농성	-11.8698
▁월터스	-11.8698
▁임시정부	-11.8699
▁동조	-11.8699
▁터졌다	-11.8699
▁단단	-11.8699
▁상업용	-11.8699
몬드	-11.87
▁거칠	-11.87
▁칭하며	-11.8701
▁실천	-11.8701
▁즉석	-11.8701
▁유형	-11.8701
▁나빠지	-11.8701
▁달아나	-11.8702
▁건전	-11.8702
▁탐지기	-11.8702
▁얻어야	-11.8702
▁없어질	-11.8702
▁인출	-11.8702
ague	-11.8702
▁전념	-11.8703
▁알라스카	-11.8703
▁인도양	-11.8703
▁혼자서	-11.8704
▁올라간다	-11.8704
▁도출	-11.8704
▁의대	-11.8704
▁꺼리	-11.8705
▁페니	-11.8705
▁산업지수	-11.8706
▁피력	-11.8707
▁천원	-11.8707
▁불고	-11.8708
▁낮추는	-11.8708
▁아론	-11.8708
▁기법	-11.8709
▁증명서	-11.8709
▁연비	-11.871
▁먹었다	-11.8711
▁시에나	-11.8711
▁당파	-11.8712
▁올림픽위원회	-11.8713
▁펼쳐진	-11.8713
▁times	-11.8714
▁그라이브	-11.8714
▁위스콘신주	-11.8715
▁쓰러졌다	-11.8715
▁개종	-11.8715
▁무차별	-11.8715
▁아래서	-11.8716
▁일생	-11.8716
▁페어	-11.8718
▁시작하자	-11.8718
▁2030	-11.8718
▁구멍이	-11.8719
▁en	-11.8719
▁감사원	-11.8719
▁않음	-11.8719
▁atp	-11.8719
▁반해	-11.872
▁오전에	-11.8721
▁병원측	-11.8721
▁1700	-11.8721
▁찾아냈다	-11.8722
▁속해	-11.8722
▁범인들	-11.8723
▁것인데	-11.8723
▁국세청장	-11.8724
▁폰다	-11.8726
▁분파	-11.8726
▁골드만	-11.8726
▁감독관	-11.8727
▁3200	-11.8727
정규직	-11.8727
▁불타	-11.8727
▁선진	-11.8728
▁손가락	-11.8729
▁킴	-11.8729
▁맘	-11.8729
▁국정원장	-11.8729
▁money	-11.8729
▁평의회	-11.8729
▁옐로	-11.8729
듯한	-11.8729
▁원정경기에서	-11.873
▁저조	-11.8731
▁사죄	-11.8733
▁중학교	-11.8733
▁260	-11.8733
▁비판하는	-11.8733
▁가파	-11.8734
▁오바	-11.8735
▁토미	-11.8738
계약	-11.8738
▁받아들여지	-11.8739
▁야스	-11.8739
▁뉴햄프셔주	-11.8739
▁로키	-11.874
▁밝혀졌	-11.8741
▁심해	-11.8741
▁지형	-11.8743
▁여론조사에따르면	-11.8745
▁묘사한	-11.8745
▁피랍됐다	-11.8745
▁폭탄테러와	-11.8745
▁정당성	-11.8747
▁보내야	-11.8748
▁무성	-11.8749
▁매진	-11.8749
▁외화	-11.875
▁동부지역에서	-11.875
▁mc	-11.8752
▁강행할	-11.8752
▁나타낸다	-11.8754
속에	-11.8755
▁용량	-11.8755
▁일관	-11.8755
▁프라하	-11.8756
▁제외됐다	-11.8758
▁맞서기	-11.876
▁군용	-11.876
▁이루기	-11.8761
▁대장	-11.8761
▁그렇지만	-11.8761
▁해결하고	-11.8761
▁소비량	-11.8765
ps	-11.8765
▁고려해야	-11.8766
▁확보하기	-11.8769
▁실시간	-11.8769
▁잡히	-11.8771
▁안치	-11.8773
▁모가디슈에서	-11.8775
▁계절	-11.8777
▁맛봤	-11.8777
▁타인	-11.8777
▁멜로	-11.8778
▁거주지역	-11.8779
▁피랍됐	-11.8781
▁3500	-11.8784
▁기자였	-11.8784
▁심리학자	-11.8787
▁조언했다	-11.8787
▁이뤄졌	-11.8789
▁생사	-11.8789
▁낭	-11.8789
▁들어간다	-11.8791
▁뉴욕시장	-11.8792
▁아스	-11.8792
스턴	-11.8798
uck	-11.8798
이스트	-11.88
▁지원자	-11.8801
▁돌아다니는	-11.8806
▁군사위원회	-11.881
▁상징하	-11.8813
▁라마	-11.8813
▁우위	-11.8813
▁resign	-11.8817
▁은행과	-11.8817
▁살았다	-11.882
▁인권단체들	-11.882
▁im	-11.8821
▁배치된	-11.8821
▁덤	-11.8823
▁중단한다	-11.8825
▁구급차	-11.8826
▁싸우고	-11.8826
▁사랑한다	-11.8827
▁고소했다	-11.8828
▁영화들	-11.8829
▁일당	-11.883
ast	-11.883
▁저녁에	-11.8832
▁초소	-11.8833
▁철로	-11.8833
▁버려	-11.8833
▁흙	-11.8834
▁페러	-11.8836
▁옮기는	-11.8837
▁모술에서	-11.8838
▁영국인들	-11.8839
▁표기	-11.8839
▁자동차업체	-11.8844
32	-11.8845
po	-11.8846
▁ta	-11.8847
▁변기	-11.885
▁유사하다	-11.885
▁친구들이	-11.8852
▁트로	-11.8853
▁사람이었다	-11.8853
기사	-11.8854
명중	-11.8855
go	-11.8859
▁서부에서	-11.8861
▁106	-11.8862
▁나쁘	-11.8862
ino	-11.8866
▁샤리	-11.8867
▁대표로	-11.8867
▁건강보험	-11.887
▁도서	-11.8871
▁ph	-11.8871
▁매치	-11.8875
▁거절한	-11.8877
83	-11.8881
▁웃는	-11.8882
▁포착했다	-11.8882
▁시즌에	-11.8883
보면	-11.8883
▁잠재	-11.8885
▁디지	-11.8886
▁선수들에게	-11.8886
▁고용한	-11.8887
▁헌	-11.889
▁제마	-11.889
▁장례식이	-11.8893
▁체포되	-11.8894
▁계획안	-11.8894
▁세워졌	-11.8899
▁열악	-11.8901
▁고심	-11.8901
▁방문하기	-11.8901
▁폭력사태에	-11.8904
적이지	-11.8905
▁뜨	-11.8905
ence	-11.8906
▁장악했다	-11.8907
▁봉쇄했다	-11.8908
▁경영자들	-11.891
oo	-11.8913
▁위주	-11.8915
▁제공하	-11.8916
▁태도에	-11.8917
▁연행했다	-11.8921
블러	-11.8921
▁투입되	-11.8922
보호법	-11.8923
▁다스	-11.8926
▁적기	-11.8926
머니	-11.8929
바락	-11.8939
▁늘리는	-11.8939
▁쥐들	-11.8945
▁돌아가기	-11.8947
▁유나이티드와	-11.8947
▁무장단체에	-11.8947
▁결정했	-11.8948
nts	-11.8949
▁추측되	-11.895
▁인도적	-11.8951
▁초까지	-11.8951
있다고	-11.8952
▁국가들에	-11.8952
▁여행하는	-11.8954
재산권	-11.896
▁카바	-11.8962
▁참고	-11.8962
▁싶어하지	-11.8965
▁나라에	-11.8965
▁군대에	-11.8967
퍼트	-11.8969
▁지상에서	-11.897
▁부과했다	-11.8972
▁자동차회사	-11.8973
▁구입했다	-11.8974
▁잉	-11.8975
▁국민은	-11.8976
사상	-11.8977
▁필리	-11.8978
▁뒷받침	-11.8985
▁확정했다	-11.8986
▁제지	-11.8988
ai	-11.8989
▁대대	-11.899
▁중독자	-11.8991
▁투자에	-11.8992
▁압력이	-11.8993
▁후원자	-11.8994
▁청구했다	-11.8994
▁제작됐다	-11.8996
▁적어	-11.8996
lb	-11.9003
▁수소	-11.9004
▁스페인과	-11.9005
▁무효	-11.9007
▁논의한	-11.9007
▁펼치는	-11.9008
▁환영하	-11.9011
▁배치되어	-11.9012
▁안전하다	-11.9013
▁발견하고	-11.9021
ek	-11.9024
▁gra	-11.9026
▁표지	-11.9027
▁보수적	-11.9027
▁한계	-11.9029
▁친지들	-11.9029
주었다	-11.903
▁위성이	-11.9032
▁조나	-11.9032
▁세력에	-11.9038
▁상징인	-11.9039
▁수행하기	-11.9041
▁통과시키	-11.9042
▁구성에	-11.9043
물리학	-11.9043
레즈	-11.9051
하듯	-11.9052
▁감정이	-11.9056
▁웨스	-11.9057
▁기대에	-11.9058
테오	-11.9061
▁영국항공	-11.9061
▁실패로	-11.9062
▁붕괴됐다	-11.9064
▁관리하는	-11.9065
▁디나	-11.9071
상황이	-11.9072
▁원만	-11.9073
▁정책으로	-11.9074
▁돌고	-11.9078
블리	-11.9081
sh	-11.9082
▁사업이	-11.9084
▁자행한	-11.9091
▁제시하지	-11.9092
▁역사에서	-11.9095
▁김만	-11.9096
▁개발자들	-11.9096
루드	-11.9098
▁사나	-11.9099
▁모이	-11.91
▁부족해	-11.9101
웠	-11.9103
▁친미	-11.9105
키스	-11.9106
▁들려	-11.9115
▁팔기	-11.9117
▁생각한	-11.9119
▁vote	-11.9129
▁움직	-11.9129
군에	-11.913
▁남한과	-11.9132
▁고층	-11.9132
▁기업체	-11.9132
▁bas	-11.9134
▁이토	-11.9135
▁논쟁에	-11.9136
▁방송되	-11.9137
▁실렸	-11.9145
▁조건이	-11.9146
▁이들과	-11.9148
▁심기	-11.915
▁제출했	-11.915
▁전보다	-11.9152
▁시내에	-11.9158
톨	-11.9158
▁노력해야	-11.916
▁나와있	-11.9162
▁뉴질랜드에서	-11.9163
▁구매자들	-11.9167
▁수세기	-11.9169
▁탈북자들	-11.9173
▁정당인	-11.9179
내기	-11.9179
stic	-11.9182
있으며	-11.9186
득	-11.9186
▁주제가	-11.9187
▁내놓을	-11.9188
up	-11.919
▁이외에	-11.9199
▁크로	-11.9199
▁매리	-11.9202
▁충족	-11.9203
▁가린	-11.9207
▁역할이	-11.921
▁하사	-11.921
▁연기에	-11.9211
주민들	-11.9213
▁해달라	-11.9214
▁판매한	-11.9215
무드	-11.9217
▁기장	-11.9221
참	-11.9227
nel	-11.9228
▁지원국	-11.9233
개국에서	-11.9234
▁정부간	-11.9234
▁힘들었	-11.9241
▁교통이	-11.9242
▁웰	-11.9245
▁진척	-11.9247
▁흐	-11.9248
나갔다	-11.9248
▁줄어든	-11.9248
▁피지	-11.9249
pt	-11.9249
tive	-11.925
그램	-11.9251
▁서적	-11.9253
▁평화롭	-11.9255
▁무장괴한들	-11.9256
▁보도했	-11.9256
▁신년	-11.9258
▁잡지에	-11.9261
▁나쁘지	-11.9262
욕	-11.9263
▁돼야	-11.9264
▁감소했	-11.9265
접	-11.9268
꾸	-11.9272
큐	-11.9273
▁그루	-11.9274
폭탄	-11.9278
쌍	-11.9278
컨	-11.9279
페이스	-11.928
켄	-11.928
책임자	-11.928
게이트	-11.9281
▁짝	-11.9283
▁죽인	-11.9283
▁알레	-11.9284
▁타자	-11.9285
fc	-11.9285
▁얼굴이	-11.9287
워터	-11.9288
▁짜리	-11.9289
연방	-11.9289
▁독립선언	-11.929
공유	-11.929
보낼	-11.9292
다닐	-11.9293
강전	-11.9294
났다	-11.9295
▁전사자	-11.9296
재정	-11.9297
여행	-11.93
되게	-11.93
▁생물학	-11.9302
▁수여하	-11.9302
내려	-11.9304
대책	-11.9308
대사관	-11.9308
▁봉인	-11.931
iv	-11.931
▁맡을	-11.9317
수익	-11.9318
물인	-11.9325
세워	-11.9325
▁초래하	-11.9326
▁변호사들이	-11.9328
▁됨	-11.933
▁무력화	-11.9331
▁취급하	-11.9332
gle	-11.9332
▁방송인	-11.9333
▁공장이	-11.9337
신형	-11.9338
▁고아	-11.9342
▁아지	-11.9344
▁공급되	-11.9344
클라	-11.9349
▁보니	-11.9353
▁저지하	-11.9354
▁실시하는	-11.9357
▁warn	-11.9361
▁타임즈와	-11.9366
▁치뤄	-11.9367
▁콘서트에	-11.9372
▁나타낸	-11.9375
오르	-11.9378
▁마우	-11.938
▁무시한	-11.9384
파로	-11.9385
▁공간이	-11.9387
▁인종차별	-11.9389
렘	-11.9392
레오	-11.9397
▁슈퍼대의원들	-11.9398
ey	-11.9398
▁장려하	-11.9399
▁거행	-11.9403
▁높았	-11.9405
▁준결승전	-11.9406
수준	-11.9408
▁국경에	-11.9409
▁놀랍	-11.9411
▁sup	-11.9417
교도	-11.9419
▁사무국	-11.9419
▁떠나는	-11.9421
▁od	-11.9422
쿨	-11.9422
▁것들이	-11.9424
▁드러냈	-11.9426
▁end	-11.9432
▁쫓아	-11.9432
▁알래스카주	-11.9433
▁풀기	-11.9434
▁화학적	-11.9434
▁떨어뜨	-11.9437
▁쫓겨	-11.9438
▁클레	-11.9439
해주기	-11.944
소식	-11.944
▁터뜨	-11.944
▁return	-11.9441
▁복사	-11.9441
▁안타깝	-11.9441
▁price	-11.9442
▁참모총장	-11.9443
▁곤란	-11.9445
▁무관	-11.9446
▁트래	-11.9447
▁프레이	-11.9447
▁벌어	-11.9448
▁터무니	-11.9448
획	-11.9448
륜	-11.9448
▁뒤따	-11.9449
삭	-11.9449
▁에어웨이	-11.945
▁타이타닉	-11.945
콕	-11.9451
▁결정으로	-11.9451
▁동북	-11.9451
▁elect	-11.9451
▁핑크	-11.9451
▁low	-11.9451
▁비무장	-11.9452
▁찍어	-11.9452
▁push	-11.9452
▁묶어	-11.9452
넥	-11.9452
▁earth	-11.9452
▁federal	-11.9452
▁flu	-11.9452
▁french	-11.9452
▁great	-11.9452
▁illegal	-11.9452
▁radio	-11.9452
▁road	-11.9452
▁가깝다	-11.9452
▁고혈압	-11.9452
▁광저우	-11.9452
▁낮다	-11.9452
▁네브라스카	-11.9452
▁뉴욕타임즈	-11.9452
▁댕기열	-11.9452
▁데이터베이스	-11.9452
▁듣기	-11.9452
▁레예스	-11.9452
▁레오나르도	-11.9452
▁마들렌	-11.9452
▁맨하탄	-11.9452
▁메탄가스	-11.9452
▁밀워키	-11.9452
▁브래들리	-11.9452
▁사우스다코타	-11.9452
▁사파테로	-11.9452
▁선글라스	-11.9452
▁선덜랜드	-11.9452
▁스펙터	-11.9452
▁쌓아	-11.9452
▁아리조나	-11.9452
▁아틀레티코	-11.9452
▁알레르기	-11.9452
▁여우주연상	-11.9452
▁융통성	-11.9452
▁이슬라미야	-11.9452
▁조기총선	-11.9452
▁족자카르타	-11.9452
▁천안문	-11.9452
▁츠요시	-11.9452
▁캄푸쉬	-11.9452
▁캐시미르	-11.9452
▁코뿔소	-11.9452
▁콴타스	-11.9452
▁클리브랜드	-11.9452
▁키프로스	-11.9452
▁트랜스포머	-11.9452
▁트럼프	-11.9452
▁파라마운트	-11.9452
▁해밀턴	-11.9452
▁히말라야	-11.9452
싹	-11.9452
쥔	-11.9452
▁crisis	-11.9452
▁공청회	-11.9452
▁나르기스	-11.9452
▁나뭇가지	-11.9452
▁배기가스	-11.9452
▁쓰러지	-11.9452
▁짐바브웨아프리카민족	-11.9452
▁카밀라	-11.9452
뎀	-11.9452
언더파	-11.9452
퀘	-11.9452
프로농구	-11.9452
▁구속영장	-11.9452
▁만수르	-11.9452
▁센트럴	-11.9452
▁엘비스	-11.9452
▁현기증	-11.9452
▁끼치지	-11.9452
▁복부비만	-11.9452
▁고프섬	-11.9452
▁차이나데일리	-11.9452
▁파르베즈	-11.9452
▁헬멧	-11.9452
▁공상과학	-11.9452
▁스트립	-11.9452
▁왓슨	-11.9452
▁유연한	-11.9452
▁안테나	-11.9452
▁보궐선거	-11.9452
▁israel	-11.9452
▁무작위	-11.9452
▁분리독립	-11.9452
▁에볼라	-11.9452
▁의정서	-11.9452
▁시트콤	-11.9452
▁클리닉	-11.9452
▁grand	-11.9452
▁need	-11.9452
▁붐비는	-11.9452
▁스프링스틴	-11.9452
▁슬램	-11.9452
▁이스트우드	-11.9452
▁크로포드	-11.9452
1966	-11.9452
▁bomb	-11.9452
▁물고문	-11.9452
▁music	-11.9452
▁marine	-11.9452
▁클라우디	-11.9452
▁로하스	-11.9452
▁선거인단	-11.9452
▁nhk	-11.9452
▁발리우드	-11.9452
▁폭죽	-11.9452
▁압축	-11.9452
▁김일성	-11.9452
▁서부텍사스산	-11.9452
▁다이빙	-11.9452
▁노란색	-11.9452
▁착각	-11.9452
▁히트곡	-11.9452
▁골드버그	-11.9452
▁유럽중앙은행	-11.9452
▁곤봉	-11.9452
▁산업자원부	-11.9452
▁집주인	-11.9452
▁peta	-11.9452
▁용암	-11.9452
▁경범죄	-11.9453
▁학습	-11.9453
▁internet	-11.9453
▁리스본	-11.9453
▁사기꾼	-11.9453
▁휘두르	-11.9453
▁적임자	-11.9453
▁니켈	-11.9453
▁구덩이	-11.9453
▁혈통	-11.9453
▁좌초	-11.9453
▁비서관	-11.9453
▁우발적	-11.9453
▁폭염	-11.9453
▁과격단체	-11.9453
▁차량폭탄테러	-11.9453
▁출품	-11.9453
▁스튜	-11.9453
▁욕실	-11.9453
▁전자제품	-11.9453
▁라말라	-11.9453
▁타깃	-11.9453
▁불륜	-11.9453
bi	-11.9453
▁행정장관	-11.9454
▁별칭	-11.9454
▁머독	-11.9454
▁패션쇼	-11.9454
▁희미	-11.9454
▁약물검사	-11.9454
▁심각해지	-11.9454
▁소멸	-11.9454
▁베이커	-11.9454
▁교도관	-11.9454
▁기반시설	-11.9454
▁auto	-11.9454
첸코	-11.9454
▁조연상	-11.9454
▁지켜볼	-11.9455
▁도망치	-11.9455
▁음란	-11.9455
▁상여금	-11.9455
▁결말	-11.9455
▁소변	-11.9455
▁도킹	-11.9455
▁그랜트	-11.9455
시마	-11.9455
▁대선결과	-11.9455
▁보건장관	-11.9455
▁석권	-11.9456
▁계란	-11.9456
슈아	-11.9456
▁보호구역	-11.9456
▁하향	-11.9456
▁가리키	-11.9456
▁평화회담	-11.9456
▁선거결과	-11.9456
▁충성	-11.9456
▁보행	-11.9456
▁550	-11.9456
▁신변	-11.9456
▁붉은색	-11.9456
▁시립	-11.9456
▁공개되	-11.9457
▁단결	-11.9457
▁아이콘	-11.9457
▁목재	-11.9457
▁여행객들이	-11.9457
▁항목	-11.9457
▁보스톤	-11.9458
▁독려	-11.9458
▁올라있다	-11.9458
▁파열	-11.9458
▁운용	-11.9458
▁강철	-11.9458
▁늘려	-11.9458
▁오존	-11.9458
▁삼판	-11.9458
▁직면하	-11.9458
▁art	-11.9459
▁낙타	-11.9459
▁유명해	-11.9459
▁멈	-11.9459
▁누출	-11.9459
▁스토리	-11.9459
▁완패	-11.9459
▁유래	-11.9459
▁번복	-11.9459
▁제국주의	-11.9459
▁비틀	-11.946
▁청원	-11.946
▁샹	-11.946
▁쿡	-11.946
▁빈센트	-11.946
▁피해규모	-11.946
▁친교	-11.946
▁야유	-11.946
▁담았다	-11.946
▁커져	-11.9461
▁통치권	-11.9461
▁결단	-11.9461
▁태형	-11.9461
▁솔라나	-11.9462
▁갈색	-11.9462
▁분단	-11.9462
▁만두	-11.9462
▁세르비아계	-11.9463
▁안타깝게	-11.9463
▁응용	-11.9463
▁길거리	-11.9464
▁참을	-11.9465
▁댄스	-11.9465
ko	-11.9465
▁재연	-11.9466
▁소지하	-11.9466
▁경고문	-11.9466
▁역설했다	-11.9466
▁의사당	-11.9467
▁메카	-11.9467
men	-11.9467
▁내몰	-11.9467
▁헤비	-11.9468
▁주가지수	-11.9468
▁의향	-11.9469
▁레노	-11.9469
▁성교	-11.9469
▁찾으려	-11.9469
▁군당국	-11.947
▁실형	-11.947
▁보수주의자들	-11.947
▁시설물	-11.947
▁입혔다	-11.9471
▁용납하지	-11.9471
먼트	-11.9471
툴라	-11.9471
▁우정	-11.9472
키마	-11.9472
▁대금	-11.9472
▁460	-11.9472
▁명확하지	-11.9473
▁사본	-11.9473
▁클린트	-11.9473
▁로렌	-11.9473
▁led	-11.9473
▁추측된다	-11.9473
▁셸	-11.9474
▁믿어지	-11.9474
▁형법	-11.9474
▁모친	-11.9475
▁국교	-11.9475
▁급증하	-11.9475
▁마리오	-11.9475
▁사형제도	-11.9475
▁세무	-11.9476
▁발사해	-11.9477
▁기상학자	-11.9477
▁rall	-11.9478
▁거액	-11.9478
▁극단적인	-11.9478
▁석방하라	-11.9479
▁억지	-11.9479
▁there	-11.9479
▁웬디	-11.9479
▁논리	-11.9479
▁건국	-11.948
▁유린	-11.9481
▁철수시킬	-11.9481
▁뒷받침할	-11.9482
▁푸드	-11.9482
▁매직	-11.9482
큐리	-11.9482
▁훔쳤	-11.9484
▁미대사	-11.9484
less	-11.9484
pass	-11.9485
▁심각성	-11.9485
▁사업체	-11.9486
링턴	-11.9487
▁예일대	-11.9488
▁파병군	-11.9488
▁고의적으로	-11.9488
▁기본스	-11.9491
▁물려	-11.9491
▁소득세	-11.9491
▁오버	-11.9491
▁피랍자	-11.9492
▁그러면	-11.9493
▁미끄러지	-11.9493
▁독살	-11.9493
▁교차로	-11.9494
▁우유	-11.9494
▁팔리	-11.9495
워진	-11.9496
▁기뻐했다	-11.9496
▁입성	-11.9496
▁이민국	-11.9497
▁시즌에서	-11.9497
▁회기	-11.9498
▁전망된다	-11.9498
▁소방서장	-11.9498
▁악명	-11.9499
▁사사	-11.9499
▁갈망하	-11.95
▁cross	-11.9502
▁파이낸셜	-11.9502
▁찬스	-11.9502
▁카라다	-11.9502
▁메모리얼	-11.9502
▁후송됐다	-11.9502
▁370	-11.9503
▁경신했다	-11.9503
▁국가대표팀	-11.9504
▁기자단	-11.9504
▁사바	-11.9504
▁선사	-11.9504
▁오노	-11.9505
▁변함	-11.9506
▁함자	-11.9506
▁1100	-11.9506
▁날조	-11.9507
▁밝혀내지	-11.9508
스트리	-11.9508
▁도보	-11.9509
▁교리	-11.9509
anger	-11.9509
▁텍사스에서	-11.951
아리	-11.9511
▁맥스	-11.9512
▁선거위원회	-11.9517
tan	-11.9517
▁세월	-11.9518
▁이상하게	-11.9519
▁보안국	-11.9521
▁통과시킨	-11.9521
▁만족할	-11.9522
▁유로스타	-11.9523
▁어울리는	-11.9525
▁접근이	-11.9525
▁공제	-11.9527
▁버렸	-11.9529
▁예측하기	-11.9529
▁인체에	-11.953
▁잎	-11.9531
▁발생했었다	-11.9531
▁새우	-11.9531
▁발로	-11.9532
▁조작한	-11.9534
▁거미	-11.9535
▁알카에다에	-11.9535
▁응급실	-11.9536
화와	-11.9537
▁취하겠다	-11.9537
▁저지대	-11.9538
▁마시지	-11.9538
▁바꾸어	-11.9541
▁있었는데	-11.9541
▁속편	-11.9542
▁쏟아지	-11.9542
▁오크	-11.9543
▁중부지역	-11.9543
▁스코어	-11.9544
▁컬	-11.9544
▁650	-11.9545
▁잠정적	-11.9545
▁보고타	-11.9545
▁충분하다	-11.9546
▁통근자들	-11.9547
▁인디애나주	-11.9549
▁제출해야	-11.955
▁환경적	-11.9551
▁충고	-11.9552
▁코스타	-11.9556
▁india	-11.9556
dy	-11.956
▁이루어지지	-11.9561
▁채용	-11.9561
▁막사	-11.9561
끌어냈다	-11.9562
▁호르	-11.9562
▁말하면	-11.9563
▁현재로서	-11.9564
▁견디	-11.9564
▁입게	-11.9564
▁빗	-11.9565
▁line	-11.9566
▁확실시되	-11.9567
환자	-11.9569
▁far	-11.9571
▁윙	-11.9572
▁161	-11.9572
▁가설	-11.9574
▁조야	-11.9574
▁녹스	-11.9575
▁봐야	-11.9577
▁감염이	-11.9578
▁오래전	-11.9579
상태에	-11.9581
▁기관사	-11.9581
▁지불해야	-11.9585
▁소실	-11.959
▁접촉이	-11.959
▁마련한	-11.9593
▁극도	-11.9596
▁비디오에서	-11.9597
▁이둘	-11.9597
저스	-11.9602
▁조직위	-11.9606
▁보안이	-11.9608
▁공판에서	-11.9608
▁학부모	-11.9609
▁현명하	-11.961
▁둔화되	-11.961
타스	-11.961
지도자	-11.9611
▁발견하게	-11.9615
▁무장혁명군	-11.9616
▁피살됐다	-11.9616
▁지속되고	-11.9622
ham	-11.9624
▁주간지	-11.9627
▁홀리	-11.9627
▁배심원들	-11.9629
▁스키장	-11.9629
▁연구센터	-11.9632
▁저서	-11.9633
▁결정됐다	-11.9634
operation	-11.9634
패로	-11.9635
▁검문소에서	-11.9636
▁성당에서	-11.9636
▁허락했다	-11.9638
▁국제공항에서	-11.9638
여명에	-11.9641
▁환경부	-11.9643
▁주변국들	-11.9645
▁온라인에서	-11.9647
▁사라져	-11.9649
정지	-11.9649
▁도슨	-11.965
▁오염된	-11.9658
▁출두했다	-11.9658
▁좌	-11.9662
▁인선	-11.9662
▁이슬람인들	-11.9664
▁촉구했	-11.9665
▁안면	-11.9666
▁지르가	-11.9667
아나	-11.9669
스러워	-11.9669
타이거	-11.9671
▁의문사	-11.9671
▁도시와	-11.9671
▁용이하	-11.9671
▁파라	-11.9676
▁지도자와	-11.9677
▁이야기했다	-11.9678
▁위법	-11.968
▁느낌이	-11.9681
표로	-11.9684
▁완구	-11.9685
줬	-11.9685
▁멘	-11.9686
▁성장할	-11.9689
▁전달하는	-11.969
▁드러	-11.9693
▁비판적	-11.9694
르모	-11.9694
▁인하했다	-11.9698
▁갑작스러	-11.9699
▁컴	-11.97
▁book	-11.9701
▁관장	-11.9703
▁별명	-11.9703
▁지정했다	-11.9706
im	-11.9707
▁통지	-11.9712
▁수감됐	-11.9712
▁호프	-11.9716
▁연안에서	-11.9718
▁납세자들	-11.9718
▁진출할	-11.9722
무대	-11.9722
mg	-11.9724
48	-11.9727
▁호주에	-11.9732
▁보안에	-11.9733
▁내린다	-11.9734
▁틴	-11.9735
▁공격했	-11.9735
▁벤와	-11.9735
일본	-11.9737
no	-11.9737
▁기소할	-11.974
▁기소장	-11.974
▁추위	-11.9742
▁학교측	-11.9743
▁취임식에	-11.9744
▁랭	-11.9748
▁받아들이는	-11.9754
▁불명	-11.9754
▁흐르는	-11.9757
▁낙관	-11.9757
87	-11.9763
▁재정비	-11.9763
▁힐튼과	-11.9764
▁바트	-11.9768
▁해커	-11.9771
모리	-11.9771
▁전달하기	-11.9772
▁고민하	-11.9772
보라	-11.9772
없	-11.9773
▁기소되었	-11.9776
▁대표단과	-11.9776
rry	-11.9776
▁한파	-11.9777
hen	-11.9777
하더라	-11.9779
▁연결시키	-11.9779
했어야	-11.9785
▁노숙자	-11.9785
▁모국	-11.9785
▁편에	-11.9788
▁마니	-11.979
▁회피	-11.9793
▁미안	-11.9794
▁피하고	-11.9794
▁동의했	-11.9795
97	-11.9796
오차	-11.9798
▁역설	-11.9803
rate	-11.9805
▁노스캐롤라이나에서	-11.9806
시간씩	-11.9807
▁납치하려	-11.9808
▁아마드	-11.9809
▁도착하기	-11.9809
▁선생님	-11.9809
▁고등	-11.981
▁책이	-11.9811
▁del	-11.9812
▁논란에	-11.9812
▁벌어들	-11.9814
▁product	-11.9815
▁ke	-11.982
프로	-11.9821
▁복귀했다	-11.9821
▁허용하	-11.9821
▁맞붙는	-11.9821
▁찾는다	-11.9832
▁아타	-11.9834
▁블리	-11.9836
▁날씨에	-11.9838
▁시라	-11.9842
악한	-11.9843
▁시차	-11.9843
▁베트남에서	-11.9846
▁너	-11.9847
▁나이지리아에서	-11.9847
▁검찰과	-11.985
di	-11.9851
▁고등학생	-11.9856
▁wh	-11.9856
▁상황과	-11.9857
▁환경운동	-11.9863
▁si	-11.9871
▁일본측	-11.9873
▁화성에서	-11.9877
▁서머	-11.9877
드윈	-11.988
▁블로거들	-11.9886
▁처사	-11.9887
바오	-11.9887
▁치과	-11.9888
▁하늘에	-11.9894
▁진술에서	-11.9895
▁금전적	-11.9908
▁로케	-11.9909
▁승리해	-11.9909
▁박물관이	-11.9913
▁if	-11.9913
▁중간에	-11.9913
▁신청자	-11.9916
▁기록된	-11.9918
▁정장	-11.9919
▁ga	-11.9923
▁수십만	-11.9925
▁거론되	-11.9926
자였	-11.9931
▁인기있	-11.9932
▁포로로	-11.9932
▁한국전	-11.9935
▁표준시	-11.9935
▁맺었	-11.9936
▁파리에	-11.9941
▁마티	-11.9946
▁영향에	-11.9946
▁피가	-11.9948
▁한국군이	-11.9949
▁어부들	-11.9949
▁펠	-11.9951
▁후보지	-11.9957
▁철회하	-11.9957
드리스	-11.9957
war	-11.9958
▁질문들	-11.9958
리언	-11.9959
▁지에	-11.9959
▁중소기업	-11.9963
▁호전	-11.9963
▁노르	-11.997
▁순례객	-11.9972
▁알리지	-11.9975
form	-11.9978
804	-11.9979
▁클럽에	-11.998
▁악화시키	-11.9983
▁우비넨	-11.9986
▁반대자들	-11.9987
▁집단이	-11.9987
▁티에	-11.9996
▁국방부에서	-12
있게	-12.0001
▁조합원들	-12.0001
▁순찰차	-12.0001
94	-12.0004
▁만찬	-12.0004
▁이반	-12.0006
▁이민자들이	-12.0007
▁답했	-12.0008
▁잉글랜드와	-12.0011
▁할리우드에서	-12.0013
▁캠프에서	-12.0013
▁금액이	-12.0013
▁엄	-12.0014
▁가방에	-12.0016
▁도중에	-12.0017
▁동의하지	-12.0019
▁공적	-12.0023
dle	-12.0027
▁대답한	-12.0041
▁석유회사	-12.0042
ns	-12.0044
▁문화부	-12.0047
▁다녀	-12.0049
▁개발도상국들	-12.005
회로	-12.0052
▁연설했다	-12.0055
▁조상	-12.0056
▁슈에	-12.0059
51	-12.0062
▁수행한다	-12.0064
▁경기장에	-12.0064
▁제안했	-12.0065
해준다	-12.0067
▁천만	-12.007
▁라면	-12.0071
▁청중들	-12.0071
었으	-12.0074
com	-12.008
▁생산국	-12.0088
▁기이	-12.009
▁넓이	-12.0092
리프	-12.0095
▁도착한다	-12.0097
▁나지	-12.0097
▁뉴스에	-12.0097
▁피난민들	-12.0097
▁대상에	-12.0098
▁청소년들이	-12.0101
[...]
